<?xml version="1.0"?>
<MethodSetup Method="BDT::BDTG">
  <GeneralInfo>
    <Info name="TMVA Release" value="4.2.1 [262657]"/>
    <Info name="ROOT Release" value="6.20/06 [398342]"/>
    <Info name="Creator" value="hmaguire"/>
    <Info name="Date" value="Mon May 30 13:59:29 2022"/>
    <Info name="Host" value="Linux lcgapp-centos7-x86-64-104.cern.ch-docker 3.10.0-1062.18.1.el7.x86_64 #1 SMP Tue Mar 17 23:49:17 UTC 2020 x86_64 x86_64 x86_64 GNU/Linux"/>
    <Info name="Dir" value="/home/hmaguire/KerasNN/TMVA"/>
    <Info name="Training events" value="320000"/>
    <Info name="TrainingTime" value="2.13492924e+02"/>
    <Info name="AnalysisType" value="Classification"/>
  </GeneralInfo>
  <Options>
    <Option name="V" modified="Yes">False</Option>
    <Option name="VerbosityLevel" modified="No">Default</Option>
    <Option name="VarTransform" modified="No">None</Option>
    <Option name="H" modified="Yes">False</Option>
    <Option name="CreateMVAPdfs" modified="No">False</Option>
    <Option name="IgnoreNegWeightsInTraining" modified="No">False</Option>
    <Option name="NTrees" modified="Yes">1000</Option>
    <Option name="MaxDepth" modified="Yes">2</Option>
    <Option name="MinNodeSize" modified="Yes">3.5%</Option>
    <Option name="nCuts" modified="Yes">20</Option>
    <Option name="BoostType" modified="Yes">Grad</Option>
    <Option name="AdaBoostR2Loss" modified="No">quadratic</Option>
    <Option name="UseBaggedBoost" modified="Yes">True</Option>
    <Option name="Shrinkage" modified="Yes">1.000000e-01</Option>
    <Option name="AdaBoostBeta" modified="No">5.000000e-01</Option>
    <Option name="UseRandomisedTrees" modified="No">False</Option>
    <Option name="UseNvars" modified="No">3</Option>
    <Option name="UsePoissonNvars" modified="No">True</Option>
    <Option name="BaggedSampleFraction" modified="Yes">5.000000e-01</Option>
    <Option name="UseYesNoLeaf" modified="No">True</Option>
    <Option name="NegWeightTreatment" modified="No">pray</Option>
    <Option name="Css" modified="No">1.000000e+00</Option>
    <Option name="Cts_sb" modified="No">1.000000e+00</Option>
    <Option name="Ctb_ss" modified="No">1.000000e+00</Option>
    <Option name="Cbb" modified="No">1.000000e+00</Option>
    <Option name="NodePurityLimit" modified="No">5.000000e-01</Option>
    <Option name="SeparationType" modified="No">giniindex</Option>
    <Option name="RegressionLossFunctionBDTG" modified="No">huber</Option>
    <Option name="HuberQuantile" modified="No">7.000000e-01</Option>
    <Option name="DoBoostMonitor" modified="No">False</Option>
    <Option name="UseFisherCuts" modified="No">False</Option>
    <Option name="MinLinCorrForFisher" modified="No">8.000000e-01</Option>
    <Option name="UseExclusiveVars" modified="No">False</Option>
    <Option name="DoPreselection" modified="No">False</Option>
    <Option name="SigToBkgFraction" modified="No">1.000000e+00</Option>
    <Option name="PruneMethod" modified="No">nopruning</Option>
    <Option name="PruneStrength" modified="No">0.000000e+00</Option>
    <Option name="PruningValFraction" modified="No">5.000000e-01</Option>
    <Option name="SkipNormalization" modified="No">False</Option>
    <Option name="nEventsMin" modified="No">0</Option>
    <Option name="UseBaggedGrad" modified="No">False</Option>
    <Option name="GradBaggingFraction" modified="No">5.000000e-01</Option>
    <Option name="UseNTrainEvents" modified="No">0</Option>
    <Option name="NNodesMax" modified="No">0</Option>
  </Options>
  <Variables NVar="11">
    <Variable VarIndex="0" Expression="vertex_chi2Over" Label="vertex_chi2Over" Title="vertex_chi2Over" Unit="F" Internal="vertex_chi2Over" Type="F" Min="1.15131708e-02" Max="1.32520924e+01"/>
    <Variable VarIndex="1" Expression="vertex_d0_kurt" Label="vertex_d0_kurt" Title="vertex_d0_kurt" Unit="F" Internal="vertex_d0_kurt" Type="F" Min="4.99999940e-01" Max="9.27041931e+01"/>
    <Variable VarIndex="2" Expression="vertex_d0_skew" Label="vertex_d0_skew" Title="vertex_d0_skew" Unit="F" Internal="vertex_d0_skew" Type="F" Min="-7.74477243e+00" Max="8.97208881e+00"/>
    <Variable VarIndex="3" Expression="vertex_d_asym" Label="vertex_d_asym" Title="vertex_d_asym" Unit="F" Internal="vertex_d_asym" Type="F" Min="-1.00000000e+00" Max="1.00000000e+00"/>
    <Variable VarIndex="4" Expression="vertex_mean_trkWeight" Label="vertex_mean_trkWeight" Title="vertex_mean_trkWeight" Unit="F" Internal="vertex_mean_trkWeight" Type="F" Min="9.17912200e-02" Max="9.88999724e-01"/>
    <Variable VarIndex="5" Expression="vertex_pt_skew" Label="vertex_pt_skew" Title="vertex_pt_skew" Unit="F" Internal="vertex_pt_skew" Type="F" Min="-1.67865312e+00" Max="1.13953466e+01"/>
    <Variable VarIndex="6" Expression="vertex_sumCharge" Label="vertex_sumCharge" Title="vertex_sumCharge" Unit="F" Internal="vertex_sumCharge" Type="F" Min="-3.20000000e+01" Max="2.70000000e+01"/>
    <Variable VarIndex="7" Expression="vertex_z0_kurt" Label="vertex_z0_kurt" Title="vertex_z0_kurt" Unit="F" Internal="vertex_z0_kurt" Type="F" Min="5.00000000e-01" Max="4.93843193e+01"/>
    <Variable VarIndex="8" Expression="vertex_z0_skew" Label="vertex_z0_skew" Title="vertex_z0_skew" Unit="F" Internal="vertex_z0_skew" Type="F" Min="-6.32674599e+00" Max="5.62559795e+00"/>
    <Variable VarIndex="9" Expression="vertex_z_asym_weighted" Label="vertex_z_asym_weighted" Title="vertex_z_asym_weighted" Unit="F" Internal="vertex_z_asym_weighted" Type="F" Min="-1.00000000e+00" Max="1.00000000e+00"/>
    <Variable VarIndex="10" Expression="vertex_numberOfTracks" Label="vertex_numberOfTracks" Title="vertex_numberOfTracks" Unit="F" Internal="vertex_numberOfTracks" Type="F" Min="2.00000000e+00" Max="1.78000000e+02"/>
  </Variables>
  <Spectators NSpec="5">
    <Spectator SpecIndex="0" Expression="vertex_pt_kurt" Label="vertex_pt_kurt" Title="vertex_pt_kurt" Unit="F" Internal="vertex_pt_kurt" Type="F" Min="5.00000000e-01" Max="1.32180801e+02"/>
    <Spectator SpecIndex="1" Expression="vertex_z_asym" Label="vertex_z_asym" Title="vertex_z_asym" Unit="F" Internal="vertex_z_asym" Type="F" Min="-1.00000000e+00" Max="1.00000000e+00"/>
    <Spectator SpecIndex="2" Expression="vertex_sumPt" Label="vertex_sumPt" Title="vertex_sumPt" Unit="F" Internal="vertex_sumPt" Type="F" Min="1.00168774e+03" Max="2.03700120e+07"/>
    <Spectator SpecIndex="3" Expression="vertex_lead_trackPt" Label="vertex_lead_trackPt" Title="vertex_lead_trackPt" Unit="F" Internal="vertex_lead_trackPt" Type="F" Min="5.00895782e+02" Max="2.02579160e+07"/>
    <Spectator SpecIndex="4" Expression="vertex_lead_trackWeight" Label="vertex_lead_trackWeight" Title="vertex_lead_trackWeight" Unit="F" Internal="vertex_lead_trackWeight" Type="F" Min="5.94372796e-05" Max="9.89013076e-01"/>
  </Spectators>
  <Classes NClass="2">
    <Class Name="Signal" Index="0"/>
    <Class Name="Background" Index="1"/>
  </Classes>
  <Transformations NTransformations="0"/>
  <MVAPdfs/>
  <Weights NTrees="1000" AnalysisType="1">
    <BinaryTree type="DecisionTree" boostWeight="1.0000000000000000e+00" itree="0">
      <Node pos="s" depth="0" NCoef="0" IVar="4" Cut="6.1062347888946533e-01" cType="1" res="-1.6306762117892504e-03" rms="4.9999734759330750e-01" purity="4.9836933612823486e-01" nType="0">
        <Node pos="l" depth="1" NCoef="0" IVar="4" Cut="4.9051183462142944e-01" cType="1" res="-2.6912295818328857e-01" rms="4.2139393091201782e-01" purity="2.3087704181671143e-01" nType="0">
          <Node pos="l" depth="2" NCoef="0" IVar="-1" Cut="0.0000000000000000e+00" cType="1" res="-6.9632820785045624e-02" rms="3.5886174440383911e-01" purity="1.5183588862419128e-01" nType="-99"/>
          <Node pos="r" depth="2" NCoef="0" IVar="-1" Cut="0.0000000000000000e+00" cType="1" res="-2.9061993584036827e-02" rms="4.7841927409172058e-01" purity="3.5469004511833191e-01" nType="-99"/>
        </Node>
        <Node pos="r" depth="1" NCoef="0" IVar="0" Cut="9.0989774465560913e-01" cType="1" res="1.0870754718780518e-01" rms="4.8803961277008057e-01" purity="6.0870754718780518e-01" nType="0">
          <Node pos="l" depth="2" NCoef="0" IVar="-1" Cut="0.0000000000000000e+00" cType="1" res="4.6250261366367340e-02" rms="4.4330894947052002e-01" purity="7.3125129938125610e-01" nType="-99"/>
          <Node pos="r" depth="2" NCoef="0" IVar="-1" Cut="0.0000000000000000e+00" cType="1" res="4.6910055971238762e-05" rms="4.9999994039535522e-01" purity="5.0023454427719116e-01" nType="-99"/>
        </Node>
      </Node>
    </BinaryTree>
    <BinaryTree type="DecisionTree" boostWeight="1.0000000000000000e+00" itree="1">
      <Node pos="s" depth="0" NCoef="0" IVar="4" Cut="5.6860262155532837e-01" cType="1" res="1.1760710040107369e-03" rms="4.9200740456581116e-01" purity="5.0100523233413696e-01" nType="0">
        <Node pos="l" depth="1" NCoef="0" IVar="4" Cut="4.3647220730781555e-01" cType="1" res="-2.6632276177406311e-01" rms="4.0193074941635132e-01" purity="2.0498357713222504e-01" nType="0">
          <Node pos="l" depth="2" NCoef="0" IVar="-1" Cut="0.0000000000000000e+00" cType="1" res="-6.9035813212394714e-02" rms="3.2697251439094543e-01" purity="1.2172897160053253e-01" nType="-99"/>
          <Node pos="r" depth="2" NCoef="0" IVar="-1" Cut="0.0000000000000000e+00" cType="1" res="-3.7871196866035461e-02" rms="4.5208847522735596e-01" purity="2.8849732875823975e-01" nType="-99"/>
        </Node>
        <Node pos="r" depth="1" NCoef="0" IVar="0" Cut="9.0481936931610107e-01" cType="1" res="9.1989248991012573e-02" rms="4.8669147491455078e-01" purity="6.0150158405303955e-01" nType="0">
          <Node pos="l" depth="2" NCoef="0" IVar="-1" Cut="0.0000000000000000e+00" cType="1" res="4.1027121245861053e-02" rms="4.4533133506774902e-01" purity="7.2616410255432129e-01" nType="-99"/>
          <Node pos="r" depth="2" NCoef="0" IVar="-1" Cut="0.0000000000000000e+00" cType="1" res="-5.6625099387019873e-04" rms="4.9961662292480469e-01" purity="4.9663516879081726e-01" nType="-99"/>
        </Node>
      </Node>
    </BinaryTree>
    <BinaryTree type="DecisionTree" boostWeight="1.0000000000000000e+00" itree="2">
      <Node pos="s" depth="0" NCoef="0" IVar="4" Cut="6.4720600843429565e-01" cType="1" res="4.0188964339904487e-04" rms="4.8560291528701782e-01" purity="5.0027221441268921e-01" nType="0">
        <Node pos="l" depth="1" NCoef="0" IVar="4" Cut="4.8851552605628967e-01" cType="1" res="-1.9893486797809601e-01" rms="4.3055865168571472e-01" purity="2.5943920016288757e-01" nType="0">
          <Node pos="l" depth="2" NCoef="0" IVar="-1" Cut="0.0000000000000000e+00" cType="1" res="-5.7276330888271332e-02" rms="3.5988456010818481e-01" purity="1.5380224585533142e-01" nType="-99"/>
          <Node pos="r" depth="2" NCoef="0" IVar="-1" Cut="0.0000000000000000e+00" cType="1" res="-2.0842896774411201e-02" rms="4.8246699571609497e-01" purity="3.8098815083503723e-01" nType="-99"/>
        </Node>
        <Node pos="r" depth="1" NCoef="0" IVar="0" Cut="1.1462211608886719e+00" cType="1" res="9.8360881209373474e-02" rms="4.8111295700073242e-01" purity="6.1862355470657349e-01" nType="0">
          <Node pos="l" depth="2" NCoef="0" IVar="-1" Cut="0.0000000000000000e+00" cType="1" res="3.1726453453302383e-02" rms="4.6192985773086548e-01" purity="6.8475896120071411e-01" nType="-99"/>
          <Node pos="r" depth="2" NCoef="0" IVar="-1" Cut="0.0000000000000000e+00" cType="1" res="-1.7316566780209541e-02" rms="4.9240064620971680e-01" purity="4.1315752267837524e-01" nType="-99"/>
        </Node>
      </Node>
    </BinaryTree>
    <BinaryTree type="DecisionTree" boostWeight="1.0000000000000000e+00" itree="3">
      <Node pos="s" depth="0" NCoef="0" IVar="4" Cut="7.3265445232391357e-01" cType="1" res="1.4705029316246510e-03" rms="4.7958302497863770e-01" purity="5.0142931938171387e-01" nType="0">
        <Node pos="l" depth="1" NCoef="0" IVar="4" Cut="4.8851153254508972e-01" cType="1" res="-1.4868004620075226e-01" rms="4.4681772589683533e-01" purity="3.0907779932022095e-01" nType="0">
          <Node pos="l" depth="2" NCoef="0" IVar="-1" Cut="0.0000000000000000e+00" cType="1" res="-5.2841313183307648e-02" rms="3.5847654938697815e-01" purity="1.5233187377452850e-01" nType="-99"/>
          <Node pos="r" depth="2" NCoef="0" IVar="-1" Cut="0.0000000000000000e+00" cType="1" res="-1.4426103793084621e-02" rms="4.8679178953170776e-01" purity="4.2238518595695496e-01" nType="-99"/>
        </Node>
        <Node pos="r" depth="1" NCoef="0" IVar="0" Cut="1.1206982135772705e+00" cType="1" res="1.1118613928556442e-01" rms="4.7293564677238464e-01" purity="6.4198142290115356e-01" nType="0">
          <Node pos="l" depth="2" NCoef="0" IVar="-1" Cut="0.0000000000000000e+00" cType="1" res="3.3315047621726990e-02" rms="4.5209118723869324e-01" purity="7.0861834287643433e-01" nType="-99"/>
          <Node pos="r" depth="2" NCoef="0" IVar="-1" Cut="0.0000000000000000e+00" cType="1" res="-9.4353146851062775e-03" rms="4.9677389860153198e-01" purity="4.4598039984703064e-01" nType="-99"/>
        </Node>
      </Node>
    </BinaryTree>
    <BinaryTree type="DecisionTree" boostWeight="1.0000000000000000e+00" itree="4">
      <Node pos="s" depth="0" NCoef="0" IVar="4" Cut="6.5341365337371826e-01" cType="1" res="-2.8736498206853867e-03" rms="4.7488403320312500e-01" purity="4.9743410944938660e-01" nType="0">
        <Node pos="l" depth="1" NCoef="0" IVar="4" Cut="4.7163322567939758e-01" cType="1" res="-1.6537344455718994e-01" rms="4.2607703804969788e-01" purity="2.5804889202117920e-01" nType="0">
          <Node pos="l" depth="2" NCoef="0" IVar="-1" Cut="0.0000000000000000e+00" cType="1" res="-5.0990018993616104e-02" rms="3.4702110290527344e-01" purity="1.4058248698711395e-01" nType="-99"/>
          <Node pos="r" depth="2" NCoef="0" IVar="-1" Cut="0.0000000000000000e+00" cType="1" res="-1.9427539780735970e-02" rms="4.7735011577606201e-01" purity="3.6627444624900818e-01" nType="-99"/>
        </Node>
        <Node pos="r" depth="1" NCoef="0" IVar="0" Cut="1.1322824954986572e+00" cType="1" res="7.8914009034633636e-02" rms="4.7714489698410034e-01" purity="6.1791896820068359e-01" nType="0">
          <Node pos="l" depth="2" NCoef="0" IVar="-1" Cut="0.0000000000000000e+00" cType="1" res="2.6425924152135849e-02" rms="4.6074309945106506e-01" purity="6.8671059608459473e-01" nType="-99"/>
          <Node pos="r" depth="2" NCoef="0" IVar="-1" Cut="0.0000000000000000e+00" cType="1" res="-1.4534997753798962e-02" rms="4.9236270785331726e-01" purity="4.1452661156654358e-01" nType="-99"/>
        </Node>
      </Node>
    </BinaryTree>
    <BinaryTree type="DecisionTree" boostWeight="1.0000000000000000e+00" itree="5">
      <Node pos="s" depth="0" NCoef="0" IVar="4" Cut="7.7880120277404785e-01" cType="1" res="4.4273631647229195e-04" rms="4.7089025378227234e-01" purity="5.0023072957992554e-01" nType="0">
        <Node pos="l" depth="1" NCoef="0" IVar="0" Cut="1.1353912353515625e+00" cType="1" res="-1.0879504680633545e-01" rms="4.4991189241409302e-01" purity="3.3555102348327637e-01" nType="0">
          <Node pos="l" depth="2" NCoef="0" IVar="-1" Cut="0.0000000000000000e+00" cType="1" res="-9.9399648606777191e-03" rms="4.6832185983657837e-01" purity="4.1097146272659302e-01" nType="-99"/>
          <Node pos="r" depth="2" NCoef="0" IVar="-1" Cut="0.0000000000000000e+00" cType="1" res="-4.5089397579431534e-02" rms="3.9262726902961731e-01" purity="2.0156888663768768e-01" nType="-99"/>
        </Node>
        <Node pos="r" depth="1" NCoef="0" IVar="0" Cut="1.1226711273193359e+00" cType="1" res="1.0049483925104141e-01" rms="4.6742948889732361e-01" purity="6.5106272697448730e-01" nType="0">
          <Node pos="l" depth="2" NCoef="0" IVar="-1" Cut="0.0000000000000000e+00" cType="1" res="2.8651237487792969e-02" rms="4.4989335536956787e-01" purity="7.1313947439193726e-01" nType="-99"/>
          <Node pos="r" depth="2" NCoef="0" IVar="-1" Cut="0.0000000000000000e+00" cType="1" res="-3.9068083278834820e-03" rms="4.9828577041625977e-01" purity="4.6223810315132141e-01" nType="-99"/>
        </Node>
      </Node>
    </BinaryTree>
    <BinaryTree type="DecisionTree" boostWeight="1.0000000000000000e+00" itree="6">
      <Node pos="s" depth="0" NCoef="0" IVar="4" Cut="5.6961232423782349e-01" cType="1" res="-1.2647218536585569e-03" rms="4.6717321872711182e-01" purity="4.9846297502517700e-01" nType="0">
        <Node pos="l" depth="1" NCoef="0" IVar="4" Cut="4.1583830118179321e-01" cType="1" res="-1.6896989941596985e-01" rms="3.9531815052032471e-01" purity="2.0393209159374237e-01" nType="0">
          <Node pos="l" depth="2" NCoef="0" IVar="-1" Cut="0.0000000000000000e+00" cType="1" res="-5.2081182599067688e-02" rms="3.1009587645530701e-01" purity="1.0811671614646912e-01" nType="-99"/>
          <Node pos="r" depth="2" NCoef="0" IVar="-1" Cut="0.0000000000000000e+00" cType="1" res="-2.5292932987213135e-02" rms="4.4201311469078064e-01" purity="2.7513006329536438e-01" nType="-99"/>
        </Node>
        <Node pos="r" depth="1" NCoef="0" IVar="0" Cut="9.0358000993728638e-01" cType="1" res="5.5941082537174225e-02" rms="4.7594603896141052e-01" purity="5.9893023967742920e-01" nType="0">
          <Node pos="l" depth="2" NCoef="0" IVar="-1" Cut="0.0000000000000000e+00" cType="1" res="2.8702395036816597e-02" rms="4.4332981109619141e-01" purity="7.2515457868576050e-01" nType="-99"/>
          <Node pos="r" depth="2" NCoef="0" IVar="-1" Cut="0.0000000000000000e+00" cType="1" res="-2.5483109056949615e-03" rms="4.9095097184181213e-01" purity="4.9419394135475159e-01" nType="-99"/>
        </Node>
      </Node>
    </BinaryTree>
    <BinaryTree type="DecisionTree" boostWeight="1.0000000000000000e+00" itree="7">
      <Node pos="s" depth="0" NCoef="0" IVar="4" Cut="8.6284524202346802e-01" cType="1" res="-2.0861306693404913e-03" rms="4.6382439136505127e-01" purity="4.9755892157554626e-01" nType="0">
        <Node pos="l" depth="1" NCoef="0" IVar="4" Cut="5.0252026319503784e-01" cType="1" res="-7.5605079531669617e-02" rms="4.5427620410919189e-01" purity="3.7955713272094727e-01" nType="0">
          <Node pos="l" depth="2" NCoef="0" IVar="-1" Cut="0.0000000000000000e+00" cType="1" res="-4.0251512080430984e-02" rms="3.5997423529624939e-01" purity="1.5688022971153259e-01" nType="-99"/>
          <Node pos="r" depth="2" NCoef="0" IVar="-1" Cut="0.0000000000000000e+00" cType="1" res="-5.8803623542189598e-03" rms="4.8381501436233521e-01" purity="4.8027363419532776e-01" nType="-99"/>
        </Node>
        <Node pos="r" depth="1" NCoef="0" IVar="0" Cut="1.0588923692703247e+00" cType="1" res="1.1519483476877213e-01" rms="4.5468682050704956e-01" purity="6.8580096960067749e-01" nType="0">
          <Node pos="l" depth="2" NCoef="0" IVar="-1" Cut="0.0000000000000000e+00" cType="1" res="3.0936820432543755e-02" rms="4.3239220976829529e-01" purity="7.4792897701263428e-01" nType="-99"/>
          <Node pos="r" depth="2" NCoef="0" IVar="-1" Cut="0.0000000000000000e+00" cType="1" res="6.1601912602782249e-03" rms="4.9759435653686523e-01" purity="5.2625256776809692e-01" nType="-99"/>
        </Node>
      </Node>
    </BinaryTree>
    <BinaryTree type="DecisionTree" boostWeight="1.0000000000000000e+00" itree="8">
      <Node pos="s" depth="0" NCoef="0" IVar="4" Cut="6.5267390012741089e-01" cType="1" res="1.0738462442532182e-03" rms="4.6156144142150879e-01" purity="5.0072938203811646e-01" nType="0">
        <Node pos="l" depth="1" NCoef="0" IVar="4" Cut="4.1845494508743286e-01" cType="1" res="-1.1261557787656784e-01" rms="4.2201140522956848e-01" purity="2.6024165749549866e-01" nType="0">
          <Node pos="l" depth="2" NCoef="0" IVar="-1" Cut="0.0000000000000000e+00" cType="1" res="-4.5793015509843826e-02" rms="3.1177109479904175e-01" purity="1.0945761203765869e-01" nType="-99"/>
          <Node pos="r" depth="2" NCoef="0" IVar="-1" Cut="0.0000000000000000e+00" cType="1" res="-1.5392517670989037e-02" rms="4.6143943071365356e-01" purity="3.3400392532348633e-01" nType="-99"/>
        </Node>
        <Node pos="r" depth="1" NCoef="0" IVar="0" Cut="9.0989774465560913e-01" cType="1" res="5.8449029922485352e-02" rms="4.6995726227760315e-01" purity="6.2209534645080566e-01" nType="0">
          <Node pos="l" depth="2" NCoef="0" IVar="-1" Cut="0.0000000000000000e+00" cType="1" res="2.6751862838864326e-02" rms="4.3515872955322266e-01" purity="7.4348944425582886e-01" nType="-99"/>
          <Node pos="r" depth="2" NCoef="0" IVar="-1" Cut="0.0000000000000000e+00" cType="1" res="-6.4428261248394847e-04" rms="4.9148124456405640e-01" purity="5.1160347461700439e-01" nType="-99"/>
        </Node>
      </Node>
    </BinaryTree>
    <BinaryTree type="DecisionTree" boostWeight="1.0000000000000000e+00" itree="9">
      <Node pos="s" depth="0" NCoef="0" IVar="4" Cut="8.6082708835601807e-01" cType="1" res="1.8009596969932318e-03" rms="4.6003913879394531e-01" purity="5.0174820423126221e-01" nType="0">
        <Node pos="l" depth="1" NCoef="0" IVar="0" Cut="1.3069760799407959e+00" cType="1" res="-5.9979613870382309e-02" rms="4.5305171608924866e-01" purity="3.8353973627090454e-01" nType="0">
          <Node pos="l" depth="2" NCoef="0" IVar="-1" Cut="0.0000000000000000e+00" cType="1" res="-5.8759292587637901e-03" rms="4.6178013086318970e-01" purity="4.3053114414215088e-01" nType="-99"/>
          <Node pos="r" depth="2" NCoef="0" IVar="-1" Cut="0.0000000000000000e+00" cType="1" res="-3.9911180734634399e-02" rms="3.9365938305854797e-01" purity="2.0280468463897705e-01" nType="-99"/>
        </Node>
        <Node pos="r" depth="1" NCoef="0" IVar="10" Cut="4.0333332061767578e+01" cType="1" res="9.7946360707283020e-02" rms="4.5429202914237976e-01" purity="6.8570876121520996e-01" nType="0">
          <Node pos="l" depth="2" NCoef="0" IVar="-1" Cut="0.0000000000000000e+00" cType="1" res="2.3506537079811096e-02" rms="4.4953694939613342e-01" purity="6.9802200794219971e-01" nType="-99"/>
          <Node pos="r" depth="2" NCoef="0" IVar="-1" Cut="0.0000000000000000e+00" cType="1" res="-3.4547762479633093e-03" rms="4.7607997059822083e-01" purity="5.8557707071304321e-01" nType="-99"/>
        </Node>
      </Node>
    </BinaryTree>
    <BinaryTree type="DecisionTree" boostWeight="1.0000000000000000e+00" itree="10">
      <Node pos="s" depth="0" NCoef="0" IVar="4" Cut="6.0445821285247803e-01" cType="1" res="2.0273709669709206e-03" rms="4.5803138613700867e-01" purity="5.0207531452178955e-01" nType="0">
        <Node pos="l" depth="1" NCoef="0" IVar="4" Cut="4.0915179252624512e-01" cType="1" res="-1.0980435460805893e-01" rms="4.0651980042457581e-01" purity="2.2834010422229767e-01" nType="0">
          <Node pos="l" depth="2" NCoef="0" IVar="-1" Cut="0.0000000000000000e+00" cType="1" res="-4.1797753423452377e-02" rms="3.1245014071464539e-01" purity="1.0990112274885178e-01" nType="-99"/>
          <Node pos="r" depth="2" NCoef="0" IVar="-1" Cut="0.0000000000000000e+00" cType="1" res="-1.7004910856485367e-02" rms="4.4647365808486938e-01" purity="2.9291909933090210e-01" nType="-99"/>
        </Node>
        <Node pos="r" depth="1" NCoef="0" IVar="0" Cut="9.0989774465560913e-01" cType="1" res="4.7030366957187653e-02" rms="4.6974048018455505e-01" purity="6.1223101615905762e-01" nType="0">
          <Node pos="l" depth="2" NCoef="0" IVar="-1" Cut="0.0000000000000000e+00" cType="1" res="2.2747145965695381e-02" rms="4.3930116295814514e-01" purity="7.3354476690292358e-01" nType="-99"/>
          <Node pos="r" depth="2" NCoef="0" IVar="-1" Cut="0.0000000000000000e+00" cType="1" res="-8.6304266005754471e-04" rms="4.8911255598068237e-01" purity="5.0607675313949585e-01" nType="-99"/>
        </Node>
      </Node>
    </BinaryTree>
    <BinaryTree type="DecisionTree" boostWeight="1.0000000000000000e+00" itree="11">
      <Node pos="s" depth="0" NCoef="0" IVar="4" Cut="9.0506869554519653e-01" cType="1" res="-2.9996426310390234e-03" rms="4.5638072490692139e-01" purity="4.9709606170654297e-01" nType="0">
        <Node pos="l" depth="1" NCoef="0" IVar="0" Cut="1.3233486413955688e+00" cType="1" res="-4.5466575771570206e-02" rms="4.5363864302635193e-01" purity="4.0992450714111328e-01" nType="0">
          <Node pos="l" depth="2" NCoef="0" IVar="-1" Cut="0.0000000000000000e+00" cType="1" res="-4.0743267163634300e-03" rms="4.6079626679420471e-01" purity="4.5457589626312256e-01" nType="-99"/>
          <Node pos="r" depth="2" NCoef="0" IVar="-1" Cut="0.0000000000000000e+00" cType="1" res="-3.5784840583801270e-02" rms="4.0012550354003906e-01" purity="2.1284426748752594e-01" nType="-99"/>
        </Node>
        <Node pos="r" depth="1" NCoef="0" IVar="7" Cut="2.3428637981414795e+00" cType="1" res="1.0003546625375748e-01" rms="4.4648164510726929e-01" purity="7.0859545469284058e-01" nType="0">
          <Node pos="l" depth="2" NCoef="0" IVar="-1" Cut="0.0000000000000000e+00" cType="1" res="7.7910968102514744e-03" rms="4.7705718874931335e-01" purity="6.2800198793411255e-01" nType="-99"/>
          <Node pos="r" depth="2" NCoef="0" IVar="-1" Cut="0.0000000000000000e+00" cType="1" res="3.1838361173868179e-02" rms="4.1560617089271545e-01" purity="7.6942288875579834e-01" nType="-99"/>
        </Node>
      </Node>
    </BinaryTree>
    <BinaryTree type="DecisionTree" boostWeight="1.0000000000000000e+00" itree="12">
      <Node pos="s" depth="0" NCoef="0" IVar="4" Cut="8.2083028554916382e-01" cType="1" res="1.8082231981679797e-03" rms="4.5501729846000671e-01" purity="5.0157386064529419e-01" nType="0">
        <Node pos="l" depth="1" NCoef="0" IVar="0" Cut="1.2386283874511719e+00" cType="1" res="-5.4250895977020264e-02" rms="4.4608971476554871e-01" purity="3.6024710536003113e-01" nType="0">
          <Node pos="l" depth="2" NCoef="0" IVar="-1" Cut="0.0000000000000000e+00" cType="1" res="-4.9949320964515209e-03" rms="4.5971187949180603e-01" purity="4.1579306125640869e-01" nType="-99"/>
          <Node pos="r" depth="2" NCoef="0" IVar="-1" Cut="0.0000000000000000e+00" cType="1" res="-3.2981343567371368e-02" rms="3.9019536972045898e-01" purity="1.9925984740257263e-01" nType="-99"/>
        </Node>
        <Node pos="r" depth="1" NCoef="0" IVar="0" Cut="1.0146057605743408e+00" cType="1" res="6.8136326968669891e-02" rms="4.5655378699302673e-01" purity="6.6878902912139893e-01" nType="0">
          <Node pos="l" depth="2" NCoef="0" IVar="-1" Cut="0.0000000000000000e+00" cType="1" res="2.2290380671620369e-02" rms="4.3208667635917664e-01" purity="7.4754887819290161e-01" nType="-99"/>
          <Node pos="r" depth="2" NCoef="0" IVar="-1" Cut="0.0000000000000000e+00" cType="1" res="1.2202847283333540e-03" rms="4.9320098757743835e-01" purity="5.2128332853317261e-01" nType="-99"/>
        </Node>
      </Node>
    </BinaryTree>
    <BinaryTree type="DecisionTree" boostWeight="1.0000000000000000e+00" itree="13">
      <Node pos="s" depth="0" NCoef="0" IVar="4" Cut="5.2656292915344238e-01" cType="1" res="-7.1954919258132577e-04" rms="4.5319509506225586e-01" purity="4.9904838204383850e-01" nType="0">
        <Node pos="l" depth="1" NCoef="0" IVar="7" Cut="2.2317950725555420e+00" cType="1" res="-1.1208810657262802e-01" rms="3.7266701459884644e-01" purity="1.7584773898124695e-01" nType="0">
          <Node pos="l" depth="2" NCoef="0" IVar="-1" Cut="0.0000000000000000e+00" cType="1" res="-1.7391853034496307e-02" rms="4.0580961108207703e-01" purity="2.1769350767135620e-01" nType="-99"/>
          <Node pos="r" depth="2" NCoef="0" IVar="-1" Cut="0.0000000000000000e+00" cType="1" res="-3.5977751016616821e-02" rms="3.3982959389686584e-01" purity="1.4201894402503967e-01" nType="-99"/>
        </Node>
        <Node pos="r" depth="1" NCoef="0" IVar="0" Cut="1.0481870174407959e+00" cType="1" res="2.9849307611584663e-02" rms="4.6829634904861450e-01" purity="5.8776170015335083e-01" nType="0">
          <Node pos="l" depth="2" NCoef="0" IVar="-1" Cut="0.0000000000000000e+00" cType="1" res="1.5831831842660904e-02" rms="4.5546030998229980e-01" purity="6.8069887161254883e-01" nType="-99"/>
          <Node pos="r" depth="2" NCoef="0" IVar="-1" Cut="0.0000000000000000e+00" cType="1" res="-1.0478551499545574e-02" rms="4.8087897896766663e-01" purity="4.1475343704223633e-01" nType="-99"/>
        </Node>
      </Node>
    </BinaryTree>
    <BinaryTree type="DecisionTree" boostWeight="1.0000000000000000e+00" itree="14">
      <Node pos="s" depth="0" NCoef="0" IVar="4" Cut="9.0355128049850464e-01" cType="1" res="-1.4796836767345667e-03" rms="4.5224615931510925e-01" purity="4.9843192100524902e-01" nType="0">
        <Node pos="l" depth="1" NCoef="0" IVar="0" Cut="1.1998529434204102e+00" cType="1" res="-3.6395795643329620e-02" rms="4.5067745447158813e-01" purity="4.0893694758415222e-01" nType="0">
          <Node pos="l" depth="2" NCoef="0" IVar="-1" Cut="0.0000000000000000e+00" cType="1" res="-1.0907617397606373e-03" rms="4.6140694618225098e-01" purity="4.7659638524055481e-01" nType="-99"/>
          <Node pos="r" depth="2" NCoef="0" IVar="-1" Cut="0.0000000000000000e+00" cType="1" res="-2.6817753911018372e-02" rms="4.1050571203231812e-01" purity="2.3329421877861023e-01" nType="-99"/>
        </Node>
        <Node pos="r" depth="1" NCoef="0" IVar="7" Cut="2.8278248310089111e+00" cType="1" res="8.0874688923358917e-02" rms="4.4520750641822815e-01" purity="7.0951777696609497e-01" nType="0">
          <Node pos="l" depth="2" NCoef="0" IVar="-1" Cut="0.0000000000000000e+00" cType="1" res="8.3046872168779373e-03" rms="4.7191971540451050e-01" purity="6.4542156457901001e-01" nType="-99"/>
          <Node pos="r" depth="2" NCoef="0" IVar="-1" Cut="0.0000000000000000e+00" cType="1" res="2.7463579550385475e-02" rms="4.1275027394294739e-01" purity="7.7306097745895386e-01" nType="-99"/>
        </Node>
      </Node>
    </BinaryTree>
    <BinaryTree type="DecisionTree" boostWeight="1.0000000000000000e+00" itree="15">
      <Node pos="s" depth="0" NCoef="0" IVar="4" Cut="5.1900696754455566e-01" cType="1" res="4.8681005137041211e-04" rms="4.5155340433120728e-01" purity="5.0017577409744263e-01" nType="0">
        <Node pos="l" depth="1" NCoef="0" IVar="7" Cut="2.3126368522644043e+00" cType="1" res="-9.2507302761077881e-02" rms="3.7476980686187744e-01" purity="1.7805337905883789e-01" nType="0">
          <Node pos="l" depth="2" NCoef="0" IVar="-1" Cut="0.0000000000000000e+00" cType="1" res="-1.3861238025128841e-02" rms="4.0689289569854736e-01" purity="2.1875341236591339e-01" nType="-99"/>
          <Node pos="r" depth="2" NCoef="0" IVar="-1" Cut="0.0000000000000000e+00" cType="1" res="-3.2857518643140793e-02" rms="3.3889475464820862e-01" purity="1.4070719480514526e-01" nType="-99"/>
        </Node>
        <Node pos="r" depth="1" NCoef="0" IVar="0" Cut="9.7525721788406372e-01" cType="1" res="2.5020433589816093e-02" rms="4.6664321422576904e-01" purity="5.8515787124633789e-01" nType="0">
          <Node pos="l" depth="2" NCoef="0" IVar="-1" Cut="0.0000000000000000e+00" cType="1" res="1.5648143365979195e-02" rms="4.4913437962532043e-01" purity="6.9824463129043579e-01" nType="-99"/>
          <Node pos="r" depth="2" NCoef="0" IVar="-1" Cut="0.0000000000000000e+00" cType="1" res="-6.6240453161299229e-03" rms="4.8144987225532532e-01" purity="4.4449162483215332e-01" nType="-99"/>
        </Node>
      </Node>
    </BinaryTree>
    <BinaryTree type="DecisionTree" boostWeight="1.0000000000000000e+00" itree="16">
      <Node pos="s" depth="0" NCoef="0" IVar="4" Cut="5.6174033880233765e-01" cType="1" res="3.1502079218626022e-04" rms="4.5045819878578186e-01" purity="4.9974548816680908e-01" nType="0">
        <Node pos="l" depth="1" NCoef="0" IVar="4" Cut="3.8271000981330872e-01" cType="1" res="-7.9688593745231628e-02" rms="3.8826903700828552e-01" purity="2.0040585100650787e-01" nType="0">
          <Node pos="l" depth="2" NCoef="0" IVar="-1" Cut="0.0000000000000000e+00" cType="1" res="-3.8065966218709946e-02" rms="2.9063814878463745e-01" purity="9.3780092895030975e-02" nType="-99"/>
          <Node pos="r" depth="2" NCoef="0" IVar="-1" Cut="0.0000000000000000e+00" cType="1" res="-1.3061791658401489e-02" rms="4.2435842752456665e-01" purity="2.5078108906745911e-01" nType="-99"/>
        </Node>
        <Node pos="r" depth="1" NCoef="0" IVar="0" Cut="9.9205589294433594e-01" cType="1" res="2.6766866445541382e-02" rms="4.6619993448257446e-01" purity="5.9871709346771240e-01" nType="0">
          <Node pos="l" depth="2" NCoef="0" IVar="-1" Cut="0.0000000000000000e+00" cType="1" res="1.4255954883992672e-02" rms="4.4872897863388062e-01" purity="7.0504766702651978e-01" nType="-99"/>
          <Node pos="r" depth="2" NCoef="0" IVar="-1" Cut="0.0000000000000000e+00" cType="1" res="-5.1559056155383587e-03" rms="4.8462921380996704e-01" purity="4.5127931237220764e-01" nType="-99"/>
        </Node>
      </Node>
    </BinaryTree>
    <BinaryTree type="DecisionTree" boostWeight="1.0000000000000000e+00" itree="17">
      <Node pos="s" depth="0" NCoef="0" IVar="4" Cut="9.0586876869201660e-01" cType="1" res="1.0094334138557315e-03" rms="4.4948521256446838e-01" purity="5.0068384408950806e-01" nType="0">
        <Node pos="l" depth="1" NCoef="0" IVar="0" Cut="1.3069760799407959e+00" cType="1" res="-2.7097063139081001e-02" rms="4.4895181059837341e-01" purity="4.1368520259857178e-01" nType="0">
          <Node pos="l" depth="2" NCoef="0" IVar="-1" Cut="0.0000000000000000e+00" cType="1" res="-2.0625977776944637e-03" rms="4.5733001828193665e-01" purity="4.6038445830345154e-01" nType="-99"/>
          <Node pos="r" depth="2" NCoef="0" IVar="-1" Cut="0.0000000000000000e+00" cType="1" res="-2.3977294564247131e-02" rms="4.0430495142936707e-01" purity="2.2065262496471405e-01" nType="-99"/>
        </Node>
        <Node pos="r" depth="1" NCoef="0" IVar="5" Cut="1.3508613407611847e-01" cType="1" res="6.9709569215774536e-02" rms="4.4334825873374939e-01" purity="7.1333301067352295e-01" nType="0">
          <Node pos="l" depth="2" NCoef="0" IVar="-1" Cut="0.0000000000000000e+00" cType="1" res="-1.8573891429696232e-04" rms="4.8099735379219055e-01" purity="6.0527133941650391e-01" nType="-99"/>
          <Node pos="r" depth="2" NCoef="0" IVar="-1" Cut="0.0000000000000000e+00" cType="1" res="2.0086018368601799e-02" rms="4.3083244562149048e-01" purity="7.4209630489349365e-01" nType="-99"/>
        </Node>
      </Node>
    </BinaryTree>
    <BinaryTree type="DecisionTree" boostWeight="1.0000000000000000e+00" itree="18">
      <Node pos="s" depth="0" NCoef="0" IVar="0" Cut="1.0959808826446533e+00" cType="1" res="2.3101659025996923e-03" rms="4.4907313585281372e-01" purity="5.0299906730651855e-01" nType="0">
        <Node pos="l" depth="1" NCoef="0" IVar="4" Cut="4.2116686701774597e-01" cType="1" res="3.0907180160284042e-02" rms="4.5078560709953308e-01" purity="5.9429347515106201e-01" nType="0">
          <Node pos="l" depth="2" NCoef="0" IVar="-1" Cut="0.0000000000000000e+00" cType="1" res="-2.7562590315937996e-02" rms="3.4248158335685730e-01" purity="1.3727162778377533e-01" nType="-99"/>
          <Node pos="r" depth="2" NCoef="0" IVar="-1" Cut="0.0000000000000000e+00" cType="1" res="9.5389615744352341e-03" rms="4.5764178037643433e-01" purity="6.3657957315444946e-01" nType="-99"/>
        </Node>
        <Node pos="r" depth="1" NCoef="0" IVar="10" Cut="2.4571428298950195e+01" cType="1" res="-5.4851870983839035e-02" rms="4.4009578227996826e-01" purity="3.2051238417625427e-01" nType="0">
          <Node pos="l" depth="2" NCoef="0" IVar="-1" Cut="0.0000000000000000e+00" cType="1" res="-4.6564517542719841e-03" rms="4.5102301239967346e-01" purity="3.5794529318809509e-01" nType="-99"/>
          <Node pos="r" depth="2" NCoef="0" IVar="-1" Cut="0.0000000000000000e+00" cType="1" res="-4.2899124324321747e-02" rms="3.6625850200653076e-01" purity="1.7578984797000885e-01" nType="-99"/>
        </Node>
      </Node>
    </BinaryTree>
    <BinaryTree type="DecisionTree" boostWeight="1.0000000000000000e+00" itree="19">
      <Node pos="s" depth="0" NCoef="0" IVar="4" Cut="7.7537864446640015e-01" cType="1" res="3.4345657331869006e-04" rms="4.4846594333648682e-01" purity="5.0044482946395874e-01" nType="0">
        <Node pos="l" depth="1" NCoef="0" IVar="0" Cut="1.1729257106781006e+00" cType="1" res="-3.9069995284080505e-02" rms="4.3576818704605103e-01" purity="3.3442217111587524e-01" nType="0">
          <Node pos="l" depth="2" NCoef="0" IVar="-1" Cut="0.0000000000000000e+00" cType="1" res="-3.4712117630988359e-03" rms="4.5512491464614868e-01" purity="4.0037834644317627e-01" nType="-99"/>
          <Node pos="r" depth="2" NCoef="0" IVar="-1" Cut="0.0000000000000000e+00" cType="1" res="-2.2356728091835976e-02" rms="3.8783550262451172e-01" purity="1.9710399210453033e-01" nType="-99"/>
        </Node>
        <Node pos="r" depth="1" NCoef="0" IVar="10" Cut="4.7142856597900391e+01" cType="1" res="3.6153696477413177e-02" rms="4.5675951242446899e-01" purity="6.5128952264785767e-01" nType="0">
          <Node pos="l" depth="2" NCoef="0" IVar="-1" Cut="0.0000000000000000e+00" cType="1" res="1.1155223473906517e-02" rms="4.5304080843925476e-01" purity="6.6512024402618408e-01" nType="-99"/>
          <Node pos="r" depth="2" NCoef="0" IVar="-1" Cut="0.0000000000000000e+00" cType="1" res="-2.6842074468731880e-02" rms="4.6812868118286133e-01" purity="4.9714797735214233e-01" nType="-99"/>
        </Node>
      </Node>
    </BinaryTree>
    <BinaryTree type="DecisionTree" boostWeight="1.0000000000000000e+00" itree="20">
      <Node pos="s" depth="0" NCoef="0" IVar="4" Cut="9.0490841865539551e-01" cType="1" res="-9.1442570555955172e-04" rms="4.4771260023117065e-01" purity="4.9947768449783325e-01" nType="0">
        <Node pos="l" depth="1" NCoef="0" IVar="0" Cut="6.9551998376846313e-01" cType="1" res="-2.4768069386482239e-02" rms="4.4723349809646606e-01" purity="4.1072463989257812e-01" nType="0">
          <Node pos="l" depth="2" NCoef="0" IVar="-1" Cut="0.0000000000000000e+00" cType="1" res="1.5586637891829014e-02" rms="4.5780485868453979e-01" purity="6.0577279329299927e-01" nType="-99"/>
          <Node pos="r" depth="2" NCoef="0" IVar="-1" Cut="0.0000000000000000e+00" cType="1" res="-8.4028141573071480e-03" rms="4.4441393017768860e-01" purity="3.8578686118125916e-01" nType="-99"/>
        </Node>
        <Node pos="r" depth="1" NCoef="0" IVar="7" Cut="2.3428637981414795e+00" cType="1" res="5.6334812194108963e-02" rms="4.4365817308425903e-01" purity="7.1248686313629150e-01" nType="0">
          <Node pos="l" depth="2" NCoef="0" IVar="-1" Cut="0.0000000000000000e+00" cType="1" res="3.1985347159206867e-03" rms="4.7508558630943298e-01" purity="6.3720214366912842e-01" nType="-99"/>
          <Node pos="r" depth="2" NCoef="0" IVar="-1" Cut="0.0000000000000000e+00" cType="1" res="2.0787743851542473e-02" rms="4.1534924507141113e-01" purity="7.6975852251052856e-01" nType="-99"/>
        </Node>
      </Node>
    </BinaryTree>
    <BinaryTree type="DecisionTree" boostWeight="1.0000000000000000e+00" itree="21">
      <Node pos="s" depth="0" NCoef="0" IVar="4" Cut="5.6860262155532837e-01" cType="1" res="-1.4489315217360854e-03" rms="4.4617137312889099e-01" purity="4.9949634075164795e-01" nType="0">
        <Node pos="l" depth="1" NCoef="0" IVar="4" Cut="3.9243495464324951e-01" cType="1" res="-6.3289061188697815e-02" rms="3.8615643978118896e-01" purity="2.0021316409111023e-01" nType="0">
          <Node pos="l" depth="2" NCoef="0" IVar="-1" Cut="0.0000000000000000e+00" cType="1" res="-3.4042634069919586e-02" rms="2.8717410564422607e-01" purity="9.1585516929626465e-02" nType="-99"/>
          <Node pos="r" depth="2" NCoef="0" IVar="-1" Cut="0.0000000000000000e+00" cType="1" res="-9.5105869695544243e-03" rms="4.2813888192176819e-01" purity="2.5869828462600708e-01" nType="-99"/>
        </Node>
        <Node pos="r" depth="1" NCoef="0" IVar="10" Cut="5.6666667938232422e+01" cType="1" res="1.9211506471037865e-02" rms="4.6265873312950134e-01" purity="5.9948509931564331e-01" nType="0">
          <Node pos="l" depth="2" NCoef="0" IVar="-1" Cut="0.0000000000000000e+00" cType="1" res="6.1565213836729527e-03" rms="4.6077319979667664e-01" purity="6.0890746116638184e-01" nType="-99"/>
          <Node pos="r" depth="2" NCoef="0" IVar="-1" Cut="0.0000000000000000e+00" cType="1" res="-3.3583361655473709e-02" rms="4.6484819054603577e-01" purity="4.1212517023086548e-01" nType="-99"/>
        </Node>
      </Node>
    </BinaryTree>
    <BinaryTree type="DecisionTree" boostWeight="1.0000000000000000e+00" itree="22">
      <Node pos="s" depth="0" NCoef="0" IVar="0" Cut="1.0932023525238037e+00" cType="1" res="3.0217312087188475e-05" rms="4.4539782404899597e-01" purity="5.0084966421127319e-01" nType="0">
        <Node pos="l" depth="1" NCoef="0" IVar="4" Cut="4.6172636747360229e-01" cType="1" res="2.5750197470188141e-02" rms="4.4870781898498535e-01" purity="5.9576809406280518e-01" nType="0">
          <Node pos="l" depth="2" NCoef="0" IVar="-1" Cut="0.0000000000000000e+00" cType="1" res="-1.8723459914326668e-02" rms="3.6786273121833801e-01" purity="1.6511344909667969e-01" nType="-99"/>
          <Node pos="r" depth="2" NCoef="0" IVar="-1" Cut="0.0000000000000000e+00" cType="1" res="8.4518343210220337e-03" rms="4.5679712295532227e-01" purity="6.5164464712142944e-01" nType="-99"/>
        </Node>
        <Node pos="r" depth="1" NCoef="0" IVar="10" Cut="1.7142856597900391e+01" cType="1" res="-5.0358738750219345e-02" rms="4.3444919586181641e-01" purity="3.1489157676696777e-01" nType="0">
          <Node pos="l" depth="2" NCoef="0" IVar="-1" Cut="0.0000000000000000e+00" cType="1" res="-2.4216917809098959e-03" rms="4.5370995998382568e-01" purity="3.6835613846778870e-01" nType="-99"/>
          <Node pos="r" depth="2" NCoef="0" IVar="-1" Cut="0.0000000000000000e+00" cType="1" res="-3.1408164650201797e-02" rms="3.8011413812637329e-01" purity="2.0665736496448517e-01" nType="-99"/>
        </Node>
      </Node>
    </BinaryTree>
    <BinaryTree type="DecisionTree" boostWeight="1.0000000000000000e+00" itree="23">
      <Node pos="s" depth="0" NCoef="0" IVar="4" Cut="9.0509134531021118e-01" cType="1" res="1.9724166486412287e-04" rms="4.4511148333549500e-01" purity="5.0060284137725830e-01" nType="0">
        <Node pos="l" depth="1" NCoef="0" IVar="0" Cut="1.1988141536712646e+00" cType="1" res="-1.9847614690661430e-02" rms="4.4529867172241211e-01" purity="4.1110873222351074e-01" nType="0">
          <Node pos="l" depth="2" NCoef="0" IVar="-1" Cut="0.0000000000000000e+00" cType="1" res="2.5035438011400402e-04" rms="4.5763984322547913e-01" purity="4.8031318187713623e-01" nType="-99"/>
          <Node pos="r" depth="2" NCoef="0" IVar="-1" Cut="0.0000000000000000e+00" cType="1" res="-1.8499476835131645e-02" rms="4.0609529614448547e-01" purity="2.2971935570240021e-01" nType="-99"/>
        </Node>
        <Node pos="r" depth="1" NCoef="0" IVar="5" Cut="1.9266735017299652e-01" cType="1" res="4.8191975802183151e-02" rms="4.4097572565078735e-01" purity="7.1488469839096069e-01" nType="0">
          <Node pos="l" depth="2" NCoef="0" IVar="-1" Cut="0.0000000000000000e+00" cType="1" res="-3.6700002383440733e-03" rms="4.8399418592453003e-01" purity="6.0249853134155273e-01" nType="-99"/>
          <Node pos="r" depth="2" NCoef="0" IVar="-1" Cut="0.0000000000000000e+00" cType="1" res="1.5713131055235863e-02" rms="4.2642888426780701e-01" purity="7.4629116058349609e-01" nType="-99"/>
        </Node>
      </Node>
    </BinaryTree>
    <BinaryTree type="DecisionTree" boostWeight="1.0000000000000000e+00" itree="24">
      <Node pos="s" depth="0" NCoef="0" IVar="10" Cut="5.2285713195800781e+01" cType="1" res="-2.4710707366466522e-03" rms="4.4467529654502869e-01" purity="4.9769875407218933e-01" nType="0">
        <Node pos="l" depth="1" NCoef="0" IVar="4" Cut="7.3730075359344482e-01" cType="1" res="5.0430903211236000e-03" rms="4.4390463829040527e-01" purity="5.0552630424499512e-01" nType="0">
          <Node pos="l" depth="2" NCoef="0" IVar="-1" Cut="0.0000000000000000e+00" cType="1" res="-7.9851197078824043e-03" rms="4.2753264307975769e-01" purity="3.0920407176017761e-01" nType="-99"/>
          <Node pos="r" depth="2" NCoef="0" IVar="-1" Cut="0.0000000000000000e+00" cType="1" res="7.4743619188666344e-03" rms="4.5368438959121704e-01" purity="6.5183532238006592e-01" nType="-99"/>
        </Node>
        <Node pos="r" depth="1" NCoef="0" IVar="-1" Cut="0.0000000000000000e+00" cType="1" res="-2.7229107916355133e-02" rms="4.3993479013442993e-01" purity="3.7384814023971558e-01" nType="-99"/>
      </Node>
    </BinaryTree>
    <BinaryTree type="DecisionTree" boostWeight="1.0000000000000000e+00" itree="25">
      <Node pos="s" depth="0" NCoef="0" IVar="4" Cut="4.4248348474502563e-01" cType="1" res="-1.9747507758438587e-04" rms="4.4496080279350281e-01" purity="4.9989464879035950e-01" nType="0">
        <Node pos="l" depth="1" NCoef="0" IVar="10" Cut="1.5047618865966797e+01" cType="1" res="-6.8738341331481934e-02" rms="3.2718223333358765e-01" purity="1.2458414584398270e-01" nType="0">
          <Node pos="l" depth="2" NCoef="0" IVar="-1" Cut="0.0000000000000000e+00" cType="1" res="-5.5559086613357067e-03" rms="3.7894922494888306e-01" purity="1.7740361392498016e-01" nType="-99"/>
          <Node pos="r" depth="2" NCoef="0" IVar="-1" Cut="0.0000000000000000e+00" cType="1" res="-3.3061668276786804e-02" rms="2.8385773301124573e-01" purity="9.0409167110919952e-02" nType="-99"/>
        </Node>
        <Node pos="r" depth="1" NCoef="0" IVar="10" Cut="5.5333332061767578e+01" cType="1" res="1.0380459949374199e-02" rms="4.5955225825309753e-01" purity="5.5781644582748413e-01" nType="0">
          <Node pos="l" depth="2" NCoef="0" IVar="-1" Cut="0.0000000000000000e+00" cType="1" res="3.7046056240797043e-03" rms="4.5848503708839417e-01" purity="5.6583619117736816e-01" nType="-99"/>
          <Node pos="r" depth="2" NCoef="0" IVar="-1" Cut="0.0000000000000000e+00" cType="1" res="-2.2365268319845200e-02" rms="4.6445721387863159e-01" purity="4.0902090072631836e-01" nType="-99"/>
        </Node>
      </Node>
    </BinaryTree>
    <BinaryTree type="DecisionTree" boostWeight="1.0000000000000000e+00" itree="26">
      <Node pos="s" depth="0" NCoef="0" IVar="0" Cut="1.1749670505523682e+00" cType="1" res="1.5443097800016403e-03" rms="4.4431480765342712e-01" purity="5.0251191854476929e-01" nType="0">
        <Node pos="l" depth="1" NCoef="0" IVar="4" Cut="4.0976437926292419e-01" cType="1" res="1.6683960333466530e-02" rms="4.4811934232711792e-01" purity="5.7423293590545654e-01" nType="0">
          <Node pos="l" depth="2" NCoef="0" IVar="-1" Cut="0.0000000000000000e+00" cType="1" res="-2.5284837931394577e-02" rms="3.1639000773429871e-01" purity="1.1461470276117325e-01" nType="-99"/>
          <Node pos="r" depth="2" NCoef="0" IVar="-1" Cut="0.0000000000000000e+00" cType="1" res="5.6959930807352066e-03" rms="4.5698180794715881e-01" purity="6.1484342813491821e-01" nType="-99"/>
        </Node>
        <Node pos="r" depth="1" NCoef="0" IVar="10" Cut="1.7047618865966797e+01" cType="1" res="-4.1490081697702408e-02" rms="4.3041965365409851e-01" purity="2.9864522814750671e-01" nType="0">
          <Node pos="l" depth="2" NCoef="0" IVar="-1" Cut="0.0000000000000000e+00" cType="1" res="-2.3926675785332918e-03" rms="4.5159822702407837e-01" purity="3.5083985328674316e-01" nType="-99"/>
          <Node pos="r" depth="2" NCoef="0" IVar="-1" Cut="0.0000000000000000e+00" cType="1" res="-3.2257635146379471e-02" rms="3.5663759708404541e-01" purity="1.6205747425556183e-01" nType="-99"/>
        </Node>
      </Node>
    </BinaryTree>
    <BinaryTree type="DecisionTree" boostWeight="1.0000000000000000e+00" itree="27">
      <Node pos="s" depth="0" NCoef="0" IVar="4" Cut="4.8562058806419373e-01" cType="1" res="1.6185961430892348e-04" rms="4.4412440061569214e-01" purity="4.9985182285308838e-01" nType="0">
        <Node pos="l" depth="1" NCoef="0" IVar="7" Cut="2.3653385639190674e+00" cType="1" res="-5.0308953970670700e-02" rms="3.4906443953514099e-01" purity="1.4897738397121429e-01" nType="0">
          <Node pos="l" depth="2" NCoef="0" IVar="-1" Cut="0.0000000000000000e+00" cType="1" res="-5.1398524083197117e-03" rms="3.8664150238037109e-01" purity="1.9060394167900085e-01" nType="-99"/>
          <Node pos="r" depth="2" NCoef="0" IVar="-1" Cut="0.0000000000000000e+00" cType="1" res="-2.6522317901253700e-02" rms="3.0750638246536255e-01" purity="1.1088178306818008e-01" nType="-99"/>
        </Node>
        <Node pos="r" depth="1" NCoef="0" IVar="0" Cut="1.0481870174407959e+00" cType="1" res="1.0816903784871101e-02" rms="4.6099156141281128e-01" purity="5.7392597198486328e-01" nType="0">
          <Node pos="l" depth="2" NCoef="0" IVar="-1" Cut="0.0000000000000000e+00" cType="1" res="7.4732247740030289e-03" rms="4.5423778891563416e-01" purity="6.7085391283035278e-01" nType="-99"/>
          <Node pos="r" depth="2" NCoef="0" IVar="-1" Cut="0.0000000000000000e+00" cType="1" res="-6.0293250717222691e-03" rms="4.7033131122589111e-01" purity="4.0015447139739990e-01" nType="-99"/>
        </Node>
      </Node>
    </BinaryTree>
    <BinaryTree type="DecisionTree" boostWeight="1.0000000000000000e+00" itree="28">
      <Node pos="s" depth="0" NCoef="0" IVar="10" Cut="6.0666667938232422e+01" cType="1" res="1.4639492146670818e-03" rms="4.4377201795578003e-01" purity="5.0155216455459595e-01" nType="0">
        <Node pos="l" depth="1" NCoef="0" IVar="4" Cut="8.6285233497619629e-01" cType="1" res="5.9167868457734585e-03" rms="4.4316574931144714e-01" purity="5.0710088014602661e-01" nType="0">
          <Node pos="l" depth="2" NCoef="0" IVar="-1" Cut="0.0000000000000000e+00" cType="1" res="-3.0656689777970314e-03" rms="4.4109129905700684e-01" purity="3.8677000999450684e-01" nType="-99"/>
          <Node pos="r" depth="2" NCoef="0" IVar="-1" Cut="0.0000000000000000e+00" cType="1" res="8.2942117005586624e-03" rms="4.4480714201927185e-01" purity="6.9591492414474487e-01" nType="-99"/>
        </Node>
        <Node pos="r" depth="1" NCoef="0" IVar="-1" Cut="0.0000000000000000e+00" cType="1" res="-2.6546336710453033e-02" rms="4.4339057803153992e-01" purity="3.5307607054710388e-01" nType="-99"/>
      </Node>
    </BinaryTree>
    <BinaryTree type="DecisionTree" boostWeight="1.0000000000000000e+00" itree="29">
      <Node pos="s" depth="0" NCoef="0" IVar="4" Cut="9.4621604681015015e-01" cType="1" res="7.0942111779004335e-04" rms="4.4426935911178589e-01" purity="5.0101017951965332e-01" nType="0">
        <Node pos="l" depth="1" NCoef="0" IVar="0" Cut="1.1988141536712646e+00" cType="1" res="-9.0527310967445374e-03" rms="4.4568684697151184e-01" purity="4.4950059056282043e-01" nType="0">
          <Node pos="l" depth="2" NCoef="0" IVar="-1" Cut="0.0000000000000000e+00" cType="1" res="1.2187979882583022e-03" rms="4.5444735884666443e-01" purity="5.1709520816802979e-01" nType="-99"/>
          <Node pos="r" depth="2" NCoef="0" IVar="-1" Cut="0.0000000000000000e+00" cType="1" res="-1.2197515927255154e-02" rms="4.1785499453544617e-01" purity="2.6193442940711975e-01" nType="-99"/>
        </Node>
        <Node pos="r" depth="1" NCoef="0" IVar="7" Cut="2.3253407478332520e+00" cType="1" res="4.5344661921262741e-02" rms="4.3494746088981628e-01" purity="7.3652619123458862e-01" nType="0">
          <Node pos="l" depth="2" NCoef="0" IVar="-1" Cut="0.0000000000000000e+00" cType="1" res="1.4053368940949440e-03" rms="4.7069928050041199e-01" purity="6.6581201553344727e-01" nType="-99"/>
          <Node pos="r" depth="2" NCoef="0" IVar="-1" Cut="0.0000000000000000e+00" cType="1" res="2.4959841743111610e-02" rms="3.7754032015800476e-01" purity="8.2832849025726318e-01" nType="-99"/>
        </Node>
      </Node>
    </BinaryTree>
    <BinaryTree type="DecisionTree" boostWeight="1.0000000000000000e+00" itree="30">
      <Node pos="s" depth="0" NCoef="0" IVar="4" Cut="4.7629502415657043e-01" cType="1" res="2.8087741229683161e-03" rms="4.4397222995758057e-01" purity="5.0377887487411499e-01" nType="0">
        <Node pos="l" depth="1" NCoef="0" IVar="10" Cut="1.4952381134033203e+01" cType="1" res="-4.1437715291976929e-02" rms="3.4761384129524231e-01" purity="1.4711672067642212e-01" nType="0">
          <Node pos="l" depth="2" NCoef="0" IVar="-1" Cut="0.0000000000000000e+00" cType="1" res="-1.0371772805228829e-03" rms="3.8990011811256409e-01" purity="1.9435943663120270e-01" nType="-99"/>
          <Node pos="r" depth="2" NCoef="0" IVar="-1" Cut="0.0000000000000000e+00" cType="1" res="-2.1332375705242157e-02" rms="3.1923633813858032e-01" purity="1.2040632963180542e-01" nType="-99"/>
        </Node>
        <Node pos="r" depth="1" NCoef="0" IVar="7" Cut="2.4836485385894775e+00" cType="1" res="1.1481855064630508e-02" rms="4.6000412106513977e-01" purity="5.7369083166122437e-01" nType="0">
          <Node pos="l" depth="2" NCoef="0" IVar="-1" Cut="0.0000000000000000e+00" cType="1" res="-4.1863233782351017e-03" rms="4.7574654221534729e-01" purity="5.0372761487960815e-01" nType="-99"/>
          <Node pos="r" depth="2" NCoef="0" IVar="-1" Cut="0.0000000000000000e+00" cType="1" res="6.9622779265046120e-03" rms="4.4871079921722412e-01" purity="6.1792236566543579e-01" nType="-99"/>
        </Node>
      </Node>
    </BinaryTree>
    <BinaryTree type="DecisionTree" boostWeight="1.0000000000000000e+00" itree="31">
      <Node pos="s" depth="0" NCoef="0" IVar="10" Cut="6.0666667938232422e+01" cType="1" res="-1.7289406969211996e-04" rms="4.4265854358673096e-01" purity="5.0119757652282715e-01" nType="0">
        <Node pos="l" depth="1" NCoef="0" IVar="4" Cut="7.3728662729263306e-01" cType="1" res="4.1776085272431374e-03" rms="4.4206362962722778e-01" purity="5.0702959299087524e-01" nType="0">
          <Node pos="l" depth="2" NCoef="0" IVar="-1" Cut="0.0000000000000000e+00" cType="1" res="-5.6978790089488029e-03" rms="4.2610594630241394e-01" purity="3.0875644087791443e-01" nType="-99"/>
          <Node pos="r" depth="2" NCoef="0" IVar="-1" Cut="0.0000000000000000e+00" cType="1" res="5.5101378820836544e-03" rms="4.5247304439544678e-01" purity="6.5346485376358032e-01" nType="-99"/>
        </Node>
        <Node pos="r" depth="1" NCoef="0" IVar="-1" Cut="0.0000000000000000e+00" cType="1" res="-2.6588726788759232e-02" rms="4.4258329272270203e-01" purity="3.4408125281333923e-01" nType="-99"/>
      </Node>
    </BinaryTree>
    <BinaryTree type="DecisionTree" boostWeight="1.0000000000000000e+00" itree="32">
      <Node pos="s" depth="0" NCoef="0" IVar="0" Cut="1.1397097110748291e+00" cType="1" res="8.8222743943333626e-04" rms="4.4306775927543640e-01" purity="5.0149333477020264e-01" nType="0">
        <Node pos="l" depth="1" NCoef="0" IVar="0" Cut="8.1774729490280151e-01" cType="1" res="1.3234860263764858e-02" rms="4.4757577776908875e-01" purity="5.8184176683425903e-01" nType="0">
          <Node pos="l" depth="2" NCoef="0" IVar="-1" Cut="0.0000000000000000e+00" cType="1" res="9.5143923535943031e-03" rms="4.3794906139373779e-01" purity="6.6781175136566162e-01" nType="-99"/>
          <Node pos="r" depth="2" NCoef="0" IVar="-1" Cut="0.0000000000000000e+00" cType="1" res="-9.4510440248996019e-04" rms="4.5321023464202881e-01" purity="5.2319937944412231e-01" nType="-99"/>
        </Node>
        <Node pos="r" depth="1" NCoef="0" IVar="10" Cut="2.4714284896850586e+01" cType="1" res="-2.9292149469256401e-02" rms="4.3036970496177673e-01" purity="3.0522227287292480e-01" nType="0">
          <Node pos="l" depth="2" NCoef="0" IVar="-1" Cut="0.0000000000000000e+00" cType="1" res="-1.4751321868970990e-03" rms="4.4462063908576965e-01" purity="3.4086772799491882e-01" nType="-99"/>
          <Node pos="r" depth="2" NCoef="0" IVar="-1" Cut="0.0000000000000000e+00" cType="1" res="-3.5853140056133270e-02" rms="3.3953142166137695e-01" purity="1.4359346032142639e-01" nType="-99"/>
        </Node>
      </Node>
    </BinaryTree>
    <BinaryTree type="DecisionTree" boostWeight="1.0000000000000000e+00" itree="33">
      <Node pos="s" depth="0" NCoef="0" IVar="9" Cut="-7.1428573131561279e-01" cType="1" res="-4.8857060028240085e-04" rms="4.4281706213951111e-01" purity="4.9940156936645508e-01" nType="0">
        <Node pos="l" depth="1" NCoef="0" IVar="-1" Cut="0.0000000000000000e+00" cType="1" res="-2.0620848983526230e-02" rms="4.5593723654747009e-01" purity="3.8785433769226074e-01" nType="-99"/>
        <Node pos="r" depth="1" NCoef="0" IVar="10" Cut="5.2285713195800781e+01" cType="1" res="3.7932575214654207e-03" rms="4.4171607494354248e-01" purity="5.0495976209640503e-01" nType="0">
          <Node pos="l" depth="2" NCoef="0" IVar="-1" Cut="0.0000000000000000e+00" cType="1" res="2.1596006117761135e-03" rms="4.4115075469017029e-01" purity="5.1286190748214722e-01" nType="-99"/>
          <Node pos="r" depth="2" NCoef="0" IVar="-1" Cut="0.0000000000000000e+00" cType="1" res="-1.6949849203228951e-02" rms="4.4291380047798157e-01" purity="3.8704395294189453e-01" nType="-99"/>
        </Node>
      </Node>
    </BinaryTree>
    <BinaryTree type="DecisionTree" boostWeight="1.0000000000000000e+00" itree="34">
      <Node pos="s" depth="0" NCoef="0" IVar="4" Cut="4.0188151597976685e-01" cType="1" res="-1.3540033251047134e-03" rms="4.4204685091972351e-01" purity="4.9873206019401550e-01" nType="0">
        <Node pos="l" depth="1" NCoef="0" IVar="10" Cut="2.1428571701049805e+01" cType="1" res="-5.7914435863494873e-02" rms="2.9439857602119446e-01" purity="9.8084174096584320e-02" nType="0">
          <Node pos="l" depth="2" NCoef="0" IVar="-1" Cut="0.0000000000000000e+00" cType="1" res="-1.3747444376349449e-02" rms="3.2824602723121643e-01" purity="1.2563137710094452e-01" nType="-99"/>
          <Node pos="r" depth="2" NCoef="0" IVar="-1" Cut="0.0000000000000000e+00" cType="1" res="-3.5386111587285995e-02" rms="2.3385196924209595e-01" purity="5.8240521699190140e-02" nType="-99"/>
        </Node>
        <Node pos="r" depth="1" NCoef="0" IVar="10" Cut="5.6333332061767578e+01" cType="1" res="4.7082379460334778e-03" rms="4.5462089776992798e-01" purity="5.4167419672012329e-01" nType="0">
          <Node pos="l" depth="2" NCoef="0" IVar="-1" Cut="0.0000000000000000e+00" cType="1" res="2.0814582239836454e-03" rms="4.5429921150207520e-01" purity="5.4953259229660034e-01" nType="-99"/>
          <Node pos="r" depth="2" NCoef="0" IVar="-1" Cut="0.0000000000000000e+00" cType="1" res="-1.7746927216649055e-02" rms="4.5269411802291870e-01" purity="3.8726407289505005e-01" nType="-99"/>
        </Node>
      </Node>
    </BinaryTree>
    <BinaryTree type="DecisionTree" boostWeight="1.0000000000000000e+00" itree="35">
      <Node pos="s" depth="0" NCoef="0" IVar="0" Cut="9.7525721788406372e-01" cType="1" res="-1.2195430463179946e-03" rms="4.4293546676635742e-01" purity="5.0016224384307861e-01" nType="0">
        <Node pos="l" depth="1" NCoef="0" IVar="7" Cut="2.3253407478332520e+00" cType="1" res="2.2530684247612953e-02" rms="4.4336834549903870e-01" purity="6.3019818067550659e-01" nType="0">
          <Node pos="l" depth="2" NCoef="0" IVar="-1" Cut="0.0000000000000000e+00" cType="1" res="-5.4057454690337181e-03" rms="4.7104543447494507e-01" purity="5.4488915205001831e-01" nType="-99"/>
          <Node pos="r" depth="2" NCoef="0" IVar="-1" Cut="0.0000000000000000e+00" cType="1" res="1.0611042380332947e-02" rms="4.2836979031562805e-01" purity="6.6965705156326294e-01" nType="-99"/>
        </Node>
        <Node pos="r" depth="1" NCoef="0" IVar="10" Cut="3.2476188659667969e+01" cType="1" res="-2.6785708963871002e-02" rms="4.4104191660881042e-01" purity="3.6018374562263489e-01" nType="0">
          <Node pos="l" depth="2" NCoef="0" IVar="-1" Cut="0.0000000000000000e+00" cType="1" res="-2.2010665852576494e-03" rms="4.4630151987075806e-01" purity="3.8087439537048340e-01" nType="-99"/>
          <Node pos="r" depth="2" NCoef="0" IVar="-1" Cut="0.0000000000000000e+00" cType="1" res="-2.7965685352683067e-02" rms="4.0223169326782227e-01" purity="2.5606107711791992e-01" nType="-99"/>
        </Node>
      </Node>
    </BinaryTree>
    <BinaryTree type="DecisionTree" boostWeight="1.0000000000000000e+00" itree="36">
      <Node pos="s" depth="0" NCoef="0" IVar="0" Cut="1.2737600803375244e+00" cType="1" res="-7.5043720426037908e-04" rms="4.4188550114631653e-01" purity="5.0001227855682373e-01" nType="0">
        <Node pos="l" depth="1" NCoef="0" IVar="0" Cut="8.5346621274948120e-01" cType="1" res="7.2588082402944565e-03" rms="4.4610494375228882e-01" purity="5.5105423927307129e-01" nType="0">
          <Node pos="l" depth="2" NCoef="0" IVar="-1" Cut="0.0000000000000000e+00" cType="1" res="7.5635435059666634e-03" rms="4.3745699524879456e-01" purity="6.6302907466888428e-01" nType="-99"/>
          <Node pos="r" depth="2" NCoef="0" IVar="-1" Cut="0.0000000000000000e+00" cType="1" res="-2.2186990827322006e-03" rms="4.5155051350593567e-01" purity="4.6957704424858093e-01" nType="-99"/>
        </Node>
        <Node pos="r" depth="1" NCoef="0" IVar="10" Cut="1.5714285850524902e+01" cType="1" res="-3.5112384706735611e-02" rms="4.2158263921737671e-01" purity="2.8102791309356689e-01" nType="0">
          <Node pos="l" depth="2" NCoef="0" IVar="-1" Cut="0.0000000000000000e+00" cType="1" res="-2.2408063523471355e-03" rms="4.4818973541259766e-01" purity="3.3559700846672058e-01" nType="-99"/>
          <Node pos="r" depth="2" NCoef="0" IVar="-1" Cut="0.0000000000000000e+00" cType="1" res="-3.2243698835372925e-02" rms="3.2455724477767944e-01" purity="1.2708301842212677e-01" nType="-99"/>
        </Node>
      </Node>
    </BinaryTree>
    <BinaryTree type="DecisionTree" boostWeight="1.0000000000000000e+00" itree="37">
      <Node pos="s" depth="0" NCoef="0" IVar="9" Cut="-7.1428573131561279e-01" cType="1" res="-1.0237662354484200e-03" rms="4.4110137224197388e-01" purity="4.9952420592308044e-01" nType="0">
        <Node pos="l" depth="1" NCoef="0" IVar="-1" Cut="0.0000000000000000e+00" cType="1" res="-2.0258670672774315e-02" rms="4.5478338003158569e-01" purity="3.8043525815010071e-01" nType="-99"/>
        <Node pos="r" depth="1" NCoef="0" IVar="4" Cut="9.4740879535675049e-01" cType="1" res="3.0660657212138176e-03" rms="4.4001221656799316e-01" purity="5.0538116693496704e-01" nType="0">
          <Node pos="l" depth="2" NCoef="0" IVar="-1" Cut="0.0000000000000000e+00" cType="1" res="-1.3549964642152190e-03" rms="4.4216209650039673e-01" purity="4.5530980825424194e-01" nType="-99"/>
          <Node pos="r" depth="2" NCoef="0" IVar="-1" Cut="0.0000000000000000e+00" cType="1" res="1.1578171513974667e-02" rms="4.2665606737136841e-01" purity="7.5232589244842529e-01" nType="-99"/>
        </Node>
      </Node>
    </BinaryTree>
    <BinaryTree type="DecisionTree" boostWeight="1.0000000000000000e+00" itree="38">
      <Node pos="s" depth="0" NCoef="0" IVar="10" Cut="6.0666667938232422e+01" cType="1" res="-1.3349198270589113e-03" rms="4.4295653700828552e-01" purity="4.9818617105484009e-01" nType="0">
        <Node pos="l" depth="1" NCoef="0" IVar="10" Cut="4.7619047164916992e+00" cType="1" res="2.1191472187638283e-03" rms="4.4273054599761963e-01" purity="5.0447201728820801e-01" nType="0">
          <Node pos="l" depth="2" NCoef="0" IVar="-1" Cut="0.0000000000000000e+00" cType="1" res="-1.2396786361932755e-02" rms="4.8030242323875427e-01" purity="4.8698005080223083e-01" nType="-99"/>
          <Node pos="r" depth="2" NCoef="0" IVar="-1" Cut="0.0000000000000000e+00" cType="1" res="2.6684470940381289e-03" rms="4.3598395586013794e-01" purity="5.0717240571975708e-01" nType="-99"/>
        </Node>
        <Node pos="r" depth="1" NCoef="0" IVar="-1" Cut="0.0000000000000000e+00" cType="1" res="-2.1567959338426590e-02" rms="4.3908068537712097e-01" purity="3.3120748400688171e-01" nType="-99"/>
      </Node>
    </BinaryTree>
    <BinaryTree type="DecisionTree" boostWeight="1.0000000000000000e+00" itree="39">
      <Node pos="s" depth="0" NCoef="0" IVar="8" Cut="7.6075959205627441e-01" cType="1" res="2.5090933777391911e-03" rms="4.4117280840873718e-01" purity="5.0258553028106689e-01" nType="0">
        <Node pos="l" depth="1" NCoef="0" IVar="8" Cut="-5.3563702106475830e-01" cType="1" res="-6.0268994420766830e-03" rms="4.4357866048812866e-01" purity="4.7779724001884460e-01" nType="0">
          <Node pos="l" depth="2" NCoef="0" IVar="-1" Cut="0.0000000000000000e+00" cType="1" res="5.2502597682178020e-03" rms="4.3730369210243225e-01" purity="5.6233489513397217e-01" nType="-99"/>
          <Node pos="r" depth="2" NCoef="0" IVar="-1" Cut="0.0000000000000000e+00" cType="1" res="-4.9783550202846527e-03" rms="4.4613063335418701e-01" purity="4.3371447920799255e-01" nType="-99"/>
        </Node>
        <Node pos="r" depth="1" NCoef="0" IVar="4" Cut="6.5269529819488525e-01" cType="1" res="3.5564213991165161e-02" rms="4.3013480305671692e-01" purity="5.9857666492462158e-01" nType="0">
          <Node pos="l" depth="2" NCoef="0" IVar="-1" Cut="0.0000000000000000e+00" cType="1" res="-7.8051472082734108e-03" rms="3.8302299380302429e-01" purity="2.3358261585235596e-01" nType="-99"/>
          <Node pos="r" depth="2" NCoef="0" IVar="-1" Cut="0.0000000000000000e+00" cType="1" res="1.1630425229668617e-02" rms="4.3890014290809631e-01" purity="6.8163943290710449e-01" nType="-99"/>
        </Node>
      </Node>
    </BinaryTree>
    <BinaryTree type="DecisionTree" boostWeight="1.0000000000000000e+00" itree="40">
      <Node pos="s" depth="0" NCoef="0" IVar="9" Cut="7.1428573131561279e-01" cType="1" res="7.2686874773353338e-04" rms="4.4121202826499939e-01" purity="5.0088012218475342e-01" nType="0">
        <Node pos="l" depth="1" NCoef="0" IVar="4" Cut="9.0584331750869751e-01" cType="1" res="4.7941864468157291e-03" rms="4.3981844186782837e-01" purity="5.0651913881301880e-01" nType="0">
          <Node pos="l" depth="2" NCoef="0" IVar="-1" Cut="0.0000000000000000e+00" cType="1" res="-1.6626019496470690e-03" rms="4.4177579879760742e-01" purity="4.1770628094673157e-01" nType="-99"/>
          <Node pos="r" depth="2" NCoef="0" IVar="-1" Cut="0.0000000000000000e+00" cType="1" res="8.3853146061301231e-03" rms="4.3355011940002441e-01" purity="7.2721230983734131e-01" nType="-99"/>
        </Node>
        <Node pos="r" depth="1" NCoef="0" IVar="-1" Cut="0.0000000000000000e+00" cType="1" res="-1.9270066171884537e-02" rms="4.6068960428237915e-01" purity="3.8851821422576904e-01" nType="-99"/>
      </Node>
    </BinaryTree>
    <BinaryTree type="DecisionTree" boostWeight="1.0000000000000000e+00" itree="41">
      <Node pos="s" depth="0" NCoef="0" IVar="9" Cut="7.1428573131561279e-01" cType="1" res="-1.0298185516148806e-03" rms="4.4094541668891907e-01" purity="4.9946737289428711e-01" nType="0">
        <Node pos="l" depth="1" NCoef="0" IVar="4" Cut="9.4627553224563599e-01" cType="1" res="2.3452492896467447e-03" rms="4.3975880742073059e-01" purity="5.0497329235076904e-01" nType="0">
          <Node pos="l" depth="2" NCoef="0" IVar="-1" Cut="0.0000000000000000e+00" cType="1" res="-1.3332478702068329e-03" rms="4.4228231906890869e-01" purity="4.5321401953697205e-01" nType="-99"/>
          <Node pos="r" depth="2" NCoef="0" IVar="-1" Cut="0.0000000000000000e+00" cType="1" res="1.0121599771082401e-02" rms="4.2559346556663513e-01" purity="7.5062727928161621e-01" nType="-99"/>
        </Node>
        <Node pos="r" depth="1" NCoef="0" IVar="-1" Cut="0.0000000000000000e+00" cType="1" res="-1.6856469213962555e-02" rms="4.5906025171279907e-01" purity="3.8755854964256287e-01" nType="-99"/>
      </Node>
    </BinaryTree>
    <BinaryTree type="DecisionTree" boostWeight="1.0000000000000000e+00" itree="42">
      <Node pos="s" depth="0" NCoef="0" IVar="0" Cut="1.8005030155181885e+00" cType="1" res="-3.2021405058912933e-04" rms="4.4122782349586487e-01" purity="4.9946522712707520e-01" nType="0">
        <Node pos="l" depth="1" NCoef="0" IVar="4" Cut="4.4248348474502563e-01" cType="1" res="3.2464729156345129e-03" rms="4.4242450594902039e-01" purity="5.1142108440399170e-01" nType="0">
          <Node pos="l" depth="2" NCoef="0" IVar="-1" Cut="0.0000000000000000e+00" cType="1" res="-1.4136620797216892e-02" rms="3.2525286078453064e-01" purity="1.2464178353548050e-01" nType="-99"/>
          <Node pos="r" depth="2" NCoef="0" IVar="-1" Cut="0.0000000000000000e+00" cType="1" res="2.1978428121656179e-03" rms="4.5726615190505981e-01" purity="5.7011878490447998e-01" nType="-99"/>
        </Node>
        <Node pos="r" depth="1" NCoef="0" IVar="-1" Cut="0.0000000000000000e+00" cType="1" res="-1.9493008032441139e-02" rms="4.0638679265975952e-01" purity="2.3767670989036560e-01" nType="-99"/>
      </Node>
    </BinaryTree>
    <BinaryTree type="DecisionTree" boostWeight="1.0000000000000000e+00" itree="43">
      <Node pos="s" depth="0" NCoef="0" IVar="9" Cut="-7.1428573131561279e-01" cType="1" res="-5.0170707982033491e-04" rms="4.4094690680503845e-01" purity="4.9921977519989014e-01" nType="0">
        <Node pos="l" depth="1" NCoef="0" IVar="-1" Cut="0.0000000000000000e+00" cType="1" res="-1.7055919393897057e-02" rms="4.5681762695312500e-01" purity="3.8758221268653870e-01" nType="-99"/>
        <Node pos="r" depth="1" NCoef="0" IVar="4" Cut="9.4627553224563599e-01" cType="1" res="2.9522792901843786e-03" rms="4.3985849618911743e-01" purity="5.0475102663040161e-01" nType="0">
          <Node pos="l" depth="2" NCoef="0" IVar="-1" Cut="0.0000000000000000e+00" cType="1" res="-1.1305118678137660e-03" rms="4.4250714778900146e-01" purity="4.5282810926437378e-01" nType="-99"/>
          <Node pos="r" depth="2" NCoef="0" IVar="-1" Cut="0.0000000000000000e+00" cType="1" res="1.0142181068658829e-02" rms="4.2503792047500610e-01" purity="7.5359606742858887e-01" nType="-99"/>
        </Node>
      </Node>
    </BinaryTree>
    <BinaryTree type="DecisionTree" boostWeight="1.0000000000000000e+00" itree="44">
      <Node pos="s" depth="0" NCoef="0" IVar="9" Cut="-7.1428573131561279e-01" cType="1" res="-2.5101407663896680e-04" rms="4.4124174118041992e-01" purity="4.9960857629776001e-01" nType="0">
        <Node pos="l" depth="1" NCoef="0" IVar="-1" Cut="0.0000000000000000e+00" cType="1" res="-1.5374911949038506e-02" rms="4.5779386162757874e-01" purity="3.8456332683563232e-01" nType="-99"/>
        <Node pos="r" depth="1" NCoef="0" IVar="9" Cut="7.5510770082473755e-01" cType="1" res="2.9350798577070236e-03" rms="4.4014728069305420e-01" purity="5.0543928146362305e-01" nType="0">
          <Node pos="l" depth="2" NCoef="0" IVar="-1" Cut="0.0000000000000000e+00" cType="1" res="1.4411780284717679e-03" rms="4.3896672129631042e-01" purity="5.1006078720092773e-01" nType="-99"/>
          <Node pos="r" depth="2" NCoef="0" IVar="-1" Cut="0.0000000000000000e+00" cType="1" res="-1.6880925744771957e-02" rms="4.6226906776428223e-01" purity="3.9215052127838135e-01" nType="-99"/>
        </Node>
      </Node>
    </BinaryTree>
    <BinaryTree type="DecisionTree" boostWeight="1.0000000000000000e+00" itree="45">
      <Node pos="s" depth="0" NCoef="0" IVar="0" Cut="1.6340469121932983e+00" cType="1" res="-5.5334210628643632e-05" rms="4.4062408804893494e-01" purity="5.0008493661880493e-01" nType="0">
        <Node pos="l" depth="1" NCoef="0" IVar="10" Cut="5.2285713195800781e+01" cType="1" res="3.9977421984076500e-03" rms="4.4264784455299377e-01" purity="5.1767313480377197e-01" nType="0">
          <Node pos="l" depth="2" NCoef="0" IVar="-1" Cut="0.0000000000000000e+00" cType="1" res="2.0320443436503410e-03" rms="4.4248431921005249e-01" purity="5.2687948942184448e-01" nType="-99"/>
          <Node pos="r" depth="2" NCoef="0" IVar="-1" Cut="0.0000000000000000e+00" cType="1" res="-1.3958829455077648e-02" rms="4.4018143415451050e-01" purity="3.8224360346794128e-01" nType="-99"/>
        </Node>
        <Node pos="r" depth="1" NCoef="0" IVar="-1" Cut="0.0000000000000000e+00" cType="1" res="-1.4821029268205166e-02" rms="4.0601035952568054e-01" purity="2.4741858243942261e-01" nType="-99"/>
      </Node>
    </BinaryTree>
    <BinaryTree type="DecisionTree" boostWeight="1.0000000000000000e+00" itree="46">
      <Node pos="s" depth="0" NCoef="0" IVar="8" Cut="-1.7734720706939697e+00" cType="1" res="-1.4994431985542178e-03" rms="4.4080924987792969e-01" purity="4.9962550401687622e-01" nType="0">
        <Node pos="l" depth="1" NCoef="0" IVar="-1" Cut="0.0000000000000000e+00" cType="1" res="1.5652531757950783e-02" rms="4.1004800796508789e-01" purity="7.1674025058746338e-01" nType="-99"/>
        <Node pos="r" depth="1" NCoef="0" IVar="8" Cut="6.9295495748519897e-01" cType="1" res="-4.6673319302499294e-03" rms="4.4200840592384338e-01" purity="4.8905119299888611e-01" nType="0">
          <Node pos="l" depth="2" NCoef="0" IVar="-1" Cut="0.0000000000000000e+00" cType="1" res="-3.1764369923621416e-03" rms="4.4500324130058289e-01" purity="4.6046867966651917e-01" nType="-99"/>
          <Node pos="r" depth="2" NCoef="0" IVar="-1" Cut="0.0000000000000000e+00" cType="1" res="5.5602211505174637e-03" rms="4.3089017271995544e-01" purity="5.8294075727462769e-01" nType="-99"/>
        </Node>
      </Node>
    </BinaryTree>
    <BinaryTree type="DecisionTree" boostWeight="1.0000000000000000e+00" itree="47">
      <Node pos="s" depth="0" NCoef="0" IVar="9" Cut="7.1428573131561279e-01" cType="1" res="3.4967466490343213e-04" rms="4.4137659668922424e-01" purity="5.0114357471466064e-01" nType="0">
        <Node pos="l" depth="1" NCoef="0" IVar="4" Cut="3.4813651442527771e-01" cType="1" res="3.5373382270336151e-03" rms="4.4033917784690857e-01" purity="5.0678378343582153e-01" nType="0">
          <Node pos="l" depth="2" NCoef="0" IVar="-1" Cut="0.0000000000000000e+00" cType="1" res="-2.5951979681849480e-02" rms="2.6375383138656616e-01" purity="7.6729670166969299e-02" nType="-99"/>
          <Node pos="r" depth="2" NCoef="0" IVar="-1" Cut="0.0000000000000000e+00" cType="1" res="1.6521406359970570e-03" rms="4.4733795523643494e-01" purity="5.2906650304794312e-01" nType="-99"/>
        </Node>
        <Node pos="r" depth="1" NCoef="0" IVar="-1" Cut="0.0000000000000000e+00" cType="1" res="-1.5318424440920353e-02" rms="4.5688995718955994e-01" purity="3.8937175273895264e-01" nType="-99"/>
      </Node>
    </BinaryTree>
    <BinaryTree type="DecisionTree" boostWeight="1.0000000000000000e+00" itree="48">
      <Node pos="s" depth="0" NCoef="0" IVar="8" Cut="-1.7734720706939697e+00" cType="1" res="7.1350473444908857e-04" rms="4.4003489613533020e-01" purity="5.0106590986251831e-01" nType="0">
        <Node pos="l" depth="1" NCoef="0" IVar="-1" Cut="0.0000000000000000e+00" cType="1" res="1.6127042472362518e-02" rms="4.0984103083610535e-01" purity="7.2429418563842773e-01" nType="-99"/>
        <Node pos="r" depth="1" NCoef="0" IVar="9" Cut="-7.1428573131561279e-01" cType="1" res="-2.4021381977945566e-03" rms="4.4121757149696350e-01" purity="4.9018302559852600e-01" nType="0">
          <Node pos="l" depth="2" NCoef="0" IVar="-1" Cut="0.0000000000000000e+00" cType="1" res="-1.6424540430307388e-02" rms="4.5288723707199097e-01" purity="3.7418887019157410e-01" nType="-99"/>
          <Node pos="r" depth="2" NCoef="0" IVar="-1" Cut="0.0000000000000000e+00" cType="1" res="2.2060783521737903e-04" rms="4.4035890698432922e-01" purity="4.9610051512718201e-01" nType="-99"/>
        </Node>
      </Node>
    </BinaryTree>
    <BinaryTree type="DecisionTree" boostWeight="1.0000000000000000e+00" itree="49">
      <Node pos="s" depth="0" NCoef="0" IVar="8" Cut="1.6414833068847656e+00" cType="1" res="-3.6080370773561299e-04" rms="4.4031304121017456e-01" purity="4.9913182854652405e-01" nType="0">
        <Node pos="l" depth="1" NCoef="0" IVar="8" Cut="-1.3940612077713013e+00" cType="1" res="-3.8073565810918808e-03" rms="4.4163995981216431e-01" purity="4.8659622669219971e-01" nType="0">
          <Node pos="l" depth="2" NCoef="0" IVar="-1" Cut="0.0000000000000000e+00" cType="1" res="9.2898020520806313e-03" rms="4.2329379916191101e-01" purity="6.6818529367446899e-01" nType="-99"/>
          <Node pos="r" depth="2" NCoef="0" IVar="-1" Cut="0.0000000000000000e+00" cType="1" res="-1.9346370827406645e-03" rms="4.4320359826087952e-01" purity="4.6863442659378052e-01" nType="-99"/>
        </Node>
        <Node pos="r" depth="1" NCoef="0" IVar="-1" Cut="0.0000000000000000e+00" cType="1" res="1.4119488187134266e-02" rms="4.1346096992492676e-01" purity="7.0744901895523071e-01" nType="-99"/>
      </Node>
    </BinaryTree>
    <BinaryTree type="DecisionTree" boostWeight="1.0000000000000000e+00" itree="50">
      <Node pos="s" depth="0" NCoef="0" IVar="10" Cut="4.9428569793701172e+01" cType="1" res="-5.7075941003859043e-04" rms="4.4052779674530029e-01" purity="4.9897345900535583e-01" nType="0">
        <Node pos="l" depth="1" NCoef="0" IVar="10" Cut="4.2380952835083008e+00" cType="1" res="3.3732589799910784e-03" rms="4.4033384323120117e-01" purity="5.0656092166900635e-01" nType="0">
          <Node pos="l" depth="2" NCoef="0" IVar="-1" Cut="0.0000000000000000e+00" cType="1" res="-9.3227205798029900e-03" rms="4.7646000981330872e-01" purity="4.8824536800384521e-01" nType="-99"/>
          <Node pos="r" depth="2" NCoef="0" IVar="-1" Cut="0.0000000000000000e+00" cType="1" res="2.6198795530945063e-03" rms="4.3377926945686340e-01" purity="5.0952696800231934e-01" nType="-99"/>
        </Node>
        <Node pos="r" depth="1" NCoef="0" IVar="4" Cut="7.9138040542602539e-01" cType="1" res="-5.1224488765001297e-02" rms="4.3987873196601868e-01" purity="4.0152612328529358e-01" nType="0">
          <Node pos="l" depth="2" NCoef="0" IVar="-1" Cut="0.0000000000000000e+00" cType="1" res="-5.6749894283711910e-03" rms="4.2170038819313049e-01" purity="3.1342253088951111e-01" nType="-99"/>
          <Node pos="r" depth="2" NCoef="0" IVar="-1" Cut="0.0000000000000000e+00" cType="1" res="-1.7852114513516426e-02" rms="4.5572689175605774e-01" purity="4.9093553423881531e-01" nType="-99"/>
        </Node>
      </Node>
    </BinaryTree>
    <BinaryTree type="DecisionTree" boostWeight="1.0000000000000000e+00" itree="51">
      <Node pos="s" depth="0" NCoef="0" IVar="10" Cut="6.0666667938232422e+01" cType="1" res="-5.0836865557357669e-04" rms="4.3950334191322327e-01" purity="5.0005882978439331e-01" nType="0">
        <Node pos="l" depth="1" NCoef="0" IVar="10" Cut="4.7619047164916992e+00" cType="1" res="2.4146782234311104e-03" rms="4.3939831852912903e-01" purity="5.0645726919174194e-01" nType="0">
          <Node pos="l" depth="2" NCoef="0" IVar="-1" Cut="0.0000000000000000e+00" cType="1" res="-8.2002179697155952e-03" rms="4.7555512189865112e-01" purity="4.8968189954757690e-01" nType="-99"/>
          <Node pos="r" depth="2" NCoef="0" IVar="-1" Cut="0.0000000000000000e+00" cType="1" res="2.0914778579026461e-03" rms="4.3315953016281128e-01" purity="5.0908356904983521e-01" nType="-99"/>
        </Node>
        <Node pos="r" depth="1" NCoef="0" IVar="-1" Cut="0.0000000000000000e+00" cType="1" res="-1.8151292577385902e-02" rms="4.3528103828430176e-01" purity="3.3201637864112854e-01" nType="-99"/>
      </Node>
    </BinaryTree>
    <BinaryTree type="DecisionTree" boostWeight="1.0000000000000000e+00" itree="52">
      <Node pos="s" depth="0" NCoef="0" IVar="10" Cut="6.0666667938232422e+01" cType="1" res="-1.5922657912597060e-03" rms="4.4023337960243225e-01" purity="4.9804511666297913e-01" nType="0">
        <Node pos="l" depth="1" NCoef="0" IVar="10" Cut="4.7619047164916992e+00" cType="1" res="9.5975527074187994e-04" rms="4.4022920727729797e-01" purity="5.0421053171157837e-01" nType="0">
          <Node pos="l" depth="2" NCoef="0" IVar="-1" Cut="0.0000000000000000e+00" cType="1" res="-8.7842596694827080e-03" rms="4.7592791914939880e-01" purity="4.8213690519332886e-01" nType="-99"/>
          <Node pos="r" depth="2" NCoef="0" IVar="-1" Cut="0.0000000000000000e+00" cType="1" res="1.7472624313086271e-03" rms="4.3415245413780212e-01" purity="5.0761026144027710e-01" nType="-99"/>
        </Node>
        <Node pos="r" depth="1" NCoef="0" IVar="-1" Cut="0.0000000000000000e+00" cType="1" res="-1.6695925965905190e-02" rms="4.3472599983215332e-01" purity="3.3167886734008789e-01" nType="-99"/>
      </Node>
    </BinaryTree>
    <BinaryTree type="DecisionTree" boostWeight="1.0000000000000000e+00" itree="53">
      <Node pos="s" depth="0" NCoef="0" IVar="4" Cut="3.6663404107093811e-01" cType="1" res="-3.5580224357545376e-04" rms="4.4031941890716553e-01" purity="4.9986228346824646e-01" nType="0">
        <Node pos="l" depth="1" NCoef="0" IVar="-1" Cut="0.0000000000000000e+00" cType="1" res="-2.1454619243741035e-02" rms="2.7696534991264343e-01" purity="8.5356913506984711e-02" nType="-99"/>
        <Node pos="r" depth="1" NCoef="0" IVar="4" Cut="9.2972701787948608e-01" cType="1" res="3.0997458379715681e-03" rms="4.4931352138519287e-01" purity="5.2881520986557007e-01" nType="0">
          <Node pos="l" depth="2" NCoef="0" IVar="-1" Cut="0.0000000000000000e+00" cType="1" res="-9.9904020316898823e-04" rms="4.5388054847717285e-01" purity="4.6532920002937317e-01" nType="-99"/>
          <Node pos="r" depth="2" NCoef="0" IVar="-1" Cut="0.0000000000000000e+00" cType="1" res="6.5919975750148296e-03" rms="4.3397587537765503e-01" purity="7.2660273313522339e-01" nType="-99"/>
        </Node>
      </Node>
    </BinaryTree>
    <BinaryTree type="DecisionTree" boostWeight="1.0000000000000000e+00" itree="54">
      <Node pos="s" depth="0" NCoef="0" IVar="8" Cut="1.2770662307739258e+00" cType="1" res="1.1553497752174735e-03" rms="4.4084385037422180e-01" purity="5.0132894515991211e-01" nType="0">
        <Node pos="l" depth="1" NCoef="0" IVar="8" Cut="-8.9546984434127808e-01" cType="1" res="-3.2277195714414120e-03" rms="4.4278657436370850e-01" purity="4.8328110575675964e-01" nType="0">
          <Node pos="l" depth="2" NCoef="0" IVar="-1" Cut="0.0000000000000000e+00" cType="1" res="6.8534617312252522e-03" rms="4.3081501126289368e-01" purity="6.1259722709655762e-01" nType="-99"/>
          <Node pos="r" depth="2" NCoef="0" IVar="-1" Cut="0.0000000000000000e+00" cType="1" res="-2.5814455002546310e-03" rms="4.4522970914840698e-01" purity="4.5299583673477173e-01" nType="-99"/>
        </Node>
        <Node pos="r" depth="1" NCoef="0" IVar="9" Cut="1.4205744862556458e-01" cType="1" res="4.0342967957258224e-02" rms="4.2105576395988464e-01" purity="6.6268867254257202e-01" nType="0">
          <Node pos="l" depth="2" NCoef="0" IVar="-1" Cut="0.0000000000000000e+00" cType="1" res="3.0264111701399088e-03" rms="4.2503839731216431e-01" purity="5.9728205204010010e-01" nType="-99"/>
          <Node pos="r" depth="2" NCoef="0" IVar="-1" Cut="0.0000000000000000e+00" cType="1" res="1.6143707558512688e-02" rms="4.1603273153305054e-01" purity="7.1951991319656372e-01" nType="-99"/>
        </Node>
      </Node>
    </BinaryTree>
    <BinaryTree type="DecisionTree" boostWeight="1.0000000000000000e+00" itree="55">
      <Node pos="s" depth="0" NCoef="0" IVar="4" Cut="4.0043941140174866e-01" cType="1" res="4.5725877862423658e-04" rms="4.4008332490921021e-01" purity="5.0038450956344604e-01" nType="0">
        <Node pos="l" depth="1" NCoef="0" IVar="7" Cut="2.3653385639190674e+00" cType="1" res="-3.6943536251783371e-02" rms="2.9517567157745361e-01" purity="9.8564200103282928e-02" nType="0">
          <Node pos="l" depth="2" NCoef="0" IVar="-1" Cut="0.0000000000000000e+00" cType="1" res="-2.7838274836540222e-03" rms="3.4213188290596008e-01" purity="1.3787683844566345e-01" nType="-99"/>
          <Node pos="r" depth="2" NCoef="0" IVar="-1" Cut="0.0000000000000000e+00" cType="1" res="-2.8316315263509750e-02" rms="2.4526953697204590e-01" purity="6.5014138817787170e-02" nType="-99"/>
        </Node>
        <Node pos="r" depth="1" NCoef="0" IVar="10" Cut="4.1047618865966797e+01" cType="1" res="4.2857537046074867e-03" rms="4.5213031768798828e-01" purity="5.4151648283004761e-01" nType="0">
          <Node pos="l" depth="2" NCoef="0" IVar="-1" Cut="0.0000000000000000e+00" cType="1" res="1.9896696321666241e-03" rms="4.5241528749465942e-01" purity="5.5079901218414307e-01" nType="-99"/>
          <Node pos="r" depth="2" NCoef="0" IVar="-1" Cut="0.0000000000000000e+00" cType="1" res="-6.0936952941119671e-03" rms="4.4885048270225525e-01" purity="4.7313466668128967e-01" nType="-99"/>
        </Node>
      </Node>
    </BinaryTree>
    <BinaryTree type="DecisionTree" boostWeight="1.0000000000000000e+00" itree="56">
      <Node pos="s" depth="0" NCoef="0" IVar="4" Cut="3.9085635542869568e-01" cType="1" res="7.1508128894492984e-04" rms="4.3915686011314392e-01" purity="5.0014835596084595e-01" nType="0">
        <Node pos="l" depth="1" NCoef="0" IVar="7" Cut="2.2848217487335205e+00" cType="1" res="-3.6197222769260406e-02" rms="2.8904652595520020e-01" purity="9.4069167971611023e-02" nType="0">
          <Node pos="l" depth="2" NCoef="0" IVar="-1" Cut="0.0000000000000000e+00" cType="1" res="-1.8244711682200432e-03" rms="3.4364867210388184e-01" purity="1.3880261778831482e-01" nType="-99"/>
          <Node pos="r" depth="2" NCoef="0" IVar="-1" Cut="0.0000000000000000e+00" cType="1" res="-2.8400227427482605e-02" rms="2.3767179250717163e-01" purity="6.0727372765541077e-02" nType="-99"/>
        </Node>
        <Node pos="r" depth="1" NCoef="0" IVar="9" Cut="7.1428573131561279e-01" cType="1" res="4.1875722818076611e-03" rms="4.5055726170539856e-01" purity="5.3834980726242065e-01" nType="0">
          <Node pos="l" depth="2" NCoef="0" IVar="-1" Cut="0.0000000000000000e+00" cType="1" res="1.6387549694627523e-03" rms="4.4947990775108337e-01" purity="5.4375261068344116e-01" nType="-99"/>
          <Node pos="r" depth="2" NCoef="0" IVar="-1" Cut="0.0000000000000000e+00" cType="1" res="-1.2350377626717091e-02" rms="4.6903052926063538e-01" purity="4.2442902922630310e-01" nType="-99"/>
        </Node>
      </Node>
    </BinaryTree>
    <BinaryTree type="DecisionTree" boostWeight="1.0000000000000000e+00" itree="57">
      <Node pos="s" depth="0" NCoef="0" IVar="8" Cut="1.0241409540176392e+00" cType="1" res="4.3634776375256479e-05" rms="4.4049906730651855e-01" purity="4.9973520636558533e-01" nType="0">
        <Node pos="l" depth="1" NCoef="0" IVar="8" Cut="-6.5912878513336182e-01" cType="1" res="-4.6870396472513676e-03" rms="4.4275119900703430e-01" purity="4.7781297564506531e-01" nType="0">
          <Node pos="l" depth="2" NCoef="0" IVar="-1" Cut="0.0000000000000000e+00" cType="1" res="3.7448692601174116e-03" rms="4.3390545248985291e-01" purity="5.7488143444061279e-01" nType="-99"/>
          <Node pos="r" depth="2" NCoef="0" IVar="-1" Cut="0.0000000000000000e+00" cType="1" res="-2.9539009556174278e-03" rms="4.4574323296546936e-01" purity="4.4205656647682190e-01" nType="-99"/>
        </Node>
        <Node pos="r" depth="1" NCoef="0" IVar="10" Cut="1.2523809432983398e+01" cType="1" res="2.7586838230490685e-02" rms="4.2610901594161987e-01" purity="6.2737184762954712e-01" nType="0">
          <Node pos="l" depth="2" NCoef="0" IVar="-1" Cut="0.0000000000000000e+00" cType="1" res="1.4802340418100357e-02" rms="4.3496894836425781e-01" purity="6.8220621347427368e-01" nType="-99"/>
          <Node pos="r" depth="2" NCoef="0" IVar="-1" Cut="0.0000000000000000e+00" cType="1" res="4.0369261987507343e-03" rms="4.2237406969070435e-01" purity="6.0823601484298706e-01" nType="-99"/>
        </Node>
      </Node>
    </BinaryTree>
    <BinaryTree type="DecisionTree" boostWeight="1.0000000000000000e+00" itree="58">
      <Node pos="s" depth="0" NCoef="0" IVar="4" Cut="9.4626301527023315e-01" cType="1" res="-8.0547953257337213e-04" rms="4.4010794162750244e-01" purity="4.9893474578857422e-01" nType="0">
        <Node pos="l" depth="1" NCoef="0" IVar="0" Cut="1.2488789558410645e+00" cType="1" res="-5.9010786935687065e-03" rms="4.4185850024223328e-01" purity="4.4711315631866455e-01" nType="0">
          <Node pos="l" depth="2" NCoef="0" IVar="-1" Cut="0.0000000000000000e+00" cType="1" res="3.4613147727213800e-04" rms="4.5031294226646423e-01" purity="5.0464826822280884e-01" nType="-99"/>
          <Node pos="r" depth="2" NCoef="0" IVar="-1" Cut="0.0000000000000000e+00" cType="1" res="-8.2791280001401901e-03" rms="4.1074219346046448e-01" purity="2.5094237923622131e-01" nType="-99"/>
        </Node>
        <Node pos="r" depth="1" NCoef="0" IVar="0" Cut="8.9166271686553955e-01" cType="1" res="2.2313287481665611e-02" rms="4.3132105469703674e-01" purity="7.3404937982559204e-01" nType="0">
          <Node pos="l" depth="2" NCoef="0" IVar="-1" Cut="0.0000000000000000e+00" cType="1" res="-5.7026802096515894e-04" rms="4.1156476736068726e-01" purity="7.7206408977508545e-01" nType="-99"/>
          <Node pos="r" depth="2" NCoef="0" IVar="-1" Cut="0.0000000000000000e+00" cType="1" res="1.3458456844091415e-02" rms="4.5831787586212158e-01" purity="6.7368692159652710e-01" nType="-99"/>
        </Node>
      </Node>
    </BinaryTree>
    <BinaryTree type="DecisionTree" boostWeight="1.0000000000000000e+00" itree="59">
      <Node pos="s" depth="0" NCoef="0" IVar="0" Cut="1.6352210044860840e+00" cType="1" res="1.6504151062690653e-05" rms="4.4002258777618408e-01" purity="4.9923142790794373e-01" nType="0">
        <Node pos="l" depth="1" NCoef="0" IVar="0" Cut="8.6264926195144653e-01" cType="1" res="2.9064812697470188e-03" rms="4.4209888577461243e-01" purity="5.1663553714752197e-01" nType="0">
          <Node pos="l" depth="2" NCoef="0" IVar="-1" Cut="0.0000000000000000e+00" cType="1" res="5.7457196526229382e-03" rms="4.3603166937828064e-01" purity="6.5943688154220581e-01" nType="-99"/>
          <Node pos="r" depth="2" NCoef="0" IVar="-1" Cut="0.0000000000000000e+00" cType="1" res="-2.1384118590503931e-03" rms="4.4529607892036438e-01" purity="4.3070730566978455e-01" nType="-99"/>
        </Node>
        <Node pos="r" depth="1" NCoef="0" IVar="-1" Cut="0.0000000000000000e+00" cType="1" res="-1.0848396457731724e-02" rms="4.0680304169654846e-01" purity="2.4940828979015350e-01" nType="-99"/>
      </Node>
    </BinaryTree>
    <BinaryTree type="DecisionTree" boostWeight="1.0000000000000000e+00" itree="60">
      <Node pos="s" depth="0" NCoef="0" IVar="10" Cut="5.2285713195800781e+01" cType="1" res="1.5192098217085004e-03" rms="4.3974590301513672e-01" purity="5.0164663791656494e-01" nType="0">
        <Node pos="l" depth="1" NCoef="0" IVar="7" Cut="5.0457673072814941e+00" cType="1" res="4.3391180224716663e-03" rms="4.3966063857078552e-01" purity="5.0917822122573853e-01" nType="0">
          <Node pos="l" depth="2" NCoef="0" IVar="-1" Cut="0.0000000000000000e+00" cType="1" res="-5.3167541045695543e-04" rms="4.4532841444015503e-01" purity="4.6853646636009216e-01" nType="-99"/>
          <Node pos="r" depth="2" NCoef="0" IVar="-1" Cut="0.0000000000000000e+00" cType="1" res="7.4821840971708298e-03" rms="4.1597855091094971e-01" purity="6.6690379381179810e-01" nType="-99"/>
        </Node>
        <Node pos="r" depth="1" NCoef="0" IVar="-1" Cut="0.0000000000000000e+00" cType="1" res="-1.0485091246664524e-02" rms="4.3863043189048767e-01" purity="3.8045993447303772e-01" nType="-99"/>
      </Node>
    </BinaryTree>
    <BinaryTree type="DecisionTree" boostWeight="1.0000000000000000e+00" itree="61">
      <Node pos="s" depth="0" NCoef="0" IVar="0" Cut="1.2725206613540649e+00" cType="1" res="2.2288643231149763e-04" rms="4.3937897682189941e-01" purity="5.0112926959991455e-01" nType="0">
        <Node pos="l" depth="1" NCoef="0" IVar="0" Cut="8.5217845439910889e-01" cType="1" res="5.3016771562397480e-03" rms="4.4437715411186218e-01" purity="5.5405557155609131e-01" nType="0">
          <Node pos="l" depth="2" NCoef="0" IVar="-1" Cut="0.0000000000000000e+00" cType="1" res="5.2816960960626602e-03" rms="4.3466293811798096e-01" purity="6.6443914175033569e-01" nType="-99"/>
          <Node pos="r" depth="2" NCoef="0" IVar="-1" Cut="0.0000000000000000e+00" cType="1" res="-1.3174985069781542e-03" rms="4.5087200403213501e-01" purity="4.7523623704910278e-01" nType="-99"/>
        </Node>
        <Node pos="r" depth="1" NCoef="0" IVar="10" Cut="9.5238094329833984e+00" cType="1" res="-2.1471260115504265e-02" rms="4.1665935516357422e-01" purity="2.7505379915237427e-01" nType="0">
          <Node pos="l" depth="2" NCoef="0" IVar="-1" Cut="0.0000000000000000e+00" cType="1" res="3.7621927913278341e-03" rms="4.5325154066085815e-01" purity="3.5595217347145081e-01" nType="-99"/>
          <Node pos="r" depth="2" NCoef="0" IVar="-1" Cut="0.0000000000000000e+00" cType="1" res="-1.9735163077712059e-02" rms="3.6265251040458679e-01" purity="1.7745679616928101e-01" nType="-99"/>
        </Node>
      </Node>
    </BinaryTree>
    <BinaryTree type="DecisionTree" boostWeight="1.0000000000000000e+00" itree="62">
      <Node pos="s" depth="0" NCoef="0" IVar="8" Cut="1.2106205224990845e+00" cType="1" res="-5.2013598178746179e-05" rms="4.3929642438888550e-01" purity="5.0048601627349854e-01" nType="0">
        <Node pos="l" depth="1" NCoef="0" IVar="9" Cut="6.1904764175415039e-01" cType="1" res="-3.8581143599003553e-03" rms="4.4147470593452454e-01" purity="4.8115459084510803e-01" nType="0">
          <Node pos="l" depth="2" NCoef="0" IVar="-1" Cut="0.0000000000000000e+00" cType="1" res="-1.1177299165865406e-04" rms="4.4004508852958679e-01" purity="4.8936489224433899e-01" nType="-99"/>
          <Node pos="r" depth="2" NCoef="0" IVar="-1" Cut="0.0000000000000000e+00" cType="1" res="-1.1484527960419655e-02" rms="4.5675900578498840e-01" purity="3.7907826900482178e-01" nType="-99"/>
        </Node>
        <Node pos="r" depth="1" NCoef="0" IVar="10" Cut="2.7571428298950195e+01" cType="1" res="3.0162654817104340e-02" rms="4.2038440704345703e-01" purity="6.5394788980484009e-01" nType="0">
          <Node pos="l" depth="2" NCoef="0" IVar="-1" Cut="0.0000000000000000e+00" cType="1" res="1.2739838100969791e-02" rms="4.1548344492912292e-01" purity="6.8857055902481079e-01" nType="-99"/>
          <Node pos="r" depth="2" NCoef="0" IVar="-1" Cut="0.0000000000000000e+00" cType="1" res="-6.0930161271244287e-04" rms="4.2632049322128296e-01" purity="5.9700947999954224e-01" nType="-99"/>
        </Node>
      </Node>
    </BinaryTree>
    <BinaryTree type="DecisionTree" boostWeight="1.0000000000000000e+00" itree="63">
      <Node pos="s" depth="0" NCoef="0" IVar="9" Cut="-7.1428573131561279e-01" cType="1" res="-2.4355386849492788e-03" rms="4.3864285945892334e-01" purity="4.9811112880706787e-01" nType="0">
        <Node pos="l" depth="1" NCoef="0" IVar="-1" Cut="0.0000000000000000e+00" cType="1" res="-1.2823101133108139e-02" rms="4.5051687955856323e-01" purity="3.7633788585662842e-01" nType="-99"/>
        <Node pos="r" depth="1" NCoef="0" IVar="4" Cut="9.4696003198623657e-01" cType="1" res="5.0219721742905676e-05" rms="4.3788850307464600e-01" purity="5.0425368547439575e-01" nType="0">
          <Node pos="l" depth="2" NCoef="0" IVar="-1" Cut="0.0000000000000000e+00" cType="1" res="-1.4046698343008757e-03" rms="4.4031691551208496e-01" purity="4.5344552397727966e-01" nType="-99"/>
          <Node pos="r" depth="2" NCoef="0" IVar="-1" Cut="0.0000000000000000e+00" cType="1" res="7.3470114730298519e-03" rms="4.2483285069465637e-01" purity="7.5027865171432495e-01" nType="-99"/>
        </Node>
      </Node>
    </BinaryTree>
    <BinaryTree type="DecisionTree" boostWeight="1.0000000000000000e+00" itree="64">
      <Node pos="s" depth="0" NCoef="0" IVar="10" Cut="6.0666667938232422e+01" cType="1" res="6.9170608185231686e-04" rms="4.3919834494590759e-01" purity="5.0064074993133545e-01" nType="0">
        <Node pos="l" depth="1" NCoef="0" IVar="10" Cut="4.7619047164916992e+00" cType="1" res="2.5972789153456688e-03" rms="4.3914359807968140e-01" purity="5.0669246912002563e-01" nType="0">
          <Node pos="l" depth="2" NCoef="0" IVar="-1" Cut="0.0000000000000000e+00" cType="1" res="-6.5431427210569382e-03" rms="4.7564926743507385e-01" purity="4.8975804448127747e-01" nType="-99"/>
          <Node pos="r" depth="2" NCoef="0" IVar="-1" Cut="0.0000000000000000e+00" cType="1" res="1.8687392584979534e-03" rms="4.3301019072532654e-01" purity="5.0931811332702637e-01" nType="-99"/>
        </Node>
        <Node pos="r" depth="1" NCoef="0" IVar="-1" Cut="0.0000000000000000e+00" cType="1" res="-1.1956684291362762e-02" rms="4.3763527274131775e-01" purity="3.4031489491462708e-01" nType="-99"/>
      </Node>
    </BinaryTree>
    <BinaryTree type="DecisionTree" boostWeight="1.0000000000000000e+00" itree="65">
      <Node pos="s" depth="0" NCoef="0" IVar="4" Cut="9.0508836507797241e-01" cType="1" res="8.5580360610038042e-04" rms="4.3898367881774902e-01" purity="5.0077962875366211e-01" nType="0">
        <Node pos="l" depth="1" NCoef="0" IVar="0" Cut="1.1379082202911377e+00" cType="1" res="-5.2181198261678219e-03" rms="4.4023391604423523e-01" purity="4.1144713759422302e-01" nType="0">
          <Node pos="l" depth="2" NCoef="0" IVar="-1" Cut="0.0000000000000000e+00" cType="1" res="7.5400987407192588e-04" rms="4.5456540584564209e-01" purity="4.9456626176834106e-01" nType="-99"/>
          <Node pos="r" depth="2" NCoef="0" IVar="-1" Cut="0.0000000000000000e+00" cType="1" res="-5.9756874106824398e-03" rms="4.0986698865890503e-01" purity="2.4683544039726257e-01" nType="-99"/>
        </Node>
        <Node pos="r" depth="1" NCoef="0" IVar="0" Cut="9.9141335487365723e-01" cType="1" res="1.5442822128534317e-02" rms="4.3562078475952148e-01" purity="7.1531867980957031e-01" nType="0">
          <Node pos="l" depth="2" NCoef="0" IVar="-1" Cut="0.0000000000000000e+00" cType="1" res="8.6845160694792867e-04" rms="4.1364774107933044e-01" purity="7.6871120929718018e-01" nType="-99"/>
          <Node pos="r" depth="2" NCoef="0" IVar="-1" Cut="0.0000000000000000e+00" cType="1" res="8.6402315646409988e-03" rms="4.7687160968780518e-01" purity="6.0483735799789429e-01" nType="-99"/>
        </Node>
      </Node>
    </BinaryTree>
    <BinaryTree type="DecisionTree" boostWeight="1.0000000000000000e+00" itree="66">
      <Node pos="s" depth="0" NCoef="0" IVar="10" Cut="4.0809524536132812e+01" cType="1" res="1.0213010245934129e-03" rms="4.3886449933052063e-01" purity="5.0132411718368530e-01" nType="0">
        <Node pos="l" depth="1" NCoef="0" IVar="10" Cut="3.8095238208770752e+00" cType="1" res="4.8177987337112427e-03" rms="4.3912771344184875e-01" purity="5.0920581817626953e-01" nType="0">
          <Node pos="l" depth="2" NCoef="0" IVar="-1" Cut="0.0000000000000000e+00" cType="1" res="-1.7835030332207680e-02" rms="4.7850787639617920e-01" purity="4.4308286905288696e-01" nType="-99"/>
          <Node pos="r" depth="2" NCoef="0" IVar="-1" Cut="0.0000000000000000e+00" cType="1" res="3.5811210982501507e-03" rms="4.3344762921333313e-01" purity="5.1670676469802856e-01" nType="-99"/>
        </Node>
        <Node pos="r" depth="1" NCoef="0" IVar="0" Cut="9.6350288391113281e-01" cType="1" res="-2.5583403185009956e-02" rms="4.3608918786048889e-01" purity="4.4609114527702332e-01" nType="0">
          <Node pos="l" depth="2" NCoef="0" IVar="-1" Cut="0.0000000000000000e+00" cType="1" res="7.7665373682975769e-03" rms="4.5604890584945679e-01" purity="6.0131555795669556e-01" nType="-99"/>
          <Node pos="r" depth="2" NCoef="0" IVar="-1" Cut="0.0000000000000000e+00" cType="1" res="-2.6378985494375229e-02" rms="3.9471927285194397e-01" purity="2.3905602097511292e-01" nType="-99"/>
        </Node>
      </Node>
    </BinaryTree>
    <BinaryTree type="DecisionTree" boostWeight="1.0000000000000000e+00" itree="67">
      <Node pos="s" depth="0" NCoef="0" IVar="4" Cut="3.5839465260505676e-01" cType="1" res="-1.2917894637212157e-03" rms="4.3776294589042664e-01" purity="4.9984964728355408e-01" nType="0">
        <Node pos="l" depth="1" NCoef="0" IVar="-1" Cut="0.0000000000000000e+00" cType="1" res="-1.9406421110033989e-02" rms="2.6766449213027954e-01" purity="7.9352922737598419e-02" nType="-99"/>
        <Node pos="r" depth="1" NCoef="0" IVar="4" Cut="9.2891246080398560e-01" cType="1" res="1.1262217303737998e-03" rms="4.4599393010139465e-01" purity="5.2569490671157837e-01" nType="0">
          <Node pos="l" depth="2" NCoef="0" IVar="-1" Cut="0.0000000000000000e+00" cType="1" res="-1.0437972377985716e-03" rms="4.5021793246269226e-01" purity="4.6072331070899963e-01" nType="-99"/>
          <Node pos="r" depth="2" NCoef="0" IVar="-1" Cut="0.0000000000000000e+00" cType="1" res="4.6783485449850559e-03" rms="4.3226280808448792e-01" purity="7.2609794139862061e-01" nType="-99"/>
        </Node>
      </Node>
    </BinaryTree>
    <BinaryTree type="DecisionTree" boostWeight="1.0000000000000000e+00" itree="68">
      <Node pos="s" depth="0" NCoef="0" IVar="8" Cut="-6.3515365123748779e-01" cType="1" res="2.9200754943303764e-04" rms="4.3867561221122742e-01" purity="5.0115436315536499e-01" nType="0">
        <Node pos="l" depth="1" NCoef="0" IVar="4" Cut="5.6135642528533936e-01" cType="1" res="1.7773322761058807e-02" rms="4.3247506022453308e-01" purity="5.7863157987594604e-01" nType="0">
          <Node pos="l" depth="2" NCoef="0" IVar="-1" Cut="0.0000000000000000e+00" cType="1" res="-1.0304335504770279e-02" rms="3.5556638240814209e-01" purity="1.6928529739379883e-01" nType="-99"/>
          <Node pos="r" depth="2" NCoef="0" IVar="-1" Cut="0.0000000000000000e+00" cType="1" res="6.4467689953744411e-03" rms="4.4497260451316833e-01" purity="6.5628105401992798e-01" nType="-99"/>
        </Node>
        <Node pos="r" depth="1" NCoef="0" IVar="9" Cut="-6.1904764175415039e-01" cType="1" res="-5.1937401294708252e-03" rms="4.4046038389205933e-01" purity="4.7684153914451599e-01" nType="0">
          <Node pos="l" depth="2" NCoef="0" IVar="-1" Cut="0.0000000000000000e+00" cType="1" res="-1.2820923700928688e-02" rms="4.4832429289817810e-01" purity="3.4032073616981506e-01" nType="-99"/>
          <Node pos="r" depth="2" NCoef="0" IVar="-1" Cut="0.0000000000000000e+00" cType="1" res="-4.3973376159556210e-04" rms="4.3966680765151978e-01" purity="4.8722973465919495e-01" nType="-99"/>
        </Node>
      </Node>
    </BinaryTree>
    <BinaryTree type="DecisionTree" boostWeight="1.0000000000000000e+00" itree="69">
      <Node pos="s" depth="0" NCoef="0" IVar="8" Cut="5.8725291490554810e-01" cType="1" res="2.7328304713591933e-04" rms="4.3902462720870972e-01" purity="5.0166368484497070e-01" nType="0">
        <Node pos="l" depth="1" NCoef="0" IVar="8" Cut="-5.2818930149078369e-01" cType="1" res="-5.7347426190972328e-03" rms="4.4170236587524414e-01" purity="4.7621795535087585e-01" nType="0">
          <Node pos="l" depth="2" NCoef="0" IVar="-1" Cut="0.0000000000000000e+00" cType="1" res="2.7049432974308729e-03" rms="4.3435496091842651e-01" purity="5.6033354997634888e-01" nType="-99"/>
          <Node pos="r" depth="2" NCoef="0" IVar="-1" Cut="0.0000000000000000e+00" cType="1" res="-3.8571360055357218e-03" rms="4.4569686055183411e-01" purity="4.2655780911445618e-01" nType="-99"/>
        </Node>
        <Node pos="r" depth="1" NCoef="0" IVar="4" Cut="5.3192079067230225e-01" cType="1" res="1.7894593998789787e-02" rms="4.3059173226356506e-01" purity="5.7629507780075073e-01" nType="0">
          <Node pos="l" depth="2" NCoef="0" IVar="-1" Cut="0.0000000000000000e+00" cType="1" res="-1.3383666053414345e-02" rms="3.3375042676925659e-01" purity="1.3718777894973755e-01" nType="-99"/>
          <Node pos="r" depth="2" NCoef="0" IVar="-1" Cut="0.0000000000000000e+00" cType="1" res="6.5644569694995880e-03" rms="4.4471558928489685e-01" purity="6.5324258804321289e-01" nType="-99"/>
        </Node>
      </Node>
    </BinaryTree>
    <BinaryTree type="DecisionTree" boostWeight="1.0000000000000000e+00" itree="70">
      <Node pos="s" depth="0" NCoef="0" IVar="9" Cut="7.1428573131561279e-01" cType="1" res="-5.4178998107090592e-04" rms="4.3845421075820923e-01" purity="4.9922984838485718e-01" nType="0">
        <Node pos="l" depth="1" NCoef="0" IVar="4" Cut="9.4620949029922485e-01" cType="1" res="1.2795218499377370e-03" rms="4.3727773427963257e-01" purity="5.0491368770599365e-01" nType="0">
          <Node pos="l" depth="2" NCoef="0" IVar="-1" Cut="0.0000000000000000e+00" cType="1" res="-8.9249393204227090e-04" rms="4.4014209508895874e-01" purity="4.5274734497070312e-01" nType="-99"/>
          <Node pos="r" depth="2" NCoef="0" IVar="-1" Cut="0.0000000000000000e+00" cType="1" res="6.4947097562253475e-03" rms="4.2271327972412109e-01" purity="7.5151842832565308e-01" nType="-99"/>
        </Node>
        <Node pos="r" depth="1" NCoef="0" IVar="-1" Cut="0.0000000000000000e+00" cType="1" res="-9.2603219673037529e-03" rms="4.5984745025634766e-01" purity="3.8551804423332214e-01" nType="-99"/>
      </Node>
    </BinaryTree>
    <BinaryTree type="DecisionTree" boostWeight="1.0000000000000000e+00" itree="71">
      <Node pos="s" depth="0" NCoef="0" IVar="4" Cut="5.2654474973678589e-01" cType="1" res="1.3667560415342450e-03" rms="4.3761959671974182e-01" purity="5.0072824954986572e-01" nType="0">
        <Node pos="l" depth="1" NCoef="0" IVar="7" Cut="2.2848217487335205e+00" cType="1" res="-1.4722223393619061e-02" rms="3.6667031049728394e-01" purity="1.7421028017997742e-01" nType="0">
          <Node pos="l" depth="2" NCoef="0" IVar="-1" Cut="0.0000000000000000e+00" cType="1" res="2.5547235272824764e-03" rms="3.9825144410133362e-01" purity="2.1088725328445435e-01" nType="-99"/>
          <Node pos="r" depth="2" NCoef="0" IVar="-1" Cut="0.0000000000000000e+00" cType="1" res="-1.2450291775166988e-02" rms="3.3565464615821838e-01" purity="1.4240008592605591e-01" nType="-99"/>
        </Node>
        <Node pos="r" depth="1" NCoef="0" IVar="9" Cut="6.1904764175415039e-01" cType="1" res="5.7533015497028828e-03" rms="4.5494958758354187e-01" purity="5.8975106477737427e-01" nType="0">
          <Node pos="l" depth="2" NCoef="0" IVar="-1" Cut="0.0000000000000000e+00" cType="1" res="2.0578454714268446e-03" rms="4.5312395691871643e-01" purity="5.9666025638580322e-01" nType="-99"/>
          <Node pos="r" depth="2" NCoef="0" IVar="-1" Cut="0.0000000000000000e+00" cType="1" res="-7.9347724094986916e-03" rms="4.7691458463668823e-01" purity="4.9709752202033997e-01" nType="-99"/>
        </Node>
      </Node>
    </BinaryTree>
    <BinaryTree type="DecisionTree" boostWeight="1.0000000000000000e+00" itree="72">
      <Node pos="s" depth="0" NCoef="0" IVar="8" Cut="1.4741249084472656e+00" cType="1" res="9.1159815201535821e-04" rms="4.3869072198867798e-01" purity="5.0063741207122803e-01" nType="0">
        <Node pos="l" depth="1" NCoef="0" IVar="8" Cut="-7.5469976663589478e-01" cType="1" res="-1.3490687124431133e-03" rms="4.4056180119514465e-01" purity="4.8606735467910767e-01" nType="0">
          <Node pos="l" depth="2" NCoef="0" IVar="-1" Cut="0.0000000000000000e+00" cType="1" res="3.9456943050026894e-03" rms="4.3196961283683777e-01" purity="5.9349155426025391e-01" nType="-99"/>
          <Node pos="r" depth="2" NCoef="0" IVar="-1" Cut="0.0000000000000000e+00" cType="1" res="-1.5497141284868121e-03" rms="4.4286394119262695e-01" purity="4.5541650056838989e-01" nType="-99"/>
        </Node>
        <Node pos="r" depth="1" NCoef="0" IVar="-1" Cut="0.0000000000000000e+00" cType="1" res="7.6253982260823250e-03" rms="4.1335275769233704e-01" purity="6.8409293889999390e-01" nType="-99"/>
      </Node>
    </BinaryTree>
    <BinaryTree type="DecisionTree" boostWeight="1.0000000000000000e+00" itree="73">
      <Node pos="s" depth="0" NCoef="0" IVar="9" Cut="-6.1904764175415039e-01" cType="1" res="9.5066684298217297e-04" rms="4.3841207027435303e-01" purity="5.0133913755416870e-01" nType="0">
        <Node pos="l" depth="1" NCoef="0" IVar="9" Cut="-7.6418530941009521e-01" cType="1" res="-2.5804417207837105e-02" rms="4.4643771648406982e-01" purity="4.1337960958480835e-01" nType="0">
          <Node pos="l" depth="2" NCoef="0" IVar="-1" Cut="0.0000000000000000e+00" cType="1" res="-1.2277625501155853e-02" rms="4.4951164722442627e-01" purity="3.6633685231208801e-01" nType="-99"/>
          <Node pos="r" depth="2" NCoef="0" IVar="-1" Cut="0.0000000000000000e+00" cType="1" res="-6.6603644518181682e-04" rms="4.4214797019958496e-01" purity="4.6002978086471558e-01" nType="-99"/>
        </Node>
        <Node pos="r" depth="1" NCoef="0" IVar="4" Cut="9.4627553224563599e-01" cType="1" res="3.0815599020570517e-03" rms="4.3769624829292297e-01" purity="5.0834459066390991e-01" nType="0">
          <Node pos="l" depth="2" NCoef="0" IVar="-1" Cut="0.0000000000000000e+00" cType="1" res="-3.1352558289654553e-04" rms="4.4067844748497009e-01" purity="4.5745950937271118e-01" nType="-99"/>
          <Node pos="r" depth="2" NCoef="0" IVar="-1" Cut="0.0000000000000000e+00" cType="1" res="6.4521003514528275e-03" rms="4.2240151762962341e-01" purity="7.5360238552093506e-01" nType="-99"/>
        </Node>
      </Node>
    </BinaryTree>
    <BinaryTree type="DecisionTree" boostWeight="1.0000000000000000e+00" itree="74">
      <Node pos="s" depth="0" NCoef="0" IVar="0" Cut="1.6267509460449219e+00" cType="1" res="9.5504496130160987e-05" rms="4.3859672546386719e-01" purity="4.9971643090248108e-01" nType="0">
        <Node pos="l" depth="1" NCoef="0" IVar="0" Cut="7.8226447105407715e-01" cType="1" res="2.3850882425904274e-03" rms="4.4099912047386169e-01" purity="5.1792180538177490e-01" nType="0">
          <Node pos="l" depth="2" NCoef="0" IVar="-1" Cut="0.0000000000000000e+00" cType="1" res="5.4966965690255165e-03" rms="4.3331089615821838e-01" purity="6.7319214344024658e-01" nType="-99"/>
          <Node pos="r" depth="2" NCoef="0" IVar="-1" Cut="0.0000000000000000e+00" cType="1" res="-9.9140976089984179e-04" rms="4.4343706965446472e-01" purity="4.6442520618438721e-01" nType="-99"/>
        </Node>
        <Node pos="r" depth="1" NCoef="0" IVar="-1" Cut="0.0000000000000000e+00" cType="1" res="-8.7548056617379189e-03" rms="4.0178957581520081e-01" purity="2.4285468459129333e-01" nType="-99"/>
      </Node>
    </BinaryTree>
    <BinaryTree type="DecisionTree" boostWeight="1.0000000000000000e+00" itree="75">
      <Node pos="s" depth="0" NCoef="0" IVar="10" Cut="4.3904762268066406e+01" cType="1" res="-2.8364523313939571e-03" rms="4.3776917457580566e-01" purity="4.9777823686599731e-01" nType="0">
        <Node pos="l" depth="1" NCoef="0" IVar="10" Cut="3.9523808956146240e+00" cType="1" res="3.9496101089753211e-04" rms="4.3844205141067505e-01" purity="5.0568938255310059e-01" nType="0">
          <Node pos="l" depth="2" NCoef="0" IVar="-1" Cut="0.0000000000000000e+00" cType="1" res="-1.4594567008316517e-02" rms="4.7957673668861389e-01" purity="4.4564595818519592e-01" nType="-99"/>
          <Node pos="r" depth="2" NCoef="0" IVar="-1" Cut="0.0000000000000000e+00" cType="1" res="1.8687123665586114e-03" rms="4.3315780162811279e-01" purity="5.1223754882812500e-01" nType="-99"/>
        </Node>
        <Node pos="r" depth="1" NCoef="0" IVar="0" Cut="9.4720566272735596e-01" cType="1" res="-3.0781609937548637e-02" rms="4.3089658021926880e-01" purity="4.2936214804649353e-01" nType="0">
          <Node pos="l" depth="2" NCoef="0" IVar="-1" Cut="0.0000000000000000e+00" cType="1" res="8.1605650484561920e-03" rms="4.5494288206100464e-01" purity="6.0582339763641357e-01" nType="-99"/>
          <Node pos="r" depth="2" NCoef="0" IVar="-1" Cut="0.0000000000000000e+00" cType="1" res="-2.7093729004263878e-02" rms="3.8882428407669067e-01" purity="2.2881631553173065e-01" nType="-99"/>
        </Node>
      </Node>
    </BinaryTree>
    <BinaryTree type="DecisionTree" boostWeight="1.0000000000000000e+00" itree="76">
      <Node pos="s" depth="0" NCoef="0" IVar="4" Cut="3.5840407013893127e-01" cType="1" res="2.2598826326429844e-03" rms="4.3798285722732544e-01" purity="5.0259828567504883e-01" nType="0">
        <Node pos="l" depth="1" NCoef="0" IVar="-1" Cut="0.0000000000000000e+00" cType="1" res="-1.5350886620581150e-02" rms="2.7199590206146240e-01" purity="8.2203559577465057e-02" nType="-99"/>
        <Node pos="r" depth="1" NCoef="0" IVar="10" Cut="4.3904762268066406e+01" cType="1" res="4.3031913228332996e-03" rms="4.4623750448226929e-01" purity="5.2888864278793335e-01" nType="0">
          <Node pos="l" depth="2" NCoef="0" IVar="-1" Cut="0.0000000000000000e+00" cType="1" res="1.7561846179887652e-03" rms="4.4675683975219727e-01" purity="5.3805351257324219e-01" nType="-99"/>
          <Node pos="r" depth="2" NCoef="0" IVar="-1" Cut="0.0000000000000000e+00" cType="1" res="-4.8620030283927917e-03" rms="4.4105869531631470e-01" purity="4.5113152265548706e-01" nType="-99"/>
        </Node>
      </Node>
    </BinaryTree>
    <BinaryTree type="DecisionTree" boostWeight="1.0000000000000000e+00" itree="77">
      <Node pos="s" depth="0" NCoef="0" IVar="8" Cut="-1.4942413568496704e+00" cType="1" res="-9.0360408648848534e-04" rms="4.3762984871864319e-01" purity="4.9963605403900146e-01" nType="0">
        <Node pos="l" depth="1" NCoef="0" IVar="-1" Cut="0.0000000000000000e+00" cType="1" res="7.6227975077927113e-03" rms="4.1651734709739685e-01" purity="6.8572491407394409e-01" nType="-99"/>
        <Node pos="r" depth="1" NCoef="0" IVar="8" Cut="6.5360003709793091e-01" cType="1" res="-3.2914308831095695e-03" rms="4.3916243314743042e-01" purity="4.8496446013450623e-01" nType="0">
          <Node pos="l" depth="2" NCoef="0" IVar="-1" Cut="0.0000000000000000e+00" cType="1" res="-2.0316867157816887e-03" rms="4.4255629181861877e-01" purity="4.5368877053260803e-01" nType="-99"/>
          <Node pos="r" depth="2" NCoef="0" IVar="-1" Cut="0.0000000000000000e+00" cType="1" res="2.7938133571296930e-03" rms="4.2867371439933777e-01" purity="5.7727187871932983e-01" nType="-99"/>
        </Node>
      </Node>
    </BinaryTree>
    <BinaryTree type="DecisionTree" boostWeight="1.0000000000000000e+00" itree="78">
      <Node pos="s" depth="0" NCoef="0" IVar="4" Cut="9.4742769002914429e-01" cType="1" res="-4.0156976319849491e-04" rms="4.3811583518981934e-01" purity="4.9898523092269897e-01" nType="0">
        <Node pos="l" depth="1" NCoef="0" IVar="0" Cut="6.7828577756881714e-01" cType="1" res="-4.0611005388200283e-03" rms="4.4030132889747620e-01" purity="4.4834700226783752e-01" nType="0">
          <Node pos="l" depth="2" NCoef="0" IVar="-1" Cut="0.0000000000000000e+00" cType="1" res="6.9983806461095810e-03" rms="4.4640669226646423e-01" purity="6.2022888660430908e-01" nType="-99"/>
          <Node pos="r" depth="2" NCoef="0" IVar="-1" Cut="0.0000000000000000e+00" cType="1" res="-1.8721669912338257e-03" rms="4.3951532244682312e-01" purity="4.3027931451797485e-01" nType="-99"/>
        </Node>
        <Node pos="r" depth="1" NCoef="0" IVar="0" Cut="8.4646129608154297e-01" cType="1" res="1.6783716157078743e-02" rms="4.2728438973426819e-01" purity="7.3678398132324219e-01" nType="0">
          <Node pos="l" depth="2" NCoef="0" IVar="-1" Cut="0.0000000000000000e+00" cType="1" res="-2.5953333824872971e-03" rms="4.0699905157089233e-01" purity="7.7504640817642212e-01" nType="-99"/>
          <Node pos="r" depth="2" NCoef="0" IVar="-1" Cut="0.0000000000000000e+00" cType="1" res="1.0994698852300644e-02" rms="4.4835054874420166e-01" purity="6.9126635789871216e-01" nType="-99"/>
        </Node>
      </Node>
    </BinaryTree>
    <BinaryTree type="DecisionTree" boostWeight="1.0000000000000000e+00" itree="79">
      <Node pos="s" depth="0" NCoef="0" IVar="5" Cut="3.5020284652709961e+00" cType="1" res="-1.2266181875020266e-03" rms="4.3845763802528381e-01" purity="4.9790006875991821e-01" nType="0">
        <Node pos="l" depth="1" NCoef="0" IVar="10" Cut="4.3904762268066406e+01" cType="1" res="-2.5801069568842649e-03" rms="4.3882423639297485e-01" purity="4.9602758884429932e-01" nType="0">
          <Node pos="l" depth="2" NCoef="0" IVar="-1" Cut="0.0000000000000000e+00" cType="1" res="-8.5361811841266899e-08" rms="4.3928936123847961e-01" purity="5.0357592105865479e-01" nType="-99"/>
          <Node pos="r" depth="2" NCoef="0" IVar="-1" Cut="0.0000000000000000e+00" cType="1" res="-7.4099334888160229e-03" rms="4.3306881189346313e-01" purity="4.1777655482292175e-01" nType="-99"/>
        </Node>
        <Node pos="r" depth="1" NCoef="0" IVar="-1" Cut="0.0000000000000000e+00" cType="1" res="8.5205957293510437e-03" rms="4.2727577686309814e-01" purity="5.4673105478286743e-01" nType="-99"/>
      </Node>
    </BinaryTree>
    <BinaryTree type="DecisionTree" boostWeight="1.0000000000000000e+00" itree="80">
      <Node pos="s" depth="0" NCoef="0" IVar="0" Cut="1.8038128614425659e+00" cType="1" res="3.7209445144981146e-04" rms="4.3684142827987671e-01" purity="5.0016206502914429e-01" nType="0">
        <Node pos="l" depth="1" NCoef="0" IVar="0" Cut="7.8180414438247681e-01" cType="1" res="1.8278516363352537e-03" rms="4.3834099173545837e-01" purity="5.1221621036529541e-01" nType="0">
          <Node pos="l" depth="2" NCoef="0" IVar="-1" Cut="0.0000000000000000e+00" cType="1" res="5.7521802373230457e-03" rms="4.3079212307929993e-01" purity="6.7693769931793213e-01" nType="-99"/>
          <Node pos="r" depth="2" NCoef="0" IVar="-1" Cut="0.0000000000000000e+00" cType="1" res="-1.2133268173784018e-03" rms="4.4063398241996765e-01" purity="4.5710709691047668e-01" nType="-99"/>
        </Node>
        <Node pos="r" depth="1" NCoef="0" IVar="-1" Cut="0.0000000000000000e+00" cType="1" res="-8.8033182546496391e-03" rms="4.0085461735725403e-01" purity="2.3325017094612122e-01" nType="-99"/>
      </Node>
    </BinaryTree>
    <BinaryTree type="DecisionTree" boostWeight="1.0000000000000000e+00" itree="81">
      <Node pos="s" depth="0" NCoef="0" IVar="10" Cut="4.1523811340332031e+01" cType="1" res="-2.2752387449145317e-03" rms="4.3913227319717407e-01" purity="4.9817249178886414e-01" nType="0">
        <Node pos="l" depth="1" NCoef="0" IVar="10" Cut="3.8571429252624512e+00" cType="1" res="6.0885347193107009e-04" rms="4.3957257270812988e-01" purity="5.0638431310653687e-01" nType="0">
          <Node pos="l" depth="2" NCoef="0" IVar="-1" Cut="0.0000000000000000e+00" cType="1" res="-1.4438109472393990e-02" rms="4.8298636078834534e-01" purity="4.4521754980087280e-01" nType="-99"/>
          <Node pos="r" depth="2" NCoef="0" IVar="-1" Cut="0.0000000000000000e+00" cType="1" res="1.9478258909657598e-03" rms="4.3390098214149475e-01" purity="5.1320403814315796e-01" nType="-99"/>
        </Node>
        <Node pos="r" depth="1" NCoef="0" IVar="0" Cut="1.0252188444137573e+00" cType="1" res="-2.4069618433713913e-02" rms="4.3517312407493591e-01" purity="4.3611758947372437e-01" nType="0">
          <Node pos="l" depth="2" NCoef="0" IVar="-1" Cut="0.0000000000000000e+00" cType="1" res="3.7307159509509802e-03" rms="4.6136388182640076e-01" purity="5.5670064687728882e-01" nType="-99"/>
          <Node pos="r" depth="2" NCoef="0" IVar="-1" Cut="0.0000000000000000e+00" cType="1" res="-3.1566936522722244e-02" rms="3.5376068949699402e-01" purity="1.6530652344226837e-01" nType="-99"/>
        </Node>
      </Node>
    </BinaryTree>
    <BinaryTree type="DecisionTree" boostWeight="1.0000000000000000e+00" itree="82">
      <Node pos="s" depth="0" NCoef="0" IVar="8" Cut="1.7353018522262573e+00" cType="1" res="5.8488332433626056e-04" rms="4.3751862645149231e-01" purity="4.9993959069252014e-01" nType="0">
        <Node pos="l" depth="1" NCoef="0" IVar="8" Cut="-1.5992443561553955e+00" cType="1" res="-1.0522459633648396e-03" rms="4.3905377388000488e-01" purity="4.8884192109107971e-01" nType="0">
          <Node pos="l" depth="2" NCoef="0" IVar="-1" Cut="0.0000000000000000e+00" cType="1" res="6.7075039260089397e-03" rms="4.1522929072380066e-01" purity="6.9555062055587769e-01" nType="-99"/>
          <Node pos="r" depth="2" NCoef="0" IVar="-1" Cut="0.0000000000000000e+00" cType="1" res="-7.2441127849742770e-04" rms="4.4057881832122803e-01" purity="4.7469258308410645e-01" nType="-99"/>
        </Node>
        <Node pos="r" depth="1" NCoef="0" IVar="-1" Cut="0.0000000000000000e+00" cType="1" res="8.6444225162267685e-03" rms="4.0510228276252747e-01" purity="7.1636801958084106e-01" nType="-99"/>
      </Node>
    </BinaryTree>
    <BinaryTree type="DecisionTree" boostWeight="1.0000000000000000e+00" itree="83">
      <Node pos="s" depth="0" NCoef="0" IVar="5" Cut="3.3019182682037354e+00" cType="1" res="5.3582561668008566e-04" rms="4.3862238526344299e-01" purity="4.9981787800788879e-01" nType="0">
        <Node pos="l" depth="1" NCoef="0" IVar="10" Cut="3.5523811340332031e+01" cType="1" res="-9.7806565463542938e-04" rms="4.3921753764152527e-01" purity="4.9763202667236328e-01" nType="0">
          <Node pos="l" depth="2" NCoef="0" IVar="-1" Cut="0.0000000000000000e+00" cType="1" res="6.4212654251605272e-04" rms="4.4105252623558044e-01" purity="5.0542330741882324e-01" nType="-99"/>
          <Node pos="r" depth="2" NCoef="0" IVar="-1" Cut="0.0000000000000000e+00" cType="1" res="-5.5887214839458466e-03" rms="4.2764332890510559e-01" purity="4.5166322588920593e-01" nType="-99"/>
        </Node>
        <Node pos="r" depth="1" NCoef="0" IVar="-1" Cut="0.0000000000000000e+00" cType="1" res="8.0815311521291733e-03" rms="4.2477503418922424e-01" purity="5.4545855522155762e-01" nType="-99"/>
      </Node>
    </BinaryTree>
    <BinaryTree type="DecisionTree" boostWeight="1.0000000000000000e+00" itree="84">
      <Node pos="s" depth="0" NCoef="0" IVar="6" Cut="-3.8571429252624512e+00" cType="1" res="1.5122834593057632e-03" rms="4.3703728914260864e-01" purity="5.0104469060897827e-01" nType="0">
        <Node pos="l" depth="1" NCoef="0" IVar="0" Cut="9.8422968387603760e-01" cType="1" res="-1.5516702085733414e-02" rms="4.2546296119689941e-01" purity="4.6701762080192566e-01" nType="0">
          <Node pos="l" depth="2" NCoef="0" IVar="-1" Cut="0.0000000000000000e+00" cType="1" res="3.2026425469666719e-03" rms="4.3588802218437195e-01" purity="6.0699301958084106e-01" nType="-99"/>
          <Node pos="r" depth="2" NCoef="0" IVar="-1" Cut="0.0000000000000000e+00" cType="1" res="-1.3127364218235016e-02" rms="4.0958273410797119e-01" purity="2.9413533210754395e-01" nType="-99"/>
        </Node>
        <Node pos="r" depth="1" NCoef="0" IVar="9" Cut="7.1428573131561279e-01" cType="1" res="4.2546042241156101e-03" rms="4.3881088495254517e-01" purity="5.0652438402175903e-01" nType="0">
          <Node pos="l" depth="2" NCoef="0" IVar="-1" Cut="0.0000000000000000e+00" cType="1" res="1.5326100401580334e-03" rms="4.3756023049354553e-01" purity="5.1258963346481323e-01" nType="-99"/>
          <Node pos="r" depth="2" NCoef="0" IVar="-1" Cut="0.0000000000000000e+00" cType="1" res="-7.0639196783304214e-03" rms="4.5953127741813660e-01" purity="3.9735716581344604e-01" nType="-99"/>
        </Node>
      </Node>
    </BinaryTree>
    <BinaryTree type="DecisionTree" boostWeight="1.0000000000000000e+00" itree="85">
      <Node pos="s" depth="0" NCoef="0" IVar="9" Cut="-7.1428573131561279e-01" cType="1" res="5.6099373614415526e-04" rms="4.3678405880928040e-01" purity="5.0130826234817505e-01" nType="0">
        <Node pos="l" depth="1" NCoef="0" IVar="-1" Cut="0.0000000000000000e+00" cType="1" res="-8.7271770462393761e-03" rms="4.4972401857376099e-01" purity="3.8092026114463806e-01" nType="-99"/>
        <Node pos="r" depth="1" NCoef="0" IVar="4" Cut="9.4696003198623657e-01" cType="1" res="2.2850753739476204e-03" rms="4.3606537580490112e-01" purity="5.0722581148147583e-01" nType="0">
          <Node pos="l" depth="2" NCoef="0" IVar="-1" Cut="0.0000000000000000e+00" cType="1" res="-4.5111065264791250e-04" rms="4.3915423750877380e-01" purity="4.5616286993026733e-01" nType="-99"/>
          <Node pos="r" depth="2" NCoef="0" IVar="-1" Cut="0.0000000000000000e+00" cType="1" res="6.0184942558407784e-03" rms="4.2018684744834900e-01" purity="7.5506550073623657e-01" nType="-99"/>
        </Node>
      </Node>
    </BinaryTree>
    <BinaryTree type="DecisionTree" boostWeight="1.0000000000000000e+00" itree="86">
      <Node pos="s" depth="0" NCoef="0" IVar="8" Cut="-6.3515365123748779e-01" cType="1" res="-1.0225481819361448e-03" rms="4.3775931000709534e-01" purity="4.9898353219032288e-01" nType="0">
        <Node pos="l" depth="1" NCoef="0" IVar="4" Cut="5.6109595298767090e-01" cType="1" res="1.1005362495779991e-02" rms="4.2981424927711487e-01" purity="5.7629448175430298e-01" nType="0">
          <Node pos="l" depth="2" NCoef="0" IVar="-1" Cut="0.0000000000000000e+00" cType="1" res="-1.2465214356780052e-02" rms="3.4499621391296387e-01" purity="1.5586365759372711e-01" nType="-99"/>
          <Node pos="r" depth="2" NCoef="0" IVar="-1" Cut="0.0000000000000000e+00" cType="1" res="4.8981891013681889e-03" rms="4.4383651018142700e-01" purity="6.5793871879577637e-01" nType="-99"/>
        </Node>
        <Node pos="r" depth="1" NCoef="0" IVar="9" Cut="-5.2380955219268799e-01" cType="1" res="-4.7654528170824051e-03" rms="4.4013538956642151e-01" purity="4.7492551803588867e-01" nType="0">
          <Node pos="l" depth="2" NCoef="0" IVar="-1" Cut="0.0000000000000000e+00" cType="1" res="-1.0353222489356995e-02" rms="4.4700530171394348e-01" purity="3.4617754817008972e-01" nType="-99"/>
          <Node pos="r" depth="2" NCoef="0" IVar="-1" Cut="0.0000000000000000e+00" cType="1" res="-2.3961065744515508e-04" rms="4.3921640515327454e-01" purity="4.8883819580078125e-01" nType="-99"/>
        </Node>
      </Node>
    </BinaryTree>
    <BinaryTree type="DecisionTree" boostWeight="1.0000000000000000e+00" itree="87">
      <Node pos="s" depth="0" NCoef="0" IVar="10" Cut="6.0666667938232422e+01" cType="1" res="-3.4198374487459660e-04" rms="4.3735957145690918e-01" purity="4.9989432096481323e-01" nType="0">
        <Node pos="l" depth="1" NCoef="0" IVar="7" Cut="9.4254255294799805e+00" cType="1" res="1.2049825163558125e-03" rms="4.3723669648170471e-01" purity="5.0608098506927490e-01" nType="0">
          <Node pos="l" depth="2" NCoef="0" IVar="-1" Cut="0.0000000000000000e+00" cType="1" res="-1.0372881661169231e-04" rms="4.3880316615104675e-01" purity="4.9495691061019897e-01" nType="-99"/>
          <Node pos="r" depth="2" NCoef="0" IVar="-1" Cut="0.0000000000000000e+00" cType="1" res="9.9474303424358368e-03" rms="3.9995652437210083e-01" purity="7.4858427047729492e-01" nType="-99"/>
        </Node>
        <Node pos="r" depth="1" NCoef="0" IVar="-1" Cut="0.0000000000000000e+00" cType="1" res="-1.0252904146909714e-02" rms="4.3861979246139526e-01" purity="3.3594742417335510e-01" nType="-99"/>
      </Node>
    </BinaryTree>
    <BinaryTree type="DecisionTree" boostWeight="1.0000000000000000e+00" itree="88">
      <Node pos="s" depth="0" NCoef="0" IVar="10" Cut="9.6190471649169922e+00" cType="1" res="1.4869053848087788e-03" rms="4.3745255470275879e-01" purity="5.0199246406555176e-01" nType="0">
        <Node pos="l" depth="1" NCoef="0" IVar="10" Cut="3.3333332538604736e+00" cType="1" res="1.1458805762231350e-02" rms="4.6222496032714844e-01" purity="5.2597308158874512e-01" nType="0">
          <Node pos="l" depth="2" NCoef="0" IVar="-1" Cut="0.0000000000000000e+00" cType="1" res="-1.2093930505216122e-02" rms="4.7793671488761902e-01" purity="4.4271558523178101e-01" nType="-99"/>
          <Node pos="r" depth="2" NCoef="0" IVar="-1" Cut="0.0000000000000000e+00" cType="1" res="8.7358383461833000e-03" rms="4.5376235246658325e-01" purity="5.5766993761062622e-01" nType="-99"/>
        </Node>
        <Node pos="r" depth="1" NCoef="0" IVar="0" Cut="1.0377382040023804e+00" cType="1" res="-3.2435634639114141e-03" rms="4.2511481046676636e-01" purity="4.9061655998229980e-01" nType="0">
          <Node pos="l" depth="2" NCoef="0" IVar="-1" Cut="0.0000000000000000e+00" cType="1" res="4.3895323760807514e-03" rms="4.3256497383117676e-01" purity="6.0583138465881348e-01" nType="-99"/>
          <Node pos="r" depth="2" NCoef="0" IVar="-1" Cut="0.0000000000000000e+00" cType="1" res="-1.0597281157970428e-02" rms="4.0888109803199768e-01" purity="2.8369712829589844e-01" nType="-99"/>
        </Node>
      </Node>
    </BinaryTree>
    <BinaryTree type="DecisionTree" boostWeight="1.0000000000000000e+00" itree="89">
      <Node pos="s" depth="0" NCoef="0" IVar="10" Cut="1.0380952835083008e+01" cType="1" res="-1.3407035730779171e-03" rms="4.3703123927116394e-01" purity="4.9788483977317810e-01" nType="0">
        <Node pos="l" depth="1" NCoef="0" IVar="10" Cut="3.1428570747375488e+00" cType="1" res="7.2799483314156532e-03" rms="4.5955663919448853e-01" purity="5.2176266908645630e-01" nType="0">
          <Node pos="l" depth="2" NCoef="0" IVar="-1" Cut="0.0000000000000000e+00" cType="1" res="-1.2045275419950485e-02" rms="4.7890362143516541e-01" purity="4.3726149201393127e-01" nType="-99"/>
          <Node pos="r" depth="2" NCoef="0" IVar="-1" Cut="0.0000000000000000e+00" cType="1" res="6.6494368948042393e-03" rms="4.5119860768318176e-01" purity="5.4994708299636841e-01" nType="-99"/>
        </Node>
        <Node pos="r" depth="1" NCoef="0" IVar="0" Cut="9.8555427789688110e-01" cType="1" res="-6.1026071198284626e-03" rms="4.2400076985359192e-01" purity="4.8469516634941101e-01" nType="0">
          <Node pos="l" depth="2" NCoef="0" IVar="-1" Cut="0.0000000000000000e+00" cType="1" res="4.4017508625984192e-03" rms="4.3046519160270691e-01" purity="6.2095540761947632e-01" nType="-99"/>
          <Node pos="r" depth="2" NCoef="0" IVar="-1" Cut="0.0000000000000000e+00" cType="1" res="-9.5314932987093925e-03" rms="4.1353690624237061e-01" purity="3.0753406882286072e-01" nType="-99"/>
        </Node>
      </Node>
    </BinaryTree>
    <BinaryTree type="DecisionTree" boostWeight="1.0000000000000000e+00" itree="90">
      <Node pos="s" depth="0" NCoef="0" IVar="10" Cut="4.0333332061767578e+01" cType="1" res="-1.0136517230421305e-03" rms="4.3752223253250122e-01" purity="4.9909231066703796e-01" nType="0">
        <Node pos="l" depth="1" NCoef="0" IVar="10" Cut="3.8095238208770752e+00" cType="1" res="1.1439388617873192e-03" rms="4.3868446350097656e-01" purity="5.0646233558654785e-01" nType="0">
          <Node pos="l" depth="2" NCoef="0" IVar="-1" Cut="0.0000000000000000e+00" cType="1" res="-1.0891074314713478e-02" rms="4.7753542661666870e-01" purity="4.3973648548126221e-01" nType="-99"/>
          <Node pos="r" depth="2" NCoef="0" IVar="-1" Cut="0.0000000000000000e+00" cType="1" res="1.6938383923843503e-03" rms="4.3376410007476807e-01" purity="5.1396644115447998e-01" nType="-99"/>
        </Node>
        <Node pos="r" depth="1" NCoef="0" IVar="0" Cut="8.8984173536300659e-01" cType="1" res="-1.6385382041335106e-02" rms="4.2883685231208801e-01" purity="4.4658482074737549e-01" nType="0">
          <Node pos="l" depth="2" NCoef="0" IVar="-1" Cut="0.0000000000000000e+00" cType="1" res="1.2018067762255669e-02" rms="4.4614911079406738e-01" purity="6.5886795520782471e-01" nType="-99"/>
          <Node pos="r" depth="2" NCoef="0" IVar="-1" Cut="0.0000000000000000e+00" cType="1" res="-1.5649069100618362e-02" rms="4.1104641556739807e-01" purity="3.0376675724983215e-01" nType="-99"/>
        </Node>
      </Node>
    </BinaryTree>
    <BinaryTree type="DecisionTree" boostWeight="1.0000000000000000e+00" itree="91">
      <Node pos="s" depth="0" NCoef="0" IVar="2" Cut="-9.3058556318283081e-01" cType="1" res="-2.2902175260242075e-04" rms="4.3845418095588684e-01" purity="4.9968773126602173e-01" nType="0">
        <Node pos="l" depth="1" NCoef="0" IVar="0" Cut="9.1359728574752808e-01" cType="1" res="1.5821808949112892e-02" rms="4.3053308129310608e-01" purity="5.1542365550994873e-01" nType="0">
          <Node pos="l" depth="2" NCoef="0" IVar="-1" Cut="0.0000000000000000e+00" cType="1" res="9.1646378859877586e-03" rms="4.2628461122512817e-01" purity="6.7486512660980225e-01" nType="-99"/>
          <Node pos="r" depth="2" NCoef="0" IVar="-1" Cut="0.0000000000000000e+00" cType="1" res="1.8619948241394013e-04" rms="4.3332672119140625e-01" purity="3.8733062148094177e-01" nType="-99"/>
        </Node>
        <Node pos="r" depth="1" NCoef="0" IVar="5" Cut="1.5843240022659302e+00" cType="1" res="-3.3376582432538271e-03" rms="4.3990412354469299e-01" purity="4.9663999676704407e-01" nType="0">
          <Node pos="l" depth="2" NCoef="0" IVar="-1" Cut="0.0000000000000000e+00" cType="1" res="1.0212496999884024e-04" rms="4.4533580541610718e-01" purity="5.0402164459228516e-01" nType="-99"/>
          <Node pos="r" depth="2" NCoef="0" IVar="-1" Cut="0.0000000000000000e+00" cType="1" res="-2.8247183654457331e-03" rms="4.2874196171760559e-01" purity="4.8188406229019165e-01" nType="-99"/>
        </Node>
      </Node>
    </BinaryTree>
    <BinaryTree type="DecisionTree" boostWeight="1.0000000000000000e+00" itree="92">
      <Node pos="s" depth="0" NCoef="0" IVar="4" Cut="9.4742769002914429e-01" cType="1" res="-4.0415997500531375e-04" rms="4.3732881546020508e-01" purity="4.9857470393180847e-01" nType="0">
        <Node pos="l" depth="1" NCoef="0" IVar="0" Cut="6.3683319091796875e-01" cType="1" res="-3.1644271221011877e-03" rms="4.3949794769287109e-01" purity="4.4791048765182495e-01" nType="0">
          <Node pos="l" depth="2" NCoef="0" IVar="-1" Cut="0.0000000000000000e+00" cType="1" res="6.5038590691983700e-03" rms="4.5295229554176331e-01" purity="6.2109637260437012e-01" nType="-99"/>
          <Node pos="r" depth="2" NCoef="0" IVar="-1" Cut="0.0000000000000000e+00" cType="1" res="-1.3665348524227738e-03" rms="4.3838232755661011e-01" purity="4.3480622768402100e-01" nType="-99"/>
        </Node>
        <Node pos="r" depth="1" NCoef="0" IVar="0" Cut="9.2640215158462524e-01" cType="1" res="1.2477234005928040e-02" rms="4.2682436108589172e-01" purity="7.3501032590866089e-01" nType="0">
          <Node pos="l" depth="2" NCoef="0" IVar="-1" Cut="0.0000000000000000e+00" cType="1" res="-4.4953413307666779e-03" rms="4.0942245721817017e-01" purity="7.6882088184356689e-01" nType="-99"/>
          <Node pos="r" depth="2" NCoef="0" IVar="-1" Cut="0.0000000000000000e+00" cType="1" res="1.4640682376921177e-02" rms="4.5407247543334961e-01" purity="6.6928249597549438e-01" nType="-99"/>
        </Node>
      </Node>
    </BinaryTree>
    <BinaryTree type="DecisionTree" boostWeight="1.0000000000000000e+00" itree="93">
      <Node pos="s" depth="0" NCoef="0" IVar="6" Cut="4.5238094329833984e+00" cType="1" res="-9.7317548352293670e-05" rms="4.3616315722465515e-01" purity="4.9989953637123108e-01" nType="0">
        <Node pos="l" depth="1" NCoef="0" IVar="4" Cut="9.0506869554519653e-01" cType="1" res="2.2150464355945587e-03" rms="4.3711510300636292e-01" purity="5.0499820709228516e-01" nType="0">
          <Node pos="l" depth="2" NCoef="0" IVar="-1" Cut="0.0000000000000000e+00" cType="1" res="-4.6154044684953988e-04" rms="4.3920782208442688e-01" purity="4.1417115926742554e-01" nType="-99"/>
          <Node pos="r" depth="2" NCoef="0" IVar="-1" Cut="0.0000000000000000e+00" cType="1" res="3.0030577909201384e-03" rms="4.3211126327514648e-01" purity="7.1425700187683105e-01" nType="-99"/>
        </Node>
        <Node pos="r" depth="1" NCoef="0" IVar="0" Cut="9.9598163366317749e-01" cType="1" res="-1.8917709589004517e-02" rms="4.2787188291549683e-01" purity="4.5840123295783997e-01" nType="0">
          <Node pos="l" depth="2" NCoef="0" IVar="-1" Cut="0.0000000000000000e+00" cType="1" res="-9.7726518288254738e-04" rms="4.4209083914756775e-01" purity="5.8762139081954956e-01" nType="-99"/>
          <Node pos="r" depth="2" NCoef="0" IVar="-1" Cut="0.0000000000000000e+00" cType="1" res="-1.0894057340919971e-02" rms="4.0643677115440369e-01" purity="2.7944862842559814e-01" nType="-99"/>
        </Node>
      </Node>
    </BinaryTree>
    <BinaryTree type="DecisionTree" boostWeight="1.0000000000000000e+00" itree="94">
      <Node pos="s" depth="0" NCoef="0" IVar="9" Cut="7.1428573131561279e-01" cType="1" res="1.2904802570119500e-03" rms="4.3723195791244507e-01" purity="5.0071740150451660e-01" nType="0">
        <Node pos="l" depth="1" NCoef="0" IVar="4" Cut="3.9083993434906006e-01" cType="1" res="2.9728813096880913e-03" rms="4.3630695343017578e-01" purity="5.0647628307342529e-01" nType="0">
          <Node pos="l" depth="2" NCoef="0" IVar="-1" Cut="0.0000000000000000e+00" cType="1" res="-1.1410996317863464e-02" rms="2.8414943814277649e-01" purity="9.0997368097305298e-02" nType="-99"/>
          <Node pos="r" depth="2" NCoef="0" IVar="-1" Cut="0.0000000000000000e+00" cType="1" res="1.3027909444645047e-03" rms="4.4756248593330383e-01" purity="5.4443120956420898e-01" nType="-99"/>
        </Node>
        <Node pos="r" depth="1" NCoef="0" IVar="-1" Cut="0.0000000000000000e+00" cType="1" res="-8.1910034641623497e-03" rms="4.5412680506706238e-01" purity="3.8480809330940247e-01" nType="-99"/>
      </Node>
    </BinaryTree>
    <BinaryTree type="DecisionTree" boostWeight="1.0000000000000000e+00" itree="95">
      <Node pos="s" depth="0" NCoef="0" IVar="5" Cut="3.4236428737640381e+00" cType="1" res="-1.7039840167853981e-04" rms="4.3782562017440796e-01" purity="4.9928674101829529e-01" nType="0">
        <Node pos="l" depth="1" NCoef="0" IVar="5" Cut="1.7882484197616577e+00" cType="1" res="-1.5329160960391164e-03" rms="4.3841239809989929e-01" purity="4.9709132313728333e-01" nType="0">
          <Node pos="l" depth="2" NCoef="0" IVar="-1" Cut="0.0000000000000000e+00" cType="1" res="6.1245611868798733e-04" rms="4.4199377298355103e-01" purity="5.0539779663085938e-01" nType="-99"/>
          <Node pos="r" depth="2" NCoef="0" IVar="-1" Cut="0.0000000000000000e+00" cType="1" res="-3.6065881140530109e-03" rms="4.2688357830047607e-01" purity="4.7133138775825500e-01" nType="-99"/>
        </Node>
        <Node pos="r" depth="1" NCoef="0" IVar="-1" Cut="0.0000000000000000e+00" cType="1" res="8.2734683528542519e-03" rms="4.2215174436569214e-01" purity="5.5206930637359619e-01" nType="-99"/>
      </Node>
    </BinaryTree>
    <BinaryTree type="DecisionTree" boostWeight="1.0000000000000000e+00" itree="96">
      <Node pos="s" depth="0" NCoef="0" IVar="4" Cut="9.4698321819305420e-01" cType="1" res="1.4837854541838169e-03" rms="4.3685483932495117e-01" purity="5.0097995996475220e-01" nType="0">
        <Node pos="l" depth="1" NCoef="0" IVar="0" Cut="6.7828577756881714e-01" cType="1" res="-1.4165156753733754e-03" rms="4.3921789526939392e-01" purity="4.4995257258415222e-01" nType="0">
          <Node pos="l" depth="2" NCoef="0" IVar="-1" Cut="0.0000000000000000e+00" cType="1" res="4.8060934059321880e-03" rms="4.4610249996185303e-01" purity="6.2257957458496094e-01" nType="-99"/>
          <Node pos="r" depth="2" NCoef="0" IVar="-1" Cut="0.0000000000000000e+00" cType="1" res="-9.1251550475135446e-04" rms="4.3842422962188721e-01" purity="4.3163362145423889e-01" nType="-99"/>
        </Node>
        <Node pos="r" depth="1" NCoef="0" IVar="0" Cut="9.4893598556518555e-01" cType="1" res="1.5041249804198742e-02" rms="4.2537268996238708e-01" purity="7.3950761556625366e-01" nType="0">
          <Node pos="l" depth="2" NCoef="0" IVar="-1" Cut="0.0000000000000000e+00" cType="1" res="-2.9264162294566631e-03" rms="4.0733650326728821e-01" purity="7.7205860614776611e-01" nType="-99"/>
          <Node pos="r" depth="2" NCoef="0" IVar="-1" Cut="0.0000000000000000e+00" cType="1" res="1.5276440419256687e-02" rms="4.5760861039161682e-01" purity="6.6859269142150879e-01" nType="-99"/>
        </Node>
      </Node>
    </BinaryTree>
    <BinaryTree type="DecisionTree" boostWeight="1.0000000000000000e+00" itree="97">
      <Node pos="s" depth="0" NCoef="0" IVar="7" Cut="2.8278248310089111e+00" cType="1" res="4.0180722135119140e-04" rms="4.3828642368316650e-01" purity="4.9976950883865356e-01" nType="0">
        <Node pos="l" depth="1" NCoef="0" IVar="7" Cut="1.0542395114898682e+00" cType="1" res="-5.5998107418417931e-03" rms="4.5009458065032959e-01" purity="4.3397960066795349e-01" nType="0">
          <Node pos="l" depth="2" NCoef="0" IVar="-1" Cut="0.0000000000000000e+00" cType="1" res="-8.0151595175266266e-03" rms="4.7953477501869202e-01" purity="4.4137212634086609e-01" nType="-99"/>
          <Node pos="r" depth="2" NCoef="0" IVar="-1" Cut="0.0000000000000000e+00" cType="1" res="5.8696820633485913e-04" rms="4.4137519598007202e-01" purity="4.3195798993110657e-01" nType="-99"/>
        </Node>
        <Node pos="r" depth="1" NCoef="0" IVar="0" Cut="7.6856702566146851e-01" cType="1" res="5.9322682209312916e-03" rms="4.2704167962074280e-01" purity="5.6039458513259888e-01" nType="0">
          <Node pos="l" depth="2" NCoef="0" IVar="-1" Cut="0.0000000000000000e+00" cType="1" res="1.1441177688539028e-02" rms="3.9726963639259338e-01" purity="7.6360499858856201e-01" nType="-99"/>
          <Node pos="r" depth="2" NCoef="0" IVar="-1" Cut="0.0000000000000000e+00" cType="1" res="-7.9853151692077518e-04" rms="4.3420800566673279e-01" purity="5.0604438781738281e-01" nType="-99"/>
        </Node>
      </Node>
    </BinaryTree>
    <BinaryTree type="DecisionTree" boostWeight="1.0000000000000000e+00" itree="98">
      <Node pos="s" depth="0" NCoef="0" IVar="6" Cut="-5.1904764175415039e+00" cType="1" res="1.9415881251916289e-04" rms="4.3648225069046021e-01" purity="5.0032258033752441e-01" nType="0">
        <Node pos="l" depth="1" NCoef="0" IVar="-1" Cut="0.0000000000000000e+00" cType="1" res="-6.1792391352355480e-03" rms="4.2421749234199524e-01" purity="4.3973413109779358e-01" nType="-99"/>
        <Node pos="r" depth="1" NCoef="0" IVar="6" Cut="1.0952380895614624e+00" cType="1" res="1.7089036991819739e-03" rms="4.3722105026245117e-01" purity="5.0424402952194214e-01" nType="0">
          <Node pos="l" depth="2" NCoef="0" IVar="-1" Cut="0.0000000000000000e+00" cType="1" res="1.6926001990213990e-03" rms="4.4019100069999695e-01" purity="5.1423925161361694e-01" nType="-99"/>
          <Node pos="r" depth="2" NCoef="0" IVar="-1" Cut="0.0000000000000000e+00" cType="1" res="-1.8805512227118015e-03" rms="4.3164941668510437e-01" purity="4.8615482449531555e-01" nType="-99"/>
        </Node>
      </Node>
    </BinaryTree>
    <BinaryTree type="DecisionTree" boostWeight="1.0000000000000000e+00" itree="99">
      <Node pos="s" depth="0" NCoef="0" IVar="9" Cut="-7.1428573131561279e-01" cType="1" res="-1.2111999094486237e-03" rms="4.3745201826095581e-01" purity="4.9883973598480225e-01" nType="0">
        <Node pos="l" depth="1" NCoef="0" IVar="-1" Cut="0.0000000000000000e+00" cType="1" res="-6.7179212346673012e-03" rms="4.5288172364234924e-01" purity="3.7919962406158447e-01" nType="-99"/>
        <Node pos="r" depth="1" NCoef="0" IVar="10" Cut="1.0380952835083008e+01" cType="1" res="3.0146049539325759e-05" rms="4.3663772940635681e-01" purity="5.0475364923477173e-01" nType="0">
          <Node pos="l" depth="2" NCoef="0" IVar="-1" Cut="0.0000000000000000e+00" cType="1" res="2.4301898665726185e-03" rms="4.6050280332565308e-01" purity="5.3423130512237549e-01" nType="-99"/>
          <Node pos="r" depth="2" NCoef="0" IVar="-1" Cut="0.0000000000000000e+00" cType="1" res="-1.3017659075558186e-03" rms="4.2413863539695740e-01" purity="4.9004298448562622e-01" nType="-99"/>
        </Node>
      </Node>
    </BinaryTree>
    <BinaryTree type="DecisionTree" boostWeight="1.0000000000000000e+00" itree="100">
      <Node pos="s" depth="0" NCoef="0" IVar="4" Cut="3.9084801077842712e-01" cType="1" res="-1.1414116015657783e-03" rms="4.3651261925697327e-01" purity="4.9818313121795654e-01" nType="0">
        <Node pos="l" depth="1" NCoef="0" IVar="7" Cut="2.2224268913269043e+00" cType="1" res="-1.9122704863548279e-02" rms="2.8671562671661377e-01" purity="9.2644356191158295e-02" nType="0">
          <Node pos="l" depth="2" NCoef="0" IVar="-1" Cut="0.0000000000000000e+00" cType="1" res="5.4596393601968884e-04" rms="3.3432522416114807e-01" purity="1.3041414320468903e-01" nType="-99"/>
          <Node pos="r" depth="2" NCoef="0" IVar="-1" Cut="0.0000000000000000e+00" cType="1" res="-1.8656535074114799e-02" rms="2.4757812917232513e-01" purity="6.6549912095069885e-02" nType="-99"/>
        </Node>
        <Node pos="r" depth="1" NCoef="0" IVar="8" Cut="-4.0452942252159119e-01" cType="1" res="5.4761412320658565e-04" rms="4.4798037409782410e-01" purity="5.3627634048461914e-01" nType="0">
          <Node pos="l" depth="2" NCoef="0" IVar="-1" Cut="0.0000000000000000e+00" cType="1" res="2.2270490881055593e-03" rms="4.4544118642807007e-01" purity="5.8431166410446167e-01" nType="-99"/>
          <Node pos="r" depth="2" NCoef="0" IVar="-1" Cut="0.0000000000000000e+00" cType="1" res="-8.4702379535883665e-04" rms="4.4912290573120117e-01" purity="5.1351249217987061e-01" nType="-99"/>
        </Node>
      </Node>
    </BinaryTree>
    <BinaryTree type="DecisionTree" boostWeight="1.0000000000000000e+00" itree="101">
      <Node pos="s" depth="0" NCoef="0" IVar="7" Cut="2.7690470218658447e+00" cType="1" res="-2.0742325577884912e-03" rms="4.3601790070533752e-01" purity="4.9746802449226379e-01" nType="0">
        <Node pos="l" depth="1" NCoef="0" IVar="8" Cut="-5.7445031404495239e-01" cType="1" res="-8.2926219329237938e-03" rms="4.4747304916381836e-01" purity="4.3013894557952881e-01" nType="0">
          <Node pos="l" depth="2" NCoef="0" IVar="-1" Cut="0.0000000000000000e+00" cType="1" res="4.9640196375548840e-03" rms="4.5275411009788513e-01" purity="5.2550292015075684e-01" nType="-99"/>
          <Node pos="r" depth="2" NCoef="0" IVar="-1" Cut="0.0000000000000000e+00" cType="1" res="-3.1881676986813545e-03" rms="4.4650426506996155e-01" purity="4.1557434201240540e-01" nType="-99"/>
        </Node>
        <Node pos="r" depth="1" NCoef="0" IVar="0" Cut="7.8266286849975586e-01" cType="1" res="3.4163799136877060e-03" rms="4.2557170987129211e-01" purity="5.5691707134246826e-01" nType="0">
          <Node pos="l" depth="2" NCoef="0" IVar="-1" Cut="0.0000000000000000e+00" cType="1" res="9.2233223840594292e-03" rms="4.0010917186737061e-01" purity="7.5351089239120483e-01" nType="-99"/>
          <Node pos="r" depth="2" NCoef="0" IVar="-1" Cut="0.0000000000000000e+00" cType="1" res="-1.3406705111265182e-03" rms="4.3264576792716980e-01" purity="4.9710419774055481e-01" nType="-99"/>
        </Node>
      </Node>
    </BinaryTree>
    <BinaryTree type="DecisionTree" boostWeight="1.0000000000000000e+00" itree="102">
      <Node pos="s" depth="0" NCoef="0" IVar="8" Cut="1.4741249084472656e+00" cType="1" res="-1.7170788487419486e-03" rms="4.3711566925048828e-01" purity="4.9740585684776306e-01" nType="0">
        <Node pos="l" depth="1" NCoef="0" IVar="10" Cut="1.0380952835083008e+01" cType="1" res="-3.6993168760091066e-03" rms="4.3900969624519348e-01" purity="4.8189502954483032e-01" nType="0">
          <Node pos="l" depth="2" NCoef="0" IVar="-1" Cut="0.0000000000000000e+00" cType="1" res="7.9389411257579923e-04" rms="4.6254238486289978e-01" purity="5.1406091451644897e-01" nType="-99"/>
          <Node pos="r" depth="2" NCoef="0" IVar="-1" Cut="0.0000000000000000e+00" cType="1" res="-2.0964413415640593e-03" rms="4.2412289977073669e-01" purity="4.6248522400856018e-01" nType="-99"/>
        </Node>
        <Node pos="r" depth="1" NCoef="0" IVar="-1" Cut="0.0000000000000000e+00" cType="1" res="6.0503869317471981e-03" rms="4.1250732541084290e-01" purity="6.8690603971481323e-01" nType="-99"/>
      </Node>
    </BinaryTree>
    <BinaryTree type="DecisionTree" boostWeight="1.0000000000000000e+00" itree="103">
      <Node pos="s" depth="0" NCoef="0" IVar="6" Cut="-4.5714287757873535e+00" cType="1" res="-8.1402424257248640e-04" rms="4.3700549006462097e-01" purity="4.9840402603149414e-01" nType="0">
        <Node pos="l" depth="1" NCoef="0" IVar="0" Cut="9.3326681852340698e-01" cType="1" res="-1.7606118693947792e-02" rms="4.2507043480873108e-01" purity="4.5147162675857544e-01" nType="0">
          <Node pos="l" depth="2" NCoef="0" IVar="-1" Cut="0.0000000000000000e+00" cType="1" res="4.4987141154706478e-04" rms="4.3486914038658142e-01" purity="6.1336451768875122e-01" nType="-99"/>
          <Node pos="r" depth="2" NCoef="0" IVar="-1" Cut="0.0000000000000000e+00" cType="1" res="-9.1379731893539429e-03" rms="4.1582959890365601e-01" purity="3.1350418925285339e-01" nType="-99"/>
        </Node>
        <Node pos="r" depth="1" NCoef="0" IVar="9" Cut="6.1904764175415039e-01" cType="1" res="8.5225212387740612e-04" rms="4.3813696503639221e-01" purity="5.0306111574172974e-01" nType="0">
          <Node pos="l" depth="2" NCoef="0" IVar="-1" Cut="0.0000000000000000e+00" cType="1" res="6.5428443485870957e-04" rms="4.3690195679664612e-01" purity="5.1018118858337402e-01" nType="-99"/>
          <Node pos="r" depth="2" NCoef="0" IVar="-1" Cut="0.0000000000000000e+00" cType="1" res="-4.8812064342200756e-03" rms="4.5195642113685608e-01" purity="4.1915348172187805e-01" nType="-99"/>
        </Node>
      </Node>
    </BinaryTree>
    <BinaryTree type="DecisionTree" boostWeight="1.0000000000000000e+00" itree="104">
      <Node pos="s" depth="0" NCoef="0" IVar="8" Cut="1.0723240375518799e+00" cType="1" res="2.6949411258101463e-03" rms="4.3707442283630371e-01" purity="5.0125002861022949e-01" nType="0">
        <Node pos="l" depth="1" NCoef="0" IVar="10" Cut="4.8857143402099609e+01" cType="1" res="4.7456592437811196e-04" rms="4.3940487504005432e-01" purity="4.7953867912292480e-01" nType="0">
          <Node pos="l" depth="2" NCoef="0" IVar="-1" Cut="0.0000000000000000e+00" cType="1" res="4.5094283996149898e-04" rms="4.4004887342453003e-01" purity="4.8686069250106812e-01" nType="-99"/>
          <Node pos="r" depth="2" NCoef="0" IVar="-1" Cut="0.0000000000000000e+00" cType="1" res="-4.2379512451589108e-03" rms="4.3052232265472412e-01" purity="3.8359406590461731e-01" nType="-99"/>
        </Node>
        <Node pos="r" depth="1" NCoef="0" IVar="9" Cut="-3.3243935555219650e-02" cType="1" res="1.6877867281436920e-02" rms="4.2160883545875549e-01" purity="6.3993418216705322e-01" nType="0">
          <Node pos="l" depth="2" NCoef="0" IVar="-1" Cut="0.0000000000000000e+00" cType="1" res="-2.9644600581377745e-03" rms="4.1934978961944580e-01" purity="5.2826750278472900e-01" nType="-99"/>
          <Node pos="r" depth="2" NCoef="0" IVar="-1" Cut="0.0000000000000000e+00" cType="1" res="7.1738190017640591e-03" rms="4.2197293043136597e-01" purity="6.8132477998733521e-01" nType="-99"/>
        </Node>
      </Node>
    </BinaryTree>
    <BinaryTree type="DecisionTree" boostWeight="1.0000000000000000e+00" itree="105">
      <Node pos="s" depth="0" NCoef="0" IVar="5" Cut="3.2631218433380127e+00" cType="1" res="-9.1411080211400986e-04" rms="4.3697834014892578e-01" purity="4.9918812513351440e-01" nType="0">
        <Node pos="l" depth="1" NCoef="0" IVar="10" Cut="5.2285713195800781e+01" cType="1" res="-1.9511638674885035e-03" rms="4.3751749396324158e-01" purity="4.9745544791221619e-01" nType="0">
          <Node pos="l" depth="2" NCoef="0" IVar="-1" Cut="0.0000000000000000e+00" cType="1" res="-9.7199961601290852e-05" rms="4.3774431943893433e-01" purity="5.0460857152938843e-01" nType="-99"/>
          <Node pos="r" depth="2" NCoef="0" IVar="-1" Cut="0.0000000000000000e+00" cType="1" res="-8.8190631940960884e-03" rms="4.3158170580863953e-01" purity="3.5085520148277283e-01" nType="-99"/>
        </Node>
        <Node pos="r" depth="1" NCoef="0" IVar="-1" Cut="0.0000000000000000e+00" cType="1" res="5.1070270128548145e-03" rms="4.2552170157432556e-01" purity="5.3383946418762207e-01" nType="-99"/>
      </Node>
    </BinaryTree>
    <BinaryTree type="DecisionTree" boostWeight="1.0000000000000000e+00" itree="106">
      <Node pos="s" depth="0" NCoef="0" IVar="4" Cut="9.4626301527023315e-01" cType="1" res="1.3713293010368943e-03" rms="4.3698108196258545e-01" purity="5.0059133768081665e-01" nType="0">
        <Node pos="l" depth="1" NCoef="0" IVar="10" Cut="9.6666669845581055e+00" cType="1" res="-8.8984629837796092e-04" rms="4.3950328230857849e-01" purity="4.4899448752403259e-01" nType="0">
          <Node pos="l" depth="2" NCoef="0" IVar="-1" Cut="0.0000000000000000e+00" cType="1" res="2.1759264636784792e-03" rms="4.6939170360565186e-01" purity="4.3988686800003052e-01" nType="-99"/>
          <Node pos="r" depth="2" NCoef="0" IVar="-1" Cut="0.0000000000000000e+00" cType="1" res="-1.1081440607085824e-03" rms="4.2884865403175354e-01" purity="4.5208129286766052e-01" nType="-99"/>
        </Node>
        <Node pos="r" depth="1" NCoef="0" IVar="0" Cut="9.9089992046356201e-01" cType="1" res="1.1718290857970715e-02" rms="4.2509552836418152e-01" purity="7.3669469356536865e-01" nType="0">
          <Node pos="l" depth="2" NCoef="0" IVar="-1" Cut="0.0000000000000000e+00" cType="1" res="-2.3871064186096191e-03" rms="4.0799295902252197e-01" purity="7.6996195316314697e-01" nType="-99"/>
          <Node pos="r" depth="2" NCoef="0" IVar="-1" Cut="0.0000000000000000e+00" cType="1" res="1.4209697023034096e-02" rms="4.6435302495956421e-01" purity="6.4590460062026978e-01" nType="-99"/>
        </Node>
      </Node>
    </BinaryTree>
    <BinaryTree type="DecisionTree" boostWeight="1.0000000000000000e+00" itree="107">
      <Node pos="s" depth="0" NCoef="0" IVar="8" Cut="2.5447770953178406e-01" cType="1" res="-1.9336462719365954e-04" rms="4.3652239441871643e-01" purity="4.9843949079513550e-01" nType="0">
        <Node pos="l" depth="1" NCoef="0" IVar="9" Cut="3.3333334326744080e-01" cType="1" res="-4.4539459049701691e-03" rms="4.3789952993392944e-01" purity="4.8042047023773193e-01" nType="0">
          <Node pos="l" depth="2" NCoef="0" IVar="-1" Cut="0.0000000000000000e+00" cType="1" res="-3.8927872083149850e-05" rms="4.3886774778366089e-01" purity="5.0290930271148682e-01" nType="-99"/>
          <Node pos="r" depth="2" NCoef="0" IVar="-1" Cut="0.0000000000000000e+00" cType="1" res="-7.4507966637611389e-03" rms="4.3185904622077942e-01" purity="3.5834217071533203e-01" nType="-99"/>
        </Node>
        <Node pos="r" depth="1" NCoef="0" IVar="10" Cut="1.0714285850524902e+01" cType="1" res="6.8742921575903893e-03" rms="4.3413612246513367e-01" purity="5.2833020687103271e-01" nType="0">
          <Node pos="l" depth="2" NCoef="0" IVar="-1" Cut="0.0000000000000000e+00" cType="1" res="5.8379243128001690e-03" rms="4.5890745520591736e-01" purity="5.6693124771118164e-01" nType="-99"/>
          <Node pos="r" depth="2" NCoef="0" IVar="-1" Cut="0.0000000000000000e+00" cType="1" res="-1.6049228725023568e-04" rms="4.2245724797248840e-01" purity="5.1119136810302734e-01" nType="-99"/>
        </Node>
      </Node>
    </BinaryTree>
    <BinaryTree type="DecisionTree" boostWeight="1.0000000000000000e+00" itree="108">
      <Node pos="s" depth="0" NCoef="0" IVar="9" Cut="-6.1904764175415039e-01" cType="1" res="1.5486362390220165e-03" rms="4.3613266944885254e-01" purity="5.0218397378921509e-01" nType="0">
        <Node pos="l" depth="1" NCoef="0" IVar="9" Cut="-7.6419073343276978e-01" cType="1" res="-1.9006807357072830e-02" rms="4.4258382916450500e-01" purity="4.0998047590255737e-01" nType="0">
          <Node pos="l" depth="2" NCoef="0" IVar="-1" Cut="0.0000000000000000e+00" cType="1" res="-1.0195005685091019e-02" rms="4.4743239879608154e-01" purity="3.6037194728851318e-01" nType="-99"/>
          <Node pos="r" depth="2" NCoef="0" IVar="-1" Cut="0.0000000000000000e+00" cType="1" res="4.3523652129806578e-04" rms="4.3673452734947205e-01" purity="4.5924833416938782e-01" nType="-99"/>
        </Node>
        <Node pos="r" depth="1" NCoef="0" IVar="9" Cut="7.6871353387832642e-01" cType="1" res="3.1623991671949625e-03" rms="4.3558108806610107e-01" purity="5.0942265987396240e-01" nType="0">
          <Node pos="l" depth="2" NCoef="0" IVar="-1" Cut="0.0000000000000000e+00" cType="1" res="1.1928339954465628e-03" rms="4.3490418791770935e-01" purity="5.1478338241577148e-01" nType="-99"/>
          <Node pos="r" depth="2" NCoef="0" IVar="-1" Cut="0.0000000000000000e+00" cType="1" res="-8.6559709161520004e-03" rms="4.5080509781837463e-01" purity="3.7344333529472351e-01" nType="-99"/>
        </Node>
      </Node>
    </BinaryTree>
    <BinaryTree type="DecisionTree" boostWeight="1.0000000000000000e+00" itree="109">
      <Node pos="s" depth="0" NCoef="0" IVar="8" Cut="7.3393678665161133e-01" cType="1" res="1.7615827964618802e-03" rms="4.3719106912612915e-01" purity="5.0108289718627930e-01" nType="0">
        <Node pos="l" depth="1" NCoef="0" IVar="9" Cut="5.2380955219268799e-01" cType="1" res="-9.1758061898872256e-04" rms="4.3971577286720276e-01" purity="4.7636714577674866e-01" nType="0">
          <Node pos="l" depth="2" NCoef="0" IVar="-1" Cut="0.0000000000000000e+00" cType="1" res="4.1659470298327506e-04" rms="4.3831840157508850e-01" purity="4.8883739113807678e-01" nType="-99"/>
          <Node pos="r" depth="2" NCoef="0" IVar="-1" Cut="0.0000000000000000e+00" cType="1" res="-6.2731094658374786e-03" rms="4.5166832208633423e-01" purity="3.6192649602890015e-01" nType="-99"/>
        </Node>
        <Node pos="r" depth="1" NCoef="0" IVar="10" Cut="1.1666666984558105e+01" cType="1" res="1.1671511456370354e-02" rms="4.2757716774940491e-01" purity="5.9250384569168091e-01" nType="0">
          <Node pos="l" depth="2" NCoef="0" IVar="-1" Cut="0.0000000000000000e+00" cType="1" res="9.8518747836351395e-03" rms="4.4084101915359497e-01" purity="6.5104675292968750e-01" nType="-99"/>
          <Node pos="r" depth="2" NCoef="0" IVar="-1" Cut="0.0000000000000000e+00" cType="1" res="4.0667763096280396e-04" rms="4.2203658819198608e-01" purity="5.7048916816711426e-01" nType="-99"/>
        </Node>
      </Node>
    </BinaryTree>
    <BinaryTree type="DecisionTree" boostWeight="1.0000000000000000e+00" itree="110">
      <Node pos="s" depth="0" NCoef="0" IVar="5" Cut="3.4333469867706299e+00" cType="1" res="-1.9293311052024364e-03" rms="4.3688091635704041e-01" purity="4.9875253438949585e-01" nType="0">
        <Node pos="l" depth="1" NCoef="0" IVar="10" Cut="4.3904762268066406e+01" cType="1" res="-3.0406543519347906e-03" rms="4.3736219406127930e-01" purity="4.9698403477668762e-01" nType="0">
          <Node pos="l" depth="2" NCoef="0" IVar="-1" Cut="0.0000000000000000e+00" cType="1" res="-3.3417053055018187e-04" rms="4.3781951069831848e-01" purity="5.0476771593093872e-01" nType="-99"/>
          <Node pos="r" depth="2" NCoef="0" IVar="-1" Cut="0.0000000000000000e+00" cType="1" res="-5.5401884019374847e-03" rms="4.3207734823226929e-01" purity="4.1481927037239075e-01" nType="-99"/>
        </Node>
        <Node pos="r" depth="1" NCoef="0" IVar="-1" Cut="0.0000000000000000e+00" cType="1" res="6.5983915701508522e-03" rms="4.2375442385673523e-01" purity="5.4287427663803101e-01" nType="-99"/>
      </Node>
    </BinaryTree>
    <BinaryTree type="DecisionTree" boostWeight="1.0000000000000000e+00" itree="111">
      <Node pos="s" depth="0" NCoef="0" IVar="9" Cut="-5.2380955219268799e-01" cType="1" res="1.9409434171393514e-03" rms="4.3688517808914185e-01" purity="5.0153577327728271e-01" nType="0">
        <Node pos="l" depth="1" NCoef="0" IVar="8" Cut="-4.5773208141326904e-01" cType="1" res="-1.6232972964644432e-02" rms="4.4309538602828979e-01" purity="4.3049484491348267e-01" nType="0">
          <Node pos="l" depth="2" NCoef="0" IVar="-1" Cut="0.0000000000000000e+00" cType="1" res="1.9780038855969906e-03" rms="4.5518460869789124e-01" purity="5.8538258075714111e-01" nType="-99"/>
          <Node pos="r" depth="2" NCoef="0" IVar="-1" Cut="0.0000000000000000e+00" cType="1" res="-8.8050384074449539e-03" rms="4.3384498357772827e-01" purity="3.2445329427719116e-01" nType="-99"/>
        </Node>
        <Node pos="r" depth="1" NCoef="0" IVar="10" Cut="1.0380952835083008e+01" cType="1" res="4.0748594328761101e-03" rms="4.3610051274299622e-01" purity="5.0987714529037476e-01" nType="0">
          <Node pos="l" depth="2" NCoef="0" IVar="-1" Cut="0.0000000000000000e+00" cType="1" res="4.1217505931854248e-03" rms="4.5780342817306519e-01" purity="5.4337900876998901e-01" nType="-99"/>
          <Node pos="r" depth="2" NCoef="0" IVar="-1" Cut="0.0000000000000000e+00" cType="1" res="-4.9301417311653495e-04" rms="4.2553424835205078e-01" purity="4.9434792995452881e-01" nType="-99"/>
        </Node>
      </Node>
    </BinaryTree>
    <BinaryTree type="DecisionTree" boostWeight="1.0000000000000000e+00" itree="112">
      <Node pos="s" depth="0" NCoef="0" IVar="7" Cut="2.8278248310089111e+00" cType="1" res="-7.5715756975114346e-04" rms="4.3693652749061584e-01" purity="4.9919003248214722e-01" nType="0">
        <Node pos="l" depth="1" NCoef="0" IVar="0" Cut="1.2041730880737305e+00" cType="1" res="-7.6028634794056416e-03" rms="4.4795078039169312e-01" purity="4.3119916319847107e-01" nType="0">
          <Node pos="l" depth="2" NCoef="0" IVar="-1" Cut="0.0000000000000000e+00" cType="1" res="-4.4001587666571140e-03" rms="4.5810827612876892e-01" purity="4.9739992618560791e-01" nType="-99"/>
          <Node pos="r" depth="2" NCoef="0" IVar="-1" Cut="0.0000000000000000e+00" cType="1" res="3.2683489844202995e-03" rms="4.2699754238128662e-01" purity="3.0359441041946411e-01" nType="-99"/>
        </Node>
        <Node pos="r" depth="1" NCoef="0" IVar="0" Cut="7.7062201499938965e-01" cType="1" res="5.5192648433148861e-03" rms="4.2649182677268982e-01" purity="5.6152695417404175e-01" nType="0">
          <Node pos="l" depth="2" NCoef="0" IVar="-1" Cut="0.0000000000000000e+00" cType="1" res="8.9199552312493324e-03" rms="3.9912545680999756e-01" purity="7.5939917564392090e-01" nType="-99"/>
          <Node pos="r" depth="2" NCoef="0" IVar="-1" Cut="0.0000000000000000e+00" cType="1" res="-3.2815927988849580e-04" rms="4.3341776728630066e-01" purity="5.0747507810592651e-01" nType="-99"/>
        </Node>
      </Node>
    </BinaryTree>
    <BinaryTree type="DecisionTree" boostWeight="1.0000000000000000e+00" itree="113">
      <Node pos="s" depth="0" NCoef="0" IVar="4" Cut="3.2404375076293945e-01" cType="1" res="6.3512986525893211e-04" rms="4.3599545955657959e-01" purity="5.0014710426330566e-01" nType="0">
        <Node pos="l" depth="1" NCoef="0" IVar="-1" Cut="0.0000000000000000e+00" cType="1" res="-1.3793112710118294e-02" rms="2.6013293862342834e-01" purity="7.4741557240486145e-02" nType="-99"/>
        <Node pos="r" depth="1" NCoef="0" IVar="4" Cut="9.5732277631759644e-01" cType="1" res="1.5541508328169584e-03" rms="4.4109678268432617e-01" purity="5.1577770709991455e-01" nType="0">
          <Node pos="l" depth="2" NCoef="0" IVar="-1" Cut="0.0000000000000000e+00" cType="1" res="-1.7127220053225756e-04" rms="4.4418612122535706e-01" purity="4.7588992118835449e-01" nType="-99"/>
          <Node pos="r" depth="2" NCoef="0" IVar="-1" Cut="0.0000000000000000e+00" cType="1" res="3.8833022117614746e-03" rms="4.2288327217102051e-01" purity="7.4250012636184692e-01" nType="-99"/>
        </Node>
      </Node>
    </BinaryTree>
    <BinaryTree type="DecisionTree" boostWeight="1.0000000000000000e+00" itree="114">
      <Node pos="s" depth="0" NCoef="0" IVar="9" Cut="7.1428573131561279e-01" cType="1" res="1.3341036392375827e-03" rms="4.3700337409973145e-01" purity="5.0111788511276245e-01" nType="0">
        <Node pos="l" depth="1" NCoef="0" IVar="9" Cut="-7.5510543584823608e-01" cType="1" res="2.3628494236618280e-03" rms="4.3606895208358765e-01" purity="5.0682967901229858e-01" nType="0">
          <Node pos="l" depth="2" NCoef="0" IVar="-1" Cut="0.0000000000000000e+00" cType="1" res="-6.3945781439542770e-03" rms="4.5185953378677368e-01" purity="3.6474695801734924e-01" nType="-99"/>
          <Node pos="r" depth="2" NCoef="0" IVar="-1" Cut="0.0000000000000000e+00" cType="1" res="9.0131995966657996e-04" rms="4.3536198139190674e-01" purity="5.1274824142456055e-01" nType="-99"/>
        </Node>
        <Node pos="r" depth="1" NCoef="0" IVar="-1" Cut="0.0000000000000000e+00" cType="1" res="-4.9399235285818577e-03" rms="4.5489689707756042e-01" purity="3.8623502850532532e-01" nType="-99"/>
      </Node>
    </BinaryTree>
    <BinaryTree type="DecisionTree" boostWeight="1.0000000000000000e+00" itree="115">
      <Node pos="s" depth="0" NCoef="0" IVar="5" Cut="3.2339868545532227e+00" cType="1" res="-1.3500149361789227e-03" rms="4.3774625658988953e-01" purity="4.9970903992652893e-01" nType="0">
        <Node pos="l" depth="1" NCoef="0" IVar="5" Cut="-4.1157800704240799e-02" cType="1" res="-2.4662397336214781e-03" rms="4.3827292323112488e-01" purity="4.9789762496948242e-01" nType="0">
          <Node pos="l" depth="2" NCoef="0" IVar="-1" Cut="0.0000000000000000e+00" cType="1" res="6.0727763921022415e-03" rms="4.6990638971328735e-01" purity="5.4449552297592163e-01" nType="-99"/>
          <Node pos="r" depth="2" NCoef="0" IVar="-1" Cut="0.0000000000000000e+00" cType="1" res="-9.7246142104268074e-04" rms="4.3670126795768738e-01" purity="4.9572843313217163e-01" nType="-99"/>
        </Node>
        <Node pos="r" depth="1" NCoef="0" IVar="-1" Cut="0.0000000000000000e+00" cType="1" res="5.3186644800007343e-03" rms="4.2668020725250244e-01" purity="5.3528296947479248e-01" nType="-99"/>
      </Node>
    </BinaryTree>
    <BinaryTree type="DecisionTree" boostWeight="1.0000000000000000e+00" itree="116">
      <Node pos="s" depth="0" NCoef="0" IVar="1" Cut="8.2179327011108398e+00" cType="1" res="9.3822862254455686e-04" rms="4.3754824995994568e-01" purity="5.0131577253341675e-01" nType="0">
        <Node pos="l" depth="1" NCoef="0" IVar="1" Cut="8.6750715970993042e-01" cType="1" res="-8.3736859960481524e-04" rms="4.3936142325401306e-01" purity="5.0105732679367065e-01" nType="0">
          <Node pos="l" depth="2" NCoef="0" IVar="-1" Cut="0.0000000000000000e+00" cType="1" res="-6.8247471936047077e-03" rms="4.6321830153465271e-01" purity="4.3759113550186157e-01" nType="-99"/>
          <Node pos="r" depth="2" NCoef="0" IVar="-1" Cut="0.0000000000000000e+00" cType="1" res="1.7784970987122506e-04" rms="4.3800112605094910e-01" purity="5.0443953275680542e-01" nType="-99"/>
        </Node>
        <Node pos="r" depth="1" NCoef="0" IVar="0" Cut="9.7087514400482178e-01" cType="1" res="1.6622530296444893e-02" rms="4.2086797952651978e-01" purity="5.0359916687011719e-01" nType="0">
          <Node pos="l" depth="2" NCoef="0" IVar="-1" Cut="0.0000000000000000e+00" cType="1" res="1.3128640130162239e-02" rms="4.2886030673980713e-01" purity="6.5510129928588867e-01" nType="-99"/>
          <Node pos="r" depth="2" NCoef="0" IVar="-1" Cut="0.0000000000000000e+00" cType="1" res="-8.8775409385561943e-03" rms="4.0421500802040100e-01" purity="2.8935861587524414e-01" nType="-99"/>
        </Node>
      </Node>
    </BinaryTree>
    <BinaryTree type="DecisionTree" boostWeight="1.0000000000000000e+00" itree="117">
      <Node pos="s" depth="0" NCoef="0" IVar="10" Cut="9.7619047164916992e+00" cType="1" res="3.1448728987015784e-04" rms="4.3691819906234741e-01" purity="5.0086593627929688e-01" nType="0">
        <Node pos="l" depth="1" NCoef="0" IVar="0" Cut="1.1777456998825073e+00" cType="1" res="7.3735965415835381e-03" rms="4.6216452121734619e-01" purity="5.2505636215209961e-01" nType="0">
          <Node pos="l" depth="2" NCoef="0" IVar="-1" Cut="0.0000000000000000e+00" cType="1" res="-4.2835078202188015e-03" rms="4.6438154578208923e-01" purity="6.0836124420166016e-01" nType="-99"/>
          <Node pos="r" depth="2" NCoef="0" IVar="-1" Cut="0.0000000000000000e+00" cType="1" res="1.1283108033239841e-02" rms="4.5590046048164368e-01" purity="3.9414811134338379e-01" nType="-99"/>
        </Node>
        <Node pos="r" depth="1" NCoef="0" IVar="0" Cut="8.4353047609329224e-01" cType="1" res="-3.0204367358237505e-03" rms="4.2442834377288818e-01" purity="4.8943763971328735e-01" nType="0">
          <Node pos="l" depth="2" NCoef="0" IVar="-1" Cut="0.0000000000000000e+00" cType="1" res="6.7179338075220585e-03" rms="4.1763865947723389e-01" purity="6.7484968900680542e-01" nType="-99"/>
          <Node pos="r" depth="2" NCoef="0" IVar="-1" Cut="0.0000000000000000e+00" cType="1" res="-4.1293851099908352e-03" rms="4.2696461081504822e-01" purity="4.0273824334144592e-01" nType="-99"/>
        </Node>
      </Node>
    </BinaryTree>
    <BinaryTree type="DecisionTree" boostWeight="1.0000000000000000e+00" itree="118">
      <Node pos="s" depth="0" NCoef="0" IVar="8" Cut="3.5971477627754211e-01" cType="1" res="5.1491241902112961e-04" rms="4.3696343898773193e-01" purity="5.0122219324111938e-01" nType="0">
        <Node pos="l" depth="1" NCoef="0" IVar="9" Cut="4.2857143282890320e-01" cType="1" res="-3.0466234311461449e-03" rms="4.3847149610519409e-01" purity="4.7933614253997803e-01" nType="0">
          <Node pos="l" depth="2" NCoef="0" IVar="-1" Cut="0.0000000000000000e+00" cType="1" res="7.8512282925657928e-05" rms="4.3905413150787354e-01" purity="4.9765425920486450e-01" nType="-99"/>
          <Node pos="r" depth="2" NCoef="0" IVar="-1" Cut="0.0000000000000000e+00" cType="1" res="-7.4836276471614838e-03" rms="4.3330919742584229e-01" purity="3.4330976009368896e-01" nType="-99"/>
        </Node>
        <Node pos="r" depth="1" NCoef="0" IVar="9" Cut="5.2431922405958176e-02" cType="1" res="7.4211223982274532e-03" rms="4.3394091725349426e-01" purity="5.4366177320480347e-01" nType="0">
          <Node pos="l" depth="2" NCoef="0" IVar="-1" Cut="0.0000000000000000e+00" cType="1" res="-1.3609523884952068e-03" rms="4.2517566680908203e-01" purity="4.6897795796394348e-01" nType="-99"/>
          <Node pos="r" depth="2" NCoef="0" IVar="-1" Cut="0.0000000000000000e+00" cType="1" res="4.0785879828035831e-03" rms="4.3961930274963379e-01" purity="5.9464395046234131e-01" nType="-99"/>
        </Node>
      </Node>
    </BinaryTree>
    <BinaryTree type="DecisionTree" boostWeight="1.0000000000000000e+00" itree="119">
      <Node pos="s" depth="0" NCoef="0" IVar="5" Cut="3.3019182682037354e+00" cType="1" res="1.4486070722341537e-04" rms="4.3718609213829041e-01" purity="4.9943810701370239e-01" nType="0">
        <Node pos="l" depth="1" NCoef="0" IVar="10" Cut="5.2285713195800781e+01" cType="1" res="-9.2097814194858074e-04" rms="4.3778571486473083e-01" purity="4.9745601415634155e-01" nType="0">
          <Node pos="l" depth="2" NCoef="0" IVar="-1" Cut="0.0000000000000000e+00" cType="1" res="3.9372091123368591e-05" rms="4.3822231888771057e-01" purity="5.0447022914886475e-01" nType="-99"/>
          <Node pos="r" depth="2" NCoef="0" IVar="-1" Cut="0.0000000000000000e+00" cType="1" res="-5.9549505822360516e-03" rms="4.2819446325302124e-01" purity="3.5435876250267029e-01" nType="-99"/>
        </Node>
        <Node pos="r" depth="1" NCoef="0" IVar="-1" Cut="0.0000000000000000e+00" cType="1" res="6.0074562206864357e-03" rms="4.2341136932373047e-01" purity="5.4214018583297729e-01" nType="-99"/>
      </Node>
    </BinaryTree>
    <BinaryTree type="DecisionTree" boostWeight="1.0000000000000000e+00" itree="120">
      <Node pos="s" depth="0" NCoef="0" IVar="10" Cut="6.0666667938232422e+01" cType="1" res="-9.5101766055449843e-04" rms="4.3628394603729248e-01" purity="4.9981915950775146e-01" nType="0">
        <Node pos="l" depth="1" NCoef="0" IVar="7" Cut="8.4345941543579102e+00" cType="1" res="2.2897565941093490e-05" rms="4.3632373213768005e-01" purity="5.0575542449951172e-01" nType="0">
          <Node pos="l" depth="2" NCoef="0" IVar="-1" Cut="0.0000000000000000e+00" cType="1" res="-3.5433640005066991e-04" rms="4.3849530816078186e-01" purity="4.9111890792846680e-01" nType="-99"/>
          <Node pos="r" depth="2" NCoef="0" IVar="-1" Cut="0.0000000000000000e+00" cType="1" res="6.0092406347393990e-03" rms="4.0112623572349548e-01" purity="7.2909224033355713e-01" nType="-99"/>
        </Node>
        <Node pos="r" depth="1" NCoef="0" IVar="-1" Cut="0.0000000000000000e+00" cType="1" res="-6.8653817288577557e-03" rms="4.3442517518997192e-01" purity="3.4198847413063049e-01" nType="-99"/>
      </Node>
    </BinaryTree>
    <BinaryTree type="DecisionTree" boostWeight="1.0000000000000000e+00" itree="121">
      <Node pos="s" depth="0" NCoef="0" IVar="6" Cut="-6.7142858505249023e+00" cType="1" res="-2.0635412074625492e-03" rms="4.3588930368423462e-01" purity="4.9776917695999146e-01" nType="0">
        <Node pos="l" depth="1" NCoef="0" IVar="-1" Cut="0.0000000000000000e+00" cType="1" res="-7.1440702304244041e-03" rms="4.2400747537612915e-01" purity="4.2289257049560547e-01" nType="-99"/>
        <Node pos="r" depth="1" NCoef="0" IVar="8" Cut="-1.4418777227401733e+00" cType="1" res="-1.0447636013850570e-03" rms="4.3634390830993652e-01" purity="5.0086665153503418e-01" nType="0">
          <Node pos="l" depth="2" NCoef="0" IVar="-1" Cut="0.0000000000000000e+00" cType="1" res="4.5980699360370636e-03" rms="4.1580963134765625e-01" purity="6.8339902162551880e-01" nType="-99"/>
          <Node pos="r" depth="2" NCoef="0" IVar="-1" Cut="0.0000000000000000e+00" cType="1" res="-6.6480407258495688e-04" rms="4.3801614642143250e-01" purity="4.8529878258705139e-01" nType="-99"/>
        </Node>
      </Node>
    </BinaryTree>
    <BinaryTree type="DecisionTree" boostWeight="1.0000000000000000e+00" itree="122">
      <Node pos="s" depth="0" NCoef="0" IVar="5" Cut="1.5554730892181396e+00" cType="1" res="1.0334026301279664e-03" rms="4.3609714508056641e-01" purity="5.0221842527389526e-01" nType="0">
        <Node pos="l" depth="1" NCoef="0" IVar="7" Cut="2.9155433177947998e+00" cType="1" res="5.1235747523605824e-03" rms="4.4245597720146179e-01" purity="5.1048427820205688e-01" nType="0">
          <Node pos="l" depth="2" NCoef="0" IVar="-1" Cut="0.0000000000000000e+00" cType="1" res="-4.0786946192383766e-04" rms="4.5340394973754883e-01" purity="4.5525658130645752e-01" nType="-99"/>
          <Node pos="r" depth="2" NCoef="0" IVar="-1" Cut="0.0000000000000000e+00" cType="1" res="4.2864126153290272e-03" rms="4.2359453439712524e-01" purity="6.0134637355804443e-01" nType="-99"/>
        </Node>
        <Node pos="r" depth="1" NCoef="0" IVar="0" Cut="8.0252921581268311e-01" cType="1" res="-6.2534296885132790e-03" rms="4.2443498969078064e-01" purity="4.8749250173568726e-01" nType="0">
          <Node pos="l" depth="2" NCoef="0" IVar="-1" Cut="0.0000000000000000e+00" cType="1" res="8.7816305458545685e-03" rms="4.1279590129852295e-01" purity="6.9817650318145752e-01" nType="-99"/>
          <Node pos="r" depth="2" NCoef="0" IVar="-1" Cut="0.0000000000000000e+00" cType="1" res="-4.7606383450329304e-03" rms="4.2735260725021362e-01" purity="4.2075818777084351e-01" nType="-99"/>
        </Node>
      </Node>
    </BinaryTree>
    <BinaryTree type="DecisionTree" boostWeight="1.0000000000000000e+00" itree="123">
      <Node pos="s" depth="0" NCoef="0" IVar="0" Cut="1.8038128614425659e+00" cType="1" res="7.0759508525952697e-04" rms="4.3651410937309265e-01" purity="5.0053435564041138e-01" nType="0">
        <Node pos="l" depth="1" NCoef="0" IVar="5" Cut="3.4236428737640381e+00" cType="1" res="1.9649919122457504e-03" rms="4.3832617998123169e-01" purity="5.1264220476150513e-01" nType="0">
          <Node pos="l" depth="2" NCoef="0" IVar="-1" Cut="0.0000000000000000e+00" cType="1" res="2.3109445464797318e-04" rms="4.3892830610275269e-01" purity="5.1088052988052368e-01" nType="-99"/>
          <Node pos="r" depth="2" NCoef="0" IVar="-1" Cut="0.0000000000000000e+00" cType="1" res="6.9226799532771111e-03" rms="4.2336562275886536e-01" purity="5.5350571870803833e-01" nType="-99"/>
        </Node>
        <Node pos="r" depth="1" NCoef="0" IVar="-1" Cut="0.0000000000000000e+00" cType="1" res="-7.8946212306618690e-03" rms="3.9224767684936523e-01" purity="2.2678153216838837e-01" nType="-99"/>
      </Node>
    </BinaryTree>
    <BinaryTree type="DecisionTree" boostWeight="1.0000000000000000e+00" itree="124">
      <Node pos="s" depth="0" NCoef="0" IVar="6" Cut="7.0000000000000000e+00" cType="1" res="1.6724660526961088e-03" rms="4.3653917312622070e-01" purity="5.0108683109283447e-01" nType="0">
        <Node pos="l" depth="1" NCoef="0" IVar="5" Cut="2.8116936683654785e+00" cType="1" res="2.7275865431874990e-03" rms="4.3727484345436096e-01" purity="5.0457042455673218e-01" nType="0">
          <Node pos="l" depth="2" NCoef="0" IVar="-1" Cut="0.0000000000000000e+00" cType="1" res="4.0541207999922335e-04" rms="4.3862637877464294e-01" purity="5.0218760967254639e-01" nType="-99"/>
          <Node pos="r" depth="2" NCoef="0" IVar="-1" Cut="0.0000000000000000e+00" cType="1" res="4.6168719418346882e-03" rms="4.1925966739654541e-01" purity="5.3515142202377319e-01" nType="-99"/>
        </Node>
        <Node pos="r" depth="1" NCoef="0" IVar="-1" Cut="0.0000000000000000e+00" cType="1" res="-5.1227859221398830e-03" rms="4.2129668593406677e-01" purity="4.3267673254013062e-01" nType="-99"/>
      </Node>
    </BinaryTree>
    <BinaryTree type="DecisionTree" boostWeight="1.0000000000000000e+00" itree="125">
      <Node pos="s" depth="0" NCoef="0" IVar="4" Cut="6.9468015432357788e-01" cType="1" res="1.9645188003778458e-03" rms="4.3683066964149475e-01" purity="5.0216728448867798e-01" nType="0">
        <Node pos="l" depth="1" NCoef="0" IVar="7" Cut="1.4063184261322021e+00" cType="1" res="7.9985531046986580e-03" rms="4.1904908418655396e-01" purity="2.9363381862640381e-01" nType="0">
          <Node pos="l" depth="2" NCoef="0" IVar="-1" Cut="0.0000000000000000e+00" cType="1" res="1.7079060897231102e-02" rms="4.5979562401771545e-01" purity="3.5720667243003845e-01" nType="-99"/>
          <Node pos="r" depth="2" NCoef="0" IVar="-1" Cut="0.0000000000000000e+00" cType="1" res="-1.7846107948571444e-04" rms="4.1173866391181946e-01" purity="2.8384062647819519e-01" nType="-99"/>
        </Node>
        <Node pos="r" depth="1" NCoef="0" IVar="10" Cut="4.0095237731933594e+01" cType="1" res="-1.7090392066165805e-03" rms="4.4727030396461487e-01" purity="6.2912374734878540e-01" nType="0">
          <Node pos="l" depth="2" NCoef="0" IVar="-1" Cut="0.0000000000000000e+00" cType="1" res="7.1107363328337669e-04" rms="4.4758808612823486e-01" purity="6.4361417293548584e-01" nType="-99"/>
          <Node pos="r" depth="2" NCoef="0" IVar="-1" Cut="0.0000000000000000e+00" cType="1" res="-7.8887417912483215e-03" rms="4.4385322928428650e-01" purity="5.3080338239669800e-01" nType="-99"/>
        </Node>
      </Node>
    </BinaryTree>
    <BinaryTree type="DecisionTree" boostWeight="1.0000000000000000e+00" itree="126">
      <Node pos="s" depth="0" NCoef="0" IVar="5" Cut="3.4426536560058594e+00" cType="1" res="1.4995200326666236e-03" rms="4.3582171201705933e-01" purity="5.0197559595108032e-01" nType="0">
        <Node pos="l" depth="1" NCoef="0" IVar="10" Cut="5.2285713195800781e+01" cType="1" res="4.2072948417626321e-04" rms="4.3631073832511902e-01" purity="4.9968668818473816e-01" nType="0">
          <Node pos="l" depth="2" NCoef="0" IVar="-1" Cut="0.0000000000000000e+00" cType="1" res="3.3180060563609004e-04" rms="4.3660923838615417e-01" purity="5.0681465864181519e-01" nType="-99"/>
          <Node pos="r" depth="2" NCoef="0" IVar="-1" Cut="0.0000000000000000e+00" cType="1" res="-4.5209797099232674e-03" rms="4.2977803945541382e-01" purity="3.5385739803314209e-01" nType="-99"/>
        </Node>
        <Node pos="r" depth="1" NCoef="0" IVar="-1" Cut="0.0000000000000000e+00" cType="1" res="7.3054134845733643e-03" rms="4.2263144254684448e-01" purity="5.5874782800674438e-01" nType="-99"/>
      </Node>
    </BinaryTree>
    <BinaryTree type="DecisionTree" boostWeight="1.0000000000000000e+00" itree="127">
      <Node pos="s" depth="0" NCoef="0" IVar="1" Cut="4.8906760215759277e+00" cType="1" res="-2.1124493796378374e-03" rms="4.3676763772964478e-01" purity="4.9937829375267029e-01" nType="0">
        <Node pos="l" depth="1" NCoef="0" IVar="0" Cut="1.1777456998825073e+00" cType="1" res="-5.3599802777171135e-03" rms="4.4137087464332581e-01" purity="5.0006276369094849e-01" nType="0">
          <Node pos="l" depth="2" NCoef="0" IVar="-1" Cut="0.0000000000000000e+00" cType="1" res="-3.1305216252803802e-03" rms="4.4623541831970215e-01" purity="5.7279932498931885e-01" nType="-99"/>
          <Node pos="r" depth="2" NCoef="0" IVar="-1" Cut="0.0000000000000000e+00" cType="1" res="3.0408175662159920e-03" rms="4.2882487177848816e-01" purity="3.2302883267402649e-01" nType="-99"/>
        </Node>
        <Node pos="r" depth="1" NCoef="0" IVar="0" Cut="1.0559499263763428e+00" cType="1" res="6.9332192651927471e-03" rms="4.2355096340179443e-01" purity="4.9747174978256226e-01" nType="0">
          <Node pos="l" depth="2" NCoef="0" IVar="-1" Cut="0.0000000000000000e+00" cType="1" res="6.5991953015327454e-03" rms="4.3497055768966675e-01" purity="6.0487604141235352e-01" nType="-99"/>
          <Node pos="r" depth="2" NCoef="0" IVar="-1" Cut="0.0000000000000000e+00" cType="1" res="-1.0791822336614132e-02" rms="3.9143455028533936e-01" purity="2.4158182740211487e-01" nType="-99"/>
        </Node>
      </Node>
    </BinaryTree>
    <BinaryTree type="DecisionTree" boostWeight="1.0000000000000000e+00" itree="128">
      <Node pos="s" depth="0" NCoef="0" IVar="6" Cut="-5.1904764175415039e+00" cType="1" res="-2.3669179063290358e-04" rms="4.3571415543556213e-01" purity="5.0134688615798950e-01" nType="0">
        <Node pos="l" depth="1" NCoef="0" IVar="-1" Cut="0.0000000000000000e+00" cType="1" res="-4.3898504227399826e-03" rms="4.2013141512870789e-01" purity="4.3964850902557373e-01" nType="-99"/>
        <Node pos="r" depth="1" NCoef="0" IVar="1" Cut="4.8906760215759277e+00" cType="1" res="8.0851512029767036e-04" rms="4.3668904900550842e-01" purity="5.0536429882049561e-01" nType="0">
          <Node pos="l" depth="2" NCoef="0" IVar="-1" Cut="0.0000000000000000e+00" cType="1" res="-3.9986608317121863e-04" rms="4.4170251488685608e-01" purity="5.0624132156372070e-01" nType="-99"/>
          <Node pos="r" depth="2" NCoef="0" IVar="-1" Cut="0.0000000000000000e+00" cType="1" res="2.1294001489877701e-03" rms="4.2105773091316223e-01" purity="5.0270771980285645e-01" nType="-99"/>
        </Node>
      </Node>
    </BinaryTree>
    <BinaryTree type="DecisionTree" boostWeight="1.0000000000000000e+00" itree="129">
      <Node pos="s" depth="0" NCoef="0" IVar="1" Cut="4.3589663505554199e+00" cType="1" res="-9.8378839902579784e-04" rms="4.3611904978752136e-01" purity="4.9835687875747681e-01" nType="0">
        <Node pos="l" depth="1" NCoef="0" IVar="1" Cut="1.0512681007385254e+00" cType="1" res="-4.9967942759394646e-03" rms="4.4222903251647949e-01" purity="4.9783784151077271e-01" nType="0">
          <Node pos="l" depth="2" NCoef="0" IVar="-1" Cut="0.0000000000000000e+00" cType="1" res="-7.8294230625033379e-03" rms="4.7513550519943237e-01" purity="4.5051863789558411e-01" nType="-99"/>
          <Node pos="r" depth="2" NCoef="0" IVar="-1" Cut="0.0000000000000000e+00" cType="1" res="-5.3888117690803483e-05" rms="4.3633589148521423e-01" purity="5.0570148229598999e-01" nType="-99"/>
        </Node>
        <Node pos="r" depth="1" NCoef="0" IVar="0" Cut="9.8109543323516846e-01" cType="1" res="7.7202166430652142e-03" rms="4.2243230342864990e-01" purity="4.9948257207870483e-01" nType="0">
          <Node pos="l" depth="2" NCoef="0" IVar="-1" Cut="0.0000000000000000e+00" cType="1" res="7.3719033971428871e-03" rms="4.3003183603286743e-01" purity="6.4021301269531250e-01" nType="-99"/>
          <Node pos="r" depth="2" NCoef="0" IVar="-1" Cut="0.0000000000000000e+00" cType="1" res="-5.5305990390479565e-03" rms="4.1017094254493713e-01" purity="3.0720856785774231e-01" nType="-99"/>
        </Node>
      </Node>
    </BinaryTree>
    <BinaryTree type="DecisionTree" boostWeight="1.0000000000000000e+00" itree="130">
      <Node pos="s" depth="0" NCoef="0" IVar="8" Cut="-6.0726624727249146e-01" cType="1" res="4.6536175068467855e-04" rms="4.3619579076766968e-01" purity="5.0038456916809082e-01" nType="0">
        <Node pos="l" depth="1" NCoef="0" IVar="9" Cut="-5.0564333796501160e-02" cType="1" res="9.0681165456771851e-03" rms="4.2961961030960083e-01" purity="5.7589071989059448e-01" nType="0">
          <Node pos="l" depth="2" NCoef="0" IVar="-1" Cut="0.0000000000000000e+00" cType="1" res="5.9141530655324459e-03" rms="4.3442282080650330e-01" purity="6.3215881586074829e-01" nType="-99"/>
          <Node pos="r" depth="2" NCoef="0" IVar="-1" Cut="0.0000000000000000e+00" cType="1" res="-3.2239716965705156e-03" rms="4.2134556174278259e-01" purity="4.9040561914443970e-01" nType="-99"/>
        </Node>
        <Node pos="r" depth="1" NCoef="0" IVar="9" Cut="-3.3333334326744080e-01" cType="1" res="-2.3585651069879532e-03" rms="4.3829616904258728e-01" purity="4.7559905052185059e-01" nType="0">
          <Node pos="l" depth="2" NCoef="0" IVar="-1" Cut="0.0000000000000000e+00" cType="1" res="-5.2929981611669064e-03" rms="4.3913933634757996e-01" purity="3.7657332420349121e-01" nType="-99"/>
          <Node pos="r" depth="2" NCoef="0" IVar="-1" Cut="0.0000000000000000e+00" cType="1" res="3.7620618240907788e-04" rms="4.3802118301391602e-01" purity="4.9672877788543701e-01" nType="-99"/>
        </Node>
      </Node>
    </BinaryTree>
    <BinaryTree type="DecisionTree" boostWeight="1.0000000000000000e+00" itree="131">
      <Node pos="s" depth="0" NCoef="0" IVar="10" Cut="1.0380952835083008e+01" cType="1" res="-1.6054045408964157e-03" rms="4.3541187047958374e-01" purity="4.9892121553421021e-01" nType="0">
        <Node pos="l" depth="1" NCoef="0" IVar="0" Cut="1.2076667547225952e+00" cType="1" res="4.8382179811596870e-03" rms="4.5833569765090942e-01" purity="5.2115482091903687e-01" nType="0">
          <Node pos="l" depth="2" NCoef="0" IVar="-1" Cut="0.0000000000000000e+00" cType="1" res="-2.8799094725400209e-03" rms="4.6145936846733093e-01" purity="6.0363936424255371e-01" nType="-99"/>
          <Node pos="r" depth="2" NCoef="0" IVar="-1" Cut="0.0000000000000000e+00" cType="1" res="8.4742782637476921e-03" rms="4.5117816329002380e-01" purity="3.7399026751518250e-01" nType="-99"/>
        </Node>
        <Node pos="r" depth="1" NCoef="0" IVar="0" Cut="1.3670966625213623e+00" cType="1" res="-5.1953010261058807e-03" rms="4.2205813527107239e-01" purity="4.8653432726860046e-01" nType="0">
          <Node pos="l" depth="2" NCoef="0" IVar="-1" Cut="0.0000000000000000e+00" cType="1" res="-5.1491275371517986e-05" rms="4.2825141549110413e-01" purity="5.1543599367141724e-01" nType="-99"/>
          <Node pos="r" depth="2" NCoef="0" IVar="-1" Cut="0.0000000000000000e+00" cType="1" res="-2.2784873843193054e-02" rms="3.3125343918800354e-01" purity="1.3329717516899109e-01" nType="-99"/>
        </Node>
      </Node>
    </BinaryTree>
    <BinaryTree type="DecisionTree" boostWeight="1.0000000000000000e+00" itree="132">
      <Node pos="s" depth="0" NCoef="0" IVar="8" Cut="1.9080734252929688e-01" cType="1" res="4.4454768067225814e-04" rms="4.3618521094322205e-01" purity="5.0025838613510132e-01" nType="0">
        <Node pos="l" depth="1" NCoef="0" IVar="9" Cut="5.2380955219268799e-01" cType="1" res="-3.0997481662780046e-03" rms="4.3785357475280762e-01" purity="4.8462760448455811e-01" nType="0">
          <Node pos="l" depth="2" NCoef="0" IVar="-1" Cut="0.0000000000000000e+00" cType="1" res="-2.0283139019738883e-04" rms="4.3849340081214905e-01" purity="5.0015133619308472e-01" nType="-99"/>
          <Node pos="r" depth="2" NCoef="0" IVar="-1" Cut="0.0000000000000000e+00" cType="1" res="-7.7266539447009563e-03" rms="4.2999053001403809e-01" purity="3.1494608521461487e-01" nType="-99"/>
        </Node>
        <Node pos="r" depth="1" NCoef="0" IVar="9" Cut="2.4186034500598907e-01" cType="1" res="5.6995572522282600e-03" rms="4.3364650011062622e-01" purity="5.2343368530273438e-01" nType="0">
          <Node pos="l" depth="2" NCoef="0" IVar="-1" Cut="0.0000000000000000e+00" cType="1" res="-6.0026993742212653e-04" rms="4.2880979180335999e-01" purity="4.8922026157379150e-01" nType="-99"/>
          <Node pos="r" depth="2" NCoef="0" IVar="-1" Cut="0.0000000000000000e+00" cType="1" res="5.0086043775081635e-03" rms="4.4164541363716125e-01" purity="5.8336776494979858e-01" nType="-99"/>
        </Node>
      </Node>
    </BinaryTree>
    <BinaryTree type="DecisionTree" boostWeight="1.0000000000000000e+00" itree="133">
      <Node pos="s" depth="0" NCoef="0" IVar="6" Cut="2.5714285373687744e+00" cType="1" res="1.6988607239909470e-04" rms="4.3562635779380798e-01" purity="4.9951499700546265e-01" nType="0">
        <Node pos="l" depth="1" NCoef="0" IVar="9" Cut="-4.2857143282890320e-01" cType="1" res="2.1940935403108597e-03" rms="4.3747967481613159e-01" purity="5.0507050752639771e-01" nType="0">
          <Node pos="l" depth="2" NCoef="0" IVar="-1" Cut="0.0000000000000000e+00" cType="1" res="-2.1290839649736881e-03" rms="4.4508785009384155e-01" purity="4.5569717884063721e-01" nType="-99"/>
          <Node pos="r" depth="2" NCoef="0" IVar="-1" Cut="0.0000000000000000e+00" cType="1" res="1.0685512097552419e-03" rms="4.3601435422897339e-01" purity="5.1430308818817139e-01" nType="-99"/>
        </Node>
        <Node pos="r" depth="1" NCoef="0" IVar="0" Cut="9.4187510013580322e-01" cType="1" res="-6.4369426108896732e-03" rms="4.2945531010627747e-01" purity="4.8138225078582764e-01" nType="0">
          <Node pos="l" depth="2" NCoef="0" IVar="-1" Cut="0.0000000000000000e+00" cType="1" res="1.1292125564068556e-03" rms="4.3680524826049805e-01" purity="6.2852758169174194e-01" nType="-99"/>
          <Node pos="r" depth="2" NCoef="0" IVar="-1" Cut="0.0000000000000000e+00" cType="1" res="-4.3385745957493782e-03" rms="4.2220062017440796e-01" purity="3.4338194131851196e-01" nType="-99"/>
        </Node>
      </Node>
    </BinaryTree>
    <BinaryTree type="DecisionTree" boostWeight="1.0000000000000000e+00" itree="134">
      <Node pos="s" depth="0" NCoef="0" IVar="6" Cut="2.6666667461395264e+00" cType="1" res="8.6491141701117158e-04" rms="4.3642202019691467e-01" purity="5.0063759088516235e-01" nType="0">
        <Node pos="l" depth="1" NCoef="0" IVar="6" Cut="-2.8571429252624512e+00" cType="1" res="3.8901725783944130e-03" rms="4.3812173604965210e-01" purity="5.0768148899078369e-01" nType="0">
          <Node pos="l" depth="2" NCoef="0" IVar="-1" Cut="0.0000000000000000e+00" cType="1" res="-1.5523941256105900e-03" rms="4.2739644646644592e-01" purity="4.8209407925605774e-01" nType="-99"/>
          <Node pos="r" depth="2" NCoef="0" IVar="-1" Cut="0.0000000000000000e+00" cType="1" res="1.8958069849759340e-03" rms="4.4191405177116394e-01" purity="5.1701110601425171e-01" nType="-99"/>
        </Node>
        <Node pos="r" depth="1" NCoef="0" IVar="0" Cut="9.4781118631362915e-01" cType="1" res="-9.1127334162592888e-03" rms="4.3061804771423340e-01" purity="4.7740638256072998e-01" nType="0">
          <Node pos="l" depth="2" NCoef="0" IVar="-1" Cut="0.0000000000000000e+00" cType="1" res="4.3117898167110980e-04" rms="4.3813312053680420e-01" purity="6.2061005830764771e-01" nType="-99"/>
          <Node pos="r" depth="2" NCoef="0" IVar="-1" Cut="0.0000000000000000e+00" cType="1" res="-5.2126622758805752e-03" rms="4.2278051376342773e-01" purity="3.3567091822624207e-01" nType="-99"/>
        </Node>
      </Node>
    </BinaryTree>
    <BinaryTree type="DecisionTree" boostWeight="1.0000000000000000e+00" itree="135">
      <Node pos="s" depth="0" NCoef="0" IVar="7" Cut="2.8278248310089111e+00" cType="1" res="-8.7621621787548065e-04" rms="4.3565970659255981e-01" purity="4.9925324320793152e-01" nType="0">
        <Node pos="l" depth="1" NCoef="0" IVar="4" Cut="5.3183841705322266e-01" cType="1" res="-5.5553205311298370e-03" rms="4.4743058085441589e-01" purity="4.3154290318489075e-01" nType="0">
          <Node pos="l" depth="2" NCoef="0" IVar="-1" Cut="0.0000000000000000e+00" cType="1" res="4.6289176680147648e-03" rms="3.9197698235511780e-01" purity="2.0517568290233612e-01" nType="-99"/>
          <Node pos="r" depth="2" NCoef="0" IVar="-1" Cut="0.0000000000000000e+00" cType="1" res="-3.0752150341868401e-03" rms="4.6807780861854553e-01" purity="5.2449947595596313e-01" nType="-99"/>
        </Node>
        <Node pos="r" depth="1" NCoef="0" IVar="0" Cut="1.2655978202819824e+00" cType="1" res="3.4119309857487679e-03" rms="4.2454060912132263e-01" purity="5.6130617856979370e-01" nType="0">
          <Node pos="l" depth="2" NCoef="0" IVar="-1" Cut="0.0000000000000000e+00" cType="1" res="2.0131643395870924e-03" rms="4.2948076128959656e-01" purity="5.9911096096038818e-01" nType="-99"/>
          <Node pos="r" depth="2" NCoef="0" IVar="-1" Cut="0.0000000000000000e+00" cType="1" res="-9.8307449370622635e-03" rms="3.7668153643608093e-01" purity="2.3152177035808563e-01" nType="-99"/>
        </Node>
      </Node>
    </BinaryTree>
    <BinaryTree type="DecisionTree" boostWeight="1.0000000000000000e+00" itree="136">
      <Node pos="s" depth="0" NCoef="0" IVar="5" Cut="3.4004492759704590e+00" cType="1" res="9.8015367984771729e-04" rms="4.3587020039558411e-01" purity="5.0068110227584839e-01" nType="0">
        <Node pos="l" depth="1" NCoef="0" IVar="5" Cut="1.2916440963745117e+00" cType="1" res="1.1437223292887211e-04" rms="4.3662908673286438e-01" purity="4.9850606918334961e-01" nType="0">
          <Node pos="l" depth="2" NCoef="0" IVar="-1" Cut="0.0000000000000000e+00" cType="1" res="1.0991831077262759e-03" rms="4.4424721598625183e-01" purity="5.0974792242050171e-01" nType="-99"/>
          <Node pos="r" depth="2" NCoef="0" IVar="-1" Cut="0.0000000000000000e+00" cType="1" res="-1.3505854876711965e-03" rms="4.2704150080680847e-01" purity="4.8471605777740479e-01" nType="-99"/>
        </Node>
        <Node pos="r" depth="1" NCoef="0" IVar="-1" Cut="0.0000000000000000e+00" cType="1" res="5.5362978018820286e-03" rms="4.1733321547508240e-01" purity="5.5124539136886597e-01" nType="-99"/>
      </Node>
    </BinaryTree>
    <BinaryTree type="DecisionTree" boostWeight="1.0000000000000000e+00" itree="137">
      <Node pos="s" depth="0" NCoef="0" IVar="4" Cut="9.4626301527023315e-01" cType="1" res="-1.3775004481431097e-04" rms="4.3492665886878967e-01" purity="4.9995926022529602e-01" nType="0">
        <Node pos="l" depth="1" NCoef="0" IVar="0" Cut="1.7685315608978271e+00" cType="1" res="-2.2699448745697737e-03" rms="4.3733650445938110e-01" purity="4.4806432723999023e-01" nType="0">
          <Node pos="l" depth="2" NCoef="0" IVar="-1" Cut="0.0000000000000000e+00" cType="1" res="-2.1882048167753965e-04" rms="4.3989551067352295e-01" purity="4.6130424737930298e-01" nType="-99"/>
          <Node pos="r" depth="2" NCoef="0" IVar="-1" Cut="0.0000000000000000e+00" cType="1" res="-8.3639593794941902e-03" rms="3.8660430908203125e-01" purity="2.0567943155765533e-01" nType="-99"/>
        </Node>
        <Node pos="r" depth="1" NCoef="0" IVar="0" Cut="9.0072017908096313e-01" cType="1" res="9.6013359725475311e-03" rms="4.2360877990722656e-01" purity="7.3699659109115601e-01" nType="0">
          <Node pos="l" depth="2" NCoef="0" IVar="-1" Cut="0.0000000000000000e+00" cType="1" res="-3.4631409216672182e-03" rms="4.0497678518295288e-01" purity="7.7392363548278809e-01" nType="-99"/>
          <Node pos="r" depth="2" NCoef="0" IVar="-1" Cut="0.0000000000000000e+00" cType="1" res="1.0227826423943043e-02" rms="4.5084965229034424e-01" purity="6.7535787820816040e-01" nType="-99"/>
        </Node>
      </Node>
    </BinaryTree>
    <BinaryTree type="DecisionTree" boostWeight="1.0000000000000000e+00" itree="138">
      <Node pos="s" depth="0" NCoef="0" IVar="4" Cut="9.4692862033843994e-01" cType="1" res="-1.3494988670572639e-03" rms="4.3536272644996643e-01" purity="4.9953973293304443e-01" nType="0">
        <Node pos="l" depth="1" NCoef="0" IVar="0" Cut="6.4411193132400513e-01" cType="1" res="-3.7266584113240242e-03" rms="4.3817418813705444e-01" purity="4.4771698117256165e-01" nType="0">
          <Node pos="l" depth="2" NCoef="0" IVar="-1" Cut="0.0000000000000000e+00" cType="1" res="5.5967043153941631e-03" rms="4.5006054639816284e-01" purity="6.2705302238464355e-01" nType="-99"/>
          <Node pos="r" depth="2" NCoef="0" IVar="-1" Cut="0.0000000000000000e+00" cType="1" res="-1.5044198371469975e-03" rms="4.3710985779762268e-01" purity="4.3290352821350098e-01" nType="-99"/>
        </Node>
        <Node pos="r" depth="1" NCoef="0" IVar="0" Cut="9.0072017908096313e-01" cType="1" res="9.5748836174607277e-03" rms="4.2202976346015930e-01" purity="7.3769420385360718e-01" nType="0">
          <Node pos="l" depth="2" NCoef="0" IVar="-1" Cut="0.0000000000000000e+00" cType="1" res="-2.4751266464591026e-03" rms="4.0284809470176697e-01" purity="7.7598345279693604e-01" nType="-99"/>
          <Node pos="r" depth="2" NCoef="0" IVar="-1" Cut="0.0000000000000000e+00" cType="1" res="9.0920738875865936e-03" rms="4.5101216435432434e-01" purity="6.7302578687667847e-01" nType="-99"/>
        </Node>
      </Node>
    </BinaryTree>
    <BinaryTree type="DecisionTree" boostWeight="1.0000000000000000e+00" itree="139">
      <Node pos="s" depth="0" NCoef="0" IVar="9" Cut="-6.1904764175415039e-01" cType="1" res="-7.1706052403897047e-04" rms="4.3469199538230896e-01" purity="5.0019925832748413e-01" nType="0">
        <Node pos="l" depth="1" NCoef="0" IVar="8" Cut="-1.9709010422229767e-01" cType="1" res="-1.8399355933070183e-02" rms="4.4226056337356567e-01" purity="4.0500113368034363e-01" nType="0">
          <Node pos="l" depth="2" NCoef="0" IVar="-1" Cut="0.0000000000000000e+00" cType="1" res="4.1415729356231168e-05" rms="4.5958846807479858e-01" purity="5.1648706197738647e-01" nType="-99"/>
          <Node pos="r" depth="2" NCoef="0" IVar="-1" Cut="0.0000000000000000e+00" cType="1" res="-1.0174502618610859e-02" rms="4.2319703102111816e-01" purity="2.9229795932769775e-01" nType="-99"/>
        </Node>
        <Node pos="r" depth="1" NCoef="0" IVar="4" Cut="3.4813651442527771e-01" cType="1" res="6.7576003493741155e-04" rms="4.3405961990356445e-01" purity="5.0769788026809692e-01" nType="0">
          <Node pos="l" depth="2" NCoef="0" IVar="-1" Cut="0.0000000000000000e+00" cType="1" res="-1.1736105196177959e-02" rms="2.6524719595909119e-01" purity="7.8288979828357697e-02" nType="-99"/>
          <Node pos="r" depth="2" NCoef="0" IVar="-1" Cut="0.0000000000000000e+00" cType="1" res="4.4508543214760721e-04" rms="4.4090414047241211e-01" purity="5.2957040071487427e-01" nType="-99"/>
        </Node>
      </Node>
    </BinaryTree>
    <BinaryTree type="DecisionTree" boostWeight="1.0000000000000000e+00" itree="140">
      <Node pos="s" depth="0" NCoef="0" IVar="6" Cut="4.7142858505249023e+00" cType="1" res="4.4000241905450821e-04" rms="4.3521493673324585e-01" purity="4.9984708428382874e-01" nType="0">
        <Node pos="l" depth="1" NCoef="0" IVar="8" Cut="-1.5543092489242554e+00" cType="1" res="1.9057618919759989e-03" rms="4.3646654486656189e-01" purity="5.0513887405395508e-01" nType="0">
          <Node pos="l" depth="2" NCoef="0" IVar="-1" Cut="0.0000000000000000e+00" cType="1" res="5.5827265605330467e-03" rms="4.1329631209373474e-01" purity="7.0097678899765015e-01" nType="-99"/>
          <Node pos="r" depth="2" NCoef="0" IVar="-1" Cut="0.0000000000000000e+00" cType="1" res="1.7279016901738942e-04" rms="4.3795025348663330e-01" purity="4.9199357628822327e-01" nType="-99"/>
        </Node>
        <Node pos="r" depth="1" NCoef="0" IVar="0" Cut="8.7051403522491455e-01" cType="1" res="-1.1312070302665234e-02" rms="4.2486393451690674e-01" purity="4.5741859078407288e-01" nType="0">
          <Node pos="l" depth="2" NCoef="0" IVar="-1" Cut="0.0000000000000000e+00" cType="1" res="3.4756197128444910e-03" rms="4.3337300419807434e-01" purity="6.5055668354034424e-01" nType="-99"/>
          <Node pos="r" depth="2" NCoef="0" IVar="-1" Cut="0.0000000000000000e+00" cType="1" res="-6.5540480427443981e-03" rms="4.1959404945373535e-01" purity="3.5263237357139587e-01" nType="-99"/>
        </Node>
      </Node>
    </BinaryTree>
    <BinaryTree type="DecisionTree" boostWeight="1.0000000000000000e+00" itree="141">
      <Node pos="s" depth="0" NCoef="0" IVar="5" Cut="1.5840190649032593e+00" cType="1" res="5.2329513709992170e-04" rms="4.3576785922050476e-01" purity="5.0111955404281616e-01" nType="0">
        <Node pos="l" depth="1" NCoef="0" IVar="0" Cut="1.1762064695358276e+00" cType="1" res="4.6153054572641850e-03" rms="4.4056996703147888e-01" purity="5.0943946838378906e-01" nType="0">
          <Node pos="l" depth="2" NCoef="0" IVar="-1" Cut="0.0000000000000000e+00" cType="1" res="-2.8074526926502585e-04" rms="4.4425243139266968e-01" purity="5.8500355482101440e-01" nType="-99"/>
          <Node pos="r" depth="2" NCoef="0" IVar="-1" Cut="0.0000000000000000e+00" cType="1" res="4.7119576483964920e-03" rms="4.3149501085281372e-01" purity="3.3188501000404358e-01" nType="-99"/>
        </Node>
        <Node pos="r" depth="1" NCoef="0" IVar="0" Cut="1.0134629011154175e+00" cType="1" res="-7.1291434578597546e-03" rms="4.2653712630271912e-01" purity="4.8556059598922729e-01" nType="0">
          <Node pos="l" depth="2" NCoef="0" IVar="-1" Cut="0.0000000000000000e+00" cType="1" res="1.3022419298067689e-03" rms="4.3674737215042114e-01" purity="6.0692799091339111e-01" nType="-99"/>
          <Node pos="r" depth="2" NCoef="0" IVar="-1" Cut="0.0000000000000000e+00" cType="1" res="-7.3976609855890274e-03" rms="4.0851965546607971e-01" purity="2.8708478808403015e-01" nType="-99"/>
        </Node>
      </Node>
    </BinaryTree>
    <BinaryTree type="DecisionTree" boostWeight="1.0000000000000000e+00" itree="142">
      <Node pos="s" depth="0" NCoef="0" IVar="4" Cut="6.8990826606750488e-01" cType="1" res="9.8644022364169359e-04" rms="4.3660140037536621e-01" purity="5.0017595291137695e-01" nType="0">
        <Node pos="l" depth="1" NCoef="0" IVar="7" Cut="1.4326692819595337e+00" cType="1" res="7.1726050227880478e-03" rms="4.1702717542648315e-01" purity="2.8789153695106506e-01" nType="0">
          <Node pos="l" depth="2" NCoef="0" IVar="-1" Cut="0.0000000000000000e+00" cType="1" res="1.4664960093796253e-02" rms="4.5765289664268494e-01" purity="3.4984844923019409e-01" nType="-99"/>
          <Node pos="r" depth="2" NCoef="0" IVar="-1" Cut="0.0000000000000000e+00" cType="1" res="-2.5022999034263194e-04" rms="4.0927708148956299e-01" purity="2.7751016616821289e-01" nType="-99"/>
        </Node>
        <Node pos="r" depth="1" NCoef="0" IVar="10" Cut="3.2095237731933594e+01" cType="1" res="-2.7210146654397249e-03" rms="4.4788181781768799e-01" purity="6.2740099430084229e-01" nType="0">
          <Node pos="l" depth="2" NCoef="0" IVar="-1" Cut="0.0000000000000000e+00" cType="1" res="9.5442205201834440e-04" rms="4.4980463385581970e-01" purity="6.3990360498428345e-01" nType="-99"/>
          <Node pos="r" depth="2" NCoef="0" IVar="-1" Cut="0.0000000000000000e+00" cType="1" res="-7.2809127159416676e-03" rms="4.3902990221977234e-01" purity="5.7695591449737549e-01" nType="-99"/>
        </Node>
      </Node>
    </BinaryTree>
    <BinaryTree type="DecisionTree" boostWeight="1.0000000000000000e+00" itree="143">
      <Node pos="s" depth="0" NCoef="0" IVar="1" Cut="3.9624185562133789e+00" cType="1" res="3.0259712366387248e-04" rms="4.3571981787681580e-01" purity="5.0201988220214844e-01" nType="0">
        <Node pos="l" depth="1" NCoef="0" IVar="1" Cut="6.6487109661102295e-01" cType="1" res="-3.2237786799669266e-03" rms="4.4390356540679932e-01" purity="5.0377482175827026e-01" nType="0">
          <Node pos="l" depth="2" NCoef="0" IVar="-1" Cut="0.0000000000000000e+00" cType="1" res="-1.0948300361633301e-02" rms="4.6090266108512878e-01" purity="4.1721087694168091e-01" nType="-99"/>
          <Node pos="r" depth="2" NCoef="0" IVar="-1" Cut="0.0000000000000000e+00" cType="1" res="1.5275001715053804e-05" rms="4.4244438409805298e-01" purity="5.1017212867736816e-01" nType="-99"/>
        </Node>
        <Node pos="r" depth="1" NCoef="0" IVar="0" Cut="1.0410202741622925e+00" cType="1" res="6.3689579255878925e-03" rms="4.2120060324668884e-01" purity="4.9900078773498535e-01" nType="0">
          <Node pos="l" depth="2" NCoef="0" IVar="-1" Cut="0.0000000000000000e+00" cType="1" res="5.7638804428279400e-03" rms="4.3188026547431946e-01" purity="6.1638611555099487e-01" nType="-99"/>
          <Node pos="r" depth="2" NCoef="0" IVar="-1" Cut="0.0000000000000000e+00" cType="1" res="-7.3444000445306301e-03" rms="3.9665189385414124e-01" purity="2.6008227467536926e-01" nType="-99"/>
        </Node>
      </Node>
    </BinaryTree>
    <BinaryTree type="DecisionTree" boostWeight="1.0000000000000000e+00" itree="144">
      <Node pos="s" depth="0" NCoef="0" IVar="0" Cut="1.1551470756530762e+00" cType="1" res="1.8380838446319103e-03" rms="4.3566849827766418e-01" purity="5.0326359272003174e-01" nType="0">
        <Node pos="l" depth="1" NCoef="0" IVar="10" Cut="1.7238094329833984e+01" cType="1" res="-7.3246937245130539e-04" rms="4.4140636920928955e-01" purity="5.7851117849349976e-01" nType="0">
          <Node pos="l" depth="2" NCoef="0" IVar="-1" Cut="0.0000000000000000e+00" cType="1" res="-3.2837861217558384e-03" rms="4.5232078433036804e-01" purity="5.9061306715011597e-01" nType="-99"/>
          <Node pos="r" depth="2" NCoef="0" IVar="-1" Cut="0.0000000000000000e+00" cType="1" res="3.0184136703610420e-03" rms="4.2994388937950134e-01" purity="5.6649565696716309e-01" nType="-99"/>
        </Node>
        <Node pos="r" depth="1" NCoef="0" IVar="10" Cut="1.7142856597900391e+01" cType="1" res="8.5376100614666939e-03" rms="4.2027235031127930e-01" purity="3.0714911222457886e-01" nType="0">
          <Node pos="l" depth="2" NCoef="0" IVar="-1" Cut="0.0000000000000000e+00" cType="1" res="7.4003660120069981e-03" rms="4.4220679998397827e-01" purity="3.6145606637001038e-01" nType="-99"/>
          <Node pos="r" depth="2" NCoef="0" IVar="-1" Cut="0.0000000000000000e+00" cType="1" res="-1.3988234102725983e-02" rms="3.5572606325149536e-01" purity="1.7395123839378357e-01" nType="-99"/>
        </Node>
      </Node>
    </BinaryTree>
    <BinaryTree type="DecisionTree" boostWeight="1.0000000000000000e+00" itree="145">
      <Node pos="s" depth="0" NCoef="0" IVar="10" Cut="3.3238094329833984e+01" cType="1" res="-1.3749619247391820e-03" rms="4.3467280268669128e-01" purity="4.9886879324913025e-01" nType="0">
        <Node pos="l" depth="1" NCoef="0" IVar="10" Cut="3.4761905670166016e+00" cType="1" res="6.9727929076179862e-04" rms="4.3733519315719604e-01" purity="5.0622606277465820e-01" nType="0">
          <Node pos="l" depth="2" NCoef="0" IVar="-1" Cut="0.0000000000000000e+00" cType="1" res="-9.2909224331378937e-03" rms="4.7623345255851746e-01" purity="4.3835502862930298e-01" nType="-99"/>
          <Node pos="r" depth="2" NCoef="0" IVar="-1" Cut="0.0000000000000000e+00" cType="1" res="1.4607078628614545e-03" rms="4.3223956227302551e-01" purity="5.1426047086715698e-01" nType="-99"/>
        </Node>
        <Node pos="r" depth="1" NCoef="0" IVar="0" Cut="1.0491489171981812e+00" cType="1" res="-1.0511323809623718e-02" rms="4.2261338233947754e-01" purity="4.6643111109733582e-01" nType="0">
          <Node pos="l" depth="2" NCoef="0" IVar="-1" Cut="0.0000000000000000e+00" cType="1" res="2.5294839870184660e-03" rms="4.4455936551094055e-01" purity="5.7650893926620483e-01" nType="-99"/>
          <Node pos="r" depth="2" NCoef="0" IVar="-1" Cut="0.0000000000000000e+00" cType="1" res="-1.9881319254636765e-02" rms="3.5342505574226379e-01" purity="1.7892134189605713e-01" nType="-99"/>
        </Node>
      </Node>
    </BinaryTree>
    <BinaryTree type="DecisionTree" boostWeight="1.0000000000000000e+00" itree="146">
      <Node pos="s" depth="0" NCoef="0" IVar="6" Cut="2.6666667461395264e+00" cType="1" res="6.3008023425936699e-04" rms="4.3595835566520691e-01" purity="5.0024646520614624e-01" nType="0">
        <Node pos="l" depth="1" NCoef="0" IVar="5" Cut="1.3615937232971191e+00" cType="1" res="2.8411354869604111e-03" rms="4.3754503130912781e-01" purity="5.0658798217773438e-01" nType="0">
          <Node pos="l" depth="2" NCoef="0" IVar="-1" Cut="0.0000000000000000e+00" cType="1" res="1.7179460264742374e-03" rms="4.4495269656181335e-01" purity="5.1542234420776367e-01" nType="-99"/>
          <Node pos="r" depth="2" NCoef="0" IVar="-1" Cut="0.0000000000000000e+00" cType="1" res="-7.9878757242113352e-04" rms="4.2640015482902527e-01" purity="4.9365320801734924e-01" nType="-99"/>
        </Node>
        <Node pos="r" depth="1" NCoef="0" IVar="4" Cut="7.4129611253738403e-01" cType="1" res="-6.6468887962400913e-03" rms="4.3061488866806030e-01" purity="4.7937563061714172e-01" nType="0">
          <Node pos="l" depth="2" NCoef="0" IVar="-1" Cut="0.0000000000000000e+00" cType="1" res="4.6264531556516886e-04" rms="4.1588720679283142e-01" purity="3.0272695422172546e-01" nType="-99"/>
          <Node pos="r" depth="2" NCoef="0" IVar="-1" Cut="0.0000000000000000e+00" cType="1" res="-3.5472072195261717e-03" rms="4.4312253594398499e-01" purity="6.3584512472152710e-01" nType="-99"/>
        </Node>
      </Node>
    </BinaryTree>
    <BinaryTree type="DecisionTree" boostWeight="1.0000000000000000e+00" itree="147">
      <Node pos="s" depth="0" NCoef="0" IVar="7" Cut="2.7690470218658447e+00" cType="1" res="-7.5233250390738249e-04" rms="4.3539851903915405e-01" purity="5.0019752979278564e-01" nType="0">
        <Node pos="l" depth="1" NCoef="0" IVar="8" Cut="7.0145577192306519e-01" cType="1" res="-6.2509938143193722e-03" rms="4.4689825177192688e-01" purity="4.3142572045326233e-01" nType="0">
          <Node pos="l" depth="2" NCoef="0" IVar="-1" Cut="0.0000000000000000e+00" cType="1" res="-2.5558448396623135e-03" rms="4.4652295112609863e-01" purity="4.1845765709877014e-01" nType="-99"/>
          <Node pos="r" depth="2" NCoef="0" IVar="-1" Cut="0.0000000000000000e+00" cType="1" res="8.6149107664823532e-03" rms="4.4881746172904968e-01" purity="5.6887257099151611e-01" nType="-99"/>
        </Node>
        <Node pos="r" depth="1" NCoef="0" IVar="4" Cut="4.7581183910369873e-01" cType="1" res="4.0686200372874737e-03" rms="4.2500174045562744e-01" purity="5.6049329042434692e-01" nType="0">
          <Node pos="l" depth="2" NCoef="0" IVar="-1" Cut="0.0000000000000000e+00" cType="1" res="-1.4046047814190388e-02" rms="2.9405364394187927e-01" purity="9.9773861467838287e-02" nType="-99"/>
          <Node pos="r" depth="2" NCoef="0" IVar="-1" Cut="0.0000000000000000e+00" cType="1" res="2.2146832197904587e-03" rms="4.3961143493652344e-01" purity="6.2320756912231445e-01" nType="-99"/>
        </Node>
      </Node>
    </BinaryTree>
    <BinaryTree type="DecisionTree" boostWeight="1.0000000000000000e+00" itree="148">
      <Node pos="s" depth="0" NCoef="0" IVar="6" Cut="-2.1428570747375488e+00" cType="1" res="-1.7796457977965474e-03" rms="4.3541586399078369e-01" purity="4.9859803915023804e-01" nType="0">
        <Node pos="l" depth="1" NCoef="0" IVar="4" Cut="7.3693710565567017e-01" cType="1" res="-1.1646144092082977e-02" rms="4.3016824126243591e-01" purity="4.7512063384056091e-01" nType="0">
          <Node pos="l" depth="2" NCoef="0" IVar="-1" Cut="0.0000000000000000e+00" cType="1" res="1.0799091978697106e-04" rms="4.1398775577545166e-01" purity="3.0482929944992065e-01" nType="-99"/>
          <Node pos="r" depth="2" NCoef="0" IVar="-1" Cut="0.0000000000000000e+00" cType="1" res="-5.7026054710149765e-03" rms="4.4392594695091248e-01" purity="6.2812560796737671e-01" nType="-99"/>
        </Node>
        <Node pos="r" depth="1" NCoef="0" IVar="4" Cut="9.4626301527023315e-01" cType="1" res="7.7438063453882933e-04" rms="4.3672764301300049e-01" purity="5.0467538833618164e-01" nType="0">
          <Node pos="l" depth="2" NCoef="0" IVar="-1" Cut="0.0000000000000000e+00" cType="1" res="-4.0063518099486828e-04" rms="4.3915218114852905e-01" purity="4.4967874884605408e-01" nType="-99"/>
          <Node pos="r" depth="2" NCoef="0" IVar="-1" Cut="0.0000000000000000e+00" cType="1" res="2.7790423482656479e-03" rms="4.2647752165794373e-01" purity="7.3084545135498047e-01" nType="-99"/>
        </Node>
      </Node>
    </BinaryTree>
    <BinaryTree type="DecisionTree" boostWeight="1.0000000000000000e+00" itree="149">
      <Node pos="s" depth="0" NCoef="0" IVar="7" Cut="2.8278248310089111e+00" cType="1" res="2.4663338990649208e-05" rms="4.3517169356346130e-01" purity="5.0101083517074585e-01" nType="0">
        <Node pos="l" depth="1" NCoef="0" IVar="4" Cut="5.3210556507110596e-01" cType="1" res="-3.9753289893269539e-03" rms="4.4768062233924866e-01" purity="4.3396115303039551e-01" nType="0">
          <Node pos="l" depth="2" NCoef="0" IVar="-1" Cut="0.0000000000000000e+00" cType="1" res="5.2824229933321476e-03" rms="3.9386388659477234e-01" purity="2.0857416093349457e-01" nType="-99"/>
          <Node pos="r" depth="2" NCoef="0" IVar="-1" Cut="0.0000000000000000e+00" cType="1" res="-2.7261758223176003e-03" rms="4.6751624345779419e-01" purity="5.2538502216339111e-01" nType="-99"/>
        </Node>
        <Node pos="r" depth="1" NCoef="0" IVar="4" Cut="4.3293794989585876e-01" cType="1" res="3.6923515144735575e-03" rms="4.2334407567977905e-01" purity="5.6249034404754639e-01" nType="0">
          <Node pos="l" depth="2" NCoef="0" IVar="-1" Cut="0.0000000000000000e+00" cType="1" res="-1.9061166793107986e-02" rms="2.5373408198356628e-01" purity="7.0533119142055511e-02" nType="-99"/>
          <Node pos="r" depth="2" NCoef="0" IVar="-1" Cut="0.0000000000000000e+00" cType="1" res="1.9251223420724273e-03" rms="4.3648850917816162e-01" purity="6.1161470413208008e-01" nType="-99"/>
        </Node>
      </Node>
    </BinaryTree>
    <BinaryTree type="DecisionTree" boostWeight="1.0000000000000000e+00" itree="150">
      <Node pos="s" depth="0" NCoef="0" IVar="4" Cut="9.4696003198623657e-01" cType="1" res="4.0735463699093089e-05" rms="4.3399086594581604e-01" purity="5.0062686204910278e-01" nType="0">
        <Node pos="l" depth="1" NCoef="0" IVar="0" Cut="1.8418717384338379e+00" cType="1" res="-2.2149553988128901e-03" rms="4.3660068511962891e-01" purity="4.4882151484489441e-01" nType="0">
          <Node pos="l" depth="2" NCoef="0" IVar="-1" Cut="0.0000000000000000e+00" cType="1" res="-2.3330436670221388e-04" rms="4.3895885348320007e-01" purity="4.6040481328964233e-01" nType="-99"/>
          <Node pos="r" depth="2" NCoef="0" IVar="-1" Cut="0.0000000000000000e+00" cType="1" res="-9.1381920501589775e-03" rms="3.8099154829978943e-01" purity="1.9842790067195892e-01" nType="-99"/>
        </Node>
        <Node pos="r" depth="1" NCoef="0" IVar="0" Cut="8.9166271686553955e-01" cType="1" res="1.0440381243824959e-02" rms="4.2159375548362732e-01" purity="7.3947012424468994e-01" nType="0">
          <Node pos="l" depth="2" NCoef="0" IVar="-1" Cut="0.0000000000000000e+00" cType="1" res="-1.6551543958485126e-03" rms="4.0260848402976990e-01" purity="7.7663558721542358e-01" nType="-99"/>
          <Node pos="r" depth="2" NCoef="0" IVar="-1" Cut="0.0000000000000000e+00" cType="1" res="8.4203956648707390e-03" rms="4.4923362135887146e-01" purity="6.7979538440704346e-01" nType="-99"/>
        </Node>
      </Node>
    </BinaryTree>
    <BinaryTree type="DecisionTree" boostWeight="1.0000000000000000e+00" itree="151">
      <Node pos="s" depth="0" NCoef="0" IVar="3" Cut="-2.3809523880481720e-01" cType="1" res="1.9024248467758298e-04" rms="4.3591323494911194e-01" purity="4.9973958730697632e-01" nType="0">
        <Node pos="l" depth="1" NCoef="0" IVar="9" Cut="5.2380955219268799e-01" cType="1" res="7.2517902590334415e-03" rms="4.4243830442428589e-01" purity="5.1104736328125000e-01" nType="0">
          <Node pos="l" depth="2" NCoef="0" IVar="-1" Cut="0.0000000000000000e+00" cType="1" res="2.6536143850535154e-03" rms="4.4024559855461121e-01" purity="5.2177250385284424e-01" nType="-99"/>
          <Node pos="r" depth="2" NCoef="0" IVar="-1" Cut="0.0000000000000000e+00" cType="1" res="-3.2806333620101213e-03" rms="4.5599561929702759e-01" purity="4.4093915820121765e-01" nType="-99"/>
        </Node>
        <Node pos="r" depth="1" NCoef="0" IVar="3" Cut="1.7461133003234863e-01" cType="1" res="-2.5672367773950100e-03" rms="4.3330734968185425e-01" purity="4.9532401561737061e-01" nType="0">
          <Node pos="l" depth="2" NCoef="0" IVar="-1" Cut="0.0000000000000000e+00" cType="1" res="-2.0375470630824566e-03" rms="4.2883679270744324e-01" purity="4.8757305741310120e-01" nType="-99"/>
          <Node pos="r" depth="2" NCoef="0" IVar="-1" Cut="0.0000000000000000e+00" cType="1" res="9.2651305021718144e-04" rms="4.3859052658081055e-01" purity="5.0472688674926758e-01" nType="-99"/>
        </Node>
      </Node>
    </BinaryTree>
    <BinaryTree type="DecisionTree" boostWeight="1.0000000000000000e+00" itree="152">
      <Node pos="s" depth="0" NCoef="0" IVar="4" Cut="6.9469428062438965e-01" cType="1" res="-2.8558578924275935e-04" rms="4.3598043918609619e-01" purity="4.9888268113136292e-01" nType="0">
        <Node pos="l" depth="1" NCoef="0" IVar="7" Cut="1.4326692819595337e+00" cType="1" res="5.9953350573778152e-03" rms="4.1831699013710022e-01" purity="2.9033705592155457e-01" nType="0">
          <Node pos="l" depth="2" NCoef="0" IVar="-1" Cut="0.0000000000000000e+00" cType="1" res="1.2199628166854382e-02" rms="4.5726501941680908e-01" purity="3.4232279658317566e-01" nType="-99"/>
          <Node pos="r" depth="2" NCoef="0" IVar="-1" Cut="0.0000000000000000e+00" cType="1" res="-1.6369613877031952e-04" rms="4.1122147440910339e-01" purity="2.8183105587959290e-01" nType="-99"/>
        </Node>
        <Node pos="r" depth="1" NCoef="0" IVar="10" Cut="4.8000000000000000e+01" cType="1" res="-4.1145514696836472e-03" rms="4.4636228680610657e-01" purity="6.2601608037948608e-01" nType="0">
          <Node pos="l" depth="2" NCoef="0" IVar="-1" Cut="0.0000000000000000e+00" cType="1" res="-2.2850962704978883e-04" rms="4.4651848077774048e-01" purity="6.3914257287979126e-01" nType="-99"/>
          <Node pos="r" depth="2" NCoef="0" IVar="-1" Cut="0.0000000000000000e+00" cType="1" res="-9.1448193415999413e-03" rms="4.4322261214256287e-01" purity="4.8467159271240234e-01" nType="-99"/>
        </Node>
      </Node>
    </BinaryTree>
    <BinaryTree type="DecisionTree" boostWeight="1.0000000000000000e+00" itree="153">
      <Node pos="s" depth="0" NCoef="0" IVar="4" Cut="9.4692367315292358e-01" cType="1" res="2.6400741189718246e-03" rms="4.3519020080566406e-01" purity="5.0245106220245361e-01" nType="0">
        <Node pos="l" depth="1" NCoef="0" IVar="4" Cut="7.8677368164062500e-01" cType="1" res="9.7879802342504263e-04" rms="4.3797442317008972e-01" purity="4.5146626234054565e-01" nType="0">
          <Node pos="l" depth="2" NCoef="0" IVar="-1" Cut="0.0000000000000000e+00" cType="1" res="1.4910099562257528e-03" rms="4.2898887395858765e-01" purity="3.4384244680404663e-01" nType="-99"/>
          <Node pos="r" depth="2" NCoef="0" IVar="-1" Cut="0.0000000000000000e+00" cType="1" res="-1.4165628235787153e-03" rms="4.5098066329956055e-01" purity="6.1226862668991089e-01" nType="-99"/>
        </Node>
        <Node pos="r" depth="1" NCoef="0" IVar="4" Cut="9.6894454956054688e-01" cType="1" res="1.0325057432055473e-02" rms="4.2198649048805237e-01" purity="7.3830461502075195e-01" nType="0">
          <Node pos="l" depth="2" NCoef="0" IVar="-1" Cut="0.0000000000000000e+00" cType="1" res="-4.6587670221924782e-03" rms="4.2738151550292969e-01" purity="7.1835726499557495e-01" nType="-99"/>
          <Node pos="r" depth="2" NCoef="0" IVar="-1" Cut="0.0000000000000000e+00" cType="1" res="8.2871578633785248e-03" rms="4.1662403941154480e-01" purity="7.5358378887176514e-01" nType="-99"/>
        </Node>
      </Node>
    </BinaryTree>
    <BinaryTree type="DecisionTree" boostWeight="1.0000000000000000e+00" itree="154">
      <Node pos="s" depth="0" NCoef="0" IVar="9" Cut="-4.2857143282890320e-01" cType="1" res="-6.6853454336524010e-04" rms="4.3540266156196594e-01" purity="4.9848672747612000e-01" nType="0">
        <Node pos="l" depth="1" NCoef="0" IVar="8" Cut="-4.8560601472854614e-01" cType="1" res="-1.2570770457386971e-02" rms="4.3858733773231506e-01" purity="4.4655027985572815e-01" nType="0">
          <Node pos="l" depth="2" NCoef="0" IVar="-1" Cut="0.0000000000000000e+00" cType="1" res="2.9185076709836721e-03" rms="4.4598579406738281e-01" purity="6.0463607311248779e-01" nType="-99"/>
          <Node pos="r" depth="2" NCoef="0" IVar="-1" Cut="0.0000000000000000e+00" cType="1" res="-7.8271636739373207e-03" rms="4.3259048461914062e-01" purity="3.3688661456108093e-01" nType="-99"/>
        </Node>
        <Node pos="r" depth="1" NCoef="0" IVar="4" Cut="9.4746446609497070e-01" cType="1" res="1.3812775723636150e-03" rms="4.3481895327568054e-01" purity="5.0743120908737183e-01" nType="0">
          <Node pos="l" depth="2" NCoef="0" IVar="-1" Cut="0.0000000000000000e+00" cType="1" res="-1.6903020150493830e-04" rms="4.3826279044151306e-01" purity="4.5976939797401428e-01" nType="-99"/>
          <Node pos="r" depth="2" NCoef="0" IVar="-1" Cut="0.0000000000000000e+00" cType="1" res="3.3547920174896717e-03" rms="4.1629740595817566e-01" purity="7.5518929958343506e-01" nType="-99"/>
        </Node>
      </Node>
    </BinaryTree>
    <BinaryTree type="DecisionTree" boostWeight="1.0000000000000000e+00" itree="155">
      <Node pos="s" depth="0" NCoef="0" IVar="7" Cut="9.8112993240356445e+00" cType="1" res="5.6497421610401943e-05" rms="4.3583112955093384e-01" purity="4.9943268299102783e-01" nType="0">
        <Node pos="l" depth="1" NCoef="0" IVar="8" Cut="4.1968700289726257e-01" cType="1" res="-7.5982860289514065e-04" rms="4.3714952468872070e-01" purity="4.8994597792625427e-01" nType="0">
          <Node pos="l" depth="2" NCoef="0" IVar="-1" Cut="0.0000000000000000e+00" cType="1" res="-1.0235289810225368e-03" rms="4.3839046359062195e-01" purity="4.6825528144836426e-01" nType="-99"/>
          <Node pos="r" depth="2" NCoef="0" IVar="-1" Cut="0.0000000000000000e+00" cType="1" res="1.6588531434535980e-03" rms="4.3430328369140625e-01" purity="5.3800576925277710e-01" nType="-99"/>
        </Node>
        <Node pos="r" depth="1" NCoef="0" IVar="-1" Cut="0.0000000000000000e+00" cType="1" res="5.0098877400159836e-03" rms="4.0554732084274292e-01" purity="7.0671153068542480e-01" nType="-99"/>
      </Node>
    </BinaryTree>
    <BinaryTree type="DecisionTree" boostWeight="1.0000000000000000e+00" itree="156">
      <Node pos="s" depth="0" NCoef="0" IVar="9" Cut="-5.2380955219268799e-01" cType="1" res="2.9465195257216692e-04" rms="4.3532431125640869e-01" purity="5.0077772140502930e-01" nType="0">
        <Node pos="l" depth="1" NCoef="0" IVar="0" Cut="1.0187206268310547e+00" cType="1" res="-1.3110289350152016e-02" rms="4.4350153207778931e-01" purity="4.2637392878532410e-01" nType="0">
          <Node pos="l" depth="2" NCoef="0" IVar="-1" Cut="0.0000000000000000e+00" cType="1" res="-8.2482565194368362e-03" rms="4.5609530806541443e-01" purity="5.2213567495346069e-01" nType="-99"/>
          <Node pos="r" depth="2" NCoef="0" IVar="-1" Cut="0.0000000000000000e+00" cType="1" res="1.9212965853512287e-03" rms="4.2886289954185486e-01" purity="3.2522061467170715e-01" nType="-99"/>
        </Node>
        <Node pos="r" depth="1" NCoef="0" IVar="10" Cut="9.7619047164916992e+00" cType="1" res="1.8679235363379121e-03" rms="4.3432739377021790e-01" purity="5.0951004028320312e-01" nType="0">
          <Node pos="l" depth="2" NCoef="0" IVar="-1" Cut="0.0000000000000000e+00" cType="1" res="2.1068430505692959e-03" rms="4.5977625250816345e-01" purity="5.4193568229675293e-01" nType="-99"/>
          <Node pos="r" depth="2" NCoef="0" IVar="-1" Cut="0.0000000000000000e+00" cType="1" res="-2.2621706011705101e-04" rms="4.2382588982582092e-01" purity="4.9670454859733582e-01" nType="-99"/>
        </Node>
      </Node>
    </BinaryTree>
    <BinaryTree type="DecisionTree" boostWeight="1.0000000000000000e+00" itree="157">
      <Node pos="s" depth="0" NCoef="0" IVar="8" Cut="-3.5232210159301758e-01" cType="1" res="-5.1050004549324512e-04" rms="4.3527799844741821e-01" purity="4.9949291348457336e-01" nType="0">
        <Node pos="l" depth="1" NCoef="0" IVar="9" Cut="1.3632297515869141e-01" cType="1" res="6.4830863848328590e-03" rms="4.3394941091537476e-01" purity="5.3848892450332642e-01" nType="0">
          <Node pos="l" depth="2" NCoef="0" IVar="-1" Cut="0.0000000000000000e+00" cType="1" res="3.3077506814152002e-03" rms="4.3762117624282837e-01" purity="5.7643789052963257e-01" nType="-99"/>
          <Node pos="r" depth="2" NCoef="0" IVar="-1" Cut="0.0000000000000000e+00" cType="1" res="-4.3500126339495182e-03" rms="4.2024138569831848e-01" purity="4.0703102946281433e-01" nType="-99"/>
        </Node>
        <Node pos="r" depth="1" NCoef="0" IVar="9" Cut="-2.3809523880481720e-01" cType="1" res="-4.1395006701350212e-03" rms="4.3592157959938049e-01" purity="4.7925773262977600e-01" nType="0">
          <Node pos="l" depth="2" NCoef="0" IVar="-1" Cut="0.0000000000000000e+00" cType="1" res="-4.2912969365715981e-03" rms="4.3266472220420837e-01" purity="3.7816205620765686e-01" nType="-99"/>
          <Node pos="r" depth="2" NCoef="0" IVar="-1" Cut="0.0000000000000000e+00" cType="1" res="-2.1556470892392099e-04" rms="4.3675845861434937e-01" purity="5.0715947151184082e-01" nType="-99"/>
        </Node>
      </Node>
    </BinaryTree>
    <BinaryTree type="DecisionTree" boostWeight="1.0000000000000000e+00" itree="158">
      <Node pos="s" depth="0" NCoef="0" IVar="8" Cut="1.7353018522262573e+00" cType="1" res="-5.5814678489696234e-05" rms="4.3454542756080627e-01" purity="5.0009727478027344e-01" nType="0">
        <Node pos="l" depth="1" NCoef="0" IVar="4" Cut="9.4746446609497070e-01" cType="1" res="-1.0659634135663509e-03" rms="4.3612986803054810e-01" purity="4.8873433470726013e-01" nType="0">
          <Node pos="l" depth="2" NCoef="0" IVar="-1" Cut="0.0000000000000000e+00" cType="1" res="-8.0927077215164900e-04" rms="4.3833789229393005e-01" purity="4.3631368875503540e-01" nType="-99"/>
          <Node pos="r" depth="2" NCoef="0" IVar="-1" Cut="0.0000000000000000e+00" cType="1" res="2.3260298185050488e-03" rms="4.2554962635040283e-01" purity="7.3315107822418213e-01" nType="-99"/>
        </Node>
        <Node pos="r" depth="1" NCoef="0" IVar="-1" Cut="0.0000000000000000e+00" cType="1" res="5.4838233627378941e-03" rms="4.0240305662155151e-01" purity="7.1841692924499512e-01" nType="-99"/>
      </Node>
    </BinaryTree>
    <BinaryTree type="DecisionTree" boostWeight="1.0000000000000000e+00" itree="159">
      <Node pos="s" depth="0" NCoef="0" IVar="8" Cut="2.5660195946693420e-01" cType="1" res="-1.5603255014866590e-03" rms="4.3499466776847839e-01" purity="4.9907416105270386e-01" nType="0">
        <Node pos="l" depth="1" NCoef="0" IVar="9" Cut="3.3333334326744080e-01" cType="1" res="-4.5868172310292721e-03" rms="4.3642723560333252e-01" purity="4.8001185059547424e-01" nType="0">
          <Node pos="l" depth="2" NCoef="0" IVar="-1" Cut="0.0000000000000000e+00" cType="1" res="-4.0305478614754975e-04" rms="4.3719673156738281e-01" purity="5.0211161375045776e-01" nType="-99"/>
          <Node pos="r" depth="2" NCoef="0" IVar="-1" Cut="0.0000000000000000e+00" cType="1" res="-5.6557054631412029e-03" rms="4.3182870745658875e-01" purity="3.5934033989906311e-01" nType="-99"/>
        </Node>
        <Node pos="r" depth="1" NCoef="0" IVar="5" Cut="1.0301691293716431e+00" cType="1" res="3.3882842399179935e-03" rms="4.3259644508361816e-01" purity="5.3024280071258545e-01" nType="0">
          <Node pos="l" depth="2" NCoef="0" IVar="-1" Cut="0.0000000000000000e+00" cType="1" res="3.1433659605681896e-03" rms="4.4597250223159790e-01" purity="5.5200058221817017e-01" nType="-99"/>
          <Node pos="r" depth="2" NCoef="0" IVar="-1" Cut="0.0000000000000000e+00" cType="1" res="-5.0298043061047792e-04" rms="4.2446324229240417e-01" purity="5.1747554540634155e-01" nType="-99"/>
        </Node>
      </Node>
    </BinaryTree>
    <BinaryTree type="DecisionTree" boostWeight="1.0000000000000000e+00" itree="160">
      <Node pos="s" depth="0" NCoef="0" IVar="1" Cut="8.2179327011108398e+00" cType="1" res="2.7537075802683830e-03" rms="4.3585801124572754e-01" purity="5.0213623046875000e-01" nType="0">
        <Node pos="l" depth="1" NCoef="0" IVar="1" Cut="1.2350306510925293e+00" cType="1" res="1.1500768596306443e-03" rms="4.3762189149856567e-01" purity="5.0214695930480957e-01" nType="0">
          <Node pos="l" depth="2" NCoef="0" IVar="-1" Cut="0.0000000000000000e+00" cType="1" res="-3.7546542007476091e-03" rms="4.7289001941680908e-01" purity="4.7228232026100159e-01" nType="-99"/>
          <Node pos="r" depth="2" NCoef="0" IVar="-1" Cut="0.0000000000000000e+00" cType="1" res="9.3450926942750812e-04" rms="4.3246617913246155e-01" purity="5.0627529621124268e-01" nType="-99"/>
        </Node>
        <Node pos="r" depth="1" NCoef="0" IVar="4" Cut="7.8101307153701782e-01" cType="1" res="1.6931546851992607e-02" rms="4.1967463493347168e-01" purity="5.0204110145568848e-01" nType="0">
          <Node pos="l" depth="2" NCoef="0" IVar="-1" Cut="0.0000000000000000e+00" cType="1" res="9.6354810521006584e-03" rms="4.1199085116386414e-01" purity="3.6513808369636536e-01" nType="-99"/>
          <Node pos="r" depth="2" NCoef="0" IVar="-1" Cut="0.0000000000000000e+00" cType="1" res="-2.8059532633051276e-04" rms="4.2684775590896606e-01" purity="6.4569789171218872e-01" nType="-99"/>
        </Node>
      </Node>
    </BinaryTree>
    <BinaryTree type="DecisionTree" boostWeight="1.0000000000000000e+00" itree="161">
      <Node pos="s" depth="0" NCoef="0" IVar="9" Cut="4.2857143282890320e-01" cType="1" res="1.2152509298175573e-03" rms="4.3539002537727356e-01" purity="5.0116670131683350e-01" nType="0">
        <Node pos="l" depth="1" NCoef="0" IVar="4" Cut="9.4706273078918457e-01" cType="1" res="2.7099787257611752e-03" rms="4.3424174189567566e-01" purity="5.0880390405654907e-01" nType="0">
          <Node pos="l" depth="2" NCoef="0" IVar="-1" Cut="0.0000000000000000e+00" cType="1" res="4.4628541218116879e-05" rms="4.3835318088531494e-01" purity="4.5906585454940796e-01" nType="-99"/>
          <Node pos="r" depth="2" NCoef="0" IVar="-1" Cut="0.0000000000000000e+00" cType="1" res="4.3333917856216431e-03" rms="4.1275754570960999e-01" purity="7.5839155912399292e-01" nType="-99"/>
        </Node>
        <Node pos="r" depth="1" NCoef="0" IVar="0" Cut="1.1563864946365356e+00" cType="1" res="-7.4247005395591259e-03" rms="4.4186982512474060e-01" purity="4.5702120661735535e-01" nType="0">
          <Node pos="l" depth="2" NCoef="0" IVar="-1" Cut="0.0000000000000000e+00" cType="1" res="-5.9773796238005161e-03" rms="4.4633212685585022e-01" purity="5.2863079309463501e-01" nType="-99"/>
          <Node pos="r" depth="2" NCoef="0" IVar="-1" Cut="0.0000000000000000e+00" cType="1" res="5.7920799590647221e-03" rms="4.3201416730880737e-01" purity="3.2496118545532227e-01" nType="-99"/>
        </Node>
      </Node>
    </BinaryTree>
    <BinaryTree type="DecisionTree" boostWeight="1.0000000000000000e+00" itree="162">
      <Node pos="s" depth="0" NCoef="0" IVar="7" Cut="2.8278248310089111e+00" cType="1" res="6.3625880284234881e-04" rms="4.3503284454345703e-01" purity="5.0099843740463257e-01" nType="0">
        <Node pos="l" depth="1" NCoef="0" IVar="8" Cut="5.7437473535537720e-01" cType="1" res="-3.5480458755046129e-03" rms="4.4701281189918518e-01" purity="4.3402826786041260e-01" nType="0">
          <Node pos="l" depth="2" NCoef="0" IVar="-1" Cut="0.0000000000000000e+00" cType="1" res="-2.0128341857343912e-03" rms="4.4633764028549194e-01" purity="4.1850817203521729e-01" nType="-99"/>
          <Node pos="r" depth="2" NCoef="0" IVar="-1" Cut="0.0000000000000000e+00" cType="1" res="6.1257965862751007e-03" rms="4.5029774308204651e-01" purity="5.3328067064285278e-01" nType="-99"/>
        </Node>
        <Node pos="r" depth="1" NCoef="0" IVar="4" Cut="4.5627421140670776e-01" cType="1" res="4.4741877354681492e-03" rms="4.2371055483818054e-01" purity="5.6242483854293823e-01" nType="0">
          <Node pos="l" depth="2" NCoef="0" IVar="-1" Cut="0.0000000000000000e+00" cType="1" res="-1.3469103723764420e-02" rms="2.7966558933258057e-01" purity="8.7789326906204224e-02" nType="-99"/>
          <Node pos="r" depth="2" NCoef="0" IVar="-1" Cut="0.0000000000000000e+00" cType="1" res="2.0625276956707239e-03" rms="4.3754780292510986e-01" purity="6.1884427070617676e-01" nType="-99"/>
        </Node>
      </Node>
    </BinaryTree>
    <BinaryTree type="DecisionTree" boostWeight="1.0000000000000000e+00" itree="163">
      <Node pos="s" depth="0" NCoef="0" IVar="3" Cut="7.1428573131561279e-01" cType="1" res="-3.1380755826830864e-03" rms="4.3480184674263000e-01" purity="4.9797675013542175e-01" nType="0">
        <Node pos="l" depth="1" NCoef="0" IVar="4" Cut="9.4692862033843994e-01" cType="1" res="-2.1350726019591093e-03" rms="4.3297779560089111e-01" purity="4.9898973107337952e-01" nType="0">
          <Node pos="l" depth="2" NCoef="0" IVar="-1" Cut="0.0000000000000000e+00" cType="1" res="-1.0039086919277906e-03" rms="4.3631625175476074e-01" purity="4.4919770956039429e-01" nType="-99"/>
          <Node pos="r" depth="2" NCoef="0" IVar="-1" Cut="0.0000000000000000e+00" cType="1" res="1.8761891406029463e-03" rms="4.1559749841690063e-01" purity="7.5044596195220947e-01" nType="-99"/>
        </Node>
        <Node pos="r" depth="1" NCoef="0" IVar="-1" Cut="0.0000000000000000e+00" cType="1" res="-4.7203302383422852e-03" rms="4.6350079774856567e-01" purity="4.8129400610923767e-01" nType="-99"/>
      </Node>
    </BinaryTree>
    <BinaryTree type="DecisionTree" boostWeight="1.0000000000000000e+00" itree="164">
      <Node pos="s" depth="0" NCoef="0" IVar="8" Cut="-1.4417042732238770e+00" cType="1" res="1.3902298815082759e-04" rms="4.3501150608062744e-01" purity="5.0174975395202637e-01" nType="0">
        <Node pos="l" depth="1" NCoef="0" IVar="9" Cut="-1.5465554594993591e-01" cType="1" res="1.5869304537773132e-02" rms="4.1221103072166443e-01" purity="6.8743222951889038e-01" nType="0">
          <Node pos="l" depth="2" NCoef="0" IVar="-1" Cut="0.0000000000000000e+00" cType="1" res="7.5837140902876854e-03" rms="4.0760299563407898e-01" purity="7.3731172084808350e-01" nType="-99"/>
          <Node pos="r" depth="2" NCoef="0" IVar="-1" Cut="0.0000000000000000e+00" cType="1" res="1.2143632629886270e-03" rms="4.1663506627082825e-01" purity="6.3567745685577393e-01" nType="-99"/>
        </Node>
        <Node pos="r" depth="1" NCoef="0" IVar="4" Cut="7.3673421144485474e-01" cType="1" res="-1.2071029050275683e-03" rms="4.3688109517097473e-01" purity="4.8585984110832214e-01" nType="0">
          <Node pos="l" depth="2" NCoef="0" IVar="-1" Cut="0.0000000000000000e+00" cType="1" res="8.7909033754840493e-04" rms="4.2305079102516174e-01" purity="3.1115785241127014e-01" nType="-99"/>
          <Node pos="r" depth="2" NCoef="0" IVar="-1" Cut="0.0000000000000000e+00" cType="1" res="-1.1947348248213530e-03" rms="4.4796425104141235e-01" purity="6.3034301996231079e-01" nType="-99"/>
        </Node>
      </Node>
    </BinaryTree>
    <BinaryTree type="DecisionTree" boostWeight="1.0000000000000000e+00" itree="165">
      <Node pos="s" depth="0" NCoef="0" IVar="4" Cut="6.9469165802001953e-01" cType="1" res="1.7212801321875304e-04" rms="4.3555623292922974e-01" purity="5.0018811225891113e-01" nType="0">
        <Node pos="l" depth="1" NCoef="0" IVar="7" Cut="1.4326692819595337e+00" cType="1" res="5.1000774838030338e-03" rms="4.1692060232162476e-01" purity="2.8845292329788208e-01" nType="0">
          <Node pos="l" depth="2" NCoef="0" IVar="-1" Cut="0.0000000000000000e+00" cType="1" res="1.0601623915135860e-02" rms="4.5542004704475403e-01" purity="3.4009596705436707e-01" nType="-99"/>
          <Node pos="r" depth="2" NCoef="0" IVar="-1" Cut="0.0000000000000000e+00" cType="1" res="-1.8666937830857933e-04" rms="4.1000035405158997e-01" purity="2.8001439571380615e-01" nType="-99"/>
        </Node>
        <Node pos="r" depth="1" NCoef="0" IVar="10" Cut="4.0333332061767578e+01" cType="1" res="-2.8265060391277075e-03" rms="4.4648882746696472e-01" purity="6.2902796268463135e-01" nType="0">
          <Node pos="l" depth="2" NCoef="0" IVar="-1" Cut="0.0000000000000000e+00" cType="1" res="3.7266241270117462e-04" rms="4.4728943705558777e-01" purity="6.4373368024826050e-01" nType="-99"/>
          <Node pos="r" depth="2" NCoef="0" IVar="-1" Cut="0.0000000000000000e+00" cType="1" res="-8.0063706263899803e-03" rms="4.3975731730461121e-01" purity="5.2743488550186157e-01" nType="-99"/>
        </Node>
      </Node>
    </BinaryTree>
    <BinaryTree type="DecisionTree" boostWeight="1.0000000000000000e+00" itree="166">
      <Node pos="s" depth="0" NCoef="0" IVar="4" Cut="6.0447430610656738e-01" cType="1" res="1.4647159259766340e-03" rms="4.3562132120132446e-01" purity="5.0111424922943115e-01" nType="0">
        <Node pos="l" depth="1" NCoef="0" IVar="10" Cut="3.5523811340332031e+01" cType="1" res="8.3661470562219620e-03" rms="4.0158921480178833e-01" purity="2.3663815855979919e-01" nType="0">
          <Node pos="l" depth="2" NCoef="0" IVar="-1" Cut="0.0000000000000000e+00" cType="1" res="1.1963836150243878e-03" rms="4.0486007928848267e-01" purity="2.3677377402782440e-01" nType="-99"/>
          <Node pos="r" depth="2" NCoef="0" IVar="-1" Cut="0.0000000000000000e+00" cType="1" res="1.1143265292048454e-02" rms="3.8307666778564453e-01" purity="2.3592536151409149e-01" nType="-99"/>
        </Node>
        <Node pos="r" depth="1" NCoef="0" IVar="4" Cut="9.7067660093307495e-01" cType="1" res="-1.3275989331305027e-03" rms="4.4862762093544006e-01" purity="6.0812115669250488e-01" nType="0">
          <Node pos="l" depth="2" NCoef="0" IVar="-1" Cut="0.0000000000000000e+00" cType="1" res="-1.2409129412844777e-03" rms="4.5295906066894531e-01" purity="5.8673566579818726e-01" nType="-99"/>
          <Node pos="r" depth="2" NCoef="0" IVar="-1" Cut="0.0000000000000000e+00" cType="1" res="6.4722723327577114e-03" rms="4.1793647408485413e-01" purity="7.4970996379852295e-01" nType="-99"/>
        </Node>
      </Node>
    </BinaryTree>
    <BinaryTree type="DecisionTree" boostWeight="1.0000000000000000e+00" itree="167">
      <Node pos="s" depth="0" NCoef="0" IVar="9" Cut="-5.2380955219268799e-01" cType="1" res="1.5459448331966996e-03" rms="4.3516287207603455e-01" purity="5.0180357694625854e-01" nType="0">
        <Node pos="l" depth="1" NCoef="0" IVar="8" Cut="-5.3046441078186035e-01" cType="1" res="-1.0136953555047512e-02" rms="4.4119077920913696e-01" purity="4.2748138308525085e-01" nType="0">
          <Node pos="l" depth="2" NCoef="0" IVar="-1" Cut="0.0000000000000000e+00" cType="1" res="4.6052029356360435e-03" rms="4.5298001170158386e-01" purity="6.0925966501235962e-01" nType="-99"/>
          <Node pos="r" depth="2" NCoef="0" IVar="-1" Cut="0.0000000000000000e+00" cType="1" res="-7.2932634502649307e-03" rms="4.3314808607101440e-01" purity="3.1952914595603943e-01" nType="-99"/>
        </Node>
        <Node pos="r" depth="1" NCoef="0" IVar="6" Cut="6.0000000000000000e+00" cType="1" res="2.9115949291735888e-03" rms="4.3443226814270020e-01" purity="5.1049131155014038e-01" nType="0">
          <Node pos="l" depth="2" NCoef="0" IVar="-1" Cut="0.0000000000000000e+00" cType="1" res="9.7601406741887331e-04" rms="4.3559485673904419e-01" purity="5.1506674289703369e-01" nType="-99"/>
          <Node pos="r" depth="2" NCoef="0" IVar="-1" Cut="0.0000000000000000e+00" cType="1" res="-1.8839724361896515e-03" rms="4.2047116160392761e-01" purity="4.5698001980781555e-01" nType="-99"/>
        </Node>
      </Node>
    </BinaryTree>
    <BinaryTree type="DecisionTree" boostWeight="1.0000000000000000e+00" itree="168">
      <Node pos="s" depth="0" NCoef="0" IVar="6" Cut="-3.8571429252624512e+00" cType="1" res="-6.4180389745160937e-04" rms="4.3474739789962769e-01" purity="4.9977767467498779e-01" nType="0">
        <Node pos="l" depth="1" NCoef="0" IVar="4" Cut="6.9763112068176270e-01" cType="1" res="-1.1749174445867538e-02" rms="4.2404034733772278e-01" purity="4.6497634053230286e-01" nType="0">
          <Node pos="l" depth="2" NCoef="0" IVar="-1" Cut="0.0000000000000000e+00" cType="1" res="1.6108189010992646e-03" rms="4.0336278080940247e-01" purity="2.8268975019454956e-01" nType="-99"/>
          <Node pos="r" depth="2" NCoef="0" IVar="-1" Cut="0.0000000000000000e+00" cType="1" res="-6.3630612567067146e-03" rms="4.3898323178291321e-01" purity="6.0674422979354858e-01" nType="-99"/>
        </Node>
        <Node pos="r" depth="1" NCoef="0" IVar="8" Cut="-1.9749028980731964e-01" cType="1" res="1.1466528521850705e-03" rms="4.3642041087150574e-01" purity="5.0538122653961182e-01" nType="0">
          <Node pos="l" depth="2" NCoef="0" IVar="-1" Cut="0.0000000000000000e+00" cType="1" res="1.4881463721394539e-03" rms="4.3463996052742004e-01" purity="5.2780544757843018e-01" nType="-99"/>
          <Node pos="r" depth="2" NCoef="0" IVar="-1" Cut="0.0000000000000000e+00" cType="1" res="-4.7095565241761506e-04" rms="4.3755489587783813e-01" purity="4.9072295427322388e-01" nType="-99"/>
        </Node>
      </Node>
    </BinaryTree>
    <BinaryTree type="DecisionTree" boostWeight="1.0000000000000000e+00" itree="169">
      <Node pos="s" depth="0" NCoef="0" IVar="3" Cut="-4.2857143282890320e-01" cType="1" res="-1.8164959037676454e-03" rms="4.3552452325820923e-01" purity="4.9886158108711243e-01" nType="0">
        <Node pos="l" depth="1" NCoef="0" IVar="0" Cut="9.7851222753524780e-01" cType="1" res="7.4930293485522270e-03" rms="4.4709601998329163e-01" purity="5.1355367898941040e-01" nType="0">
          <Node pos="l" depth="2" NCoef="0" IVar="-1" Cut="0.0000000000000000e+00" cType="1" res="-3.4861059393733740e-03" rms="4.4637969136238098e-01" purity="6.2812232971191406e-01" nType="-99"/>
          <Node pos="r" depth="2" NCoef="0" IVar="-1" Cut="0.0000000000000000e+00" cType="1" res="6.5217320807278156e-03" rms="4.4688597321510315e-01" purity="4.0923511981964111e-01" nType="-99"/>
        </Node>
        <Node pos="r" depth="1" NCoef="0" IVar="4" Cut="7.3262721300125122e-01" cType="1" res="-3.5349724348634481e-03" rms="4.3333286046981812e-01" purity="4.9614953994750977e-01" nType="0">
          <Node pos="l" depth="2" NCoef="0" IVar="-1" Cut="0.0000000000000000e+00" cType="1" res="6.7621527705341578e-04" rms="4.1880682110786438e-01" purity="3.0793964862823486e-01" nType="-99"/>
          <Node pos="r" depth="2" NCoef="0" IVar="-1" Cut="0.0000000000000000e+00" cType="1" res="-2.0158968400210142e-03" rms="4.4388017058372498e-01" purity="6.3753908872604370e-01" nType="-99"/>
        </Node>
      </Node>
    </BinaryTree>
    <BinaryTree type="DecisionTree" boostWeight="1.0000000000000000e+00" itree="170">
      <Node pos="s" depth="0" NCoef="0" IVar="5" Cut="3.4333469867706299e+00" cType="1" res="-1.9962871447205544e-03" rms="4.3432083725929260e-01" purity="4.9898335337638855e-01" nType="0">
        <Node pos="l" depth="1" NCoef="0" IVar="0" Cut="1.7593263387680054e+00" cType="1" res="-2.9795698355883360e-03" rms="4.3496069312095642e-01" purity="4.9665138125419617e-01" nType="0">
          <Node pos="l" depth="2" NCoef="0" IVar="-1" Cut="0.0000000000000000e+00" cType="1" res="-5.5209896527230740e-04" rms="4.3685176968574524e-01" purity="5.1025772094726562e-01" nType="-99"/>
          <Node pos="r" depth="2" NCoef="0" IVar="-1" Cut="0.0000000000000000e+00" cType="1" res="-5.5313655175268650e-03" rms="3.9651936292648315e-01" purity="2.3518367111682892e-01" nType="-99"/>
        </Node>
        <Node pos="r" depth="1" NCoef="0" IVar="-1" Cut="0.0000000000000000e+00" cType="1" res="5.6514176540076733e-03" rms="4.1805717349052429e-01" purity="5.5469441413879395e-01" nType="-99"/>
      </Node>
    </BinaryTree>
    <BinaryTree type="DecisionTree" boostWeight="1.0000000000000000e+00" itree="171">
      <Node pos="s" depth="0" NCoef="0" IVar="8" Cut="1.6414833068847656e+00" cType="1" res="-3.8071424933150411e-04" rms="4.3517586588859558e-01" purity="5.0043618679046631e-01" nType="0">
        <Node pos="l" depth="1" NCoef="0" IVar="9" Cut="3.3333334326744080e-01" cType="1" res="-1.2903159949928522e-03" rms="4.3676534295082092e-01" purity="4.8794129490852356e-01" nType="0">
          <Node pos="l" depth="2" NCoef="0" IVar="-1" Cut="0.0000000000000000e+00" cType="1" res="1.5260328655131161e-04" rms="4.3517172336578369e-01" purity="4.9758705496788025e-01" nType="-99"/>
          <Node pos="r" depth="2" NCoef="0" IVar="-1" Cut="0.0000000000000000e+00" cType="1" res="-2.2921725176274776e-03" rms="4.4306877255439758e-01" purity="4.4894295930862427e-01" nType="-99"/>
        </Node>
        <Node pos="r" depth="1" NCoef="0" IVar="-1" Cut="0.0000000000000000e+00" cType="1" res="4.0760729461908340e-03" rms="4.0813460946083069e-01" purity="7.0392996072769165e-01" nType="-99"/>
      </Node>
    </BinaryTree>
    <BinaryTree type="DecisionTree" boostWeight="1.0000000000000000e+00" itree="172">
      <Node pos="s" depth="0" NCoef="0" IVar="6" Cut="2.2380952835083008e+00" cType="1" res="2.8149296995252371e-03" rms="4.3419772386550903e-01" purity="5.0270825624465942e-01" nType="0">
        <Node pos="l" depth="1" NCoef="0" IVar="6" Cut="-3.1428570747375488e+00" cType="1" res="5.3139915689826012e-03" rms="4.3555897474288940e-01" purity="5.1008445024490356e-01" nType="0">
          <Node pos="l" depth="2" NCoef="0" IVar="-1" Cut="0.0000000000000000e+00" cType="1" res="-1.4277833979576826e-03" rms="4.2348831892013550e-01" purity="4.7035005688667297e-01" nType="-99"/>
          <Node pos="r" depth="2" NCoef="0" IVar="-1" Cut="0.0000000000000000e+00" cType="1" res="1.9549531862139702e-03" rms="4.3810445070266724e-01" purity="5.1872044801712036e-01" nType="-99"/>
        </Node>
        <Node pos="r" depth="1" NCoef="0" IVar="7" Cut="5.2712831497192383e+00" cType="1" res="-5.4256687872111797e-03" rms="4.2957553267478943e-01" purity="4.7838544845581055e-01" nType="0">
          <Node pos="l" depth="2" NCoef="0" IVar="-1" Cut="0.0000000000000000e+00" cType="1" res="-2.6941336691379547e-03" rms="4.3192321062088013e-01" purity="4.2453062534332275e-01" nType="-99"/>
          <Node pos="r" depth="2" NCoef="0" IVar="-1" Cut="0.0000000000000000e+00" cType="1" res="1.5271554002538323e-03" rms="4.2366486787796021e-01" purity="6.0800540447235107e-01" nType="-99"/>
        </Node>
      </Node>
    </BinaryTree>
    <BinaryTree type="DecisionTree" boostWeight="1.0000000000000000e+00" itree="173">
      <Node pos="s" depth="0" NCoef="0" IVar="8" Cut="1.8201956748962402e+00" cType="1" res="-1.1656821006909013e-03" rms="4.3434786796569824e-01" purity="4.9933394789695740e-01" nType="0">
        <Node pos="l" depth="1" NCoef="0" IVar="9" Cut="6.1904764175415039e-01" cType="1" res="-2.2132471203804016e-03" rms="4.3569782376289368e-01" purity="4.8906087875366211e-01" nType="0">
          <Node pos="l" depth="2" NCoef="0" IVar="-1" Cut="0.0000000000000000e+00" cType="1" res="-3.2446236582472920e-04" rms="4.3462270498275757e-01" purity="4.9577945470809937e-01" nType="-99"/>
          <Node pos="r" depth="2" NCoef="0" IVar="-1" Cut="0.0000000000000000e+00" cType="1" res="-3.6568490322679281e-03" rms="4.4866752624511719e-01" purity="4.0558221936225891e-01" nType="-99"/>
        </Node>
        <Node pos="r" depth="1" NCoef="0" IVar="-1" Cut="0.0000000000000000e+00" cType="1" res="6.2653580680489540e-03" rms="4.0257847309112549e-01" purity="7.2696834802627563e-01" nType="-99"/>
      </Node>
    </BinaryTree>
    <BinaryTree type="DecisionTree" boostWeight="1.0000000000000000e+00" itree="174">
      <Node pos="s" depth="0" NCoef="0" IVar="3" Cut="4.7619048506021500e-02" cType="1" res="-8.4827240789309144e-04" rms="4.3433389067649841e-01" purity="4.9800401926040649e-01" nType="0">
        <Node pos="l" depth="1" NCoef="0" IVar="4" Cut="9.4627553224563599e-01" cType="1" res="-5.5541968904435635e-03" rms="4.3382027745246887e-01" purity="4.9226331710815430e-01" nType="0">
          <Node pos="l" depth="2" NCoef="0" IVar="-1" Cut="0.0000000000000000e+00" cType="1" res="-1.9287506584078074e-03" rms="4.3576845526695251e-01" purity="4.4097223877906799e-01" nType="-99"/>
          <Node pos="r" depth="2" NCoef="0" IVar="-1" Cut="0.0000000000000000e+00" cType="1" res="9.6572068287059665e-04" rms="4.2429739236831665e-01" purity="7.3667049407958984e-01" nType="-99"/>
        </Node>
        <Node pos="r" depth="1" NCoef="0" IVar="8" Cut="3.3480951189994812e-01" cType="1" res="4.9689644947648048e-03" rms="4.3489760160446167e-01" purity="5.0510036945343018e-01" nType="0">
          <Node pos="l" depth="2" NCoef="0" IVar="-1" Cut="0.0000000000000000e+00" cType="1" res="4.3130255653522909e-04" rms="4.3663880228996277e-01" purity="4.8478835821151733e-01" nType="-99"/>
          <Node pos="r" depth="2" NCoef="0" IVar="-1" Cut="0.0000000000000000e+00" cType="1" res="2.9509197920560837e-03" rms="4.3151676654815674e-01" purity="5.4351097345352173e-01" nType="-99"/>
        </Node>
      </Node>
    </BinaryTree>
    <BinaryTree type="DecisionTree" boostWeight="1.0000000000000000e+00" itree="175">
      <Node pos="s" depth="0" NCoef="0" IVar="1" Cut="3.9624185562133789e+00" cType="1" res="-8.0720591358840466e-04" rms="4.3481028079986572e-01" purity="4.9904114007949829e-01" nType="0">
        <Node pos="l" depth="1" NCoef="0" IVar="0" Cut="1.2041730880737305e+00" cType="1" res="-3.5002443473786116e-03" rms="4.4293466210365295e-01" purity="5.0137108564376831e-01" nType="0">
          <Node pos="l" depth="2" NCoef="0" IVar="-1" Cut="0.0000000000000000e+00" cType="1" res="-2.6006968691945076e-03" rms="4.4785261154174805e-01" purity="5.7068485021591187e-01" nType="-99"/>
          <Node pos="r" depth="2" NCoef="0" IVar="-1" Cut="0.0000000000000000e+00" cType="1" res="3.4990624990314245e-03" rms="4.2989262938499451e-01" purity="3.2759580016136169e-01" nType="-99"/>
        </Node>
        <Node pos="r" depth="1" NCoef="0" IVar="0" Cut="1.0090167522430420e+00" cType="1" res="3.8151792250573635e-03" rms="4.2045941948890686e-01" purity="4.9504184722900391e-01" nType="0">
          <Node pos="l" depth="2" NCoef="0" IVar="-1" Cut="0.0000000000000000e+00" cType="1" res="4.6248612925410271e-03" rms="4.2888301610946655e-01" purity="6.2437802553176880e-01" nType="-99"/>
          <Node pos="r" depth="2" NCoef="0" IVar="-1" Cut="0.0000000000000000e+00" cType="1" res="-5.3199296817183495e-03" rms="4.0515303611755371e-01" purity="2.8141260147094727e-01" nType="-99"/>
        </Node>
      </Node>
    </BinaryTree>
    <BinaryTree type="DecisionTree" boostWeight="1.0000000000000000e+00" itree="176">
      <Node pos="s" depth="0" NCoef="0" IVar="8" Cut="1.5677453279495239e+00" cType="1" res="5.7940889382734895e-04" rms="4.3464940786361694e-01" purity="5.0026208162307739e-01" nType="0">
        <Node pos="l" depth="1" NCoef="0" IVar="8" Cut="-1.0439629852771759e-01" cType="1" res="-3.5702018067240715e-04" rms="4.3639740347862244e-01" purity="4.8618313670158386e-01" nType="0">
          <Node pos="l" depth="2" NCoef="0" IVar="-1" Cut="0.0000000000000000e+00" cType="1" res="9.1252860147505999e-04" rms="4.3376553058624268e-01" purity="5.1121842861175537e-01" nType="-99"/>
          <Node pos="r" depth="2" NCoef="0" IVar="-1" Cut="0.0000000000000000e+00" cType="1" res="-9.4712671125307679e-04" rms="4.3863978981971741e-01" purity="4.6447318792343140e-01" nType="-99"/>
        </Node>
        <Node pos="r" depth="1" NCoef="0" IVar="-1" Cut="0.0000000000000000e+00" cType="1" res="3.9740293286740780e-03" rms="4.0843912959098816e-01" purity="7.0279633998870850e-01" nType="-99"/>
      </Node>
    </BinaryTree>
    <BinaryTree type="DecisionTree" boostWeight="1.0000000000000000e+00" itree="177">
      <Node pos="s" depth="0" NCoef="0" IVar="9" Cut="6.1904764175415039e-01" cType="1" res="7.4299023253843188e-04" rms="4.3530702590942383e-01" purity="4.9980396032333374e-01" nType="0">
        <Node pos="l" depth="1" NCoef="0" IVar="4" Cut="9.4692367315292358e-01" cType="1" res="1.6783964820206165e-03" rms="4.3416330218315125e-01" purity="5.0627350807189941e-01" nType="0">
          <Node pos="l" depth="2" NCoef="0" IVar="-1" Cut="0.0000000000000000e+00" cType="1" res="-7.8942706750240177e-05" rms="4.3791946768760681e-01" purity="4.5588797330856323e-01" nType="-99"/>
          <Node pos="r" depth="2" NCoef="0" IVar="-1" Cut="0.0000000000000000e+00" cType="1" res="3.2543151173740625e-03" rms="4.1489061713218689e-01" purity="7.5618100166320801e-01" nType="-99"/>
        </Node>
        <Node pos="r" depth="1" NCoef="0" IVar="4" Cut="7.8481835126876831e-01" cType="1" res="-1.0960716754198074e-02" rms="4.4920647144317627e-01" purity="4.1885846853256226e-01" nType="0">
          <Node pos="l" depth="2" NCoef="0" IVar="-1" Cut="0.0000000000000000e+00" cType="1" res="1.5306352870538831e-03" rms="4.2803397774696350e-01" purity="2.8602018952369690e-01" nType="-99"/>
          <Node pos="r" depth="2" NCoef="0" IVar="-1" Cut="0.0000000000000000e+00" cType="1" res="-6.3430513255298138e-03" rms="4.6912178397178650e-01" purity="5.5352205038070679e-01" nType="-99"/>
        </Node>
      </Node>
    </BinaryTree>
    <BinaryTree type="DecisionTree" boostWeight="1.0000000000000000e+00" itree="178">
      <Node pos="s" depth="0" NCoef="0" IVar="1" Cut="4.8906760215759277e+00" cType="1" res="-1.0008555836975574e-03" rms="4.3580457568168640e-01" purity="4.9910730123519897e-01" nType="0">
        <Node pos="l" depth="1" NCoef="0" IVar="1" Cut="1.1272363662719727e+00" cType="1" res="-3.4970946144312620e-03" rms="4.4088345766067505e-01" purity="4.9970221519470215e-01" nType="0">
          <Node pos="l" depth="2" NCoef="0" IVar="-1" Cut="0.0000000000000000e+00" cType="1" res="-5.7828500866889954e-03" rms="4.7229593992233276e-01" purity="4.5997413992881775e-01" nType="-99"/>
          <Node pos="r" depth="2" NCoef="0" IVar="-1" Cut="0.0000000000000000e+00" cType="1" res="-2.2150328732095659e-05" rms="4.3558540940284729e-01" purity="5.0601583719253540e-01" nType="-99"/>
        </Node>
        <Node pos="r" depth="1" NCoef="0" IVar="0" Cut="1.0781255960464478e+00" cType="1" res="6.0025397688150406e-03" rms="4.2114958167076111e-01" purity="4.9743819236755371e-01" nType="0">
          <Node pos="l" depth="2" NCoef="0" IVar="-1" Cut="0.0000000000000000e+00" cType="1" res="5.1761791110038757e-03" rms="4.3492624163627625e-01" purity="5.9985327720642090e-01" nType="-99"/>
          <Node pos="r" depth="2" NCoef="0" IVar="-1" Cut="0.0000000000000000e+00" cType="1" res="-9.8725166171789169e-03" rms="3.7815764546394348e-01" purity="2.1624907851219177e-01" nType="-99"/>
        </Node>
      </Node>
    </BinaryTree>
    <BinaryTree type="DecisionTree" boostWeight="1.0000000000000000e+00" itree="179">
      <Node pos="s" depth="0" NCoef="0" IVar="4" Cut="3.4813275933265686e-01" cType="1" res="5.4944370640441775e-04" rms="4.3419933319091797e-01" purity="5.0038766860961914e-01" nType="0">
        <Node pos="l" depth="1" NCoef="0" IVar="-1" Cut="0.0000000000000000e+00" cType="1" res="-1.1170689947903156e-02" rms="2.6041752099990845e-01" purity="7.4614688754081726e-02" nType="-99"/>
        <Node pos="r" depth="1" NCoef="0" IVar="1" Cut="9.2813520431518555e+00" cType="1" res="1.5731869498267770e-03" rms="4.4153314828872681e-01" purity="5.2311378717422485e-01" nType="0">
          <Node pos="l" depth="2" NCoef="0" IVar="-1" Cut="0.0000000000000000e+00" cType="1" res="3.7491183320526034e-05" rms="4.4298139214515686e-01" purity="5.2242887020111084e-01" nType="-99"/>
          <Node pos="r" depth="2" NCoef="0" IVar="-1" Cut="0.0000000000000000e+00" cType="1" res="4.7430312260985374e-03" rms="4.2421734333038330e-01" purity="5.3097385168075562e-01" nType="-99"/>
        </Node>
      </Node>
    </BinaryTree>
    <BinaryTree type="DecisionTree" boostWeight="1.0000000000000000e+00" itree="180">
      <Node pos="s" depth="0" NCoef="0" IVar="9" Cut="-4.2857143282890320e-01" cType="1" res="2.6308043743483722e-04" rms="4.3430921435356140e-01" purity="5.0022071599960327e-01" nType="0">
        <Node pos="l" depth="1" NCoef="0" IVar="0" Cut="1.0997791290283203e+00" cType="1" res="-9.0995570644736290e-03" rms="4.3944710493087769e-01" purity="4.4637277722358704e-01" nType="0">
          <Node pos="l" depth="2" NCoef="0" IVar="-1" Cut="0.0000000000000000e+00" cType="1" res="-5.4161497391760349e-03" rms="4.4738543033599854e-01" purity="5.3640252351760864e-01" nType="-99"/>
          <Node pos="r" depth="2" NCoef="0" IVar="-1" Cut="0.0000000000000000e+00" cType="1" res="2.3599748965352774e-03" rms="4.2663145065307617e-01" purity="3.1117859482765198e-01" nType="-99"/>
        </Node>
        <Node pos="r" depth="1" NCoef="0" IVar="5" Cut="3.4882948398590088e+00" cType="1" res="1.9003712804988027e-03" rms="4.3338370323181152e-01" purity="5.0963741540908813e-01" nType="0">
          <Node pos="l" depth="2" NCoef="0" IVar="-1" Cut="0.0000000000000000e+00" cType="1" res="3.0918992706574500e-04" rms="4.3395829200744629e-01" purity="5.0755566358566284e-01" nType="-99"/>
          <Node pos="r" depth="2" NCoef="0" IVar="-1" Cut="0.0000000000000000e+00" cType="1" res="4.7993930056691170e-03" rms="4.1986691951751709e-01" purity="5.5666565895080566e-01" nType="-99"/>
        </Node>
      </Node>
    </BinaryTree>
    <BinaryTree type="DecisionTree" boostWeight="1.0000000000000000e+00" itree="181">
      <Node pos="s" depth="0" NCoef="0" IVar="10" Cut="6.0666667938232422e+01" cType="1" res="-9.7521673887968063e-04" rms="4.3546646833419800e-01" purity="4.9888476729393005e-01" nType="0">
        <Node pos="l" depth="1" NCoef="0" IVar="5" Cut="1.8849992752075195e+00" cType="1" res="-1.1899674427695572e-04" rms="4.3581700325012207e-01" purity="5.0496095418930054e-01" nType="0">
          <Node pos="l" depth="2" NCoef="0" IVar="-1" Cut="0.0000000000000000e+00" cType="1" res="6.6409242572262883e-04" rms="4.3855312466621399e-01" purity="5.0767052173614502e-01" nType="-99"/>
          <Node pos="r" depth="2" NCoef="0" IVar="-1" Cut="0.0000000000000000e+00" cType="1" res="-2.5192897301167250e-03" rms="4.2622315883636475e-01" purity="4.9571773409843445e-01" nType="-99"/>
        </Node>
        <Node pos="r" depth="1" NCoef="0" IVar="-1" Cut="0.0000000000000000e+00" cType="1" res="-6.4119589515030384e-03" rms="4.2514181137084961e-01" purity="3.3333715796470642e-01" nType="-99"/>
      </Node>
    </BinaryTree>
    <BinaryTree type="DecisionTree" boostWeight="1.0000000000000000e+00" itree="182">
      <Node pos="s" depth="0" NCoef="0" IVar="10" Cut="6.0666667938232422e+01" cType="1" res="8.8115461403504014e-04" rms="4.3481564521789551e-01" purity="5.0155663490295410e-01" nType="0">
        <Node pos="l" depth="1" NCoef="0" IVar="2" Cut="3.4728214144706726e-01" cType="1" res="1.5504673356190324e-03" rms="4.3507549166679382e-01" purity="5.0760483741760254e-01" nType="0">
          <Node pos="l" depth="2" NCoef="0" IVar="-1" Cut="0.0000000000000000e+00" cType="1" res="-1.9733986118808389e-04" rms="4.3595579266548157e-01" purity="5.0473171472549438e-01" nType="-99"/>
          <Node pos="r" depth="2" NCoef="0" IVar="-1" Cut="0.0000000000000000e+00" cType="1" res="1.5912542585283518e-03" rms="4.3332344293594360e-01" purity="5.1319152116775513e-01" nType="-99"/>
        </Node>
        <Node pos="r" depth="1" NCoef="0" IVar="-1" Cut="0.0000000000000000e+00" cType="1" res="-4.6044164337217808e-03" rms="4.2724779248237610e-01" purity="3.3626970648765564e-01" nType="-99"/>
      </Node>
    </BinaryTree>
    <BinaryTree type="DecisionTree" boostWeight="1.0000000000000000e+00" itree="183">
      <Node pos="s" depth="0" NCoef="0" IVar="8" Cut="-8.0999329686164856e-02" cType="1" res="-2.3039965890347958e-03" rms="4.3537256121635437e-01" purity="4.9768283963203430e-01" nType="0">
        <Node pos="l" depth="1" NCoef="0" IVar="8" Cut="-1.3162156343460083e+00" cType="1" res="1.8972391262650490e-03" rms="4.3525305390357971e-01" purity="5.1020950078964233e-01" nType="0">
          <Node pos="l" depth="2" NCoef="0" IVar="-1" Cut="0.0000000000000000e+00" cType="1" res="-1.8982338951900601e-03" rms="4.2224997282028198e-01" purity="6.4953196048736572e-01" nType="-99"/>
          <Node pos="r" depth="2" NCoef="0" IVar="-1" Cut="0.0000000000000000e+00" cType="1" res="1.1017816141247749e-03" rms="4.3864271044731140e-01" purity="4.7286903858184814e-01" nType="-99"/>
        </Node>
        <Node pos="r" depth="1" NCoef="0" IVar="9" Cut="-4.7619048506021500e-02" cType="1" res="-5.6525687687098980e-03" rms="4.3543875217437744e-01" purity="4.8769852519035339e-01" nType="0">
          <Node pos="l" depth="2" NCoef="0" IVar="-1" Cut="0.0000000000000000e+00" cType="1" res="-4.2787287384271622e-03" rms="4.2996764183044434e-01" purity="4.0984499454498291e-01" nType="-99"/>
          <Node pos="r" depth="2" NCoef="0" IVar="-1" Cut="0.0000000000000000e+00" cType="1" res="-1.8411352584735141e-06" rms="4.3828424811363220e-01" purity="5.3006589412689209e-01" nType="-99"/>
        </Node>
      </Node>
    </BinaryTree>
    <BinaryTree type="DecisionTree" boostWeight="1.0000000000000000e+00" itree="184">
      <Node pos="s" depth="0" NCoef="0" IVar="8" Cut="-1.8449522256851196e+00" cType="1" res="-4.1465726098977029e-04" rms="4.3457400798797607e-01" purity="4.9969103932380676e-01" nType="0">
        <Node pos="l" depth="1" NCoef="0" IVar="-1" Cut="0.0000000000000000e+00" cType="1" res="6.7927096970379353e-03" rms="4.0373045206069946e-01" purity="7.3647308349609375e-01" nType="-99"/>
        <Node pos="r" depth="1" NCoef="0" IVar="9" Cut="-2.3809523880481720e-01" cType="1" res="-1.4236285351216793e-03" rms="4.3578270077705383e-01" purity="4.8982423543930054e-01" nType="0">
          <Node pos="l" depth="2" NCoef="0" IVar="-1" Cut="0.0000000000000000e+00" cType="1" res="-1.6604239353910089e-03" rms="4.3750205636024475e-01" purity="4.5743584632873535e-01" nType="-99"/>
          <Node pos="r" depth="2" NCoef="0" IVar="-1" Cut="0.0000000000000000e+00" cType="1" res="8.9854875113815069e-05" rms="4.3515112996101379e-01" purity="5.0143378973007202e-01" nType="-99"/>
        </Node>
      </Node>
    </BinaryTree>
    <BinaryTree type="DecisionTree" boostWeight="1.0000000000000000e+00" itree="185">
      <Node pos="s" depth="0" NCoef="0" IVar="1" Cut="4.3589663505554199e+00" cType="1" res="1.2761006364598870e-03" rms="4.3534725904464722e-01" purity="5.0109672546386719e-01" nType="0">
        <Node pos="l" depth="1" NCoef="0" IVar="1" Cut="1.0512787103652954e+00" cType="1" res="-1.1103256838396192e-03" rms="4.4151303172111511e-01" purity="5.0215613842010498e-01" nType="0">
          <Node pos="l" depth="2" NCoef="0" IVar="-1" Cut="0.0000000000000000e+00" cType="1" res="-4.7503574751317501e-03" rms="4.7309893369674683e-01" purity="4.5510241389274597e-01" nType="-99"/>
          <Node pos="r" depth="2" NCoef="0" IVar="-1" Cut="0.0000000000000000e+00" cType="1" res="5.2624993259087205e-04" rms="4.3612664937973022e-01" purity="5.0974124670028687e-01" nType="-99"/>
        </Node>
        <Node pos="r" depth="1" NCoef="0" IVar="0" Cut="1.0214070081710815e+00" cType="1" res="6.4384285360574722e-03" rms="4.2165490984916687e-01" purity="4.9880501627922058e-01" nType="0">
          <Node pos="l" depth="2" NCoef="0" IVar="-1" Cut="0.0000000000000000e+00" cType="1" res="4.1572772897779942e-03" rms="4.3171316385269165e-01" purity="6.2080395221710205e-01" nType="-99"/>
          <Node pos="r" depth="2" NCoef="0" IVar="-1" Cut="0.0000000000000000e+00" cType="1" res="-3.0309818685054779e-03" rms="4.0230673551559448e-01" purity="2.7853217720985413e-01" nType="-99"/>
        </Node>
      </Node>
    </BinaryTree>
    <BinaryTree type="DecisionTree" boostWeight="1.0000000000000000e+00" itree="186">
      <Node pos="s" depth="0" NCoef="0" IVar="6" Cut="-3.8571429252624512e+00" cType="1" res="-2.0854892500210553e-04" rms="4.3439045548439026e-01" purity="5.0010973215103149e-01" nType="0">
        <Node pos="l" depth="1" NCoef="0" IVar="0" Cut="1.1064004898071289e+00" cType="1" res="-8.7725082412362099e-03" rms="4.2329755425453186e-01" purity="4.6899235248565674e-01" nType="0">
          <Node pos="l" depth="2" NCoef="0" IVar="-1" Cut="0.0000000000000000e+00" cType="1" res="-2.4025057427934371e-05" rms="4.3721356987953186e-01" purity="5.5976092815399170e-01" nType="-99"/>
          <Node pos="r" depth="2" NCoef="0" IVar="-1" Cut="0.0000000000000000e+00" cType="1" res="-9.6228662878274918e-03" rms="3.8240981101989746e-01" purity="2.2494713962078094e-01" nType="-99"/>
        </Node>
        <Node pos="r" depth="1" NCoef="0" IVar="6" Cut="7.0000000000000000e+00" cType="1" res="1.1596607510000467e-03" rms="4.3612098693847656e-01" purity="5.0508111715316772e-01" nType="0">
          <Node pos="l" depth="2" NCoef="0" IVar="-1" Cut="0.0000000000000000e+00" cType="1" res="5.5626081302762032e-04" rms="4.3717890977859497e-01" purity="5.0948184728622437e-01" nType="-99"/>
          <Node pos="r" depth="2" NCoef="0" IVar="-1" Cut="0.0000000000000000e+00" cType="1" res="-4.1425903327763081e-03" rms="4.1802346706390381e-01" purity="4.3277949094772339e-01" nType="-99"/>
        </Node>
      </Node>
    </BinaryTree>
    <BinaryTree type="DecisionTree" boostWeight="1.0000000000000000e+00" itree="187">
      <Node pos="s" depth="0" NCoef="0" IVar="10" Cut="1.0380952835083008e+01" cType="1" res="3.1603912357240915e-03" rms="4.3467059731483459e-01" purity="5.0353640317916870e-01" nType="0">
        <Node pos="l" depth="1" NCoef="0" IVar="10" Cut="3.1428570747375488e+00" cType="1" res="9.4591174274682999e-03" rms="4.5785185694694519e-01" purity="5.2870875597000122e-01" nType="0">
          <Node pos="l" depth="2" NCoef="0" IVar="-1" Cut="0.0000000000000000e+00" cType="1" res="-3.9940844289958477e-03" rms="4.7677001357078552e-01" purity="4.5213931798934937e-01" nType="-99"/>
          <Node pos="r" depth="2" NCoef="0" IVar="-1" Cut="0.0000000000000000e+00" cType="1" res="4.5521981082856655e-03" rms="4.5104792714118958e-01" purity="5.5411559343338013e-01" nType="-99"/>
        </Node>
        <Node pos="r" depth="1" NCoef="0" IVar="0" Cut="1.2879047393798828e+00" cType="1" res="-3.0444428557530046e-04" rms="4.2133542895317078e-01" purity="4.8968943953514099e-01" nType="0">
          <Node pos="l" depth="2" NCoef="0" IVar="-1" Cut="0.0000000000000000e+00" cType="1" res="1.3058829354122281e-03" rms="4.2957523465156555e-01" purity="5.3150492906570435e-01" nType="-99"/>
          <Node pos="r" depth="2" NCoef="0" IVar="-1" Cut="0.0000000000000000e+00" cType="1" res="-1.4411902055144310e-02" rms="3.4662374854087830e-01" purity="1.5895992517471313e-01" nType="-99"/>
        </Node>
      </Node>
    </BinaryTree>
    <BinaryTree type="DecisionTree" boostWeight="1.0000000000000000e+00" itree="188">
      <Node pos="s" depth="0" NCoef="0" IVar="9" Cut="-4.2857143282890320e-01" cType="1" res="-6.0150639910716563e-05" rms="4.3428632616996765e-01" purity="4.9958470463752747e-01" nType="0">
        <Node pos="l" depth="1" NCoef="0" IVar="8" Cut="-5.0612020492553711e-01" cType="1" res="-9.5085250213742256e-03" rms="4.3624702095985413e-01" purity="4.4596478343009949e-01" nType="0">
          <Node pos="l" depth="2" NCoef="0" IVar="-1" Cut="0.0000000000000000e+00" cType="1" res="2.7152223046869040e-03" rms="4.4755628705024719e-01" purity="6.0590749979019165e-01" nType="-99"/>
          <Node pos="r" depth="2" NCoef="0" IVar="-1" Cut="0.0000000000000000e+00" cType="1" res="-6.2341797165572643e-03" rms="4.2790332436561584e-01" purity="3.3797681331634521e-01" nType="-99"/>
        </Node>
        <Node pos="r" depth="1" NCoef="0" IVar="4" Cut="9.4744014739990234e-01" cType="1" res="1.5662657096982002e-03" rms="4.3392714858055115e-01" purity="5.0881469249725342e-01" nType="0">
          <Node pos="l" depth="2" NCoef="0" IVar="-1" Cut="0.0000000000000000e+00" cType="1" res="-1.5003792941570282e-04" rms="4.3771612644195557e-01" purity="4.5969614386558533e-01" nType="-99"/>
          <Node pos="r" depth="2" NCoef="0" IVar="-1" Cut="0.0000000000000000e+00" cType="1" res="3.5685524344444275e-03" rms="4.1385164856910706e-01" purity="7.5979566574096680e-01" nType="-99"/>
        </Node>
      </Node>
    </BinaryTree>
    <BinaryTree type="DecisionTree" boostWeight="1.0000000000000000e+00" itree="189">
      <Node pos="s" depth="0" NCoef="0" IVar="5" Cut="3.3740830421447754e+00" cType="1" res="4.3461276800371706e-04" rms="4.3555560708045959e-01" purity="4.9928921461105347e-01" nType="0">
        <Node pos="l" depth="1" NCoef="0" IVar="4" Cut="6.9533646106719971e-01" cType="1" res="-5.4072763305157423e-04" rms="4.3616768717765808e-01" purity="4.9682286381721497e-01" nType="0">
          <Node pos="l" depth="2" NCoef="0" IVar="-1" Cut="0.0000000000000000e+00" cType="1" res="1.3342573074623942e-03" rms="4.1702491044998169e-01" purity="2.9002285003662109e-01" nType="-99"/>
          <Node pos="r" depth="2" NCoef="0" IVar="-1" Cut="0.0000000000000000e+00" cType="1" res="-9.4706506934016943e-04" rms="4.4773355126380920e-01" purity="6.2661647796630859e-01" nType="-99"/>
        </Node>
        <Node pos="r" depth="1" NCoef="0" IVar="-1" Cut="0.0000000000000000e+00" cType="1" res="6.0340748168528080e-03" rms="4.2061457037925720e-01" purity="5.5599230527877808e-01" nType="-99"/>
      </Node>
    </BinaryTree>
    <BinaryTree type="DecisionTree" boostWeight="1.0000000000000000e+00" itree="190">
      <Node pos="s" depth="0" NCoef="0" IVar="10" Cut="1.0380952835083008e+01" cType="1" res="1.0485122911632061e-03" rms="4.3492600321769714e-01" purity="5.0137424468994141e-01" nType="0">
        <Node pos="l" depth="1" NCoef="0" IVar="0" Cut="1.2041730880737305e+00" cType="1" res="5.3047435358166695e-03" rms="4.5836570858955383e-01" purity="5.2324223518371582e-01" nType="0">
          <Node pos="l" depth="2" NCoef="0" IVar="-1" Cut="0.0000000000000000e+00" cType="1" res="-2.0404071547091007e-03" rms="4.6255668997764587e-01" purity="6.0494571924209595e-01" nType="-99"/>
          <Node pos="r" depth="2" NCoef="0" IVar="-1" Cut="0.0000000000000000e+00" cType="1" res="7.2411582805216312e-03" rms="4.4975703954696655e-01" purity="3.7742412090301514e-01" nType="-99"/>
        </Node>
        <Node pos="r" depth="1" NCoef="0" IVar="0" Cut="1.3304616212844849e+00" cType="1" res="-1.2998022139072418e-03" rms="4.2141735553741455e-01" purity="4.8930886387825012e-01" nType="0">
          <Node pos="l" depth="2" NCoef="0" IVar="-1" Cut="0.0000000000000000e+00" cType="1" res="6.6387205151841044e-04" rms="4.2842075228691101e-01" purity="5.2358818054199219e-01" nType="-99"/>
          <Node pos="r" depth="2" NCoef="0" IVar="-1" Cut="0.0000000000000000e+00" cType="1" res="-1.3982685282826424e-02" rms="3.4223490953445435e-01" purity="1.4997026324272156e-01" nType="-99"/>
        </Node>
      </Node>
    </BinaryTree>
    <BinaryTree type="DecisionTree" boostWeight="1.0000000000000000e+00" itree="191">
      <Node pos="s" depth="0" NCoef="0" IVar="4" Cut="7.3735040426254272e-01" cType="1" res="-8.8878668611869216e-04" rms="4.3518337607383728e-01" purity="5.0019812583923340e-01" nType="0">
        <Node pos="l" depth="1" NCoef="0" IVar="10" Cut="3.5523811340332031e+01" cType="1" res="3.3289990387856960e-03" rms="4.2260813713073730e-01" purity="3.1450164318084717e-01" nType="0">
          <Node pos="l" depth="2" NCoef="0" IVar="-1" Cut="0.0000000000000000e+00" cType="1" res="-8.4578333189710975e-04" rms="4.2525082826614380e-01" purity="3.1037715077400208e-01" nType="-99"/>
          <Node pos="r" depth="2" NCoef="0" IVar="-1" Cut="0.0000000000000000e+00" cType="1" res="1.0605693794786930e-02" rms="4.0717217326164246e-01" purity="3.3569100499153137e-01" nType="-99"/>
        </Node>
        <Node pos="r" depth="1" NCoef="0" IVar="0" Cut="1.1176146268844604e+00" cType="1" res="-4.0517551824450493e-03" rms="4.4435399770736694e-01" purity="6.3945418596267700e-01" nType="0">
          <Node pos="l" depth="2" NCoef="0" IVar="-1" Cut="0.0000000000000000e+00" cType="1" res="-3.3949245698750019e-03" rms="4.3668249249458313e-01" purity="7.0629739761352539e-01" nType="-99"/>
          <Node pos="r" depth="2" NCoef="0" IVar="-1" Cut="0.0000000000000000e+00" cType="1" res="4.6972283162176609e-03" rms="4.6493616700172424e-01" purity="4.4577598571777344e-01" nType="-99"/>
        </Node>
      </Node>
    </BinaryTree>
    <BinaryTree type="DecisionTree" boostWeight="1.0000000000000000e+00" itree="192">
      <Node pos="s" depth="0" NCoef="0" IVar="8" Cut="-4.3676471710205078e-01" cType="1" res="7.2722189361229539e-04" rms="4.3460622429847717e-01" purity="5.0187534093856812e-01" nType="0">
        <Node pos="l" depth="1" NCoef="0" IVar="9" Cut="-5.2650415897369385e-01" cType="1" res="6.5766596235334873e-03" rms="4.3126043677330017e-01" purity="5.5389934778213501e-01" nType="0">
          <Node pos="l" depth="2" NCoef="0" IVar="-1" Cut="0.0000000000000000e+00" cType="1" res="7.4121924117207527e-03" rms="4.4883516430854797e-01" purity="6.0675311088562012e-01" nType="-99"/>
          <Node pos="r" depth="2" NCoef="0" IVar="-1" Cut="0.0000000000000000e+00" cType="1" res="7.1849796222522855e-04" rms="4.2814791202545166e-01" purity="5.4512071609497070e-01" nType="-99"/>
        </Node>
        <Node pos="r" depth="1" NCoef="0" IVar="4" Cut="5.6857633590698242e-01" cType="1" res="-1.9177310168743134e-03" rms="4.3608492612838745e-01" purity="4.7835156321525574e-01" nType="0">
          <Node pos="l" depth="2" NCoef="0" IVar="-1" Cut="0.0000000000000000e+00" cType="1" res="2.8963510412722826e-03" rms="3.9400345087051392e-01" purity="2.1692502498626709e-01" nType="-99"/>
          <Node pos="r" depth="2" NCoef="0" IVar="-1" Cut="0.0000000000000000e+00" cType="1" res="-1.4619383728131652e-03" rms="4.5126411318778992e-01" purity="5.7961797714233398e-01" nType="-99"/>
        </Node>
      </Node>
    </BinaryTree>
    <BinaryTree type="DecisionTree" boostWeight="1.0000000000000000e+00" itree="193">
      <Node pos="s" depth="0" NCoef="0" IVar="3" Cut="2.3809523880481720e-01" cType="1" res="2.2477022139355540e-04" rms="4.3443107604980469e-01" purity="5.0041157007217407e-01" nType="0">
        <Node pos="l" depth="1" NCoef="0" IVar="6" Cut="1.2857142686843872e+00" cType="1" res="-2.6480599772185087e-03" rms="4.3207424879074097e-01" purity="4.9650949239730835e-01" nType="0">
          <Node pos="l" depth="2" NCoef="0" IVar="-1" Cut="0.0000000000000000e+00" cType="1" res="-2.7475685783429071e-05" rms="4.3358400464057922e-01" purity="5.0492668151855469e-01" nType="-99"/>
          <Node pos="r" depth="2" NCoef="0" IVar="-1" Cut="0.0000000000000000e+00" cType="1" res="-1.9833848346024752e-03" rms="4.2918241024017334e-01" purity="4.8069450259208679e-01" nType="-99"/>
        </Node>
        <Node pos="r" depth="1" NCoef="0" IVar="0" Cut="1.1868226528167725e+00" cType="1" res="7.9297907650470734e-03" rms="4.4059744477272034e-01" purity="5.1087695360183716e-01" nType="0">
          <Node pos="l" depth="2" NCoef="0" IVar="-1" Cut="0.0000000000000000e+00" cType="1" res="5.1962962606921792e-04" rms="4.4405034184455872e-01" purity="5.8235538005828857e-01" nType="-99"/>
          <Node pos="r" depth="2" NCoef="0" IVar="-1" Cut="0.0000000000000000e+00" cType="1" res="6.0324007645249367e-03" rms="4.3140754103660583e-01" purity="3.3054888248443604e-01" nType="-99"/>
        </Node>
      </Node>
    </BinaryTree>
    <BinaryTree type="DecisionTree" boostWeight="1.0000000000000000e+00" itree="194">
      <Node pos="s" depth="0" NCoef="0" IVar="3" Cut="2.3809523880481720e-01" cType="1" res="-9.3864748487249017e-04" rms="4.3422836065292358e-01" purity="4.9903264641761780e-01" nType="0">
        <Node pos="l" depth="1" NCoef="0" IVar="2" Cut="-9.3058556318283081e-01" cType="1" res="-2.7522777672857046e-03" rms="4.3121296167373657e-01" purity="4.9550276994705200e-01" nType="0">
          <Node pos="l" depth="2" NCoef="0" IVar="-1" Cut="0.0000000000000000e+00" cType="1" res="1.3248883187770844e-03" rms="4.2284688353538513e-01" purity="5.0832450389862061e-01" nType="-99"/>
          <Node pos="r" depth="2" NCoef="0" IVar="-1" Cut="0.0000000000000000e+00" cType="1" res="-1.2687774142250419e-03" rms="4.3344190716743469e-01" purity="4.9200767278671265e-01" nType="-99"/>
        </Node>
        <Node pos="r" depth="1" NCoef="0" IVar="1" Cut="2.9638829231262207e+00" cType="1" res="3.8922040257602930e-03" rms="4.4212368130683899e-01" purity="5.0843513011932373e-01" nType="0">
          <Node pos="l" depth="2" NCoef="0" IVar="-1" Cut="0.0000000000000000e+00" cType="1" res="2.1115664858371019e-03" rms="4.5353320240974426e-01" purity="5.1579535007476807e-01" nType="-99"/>
          <Node pos="r" depth="2" NCoef="0" IVar="-1" Cut="0.0000000000000000e+00" cType="1" res="-5.0998618826270103e-04" rms="4.2749401926994324e-01" purity="4.9931553006172180e-01" nType="-99"/>
        </Node>
      </Node>
    </BinaryTree>
    <BinaryTree type="DecisionTree" boostWeight="1.0000000000000000e+00" itree="195">
      <Node pos="s" depth="0" NCoef="0" IVar="0" Cut="1.7052588462829590e+00" cType="1" res="-2.6077212532982230e-04" rms="4.3447262048721313e-01" purity="4.9991983175277710e-01" nType="0">
        <Node pos="l" depth="1" NCoef="0" IVar="0" Cut="1.1418355703353882e+00" cType="1" res="7.5840123463422060e-04" rms="4.3636116385459900e-01" purity="5.1475101709365845e-01" nType="0">
          <Node pos="l" depth="2" NCoef="0" IVar="-1" Cut="0.0000000000000000e+00" cType="1" res="-5.7665049098432064e-04" rms="4.4048637151718140e-01" purity="5.7950562238693237e-01" nType="-99"/>
          <Node pos="r" depth="2" NCoef="0" IVar="-1" Cut="0.0000000000000000e+00" cType="1" res="2.6278209406882524e-03" rms="4.2357572913169861e-01" purity="3.1986784934997559e-01" nType="-99"/>
        </Node>
        <Node pos="r" depth="1" NCoef="0" IVar="-1" Cut="0.0000000000000000e+00" cType="1" res="-5.1504834555089474e-03" rms="3.9961573481559753e-01" purity="2.4075099825859070e-01" nType="-99"/>
      </Node>
    </BinaryTree>
    <BinaryTree type="DecisionTree" boostWeight="1.0000000000000000e+00" itree="196">
      <Node pos="s" depth="0" NCoef="0" IVar="4" Cut="6.9852542877197266e-01" cType="1" res="6.0423801187425852e-04" rms="4.3523851037025452e-01" purity="5.0093001127243042e-01" nType="0">
        <Node pos="l" depth="1" NCoef="0" IVar="7" Cut="1.4326692819595337e+00" cType="1" res="4.5932601206004620e-03" rms="4.1885280609130859e-01" purity="2.9401165246963501e-01" nType="0">
          <Node pos="l" depth="2" NCoef="0" IVar="-1" Cut="0.0000000000000000e+00" cType="1" res="1.1804303154349327e-02" rms="4.5948469638824463e-01" purity="3.5120818018913269e-01" nType="-99"/>
          <Node pos="r" depth="2" NCoef="0" IVar="-1" Cut="0.0000000000000000e+00" cType="1" res="-6.4056261908262968e-04" rms="4.1128078103065491e-01" purity="2.8445672988891602e-01" nType="-99"/>
        </Node>
        <Node pos="r" depth="1" NCoef="0" IVar="4" Cut="9.7511559724807739e-01" cType="1" res="-1.8830746412277222e-03" rms="4.4513237476348877e-01" purity="6.2995183467864990e-01" nType="0">
          <Node pos="l" depth="2" NCoef="0" IVar="-1" Cut="0.0000000000000000e+00" cType="1" res="-1.3409767998382449e-03" rms="4.4794479012489319e-01" purity="6.1595851182937622e-01" nType="-99"/>
          <Node pos="r" depth="2" NCoef="0" IVar="-1" Cut="0.0000000000000000e+00" cType="1" res="6.9000162184238434e-03" rms="4.2110353708267212e-01" purity="7.4094021320343018e-01" nType="-99"/>
        </Node>
      </Node>
    </BinaryTree>
    <BinaryTree type="DecisionTree" boostWeight="1.0000000000000000e+00" itree="197">
      <Node pos="s" depth="0" NCoef="0" IVar="6" Cut="-2.2380952835083008e+00" cType="1" res="-1.5507749048992991e-03" rms="4.3422201275825500e-01" purity="4.9938890337944031e-01" nType="0">
        <Node pos="l" depth="1" NCoef="0" IVar="0" Cut="8.2019400596618652e-01" cType="1" res="-8.0260280519723892e-03" rms="4.2556795477867126e-01" purity="4.7802790999412537e-01" nType="0">
          <Node pos="l" depth="2" NCoef="0" IVar="-1" Cut="0.0000000000000000e+00" cType="1" res="3.8248351775109768e-03" rms="4.2336237430572510e-01" purity="6.7300492525100708e-01" nType="-99"/>
          <Node pos="r" depth="2" NCoef="0" IVar="-1" Cut="0.0000000000000000e+00" cType="1" res="-4.4310623779892921e-03" rms="4.2613324522972107e-01" purity="3.9976742863655090e-01" nType="-99"/>
        </Node>
        <Node pos="r" depth="1" NCoef="0" IVar="0" Cut="1.1551470756530762e+00" cType="1" res="1.1580844147829339e-04" rms="4.3640607595443726e-01" purity="5.0488680601119995e-01" nType="0">
          <Node pos="l" depth="2" NCoef="0" IVar="-1" Cut="0.0000000000000000e+00" cType="1" res="-7.1399967418983579e-04" rms="4.4194138050079346e-01" purity="5.8186572790145874e-01" nType="-99"/>
          <Node pos="r" depth="2" NCoef="0" IVar="-1" Cut="0.0000000000000000e+00" cType="1" res="1.9567636772990227e-03" rms="4.2227482795715332e-01" purity="3.1391426920890808e-01" nType="-99"/>
        </Node>
      </Node>
    </BinaryTree>
    <BinaryTree type="DecisionTree" boostWeight="1.0000000000000000e+00" itree="198">
      <Node pos="s" depth="0" NCoef="0" IVar="1" Cut="4.8906760215759277e+00" cType="1" res="-1.3694696826860309e-03" rms="4.3440431356430054e-01" purity="4.9837774038314819e-01" nType="0">
        <Node pos="l" depth="1" NCoef="0" IVar="1" Cut="7.0907437801361084e-01" cType="1" res="-3.3679706975817680e-03" rms="4.3982005119323730e-01" purity="4.9896004796028137e-01" nType="0">
          <Node pos="l" depth="2" NCoef="0" IVar="-1" Cut="0.0000000000000000e+00" cType="1" res="-5.9691872447729111e-03" rms="4.5686325430870056e-01" purity="4.1647136211395264e-01" nType="-99"/>
          <Node pos="r" depth="2" NCoef="0" IVar="-1" Cut="0.0000000000000000e+00" cType="1" res="-5.0521822413429618e-04" rms="4.3867999315261841e-01" purity="5.0418382883071899e-01" nType="-99"/>
        </Node>
        <Node pos="r" depth="1" NCoef="0" IVar="0" Cut="1.0055394172668457e+00" cType="1" res="4.2731538414955139e-03" rms="4.1868400573730469e-01" purity="4.9673375487327576e-01" nType="0">
          <Node pos="l" depth="2" NCoef="0" IVar="-1" Cut="0.0000000000000000e+00" cType="1" res="4.3544643558561802e-03" rms="4.2840999364852905e-01" purity="6.3130080699920654e-01" nType="-99"/>
          <Node pos="r" depth="2" NCoef="0" IVar="-1" Cut="0.0000000000000000e+00" cType="1" res="-4.5955469831824303e-03" rms="4.0138006210327148e-01" purity="2.7560639381408691e-01" nType="-99"/>
        </Node>
      </Node>
    </BinaryTree>
    <BinaryTree type="DecisionTree" boostWeight="1.0000000000000000e+00" itree="199">
      <Node pos="s" depth="0" NCoef="0" IVar="0" Cut="1.9056568145751953e+00" cType="1" res="-1.0340670123696327e-03" rms="4.3460434675216675e-01" purity="4.9841928482055664e-01" nType="0">
        <Node pos="l" depth="1" NCoef="0" IVar="0" Cut="9.1496425867080688e-01" cType="1" res="-1.9975981558673084e-04" rms="4.3623164296150208e-01" purity="5.0857937335968018e-01" nType="0">
          <Node pos="l" depth="2" NCoef="0" IVar="-1" Cut="0.0000000000000000e+00" cType="1" res="-1.8334605265408754e-03" rms="4.3536704778671265e-01" purity="6.4220726490020752e-01" nType="-99"/>
          <Node pos="r" depth="2" NCoef="0" IVar="-1" Cut="0.0000000000000000e+00" cType="1" res="1.2964169727638364e-03" rms="4.3685239553451538e-01" purity="4.0125930309295654e-01" nType="-99"/>
        </Node>
        <Node pos="r" depth="1" NCoef="0" IVar="-1" Cut="0.0000000000000000e+00" cType="1" res="-6.8657184019684792e-03" rms="3.8723859190940857e-01" purity="2.2312399744987488e-01" nType="-99"/>
      </Node>
    </BinaryTree>
    <BinaryTree type="DecisionTree" boostWeight="1.0000000000000000e+00" itree="200">
      <Node pos="s" depth="0" NCoef="0" IVar="0" Cut="1.0878227949142456e+00" cType="1" res="1.3289572671055794e-03" rms="4.3550398945808411e-01" purity="5.0140118598937988e-01" nType="0">
        <Node pos="l" depth="1" NCoef="0" IVar="10" Cut="1.8761905670166016e+01" cType="1" res="-1.4994868542999029e-03" rms="4.4167035818099976e-01" purity="5.9424209594726562e-01" nType="0">
          <Node pos="l" depth="2" NCoef="0" IVar="-1" Cut="0.0000000000000000e+00" cType="1" res="-3.1865974888205528e-03" rms="4.5006161928176880e-01" purity="6.0169088840484619e-01" nType="-99"/>
          <Node pos="r" depth="2" NCoef="0" IVar="-1" Cut="0.0000000000000000e+00" cType="1" res="2.7296149637550116e-03" rms="4.3210899829864502e-01" purity="5.8619779348373413e-01" nType="-99"/>
        </Node>
        <Node pos="r" depth="1" NCoef="0" IVar="10" Cut="1.6380952835083008e+01" cType="1" res="6.7131309770047665e-03" rms="4.2346560955047607e-01" purity="3.2467094063758850e-01" nType="0">
          <Node pos="l" depth="2" NCoef="0" IVar="-1" Cut="0.0000000000000000e+00" cType="1" res="6.2450696714222431e-03" rms="4.4616365432739258e-01" purity="3.8380607962608337e-01" nType="-99"/>
          <Node pos="r" depth="2" NCoef="0" IVar="-1" Cut="0.0000000000000000e+00" cType="1" res="-8.4470650181174278e-03" rms="3.7670710682868958e-01" purity="2.1788905560970306e-01" nType="-99"/>
        </Node>
      </Node>
    </BinaryTree>
    <BinaryTree type="DecisionTree" boostWeight="1.0000000000000000e+00" itree="201">
      <Node pos="s" depth="0" NCoef="0" IVar="10" Cut="6.0666667938232422e+01" cType="1" res="-3.2947995350696146e-04" rms="4.3373176455497742e-01" purity="4.9995607137680054e-01" nType="0">
        <Node pos="l" depth="1" NCoef="0" IVar="7" Cut="2.4836485385894775e+00" cType="1" res="5.8721378445625305e-04" rms="4.3411573767662048e-01" purity="5.0611674785614014e-01" nType="0">
          <Node pos="l" depth="2" NCoef="0" IVar="-1" Cut="0.0000000000000000e+00" cType="1" res="-9.9102046806365252e-04" rms="4.4728407263755798e-01" purity="4.3048930168151855e-01" nType="-99"/>
          <Node pos="r" depth="2" NCoef="0" IVar="-1" Cut="0.0000000000000000e+00" cType="1" res="1.0650521144270897e-03" rms="4.2408210039138794e-01" purity="5.6205159425735474e-01" nType="-99"/>
        </Node>
        <Node pos="r" depth="1" NCoef="0" IVar="-1" Cut="0.0000000000000000e+00" cType="1" res="-6.4751380123198032e-03" rms="4.2270740866661072e-01" purity="3.3673024177551270e-01" nType="-99"/>
      </Node>
    </BinaryTree>
    <BinaryTree type="DecisionTree" boostWeight="1.0000000000000000e+00" itree="202">
      <Node pos="s" depth="0" NCoef="0" IVar="8" Cut="6.3071739673614502e-01" cType="1" res="4.7054278547875583e-04" rms="4.3516322970390320e-01" purity="4.9962323904037476e-01" nType="0">
        <Node pos="l" depth="1" NCoef="0" IVar="9" Cut="6.1904764175415039e-01" cType="1" res="-1.6251332126557827e-03" rms="4.3818113207817078e-01" purity="4.7454273700714111e-01" nType="0">
          <Node pos="l" depth="2" NCoef="0" IVar="-1" Cut="0.0000000000000000e+00" cType="1" res="1.0100764484377578e-05" rms="4.3770390748977661e-01" purity="4.8498466610908508e-01" nType="-99"/>
          <Node pos="r" depth="2" NCoef="0" IVar="-1" Cut="0.0000000000000000e+00" cType="1" res="-6.0933842323720455e-03" rms="4.4382420182228088e-01" purity="3.3735844492912292e-01" nType="-99"/>
        </Node>
        <Node pos="r" depth="1" NCoef="0" IVar="7" Cut="2.8260183334350586e+00" cType="1" res="7.1349400095641613e-03" rms="4.2535513639450073e-01" purity="5.7938122749328613e-01" nType="0">
          <Node pos="l" depth="2" NCoef="0" IVar="-1" Cut="0.0000000000000000e+00" cType="1" res="7.2539900429546833e-03" rms="4.4721728563308716e-01" purity="5.5179899930953979e-01" nType="-99"/>
          <Node pos="r" depth="2" NCoef="0" IVar="-1" Cut="0.0000000000000000e+00" cType="1" res="2.3777683963999152e-04" rms="4.1866174340248108e-01" purity="5.8729487657546997e-01" nType="-99"/>
        </Node>
      </Node>
    </BinaryTree>
    <BinaryTree type="DecisionTree" boostWeight="1.0000000000000000e+00" itree="203">
      <Node pos="s" depth="0" NCoef="0" IVar="5" Cut="1.4981892108917236e+00" cType="1" res="3.9851456676842645e-05" rms="4.3406924605369568e-01" purity="5.0055754184722900e-01" nType="0">
        <Node pos="l" depth="1" NCoef="0" IVar="0" Cut="1.1551470756530762e+00" cType="1" res="2.8940960764884949e-03" rms="4.4007390737533569e-01" purity="5.1014548540115356e-01" nType="0">
          <Node pos="l" depth="2" NCoef="0" IVar="-1" Cut="0.0000000000000000e+00" cType="1" res="-3.2052828464657068e-04" rms="4.4341200590133667e-01" purity="5.9222936630249023e-01" nType="-99"/>
          <Node pos="r" depth="2" NCoef="0" IVar="-1" Cut="0.0000000000000000e+00" cType="1" res="3.0155270360410213e-03" rms="4.3281853199005127e-01" purity="3.3702325820922852e-01" nType="-99"/>
        </Node>
        <Node pos="r" depth="1" NCoef="0" IVar="0" Cut="1.2231354713439941e+00" cType="1" res="-4.5476537197828293e-03" rms="4.2419993877410889e-01" purity="4.8514714837074280e-01" nType="0">
          <Node pos="l" depth="2" NCoef="0" IVar="-1" Cut="0.0000000000000000e+00" cType="1" res="2.0599852723535150e-04" rms="4.3462830781936646e-01" purity="5.3839433193206787e-01" nType="-99"/>
          <Node pos="r" depth="2" NCoef="0" IVar="-1" Cut="0.0000000000000000e+00" cType="1" res="-1.1332417838275433e-02" rms="3.5857081413269043e-01" purity="1.8601101636886597e-01" nType="-99"/>
        </Node>
      </Node>
    </BinaryTree>
    <BinaryTree type="DecisionTree" boostWeight="1.0000000000000000e+00" itree="204">
      <Node pos="s" depth="0" NCoef="0" IVar="8" Cut="3.8946136832237244e-01" cType="1" res="-1.1524239089339972e-03" rms="4.3525254726409912e-01" purity="4.9834111332893372e-01" nType="0">
        <Node pos="l" depth="1" NCoef="0" IVar="4" Cut="5.7689243555068970e-01" cType="1" res="-3.5049726720899343e-03" rms="4.3664136528968811e-01" purity="4.7522935271263123e-01" nType="0">
          <Node pos="l" depth="2" NCoef="0" IVar="-1" Cut="0.0000000000000000e+00" cType="1" res="1.2234082678332925e-03" rms="3.9383801817893982e-01" purity="2.1905648708343506e-01" nType="-99"/>
          <Node pos="r" depth="2" NCoef="0" IVar="-1" Cut="0.0000000000000000e+00" cType="1" res="-1.5697074122726917e-03" rms="4.5312106609344482e-01" purity="5.8112305402755737e-01" nType="-99"/>
        </Node>
        <Node pos="r" depth="1" NCoef="0" IVar="0" Cut="1.1245814561843872e+00" cType="1" res="3.6505938041955233e-03" rms="4.3236348032951355e-01" purity="5.4552656412124634e-01" nType="0">
          <Node pos="l" depth="2" NCoef="0" IVar="-1" Cut="0.0000000000000000e+00" cType="1" res="-2.1724087127950042e-04" rms="4.3534880876541138e-01" purity="6.1977100372314453e-01" nType="-99"/>
          <Node pos="r" depth="2" NCoef="0" IVar="-1" Cut="0.0000000000000000e+00" cType="1" res="4.3596373870968819e-03" rms="4.2359045147895813e-01" purity="3.3646923303604126e-01" nType="-99"/>
        </Node>
      </Node>
    </BinaryTree>
    <BinaryTree type="DecisionTree" boostWeight="1.0000000000000000e+00" itree="205">
      <Node pos="s" depth="0" NCoef="0" IVar="3" Cut="-1.4285714924335480e-01" cType="1" res="1.0964850662276149e-03" rms="4.3441724777221680e-01" purity="5.0153297185897827e-01" nType="0">
        <Node pos="l" depth="1" NCoef="0" IVar="9" Cut="-5.2380955219268799e-01" cType="1" res="6.7526577040553093e-03" rms="4.3625843524932861e-01" purity="5.1074820756912231e-01" nType="0">
          <Node pos="l" depth="2" NCoef="0" IVar="-1" Cut="0.0000000000000000e+00" cType="1" res="-2.2508495021611452e-03" rms="4.3760535120964050e-01" purity="4.3138089776039124e-01" nType="-99"/>
          <Node pos="r" depth="2" NCoef="0" IVar="-1" Cut="0.0000000000000000e+00" cType="1" res="2.2738880943506956e-03" rms="4.3604028224945068e-01" purity="5.2119278907775879e-01" nType="-99"/>
        </Node>
        <Node pos="r" depth="1" NCoef="0" IVar="2" Cut="-2.1355043351650238e-01" cType="1" res="-2.1254722960293293e-03" rms="4.3333190679550171e-01" purity="4.9628365039825439e-01" nType="0">
          <Node pos="l" depth="2" NCoef="0" IVar="-1" Cut="0.0000000000000000e+00" cType="1" res="-3.3115451224148273e-03" rms="4.3003213405609131e-01" purity="4.8585903644561768e-01" nType="-99"/>
          <Node pos="r" depth="2" NCoef="0" IVar="-1" Cut="0.0000000000000000e+00" cType="1" res="3.7605708348564804e-04" rms="4.3440738320350647e-01" purity="4.9987971782684326e-01" nType="-99"/>
        </Node>
      </Node>
    </BinaryTree>
    <BinaryTree type="DecisionTree" boostWeight="1.0000000000000000e+00" itree="206">
      <Node pos="s" depth="0" NCoef="0" IVar="7" Cut="2.8278248310089111e+00" cType="1" res="-7.0799066452309489e-04" rms="4.3413108587265015e-01" purity="4.9986031651496887e-01" nType="0">
        <Node pos="l" depth="1" NCoef="0" IVar="8" Cut="5.7353883981704712e-01" cType="1" res="-4.8791146837174892e-03" rms="4.4507536292076111e-01" purity="4.3455490469932556e-01" nType="0">
          <Node pos="l" depth="2" NCoef="0" IVar="-1" Cut="0.0000000000000000e+00" cType="1" res="-2.1181674674153328e-03" rms="4.4411668181419373e-01" purity="4.1864785552024841e-01" nType="-99"/>
          <Node pos="r" depth="2" NCoef="0" IVar="-1" Cut="0.0000000000000000e+00" cType="1" res="4.2436313815414906e-03" rms="4.5040428638458252e-01" purity="5.3386360406875610e-01" nType="-99"/>
        </Node>
        <Node pos="r" depth="1" NCoef="0" IVar="4" Cut="4.8473426699638367e-01" cType="1" res="3.1262931879609823e-03" rms="4.2378520965576172e-01" purity="5.5989205837249756e-01" nType="0">
          <Node pos="l" depth="2" NCoef="0" IVar="-1" Cut="0.0000000000000000e+00" cType="1" res="-1.1491838842630386e-02" rms="2.9747390747070312e-01" purity="1.0404107719659805e-01" nType="-99"/>
          <Node pos="r" depth="2" NCoef="0" IVar="-1" Cut="0.0000000000000000e+00" cType="1" res="1.7921760445460677e-03" rms="4.3870139122009277e-01" purity="6.2488543987274170e-01" nType="-99"/>
        </Node>
      </Node>
    </BinaryTree>
    <BinaryTree type="DecisionTree" boostWeight="1.0000000000000000e+00" itree="207">
      <Node pos="s" depth="0" NCoef="0" IVar="0" Cut="6.0914772748947144e-01" cType="1" res="-1.3266521273180842e-03" rms="4.3447226285934448e-01" purity="4.9818572402000427e-01" nType="0">
        <Node pos="l" depth="1" NCoef="0" IVar="4" Cut="8.6871725320816040e-01" cType="1" res="1.3506328687071800e-02" rms="4.3595886230468750e-01" purity="6.8415421247482300e-01" nType="0">
          <Node pos="l" depth="2" NCoef="0" IVar="-1" Cut="0.0000000000000000e+00" cType="1" res="5.9209186583757401e-03" rms="4.6644058823585510e-01" purity="5.8691614866256714e-01" nType="-99"/>
          <Node pos="r" depth="2" NCoef="0" IVar="-1" Cut="0.0000000000000000e+00" cType="1" res="1.1991590727120638e-03" rms="4.0814223885536194e-01" purity="7.6648199558258057e-01" nType="-99"/>
        </Node>
        <Node pos="r" depth="1" NCoef="0" IVar="8" Cut="-1.4471584558486938e+00" cType="1" res="-2.6506350841373205e-03" rms="4.3431469798088074e-01" purity="4.8158627748489380e-01" nType="0">
          <Node pos="l" depth="2" NCoef="0" IVar="-1" Cut="0.0000000000000000e+00" cType="1" res="3.1546715181320906e-03" rms="4.1420713067054749e-01" purity="6.7026835680007935e-01" nType="-99"/>
          <Node pos="r" depth="2" NCoef="0" IVar="-1" Cut="0.0000000000000000e+00" cType="1" res="-1.0101713705807924e-03" rms="4.3600401282310486e-01" purity="4.6511802077293396e-01" nType="-99"/>
        </Node>
      </Node>
    </BinaryTree>
    <BinaryTree type="DecisionTree" boostWeight="1.0000000000000000e+00" itree="208">
      <Node pos="s" depth="0" NCoef="0" IVar="8" Cut="-1.7734720706939697e+00" cType="1" res="1.5761866234242916e-03" rms="4.3385785818099976e-01" purity="5.0122207403182983e-01" nType="0">
        <Node pos="l" depth="1" NCoef="0" IVar="-1" Cut="0.0000000000000000e+00" cType="1" res="4.5095048844814301e-03" rms="4.0454050898551941e-01" purity="7.2464132308959961e-01" nType="-99"/>
        <Node pos="r" depth="1" NCoef="0" IVar="4" Cut="6.1064231395721436e-01" cType="1" res="9.0121332323178649e-04" rms="4.3519991636276245e-01" purity="4.9052998423576355e-01" nType="0">
          <Node pos="l" depth="2" NCoef="0" IVar="-1" Cut="0.0000000000000000e+00" cType="1" res="1.7008683644235134e-03" rms="3.9973649382591248e-01" purity="2.3770959675312042e-01" nType="-99"/>
          <Node pos="r" depth="2" NCoef="0" IVar="-1" Cut="0.0000000000000000e+00" cType="1" res="-2.6532748597674072e-04" rms="4.4990700483322144e-01" purity="6.0178875923156738e-01" nType="-99"/>
        </Node>
      </Node>
    </BinaryTree>
    <BinaryTree type="DecisionTree" boostWeight="1.0000000000000000e+00" itree="209">
      <Node pos="s" depth="0" NCoef="0" IVar="3" Cut="-3.3333334326744080e-01" cType="1" res="1.0710385395213962e-03" rms="4.3544033169746399e-01" purity="5.0116670131683350e-01" nType="0">
        <Node pos="l" depth="1" NCoef="0" IVar="4" Cut="7.8189706802368164e-01" cType="1" res="1.0109292343258858e-02" rms="4.4148027896881104e-01" purity="5.1638925075531006e-01" nType="0">
          <Node pos="l" depth="2" NCoef="0" IVar="-1" Cut="0.0000000000000000e+00" cType="1" res="3.2809108961373568e-04" rms="4.3717196583747864e-01" purity="3.4198415279388428e-01" nType="-99"/>
          <Node pos="r" depth="2" NCoef="0" IVar="-1" Cut="0.0000000000000000e+00" cType="1" res="4.3270038440823555e-03" rms="4.4489794969558716e-01" purity="6.6147136688232422e-01" nType="-99"/>
        </Node>
        <Node pos="r" depth="1" NCoef="0" IVar="4" Cut="6.5704774856567383e-01" cType="1" res="-1.3566090492531657e-03" rms="4.3377158045768738e-01" purity="4.9707794189453125e-01" nType="0">
          <Node pos="l" depth="2" NCoef="0" IVar="-1" Cut="0.0000000000000000e+00" cType="1" res="1.6834329580888152e-03" rms="4.0772315859794617e-01" purity="2.6522752642631531e-01" nType="-99"/>
          <Node pos="r" depth="2" NCoef="0" IVar="-1" Cut="0.0000000000000000e+00" cType="1" res="-1.2562962947413325e-03" rms="4.4691333174705505e-01" purity="6.1991649866104126e-01" nType="-99"/>
        </Node>
      </Node>
    </BinaryTree>
    <BinaryTree type="DecisionTree" boostWeight="1.0000000000000000e+00" itree="210">
      <Node pos="s" depth="0" NCoef="0" IVar="8" Cut="-6.5994396805763245e-02" cType="1" res="-3.5759960883297026e-04" rms="4.3488496541976929e-01" purity="4.9949708580970764e-01" nType="0">
        <Node pos="l" depth="1" NCoef="0" IVar="9" Cut="1.4285714924335480e-01" cType="1" res="3.0635092407464981e-03" rms="4.3316572904586792e-01" purity="5.1153826713562012e-01" nType="0">
          <Node pos="l" depth="2" NCoef="0" IVar="-1" Cut="0.0000000000000000e+00" cType="1" res="1.9340841099619865e-03" rms="4.3676939606666565e-01" purity="5.4814279079437256e-01" nType="-99"/>
          <Node pos="r" depth="2" NCoef="0" IVar="-1" Cut="0.0000000000000000e+00" cType="1" res="-3.0292696319520473e-03" rms="4.2127707600593567e-01" purity="3.9593854546546936e-01" nType="-99"/>
        </Node>
        <Node pos="r" depth="1" NCoef="0" IVar="9" Cut="1.4285714924335480e-01" cType="1" res="-3.1534426379948854e-03" rms="4.3626502156257629e-01" purity="4.8965662717819214e-01" nType="0">
          <Node pos="l" depth="2" NCoef="0" IVar="-1" Cut="0.0000000000000000e+00" cType="1" res="-2.3184551391750574e-03" rms="4.3187174201011658e-01" purity="4.4952312111854553e-01" nType="-99"/>
          <Node pos="r" depth="2" NCoef="0" IVar="-1" Cut="0.0000000000000000e+00" cType="1" res="9.6770637901499867e-04" rms="4.4152188301086426e-01" purity="5.3913086652755737e-01" nType="-99"/>
        </Node>
      </Node>
    </BinaryTree>
    <BinaryTree type="DecisionTree" boostWeight="1.0000000000000000e+00" itree="211">
      <Node pos="s" depth="0" NCoef="0" IVar="4" Cut="9.4699865579605103e-01" cType="1" res="9.2760351253673434e-04" rms="4.3432566523551941e-01" purity="5.0134187936782837e-01" nType="0">
        <Node pos="l" depth="1" NCoef="0" IVar="9" Cut="-6.1904764175415039e-01" cType="1" res="-7.0011126808822155e-04" rms="4.3736487627029419e-01" purity="4.5012867450714111e-01" nType="0">
          <Node pos="l" depth="2" NCoef="0" IVar="-1" Cut="0.0000000000000000e+00" cType="1" res="4.5458101667463779e-03" rms="4.3423917889595032e-01" purity="3.5695469379425049e-01" nType="-99"/>
          <Node pos="r" depth="2" NCoef="0" IVar="-1" Cut="0.0000000000000000e+00" cType="1" res="-4.8670789692550898e-04" rms="4.3755313754081726e-01" purity="4.5651721954345703e-01" nType="-99"/>
        </Node>
        <Node pos="r" depth="1" NCoef="0" IVar="0" Cut="9.1859716176986694e-01" cType="1" res="8.4926243871450424e-03" rms="4.1982898116111755e-01" purity="7.3936223983764648e-01" nType="0">
          <Node pos="l" depth="2" NCoef="0" IVar="-1" Cut="0.0000000000000000e+00" cType="1" res="-2.9067143332213163e-03" rms="4.0446004271507263e-01" purity="7.7252954244613647e-01" nType="-99"/>
          <Node pos="r" depth="2" NCoef="0" IVar="-1" Cut="0.0000000000000000e+00" cType="1" res="9.8214196041226387e-03" rms="4.4536349177360535e-01" purity="6.7694121599197388e-01" nType="-99"/>
        </Node>
      </Node>
    </BinaryTree>
    <BinaryTree type="DecisionTree" boostWeight="1.0000000000000000e+00" itree="212">
      <Node pos="s" depth="0" NCoef="0" IVar="4" Cut="3.5840407013893127e-01" cType="1" res="1.4765034429728985e-03" rms="4.3381804227828979e-01" purity="5.0216442346572876e-01" nType="0">
        <Node pos="l" depth="1" NCoef="0" IVar="-1" Cut="0.0000000000000000e+00" cType="1" res="-7.6369079761207104e-03" rms="2.6758620142936707e-01" purity="7.9716220498085022e-02" nType="-99"/>
        <Node pos="r" depth="1" NCoef="0" IVar="4" Cut="9.5897275209426880e-01" cType="1" res="2.3483259137719870e-03" rms="4.4204035401344299e-01" purity="5.2830433845520020e-01" nType="0">
          <Node pos="l" depth="2" NCoef="0" IVar="-1" Cut="0.0000000000000000e+00" cType="1" res="1.7334878793917596e-04" rms="4.4594234228134155e-01" purity="4.9113193154335022e-01" nType="-99"/>
          <Node pos="r" depth="2" NCoef="0" IVar="-1" Cut="0.0000000000000000e+00" cType="1" res="3.2383957877755165e-03" rms="4.1882771253585815e-01" purity="7.4155580997467041e-01" nType="-99"/>
        </Node>
      </Node>
    </BinaryTree>
    <BinaryTree type="DecisionTree" boostWeight="1.0000000000000000e+00" itree="213">
      <Node pos="s" depth="0" NCoef="0" IVar="7" Cut="2.7690470218658447e+00" cType="1" res="-1.8027785699814558e-03" rms="4.3428850173950195e-01" purity="4.9912577867507935e-01" nType="0">
        <Node pos="l" depth="1" NCoef="0" IVar="8" Cut="5.7350224256515503e-01" cType="1" res="-5.6796851567924023e-03" rms="4.4611722230911255e-01" purity="4.3141973018646240e-01" nType="0">
          <Node pos="l" depth="2" NCoef="0" IVar="-1" Cut="0.0000000000000000e+00" cType="1" res="-2.3767827078700066e-03" rms="4.4504392147064209e-01" purity="4.1588234901428223e-01" nType="-99"/>
          <Node pos="r" depth="2" NCoef="0" IVar="-1" Cut="0.0000000000000000e+00" cType="1" res="4.6764430589973927e-03" rms="4.5236510038375854e-01" purity="5.3375512361526489e-01" nType="-99"/>
        </Node>
        <Node pos="r" depth="1" NCoef="0" IVar="4" Cut="4.3314287066459656e-01" cType="1" res="1.5899755526334047e-03" rms="4.2363697290420532e-01" purity="5.5837655067443848e-01" nType="0">
          <Node pos="l" depth="2" NCoef="0" IVar="-1" Cut="0.0000000000000000e+00" cType="1" res="-1.3939331285655499e-02" rms="2.5952747464179993e-01" purity="7.4442848563194275e-02" nType="-99"/>
          <Node pos="r" depth="2" NCoef="0" IVar="-1" Cut="0.0000000000000000e+00" cType="1" res="1.0910857236012816e-03" rms="4.3707963824272156e-01" purity="6.0864609479904175e-01" nType="-99"/>
        </Node>
      </Node>
    </BinaryTree>
    <BinaryTree type="DecisionTree" boostWeight="1.0000000000000000e+00" itree="214">
      <Node pos="s" depth="0" NCoef="0" IVar="0" Cut="1.7593263387680054e+00" cType="1" res="-6.8405899219214916e-04" rms="4.3402984738349915e-01" purity="4.9949648976325989e-01" nType="0">
        <Node pos="l" depth="1" NCoef="0" IVar="0" Cut="7.6231259107589722e-01" cType="1" res="1.0336953710066155e-04" rms="4.3589618802070618e-01" purity="5.1288884878158569e-01" nType="0">
          <Node pos="l" depth="2" NCoef="0" IVar="-1" Cut="0.0000000000000000e+00" cType="1" res="2.3139335680752993e-03" rms="4.2773038148880005e-01" purity="6.8059599399566650e-01" nType="-99"/>
          <Node pos="r" depth="2" NCoef="0" IVar="-1" Cut="0.0000000000000000e+00" cType="1" res="-6.0747878160327673e-04" rms="4.3824735283851624e-01" purity="4.6337828040122986e-01" nType="-99"/>
        </Node>
        <Node pos="r" depth="1" NCoef="0" IVar="-1" Cut="0.0000000000000000e+00" cType="1" res="-4.6740113757550716e-03" rms="3.9514154195785522e-01" purity="2.3560249805450439e-01" nType="-99"/>
      </Node>
    </BinaryTree>
    <BinaryTree type="DecisionTree" boostWeight="1.0000000000000000e+00" itree="215">
      <Node pos="s" depth="0" NCoef="0" IVar="2" Cut="2.1870710849761963e+00" cType="1" res="-8.1095373025164008e-04" rms="4.3404477834701538e-01" purity="4.9940070509910583e-01" nType="0">
        <Node pos="l" depth="1" NCoef="0" IVar="3" Cut="-6.1904764175415039e-01" cType="1" res="-1.9001949112862349e-04" rms="4.3458020687103271e-01" purity="4.9994716048240662e-01" nType="0">
          <Node pos="l" depth="2" NCoef="0" IVar="-1" Cut="0.0000000000000000e+00" cType="1" res="-2.4664667434990406e-03" rms="4.5045390725135803e-01" purity="4.9336439371109009e-01" nType="-99"/>
          <Node pos="r" depth="2" NCoef="0" IVar="-1" Cut="0.0000000000000000e+00" cType="1" res="1.9359291763976216e-04" rms="4.3305289745330811e-01" purity="5.0056338310241699e-01" nType="-99"/>
        </Node>
        <Node pos="r" depth="1" NCoef="0" IVar="-1" Cut="0.0000000000000000e+00" cType="1" res="-4.9136201851069927e-03" rms="4.1866368055343628e-01" purity="4.8434615135192871e-01" nType="-99"/>
      </Node>
    </BinaryTree>
    <BinaryTree type="DecisionTree" boostWeight="1.0000000000000000e+00" itree="216">
      <Node pos="s" depth="0" NCoef="0" IVar="6" Cut="-2.7142856121063232e+00" cType="1" res="-4.9909163499251008e-04" rms="4.3484109640121460e-01" purity="4.9902954697608948e-01" nType="0">
        <Node pos="l" depth="1" NCoef="0" IVar="1" Cut="3.2866642475128174e+00" cType="1" res="-6.5149459987878799e-03" rms="4.2726770043373108e-01" purity="4.8007592558860779e-01" nType="0">
          <Node pos="l" depth="2" NCoef="0" IVar="-1" Cut="0.0000000000000000e+00" cType="1" res="-5.2564418874680996e-03" rms="4.3771696090698242e-01" purity="4.7532507777214050e-01" nType="-99"/>
          <Node pos="r" depth="2" NCoef="0" IVar="-1" Cut="0.0000000000000000e+00" cType="1" res="6.8395928246900439e-04" rms="4.1997674107551575e-01" purity="4.8321548104286194e-01" nType="-99"/>
        </Node>
        <Node pos="r" depth="1" NCoef="0" IVar="6" Cut="7.6190477609634399e-01" cType="1" res="1.0552547173574567e-03" rms="4.3676304817199707e-01" purity="5.0392663478851318e-01" nType="0">
          <Node pos="l" depth="2" NCoef="0" IVar="-1" Cut="0.0000000000000000e+00" cType="1" res="1.4623372117057443e-03" rms="4.3957775831222534e-01" purity="5.1640748977661133e-01" nType="-99"/>
          <Node pos="r" depth="2" NCoef="0" IVar="-1" Cut="0.0000000000000000e+00" cType="1" res="-6.5406877547502518e-04" rms="4.3457409739494324e-01" purity="4.9442252516746521e-01" nType="-99"/>
        </Node>
      </Node>
    </BinaryTree>
    <BinaryTree type="DecisionTree" boostWeight="1.0000000000000000e+00" itree="217">
      <Node pos="s" depth="0" NCoef="0" IVar="6" Cut="4.5238094329833984e+00" cType="1" res="1.1593134840950370e-03" rms="4.3447825312614441e-01" purity="5.0129753351211548e-01" nType="0">
        <Node pos="l" depth="1" NCoef="0" IVar="8" Cut="5.4253691434860229e-01" cType="1" res="2.3332540877163410e-03" rms="4.3583023548126221e-01" purity="5.0648516416549683e-01" nType="0">
          <Node pos="l" depth="2" NCoef="0" IVar="-1" Cut="0.0000000000000000e+00" cType="1" res="1.3756661792285740e-04" rms="4.3807819485664368e-01" purity="4.8173764348030090e-01" nType="-99"/>
          <Node pos="r" depth="2" NCoef="0" IVar="-1" Cut="0.0000000000000000e+00" cType="1" res="1.9245186122134328e-03" rms="4.2962074279785156e-01" purity="5.7376939058303833e-01" nType="-99"/>
        </Node>
        <Node pos="r" depth="1" NCoef="0" IVar="4" Cut="7.4228966236114502e-01" cType="1" res="-8.5500646382570267e-03" rms="4.2300608754158020e-01" purity="4.5839199423789978e-01" nType="0">
          <Node pos="l" depth="2" NCoef="0" IVar="-1" Cut="0.0000000000000000e+00" cType="1" res="1.3235663063824177e-03" rms="4.0368157625198364e-01" purity="2.9795861244201660e-01" nType="-99"/>
          <Node pos="r" depth="2" NCoef="0" IVar="-1" Cut="0.0000000000000000e+00" cType="1" res="-5.3675780072808266e-03" rms="4.4040805101394653e-01" purity="6.1250841617584229e-01" nType="-99"/>
        </Node>
      </Node>
    </BinaryTree>
    <BinaryTree type="DecisionTree" boostWeight="1.0000000000000000e+00" itree="218">
      <Node pos="s" depth="0" NCoef="0" IVar="3" Cut="-4.7619048506021500e-02" cType="1" res="8.8623882038518786e-04" rms="4.3497619032859802e-01" purity="5.0097656250000000e-01" nType="0">
        <Node pos="l" depth="1" NCoef="0" IVar="0" Cut="9.8659592866897583e-01" cType="1" res="-4.5801731757819653e-03" rms="4.3610560894012451e-01" purity="4.9694350361824036e-01" nType="0">
          <Node pos="l" depth="2" NCoef="0" IVar="-1" Cut="0.0000000000000000e+00" cType="1" res="-2.7616680599749088e-03" rms="4.3943047523498535e-01" purity="6.1802583932876587e-01" nType="-99"/>
          <Node pos="r" depth="2" NCoef="0" IVar="-1" Cut="0.0000000000000000e+00" cType="1" res="5.2643992239609361e-04" rms="4.3223911523818970e-01" purity="3.6073085665702820e-01" nType="-99"/>
        </Node>
        <Node pos="r" depth="1" NCoef="0" IVar="4" Cut="7.8116750717163086e-01" cType="1" res="5.4024262353777885e-03" rms="4.3398895859718323e-01" purity="5.0430858135223389e-01" nType="0">
          <Node pos="l" depth="2" NCoef="0" IVar="-1" Cut="0.0000000000000000e+00" cType="1" res="2.7946771588176489e-03" rms="4.2880380153656006e-01" purity="3.4612020850181580e-01" nType="-99"/>
          <Node pos="r" depth="2" NCoef="0" IVar="-1" Cut="0.0000000000000000e+00" cType="1" res="1.8608946993481368e-04" rms="4.3881270289421082e-01" purity="6.5476053953170776e-01" nType="-99"/>
        </Node>
      </Node>
    </BinaryTree>
    <BinaryTree type="DecisionTree" boostWeight="1.0000000000000000e+00" itree="219">
      <Node pos="s" depth="0" NCoef="0" IVar="10" Cut="3.5523811340332031e+01" cType="1" res="-2.1908299531787634e-03" rms="4.3503567576408386e-01" purity="4.9841555953025818e-01" nType="0">
        <Node pos="l" depth="1" NCoef="0" IVar="7" Cut="3.8746521472930908e+00" cType="1" res="-7.9305015970021486e-04" rms="4.3712934851646423e-01" purity="5.0535017251968384e-01" nType="0">
          <Node pos="l" depth="2" NCoef="0" IVar="-1" Cut="0.0000000000000000e+00" cType="1" res="-1.2192074209451675e-03" rms="4.4401738047599792e-01" purity="4.5233374834060669e-01" nType="-99"/>
          <Node pos="r" depth="2" NCoef="0" IVar="-1" Cut="0.0000000000000000e+00" cType="1" res="2.6678123977035284e-03" rms="4.1821551322937012e-01" purity="6.4533823728561401e-01" nType="-99"/>
        </Node>
        <Node pos="r" depth="1" NCoef="0" IVar="4" Cut="7.4980324506759644e-01" cType="1" res="-9.2368992045521736e-03" rms="4.2425438761711121e-01" purity="4.6345883607864380e-01" nType="0">
          <Node pos="l" depth="2" NCoef="0" IVar="-1" Cut="0.0000000000000000e+00" cType="1" res="5.9792925603687763e-03" rms="4.0659227967262268e-01" purity="3.2915693521499634e-01" nType="-99"/>
          <Node pos="r" depth="2" NCoef="0" IVar="-1" Cut="0.0000000000000000e+00" cType="1" res="-8.2082999870181084e-03" rms="4.3610510230064392e-01" purity="5.6802415847778320e-01" nType="-99"/>
        </Node>
      </Node>
    </BinaryTree>
    <BinaryTree type="DecisionTree" boostWeight="1.0000000000000000e+00" itree="220">
      <Node pos="s" depth="0" NCoef="0" IVar="0" Cut="6.4201694726943970e-01" cType="1" res="1.1579124256968498e-03" rms="4.3421301245689392e-01" purity="5.0061571598052979e-01" nType="0">
        <Node pos="l" depth="1" NCoef="0" IVar="5" Cut="5.7262408733367920e-01" cType="1" res="1.0549039579927921e-02" rms="4.3279001116752625e-01" purity="6.8459260463714600e-01" nType="0">
          <Node pos="l" depth="2" NCoef="0" IVar="-1" Cut="0.0000000000000000e+00" cType="1" res="-1.4200189616531134e-03" rms="4.5589774847030640e-01" purity="6.5309810638427734e-01" nType="-99"/>
          <Node pos="r" depth="2" NCoef="0" IVar="-1" Cut="0.0000000000000000e+00" cType="1" res="5.8992151170969009e-03" rms="4.1736018657684326e-01" purity="7.0429658889770508e-01" nType="-99"/>
        </Node>
        <Node pos="r" depth="1" NCoef="0" IVar="10" Cut="9.7619047164916992e+00" cType="1" res="8.7008462287485600e-05" rms="4.3436208367347717e-01" purity="4.7963613271713257e-01" nType="0">
          <Node pos="l" depth="2" NCoef="0" IVar="-1" Cut="0.0000000000000000e+00" cType="1" res="1.3629543827846646e-03" rms="4.5977044105529785e-01" purity="4.9106615781784058e-01" nType="-99"/>
          <Node pos="r" depth="2" NCoef="0" IVar="-1" Cut="0.0000000000000000e+00" cType="1" res="-6.0985301388427615e-04" rms="4.2333522439002991e-01" purity="4.7488716244697571e-01" nType="-99"/>
        </Node>
      </Node>
    </BinaryTree>
    <BinaryTree type="DecisionTree" boostWeight="1.0000000000000000e+00" itree="221">
      <Node pos="s" depth="0" NCoef="0" IVar="0" Cut="1.7578681707382202e+00" cType="1" res="-2.3147843603510410e-04" rms="4.3506878614425659e-01" purity="4.9953866004943848e-01" nType="0">
        <Node pos="l" depth="1" NCoef="0" IVar="0" Cut="1.0930961370468140e+00" cType="1" res="6.6394062014296651e-04" rms="4.3694293498992920e-01" purity="5.1285523176193237e-01" nType="0">
          <Node pos="l" depth="2" NCoef="0" IVar="-1" Cut="0.0000000000000000e+00" cType="1" res="-9.5831981161609292e-04" rms="4.4096720218658447e-01" purity="5.9044760465621948e-01" nType="-99"/>
          <Node pos="r" depth="2" NCoef="0" IVar="-1" Cut="0.0000000000000000e+00" cType="1" res="2.8009954839944839e-03" rms="4.2748787999153137e-01" purity="3.3646193146705627e-01" nType="-99"/>
        </Node>
        <Node pos="r" depth="1" NCoef="0" IVar="-1" Cut="0.0000000000000000e+00" cType="1" res="-5.2008680067956448e-03" rms="3.9556059241294861e-01" purity="2.3484891653060913e-01" nType="-99"/>
      </Node>
    </BinaryTree>
    <BinaryTree type="DecisionTree" boostWeight="1.0000000000000000e+00" itree="222">
      <Node pos="s" depth="0" NCoef="0" IVar="5" Cut="3.1446883082389832e-01" cType="1" res="-9.0409402037039399e-04" rms="4.3390023708343506e-01" purity="5.0040662288665771e-01" nType="0">
        <Node pos="l" depth="1" NCoef="0" IVar="1" Cut="1.3822929859161377e+00" cType="1" res="8.2371803000569344e-03" rms="4.5681974291801453e-01" purity="5.0586652755737305e-01" nType="0">
          <Node pos="l" depth="2" NCoef="0" IVar="-1" Cut="0.0000000000000000e+00" cType="1" res="-1.5082632889971137e-03" rms="4.6436414122581482e-01" purity="4.6689367294311523e-01" nType="-99"/>
          <Node pos="r" depth="2" NCoef="0" IVar="-1" Cut="0.0000000000000000e+00" cType="1" res="6.3716163858771324e-03" rms="4.4711744785308838e-01" purity="5.5189657211303711e-01" nType="-99"/>
        </Node>
        <Node pos="r" depth="1" NCoef="0" IVar="0" Cut="1.5320256948471069e+00" cType="1" res="-2.4781317915767431e-03" rms="4.2981079220771790e-01" purity="4.9946659803390503e-01" nType="0">
          <Node pos="l" depth="2" NCoef="0" IVar="-1" Cut="0.0000000000000000e+00" cType="1" res="-2.3556587984785438e-04" rms="4.3253600597381592e-01" purity="5.1690816879272461e-01" nType="-99"/>
          <Node pos="r" depth="2" NCoef="0" IVar="-1" Cut="0.0000000000000000e+00" cType="1" res="-8.4440410137176514e-03" rms="3.8255023956298828e-01" purity="2.1962565183639526e-01" nType="-99"/>
        </Node>
      </Node>
    </BinaryTree>
    <BinaryTree type="DecisionTree" boostWeight="1.0000000000000000e+00" itree="223">
      <Node pos="s" depth="0" NCoef="0" IVar="9" Cut="4.2857143282890320e-01" cType="1" res="-1.3606573920696974e-03" rms="4.3418756127357483e-01" purity="4.9847424030303955e-01" nType="0">
        <Node pos="l" depth="1" NCoef="0" IVar="4" Cut="9.4694751501083374e-01" cType="1" res="1.9193229672964662e-04" rms="4.3264311552047729e-01" purity="5.0637346506118774e-01" nType="0">
          <Node pos="l" depth="2" NCoef="0" IVar="-1" Cut="0.0000000000000000e+00" cType="1" res="-5.5534072453156114e-04" rms="4.3634012341499329e-01" purity="4.5648422837257385e-01" nType="-99"/>
          <Node pos="r" depth="2" NCoef="0" IVar="-1" Cut="0.0000000000000000e+00" cType="1" res="3.3761812373995781e-03" rms="4.1340786218643188e-01" purity="7.5652450323104858e-01" nType="-99"/>
        </Node>
        <Node pos="r" depth="1" NCoef="0" IVar="0" Cut="1.1541564464569092e+00" cType="1" res="-1.0359387844800949e-02" rms="4.4292590022087097e-01" purity="4.5269063115119934e-01" nType="0">
          <Node pos="l" depth="2" NCoef="0" IVar="-1" Cut="0.0000000000000000e+00" cType="1" res="-5.7624718174338341e-03" rms="4.4902825355529785e-01" purity="5.2694129943847656e-01" nType="-99"/>
          <Node pos="r" depth="2" NCoef="0" IVar="-1" Cut="0.0000000000000000e+00" cType="1" res="3.1751843634992838e-03" rms="4.3063709139823914e-01" purity="3.1657293438911438e-01" nType="-99"/>
        </Node>
      </Node>
    </BinaryTree>
    <BinaryTree type="DecisionTree" boostWeight="1.0000000000000000e+00" itree="224">
      <Node pos="s" depth="0" NCoef="0" IVar="9" Cut="-3.3333334326744080e-01" cType="1" res="1.7068471061065793e-03" rms="4.3437346816062927e-01" purity="5.0194334983825684e-01" nType="0">
        <Node pos="l" depth="1" NCoef="0" IVar="0" Cut="1.0997791290283203e+00" cType="1" res="-4.5140599831938744e-03" rms="4.3675559759140015e-01" purity="4.6549135446548462e-01" nType="0">
          <Node pos="l" depth="2" NCoef="0" IVar="-1" Cut="0.0000000000000000e+00" cType="1" res="-3.1613742467015982e-03" rms="4.4354882836341858e-01" purity="5.5413347482681274e-01" nType="-99"/>
          <Node pos="r" depth="2" NCoef="0" IVar="-1" Cut="0.0000000000000000e+00" cType="1" res="2.1674218587577343e-03" rms="4.2513701319694519e-01" purity="3.2082971930503845e-01" nType="-99"/>
        </Node>
        <Node pos="r" depth="1" NCoef="0" IVar="8" Cut="-9.8298895359039307e-01" cType="1" res="3.2499609515070915e-03" rms="4.3376672267913818e-01" purity="5.1098537445068359e-01" nType="0">
          <Node pos="l" depth="2" NCoef="0" IVar="-1" Cut="0.0000000000000000e+00" cType="1" res="-2.0473636686801910e-03" rms="4.2500752210617065e-01" purity="5.8789944648742676e-01" nType="-99"/>
          <Node pos="r" depth="2" NCoef="0" IVar="-1" Cut="0.0000000000000000e+00" cType="1" res="1.2822765856981277e-03" rms="4.3509179353713989e-01" purity="4.9899822473526001e-01" nType="-99"/>
        </Node>
      </Node>
    </BinaryTree>
    <BinaryTree type="DecisionTree" boostWeight="1.0000000000000000e+00" itree="225">
      <Node pos="s" depth="0" NCoef="0" IVar="8" Cut="-3.0563512444496155e-01" cType="1" res="6.4926029881462455e-04" rms="4.3389886617660522e-01" purity="5.0018471479415894e-01" nType="0">
        <Node pos="l" depth="1" NCoef="0" IVar="9" Cut="1.3414123654365540e-01" cType="1" res="4.6516307629644871e-03" rms="4.3113934993743896e-01" purity="5.3347182273864746e-01" nType="0">
          <Node pos="l" depth="2" NCoef="0" IVar="-1" Cut="0.0000000000000000e+00" cType="1" res="2.4600294418632984e-03" rms="4.3509334325790405e-01" purity="5.7220506668090820e-01" nType="-99"/>
          <Node pos="r" depth="2" NCoef="0" IVar="-1" Cut="0.0000000000000000e+00" cType="1" res="-3.1061004847288132e-03" rms="4.1757503151893616e-01" purity="4.0695875883102417e-01" nType="-99"/>
        </Node>
        <Node pos="r" depth="1" NCoef="0" IVar="9" Cut="-1.4285714924335480e-01" cType="1" res="-1.5831204364076257e-03" rms="4.3541443347930908e-01" purity="4.8161834478378296e-01" nType="0">
          <Node pos="l" depth="2" NCoef="0" IVar="-1" Cut="0.0000000000000000e+00" cType="1" res="-2.6518446393311024e-03" rms="4.2759352922439575e-01" purity="3.9661386609077454e-01" nType="-99"/>
          <Node pos="r" depth="2" NCoef="0" IVar="-1" Cut="0.0000000000000000e+00" cType="1" res="4.3645355617627501e-04" rms="4.3840920925140381e-01" purity="5.1505535840988159e-01" nType="-99"/>
        </Node>
      </Node>
    </BinaryTree>
    <BinaryTree type="DecisionTree" boostWeight="1.0000000000000000e+00" itree="226">
      <Node pos="s" depth="0" NCoef="0" IVar="4" Cut="5.6962960958480835e-01" cType="1" res="-1.1040215613320470e-03" rms="4.3500226736068726e-01" purity="5.0028896331787109e-01" nType="0">
        <Node pos="l" depth="1" NCoef="0" IVar="7" Cut="2.2224268913269043e+00" cType="1" res="3.8338988088071346e-03" rms="3.8776659965515137e-01" purity="2.0933060348033905e-01" nType="0">
          <Node pos="l" depth="2" NCoef="0" IVar="-1" Cut="0.0000000000000000e+00" cType="1" res="4.9815950915217400e-03" rms="4.1434082388877869e-01" purity="2.4030731618404388e-01" nType="-99"/>
          <Node pos="r" depth="2" NCoef="0" IVar="-1" Cut="0.0000000000000000e+00" cType="1" res="-2.2590470034629107e-03" rms="3.6436811089515686e-01" purity="1.8408475816249847e-01" nType="-99"/>
        </Node>
        <Node pos="r" depth="1" NCoef="0" IVar="4" Cut="9.6902984380722046e-01" cType="1" res="-2.7738905046135187e-03" rms="4.4984295964241028e-01" purity="5.9868311882019043e-01" nType="0">
          <Node pos="l" depth="2" NCoef="0" IVar="-1" Cut="0.0000000000000000e+00" cType="1" res="-1.3743182644248009e-03" rms="4.5453074574470520e-01" purity="5.7653647661209106e-01" nType="-99"/>
          <Node pos="r" depth="2" NCoef="0" IVar="-1" Cut="0.0000000000000000e+00" cType="1" res="4.3833889067173004e-03" rms="4.1790294647216797e-01" purity="7.4129277467727661e-01" nType="-99"/>
        </Node>
      </Node>
    </BinaryTree>
    <BinaryTree type="DecisionTree" boostWeight="1.0000000000000000e+00" itree="227">
      <Node pos="s" depth="0" NCoef="0" IVar="9" Cut="7.1428573131561279e-01" cType="1" res="9.5965532818809152e-04" rms="4.3362349271774292e-01" purity="5.0152134895324707e-01" nType="0">
        <Node pos="l" depth="1" NCoef="0" IVar="6" Cut="1.7142857313156128e+00" cType="1" res="1.6023339703679085e-03" rms="4.3298867344856262e-01" purity="5.0708818435668945e-01" nType="0">
          <Node pos="l" depth="2" NCoef="0" IVar="-1" Cut="0.0000000000000000e+00" cType="1" res="9.5541769405826926e-04" rms="4.3524882197380066e-01" purity="5.1400750875473022e-01" nType="-99"/>
          <Node pos="r" depth="2" NCoef="0" IVar="-1" Cut="0.0000000000000000e+00" cType="1" res="-6.3988444162532687e-04" rms="4.2853045463562012e-01" purity="4.9363112449645996e-01" nType="-99"/>
        </Node>
        <Node pos="r" depth="1" NCoef="0" IVar="-1" Cut="0.0000000000000000e+00" cType="1" res="-3.0255347955971956e-03" rms="4.4590860605239868e-01" purity="3.9043524861335754e-01" nType="-99"/>
      </Node>
    </BinaryTree>
    <BinaryTree type="DecisionTree" boostWeight="1.0000000000000000e+00" itree="228">
      <Node pos="s" depth="0" NCoef="0" IVar="3" Cut="-8.0952382087707520e-01" cType="1" res="-6.2643032288178802e-04" rms="4.3485528230667114e-01" purity="5.0008809566497803e-01" nType="0">
        <Node pos="l" depth="1" NCoef="0" IVar="-1" Cut="0.0000000000000000e+00" cType="1" res="-5.0336020067334175e-03" rms="4.6188479661941528e-01" purity="4.6980342268943787e-01" nType="-99"/>
        <Node pos="r" depth="1" NCoef="0" IVar="3" Cut="-4.6482685208320618e-01" cType="1" res="3.0554871773347259e-04" rms="4.3356946110725403e-01" purity="5.0145816802978516e-01" nType="0">
          <Node pos="l" depth="2" NCoef="0" IVar="-1" Cut="0.0000000000000000e+00" cType="1" res="-2.0174493547528982e-03" rms="4.4142785668373108e-01" purity="5.0960284471511841e-01" nType="-99"/>
          <Node pos="r" depth="2" NCoef="0" IVar="-1" Cut="0.0000000000000000e+00" cType="1" res="3.1887754448689520e-04" rms="4.3268486857414246e-01" purity="5.0056022405624390e-01" nType="-99"/>
        </Node>
      </Node>
    </BinaryTree>
    <BinaryTree type="DecisionTree" boostWeight="1.0000000000000000e+00" itree="229">
      <Node pos="s" depth="0" NCoef="0" IVar="4" Cut="7.3675209283828735e-01" cType="1" res="7.2308391099795699e-04" rms="4.3453571200370789e-01" purity="4.9947932362556458e-01" nType="0">
        <Node pos="l" depth="1" NCoef="0" IVar="7" Cut="1.3909727334976196e+00" cType="1" res="4.2889551259577274e-03" rms="4.2169931530952454e-01" purity="3.1361979246139526e-01" nType="0">
          <Node pos="l" depth="2" NCoef="0" IVar="-1" Cut="0.0000000000000000e+00" cType="1" res="9.7589194774627686e-03" rms="4.5911353826522827e-01" purity="3.4798011183738708e-01" nType="-99"/>
          <Node pos="r" depth="2" NCoef="0" IVar="-1" Cut="0.0000000000000000e+00" cType="1" res="-1.5094959235284477e-04" rms="4.1582286357879639e-01" purity="3.0868148803710938e-01" nType="-99"/>
        </Node>
        <Node pos="r" depth="1" NCoef="0" IVar="0" Cut="1.0968500375747681e+00" cType="1" res="-1.9626854918897152e-03" rms="4.4394001364707947e-01" purity="6.3946634531021118e-01" nType="0">
          <Node pos="l" depth="2" NCoef="0" IVar="-1" Cut="0.0000000000000000e+00" cType="1" res="-2.4941037409007549e-03" rms="4.3546056747436523e-01" purity="7.1053981781005859e-01" nType="-99"/>
          <Node pos="r" depth="2" NCoef="0" IVar="-1" Cut="0.0000000000000000e+00" cType="1" res="3.8516784552484751e-03" rms="4.6479564905166626e-01" purity="4.5385271310806274e-01" nType="-99"/>
        </Node>
      </Node>
    </BinaryTree>
    <BinaryTree type="DecisionTree" boostWeight="1.0000000000000000e+00" itree="230">
      <Node pos="s" depth="0" NCoef="0" IVar="5" Cut="3.3508896827697754e+00" cType="1" res="8.4466655971482396e-04" rms="4.3347424268722534e-01" purity="5.0070184469223022e-01" nType="0">
        <Node pos="l" depth="1" NCoef="0" IVar="6" Cut="-4.4285712242126465e+00" cType="1" res="1.5383442223537713e-04" rms="4.3415522575378418e-01" purity="4.9866339564323425e-01" nType="0">
          <Node pos="l" depth="2" NCoef="0" IVar="-1" Cut="0.0000000000000000e+00" cType="1" res="-2.9474424663931131e-03" rms="4.1638681292533875e-01" purity="4.4879296422004700e-01" nType="-99"/>
          <Node pos="r" depth="2" NCoef="0" IVar="-1" Cut="0.0000000000000000e+00" cType="1" res="3.1223287805914879e-04" rms="4.3581512570381165e-01" purity="5.0346982479095459e-01" nType="-99"/>
        </Node>
        <Node pos="r" depth="1" NCoef="0" IVar="-1" Cut="0.0000000000000000e+00" cType="1" res="4.2950306087732315e-03" rms="4.1786387562751770e-01" purity="5.4571235179901123e-01" nType="-99"/>
      </Node>
    </BinaryTree>
    <BinaryTree type="DecisionTree" boostWeight="1.0000000000000000e+00" itree="231">
      <Node pos="s" depth="0" NCoef="0" IVar="5" Cut="1.5554730892181396e+00" cType="1" res="-4.2214442510157824e-04" rms="4.3474420905113220e-01" purity="5.0024831295013428e-01" nType="0">
        <Node pos="l" depth="1" NCoef="0" IVar="0" Cut="1.0865834951400757e+00" cType="1" res="1.8223347142338753e-03" rms="4.3954384326934814e-01" purity="5.0894516706466675e-01" nType="0">
          <Node pos="l" depth="2" NCoef="0" IVar="-1" Cut="0.0000000000000000e+00" cType="1" res="-6.4194330479949713e-04" rms="4.4148716330528259e-01" purity="6.0535997152328491e-01" nType="-99"/>
          <Node pos="r" depth="2" NCoef="0" IVar="-1" Cut="0.0000000000000000e+00" cType="1" res="2.2532113362103701e-03" rms="4.3627780675888062e-01" purity="3.5232836008071899e-01" nType="-99"/>
        </Node>
        <Node pos="r" depth="1" NCoef="0" IVar="4" Cut="7.8031337261199951e-01" cType="1" res="-4.4342777691781521e-03" rms="4.2600038647651672e-01" purity="4.8470211029052734e-01" nType="0">
          <Node pos="l" depth="2" NCoef="0" IVar="-1" Cut="0.0000000000000000e+00" cType="1" res="1.9165098201483488e-03" rms="4.1597020626068115e-01" purity="3.3608588576316833e-01" nType="-99"/>
          <Node pos="r" depth="2" NCoef="0" IVar="-1" Cut="0.0000000000000000e+00" cType="1" res="-4.2761350050568581e-03" rms="4.3607112765312195e-01" purity="6.4236831665039062e-01" nType="-99"/>
        </Node>
      </Node>
    </BinaryTree>
    <BinaryTree type="DecisionTree" boostWeight="1.0000000000000000e+00" itree="232">
      <Node pos="s" depth="0" NCoef="0" IVar="3" Cut="-8.0952382087707520e-01" cType="1" res="6.5283320145681500e-04" rms="4.3468531966209412e-01" purity="5.0120478868484497e-01" nType="0">
        <Node pos="l" depth="1" NCoef="0" IVar="-1" Cut="0.0000000000000000e+00" cType="1" res="-3.9347489364445210e-03" rms="4.5995178818702698e-01" purity="4.7269913554191589e-01" nType="-99"/>
        <Node pos="r" depth="1" NCoef="0" IVar="3" Cut="-2.0632798969745636e-01" cType="1" res="1.4351134886965156e-03" rms="4.3348827958106995e-01" purity="5.0249755382537842e-01" nType="0">
          <Node pos="l" depth="2" NCoef="0" IVar="-1" Cut="0.0000000000000000e+00" cType="1" res="1.7625014297664165e-03" rms="4.3555301427841187e-01" purity="5.1529622077941895e-01" nType="-99"/>
          <Node pos="r" depth="2" NCoef="0" IVar="-1" Cut="0.0000000000000000e+00" cType="1" res="-1.5645859821233898e-04" rms="4.3267884850502014e-01" purity="4.9760299921035767e-01" nType="-99"/>
        </Node>
      </Node>
    </BinaryTree>
    <BinaryTree type="DecisionTree" boostWeight="1.0000000000000000e+00" itree="233">
      <Node pos="s" depth="0" NCoef="0" IVar="1" Cut="9.2813520431518555e+00" cType="1" res="-4.2828789446502924e-05" rms="4.3379905819892883e-01" purity="4.9955895543098450e-01" nType="0">
        <Node pos="l" depth="1" NCoef="0" IVar="1" Cut="9.1814500093460083e-01" cType="1" res="-9.6646364545449615e-04" rms="4.3514794111251831e-01" purity="4.9941211938858032e-01" nType="0">
          <Node pos="l" depth="2" NCoef="0" IVar="-1" Cut="0.0000000000000000e+00" cType="1" res="-4.5197466388344765e-03" rms="4.5863237977027893e-01" purity="4.2915207147598267e-01" nType="-99"/>
          <Node pos="r" depth="2" NCoef="0" IVar="-1" Cut="0.0000000000000000e+00" cType="1" res="6.7812470661010593e-06" rms="4.3383675813674927e-01" purity="5.0316107273101807e-01" nType="-99"/>
        </Node>
        <Node pos="r" depth="1" NCoef="0" IVar="7" Cut="4.8867325782775879e+00" cType="1" res="1.0694524273276329e-02" rms="4.1764882206916809e-01" purity="5.0126540660858154e-01" nType="0">
          <Node pos="l" depth="2" NCoef="0" IVar="-1" Cut="0.0000000000000000e+00" cType="1" res="6.6292500123381615e-03" rms="4.1904094815254211e-01" purity="4.1899040341377258e-01" nType="-99"/>
          <Node pos="r" depth="2" NCoef="0" IVar="-1" Cut="0.0000000000000000e+00" cType="1" res="-3.1801009754417464e-05" rms="4.1616073250770569e-01" purity="5.7089138031005859e-01" nType="-99"/>
        </Node>
      </Node>
    </BinaryTree>
    <BinaryTree type="DecisionTree" boostWeight="1.0000000000000000e+00" itree="234">
      <Node pos="s" depth="0" NCoef="0" IVar="6" Cut="1.7142857313156128e+00" cType="1" res="-8.9193339226767421e-04" rms="4.3365341424942017e-01" purity="4.9950090050697327e-01" nType="0">
        <Node pos="l" depth="1" NCoef="0" IVar="3" Cut="-3.3333334326744080e-01" cType="1" res="1.9554393365979195e-03" rms="4.3572327494621277e-01" purity="5.0752180814743042e-01" nType="0">
          <Node pos="l" depth="2" NCoef="0" IVar="-1" Cut="0.0000000000000000e+00" cType="1" res="-1.2181963538751006e-03" rms="4.4288915395736694e-01" purity="5.0841188430786133e-01" nType="-99"/>
          <Node pos="r" depth="2" NCoef="0" IVar="-1" Cut="0.0000000000000000e+00" cType="1" res="1.0147173888981342e-03" rms="4.3364620208740234e-01" purity="5.0726890563964844e-01" nType="-99"/>
        </Node>
        <Node pos="r" depth="1" NCoef="0" IVar="3" Cut="-2.3809523880481720e-01" cType="1" res="-6.5541639924049377e-03" rms="4.2945158481597900e-01" purity="4.8355078697204590e-01" nType="0">
          <Node pos="l" depth="2" NCoef="0" IVar="-1" Cut="0.0000000000000000e+00" cType="1" res="1.2600192567333579e-03" rms="4.3237021565437317e-01" purity="5.0185078382492065e-01" nType="-99"/>
          <Node pos="r" depth="2" NCoef="0" IVar="-1" Cut="0.0000000000000000e+00" cType="1" res="-2.8288867324590683e-03" rms="4.2833814024925232e-01" purity="4.7705423831939697e-01" nType="-99"/>
        </Node>
      </Node>
    </BinaryTree>
    <BinaryTree type="DecisionTree" boostWeight="1.0000000000000000e+00" itree="235">
      <Node pos="s" depth="0" NCoef="0" IVar="6" Cut="2.4285714626312256e+00" cType="1" res="-4.0518329478800297e-04" rms="4.3398922681808472e-01" purity="5.0022006034851074e-01" nType="0">
        <Node pos="l" depth="1" NCoef="0" IVar="2" Cut="-1.6008204221725464e+00" cType="1" res="1.4935042709112167e-03" rms="4.3552365899085999e-01" purity="5.0759065151214600e-01" nType="0">
          <Node pos="l" depth="2" NCoef="0" IVar="-1" Cut="0.0000000000000000e+00" cType="1" res="4.6104900538921356e-03" rms="4.1852277517318726e-01" purity="5.2314347028732300e-01" nType="-99"/>
          <Node pos="r" depth="2" NCoef="0" IVar="-1" Cut="0.0000000000000000e+00" cType="1" res="1.1664978228509426e-04" rms="4.3663018941879272e-01" purity="5.0653856992721558e-01" nType="-99"/>
        </Node>
        <Node pos="r" depth="1" NCoef="0" IVar="4" Cut="7.8289073705673218e-01" cType="1" res="-6.7102075554430485e-03" rms="4.2879405617713928e-01" purity="4.7574433684349060e-01" nType="0">
          <Node pos="l" depth="2" NCoef="0" IVar="-1" Cut="0.0000000000000000e+00" cType="1" res="-1.3878828212909866e-05" rms="4.1774731874465942e-01" purity="3.2398095726966858e-01" nType="-99"/>
          <Node pos="r" depth="2" NCoef="0" IVar="-1" Cut="0.0000000000000000e+00" cType="1" res="-3.6355205811560154e-03" rms="4.4060623645782471e-01" purity="6.4409041404724121e-01" nType="-99"/>
        </Node>
      </Node>
    </BinaryTree>
    <BinaryTree type="DecisionTree" boostWeight="1.0000000000000000e+00" itree="236">
      <Node pos="s" depth="0" NCoef="0" IVar="1" Cut="8.2179327011108398e+00" cType="1" res="-1.1315256124362350e-03" rms="4.3406027555465698e-01" purity="4.9850460886955261e-01" nType="0">
        <Node pos="l" depth="1" NCoef="0" IVar="6" Cut="-2.2380952835083008e+00" cType="1" res="-2.2251820191740990e-03" rms="4.3617558479309082e-01" purity="4.9854198098182678e-01" nType="0">
          <Node pos="l" depth="2" NCoef="0" IVar="-1" Cut="0.0000000000000000e+00" cType="1" res="-2.4541027378290892e-03" rms="4.2805412411689758e-01" purity="4.7366878390312195e-01" nType="-99"/>
          <Node pos="r" depth="2" NCoef="0" IVar="-1" Cut="0.0000000000000000e+00" cType="1" res="-1.4261434262152761e-04" rms="4.3808320164680481e-01" purity="5.0450348854064941e-01" nType="-99"/>
        </Node>
        <Node pos="r" depth="1" NCoef="0" IVar="0" Cut="9.7087514400482178e-01" cType="1" res="8.6627434939146042e-03" rms="4.1450741887092590e-01" purity="4.9816977977752686e-01" nType="0">
          <Node pos="l" depth="2" NCoef="0" IVar="-1" Cut="0.0000000000000000e+00" cType="1" res="6.4217778854072094e-03" rms="4.2517670989036560e-01" purity="6.5005564689636230e-01" nType="-99"/>
          <Node pos="r" depth="2" NCoef="0" IVar="-1" Cut="0.0000000000000000e+00" cType="1" res="-3.9196424186229706e-03" rms="3.9784905314445496e-01" purity="2.8294450044631958e-01" nType="-99"/>
        </Node>
      </Node>
    </BinaryTree>
    <BinaryTree type="DecisionTree" boostWeight="1.0000000000000000e+00" itree="237">
      <Node pos="s" depth="0" NCoef="0" IVar="8" Cut="-3.5232210159301758e-01" cType="1" res="-4.6792934881523252e-04" rms="4.3429622054100037e-01" purity="4.9949866533279419e-01" nType="0">
        <Node pos="l" depth="1" NCoef="0" IVar="0" Cut="9.6575903892517090e-01" cType="1" res="4.7189225442707539e-03" rms="4.3298664689064026e-01" purity="5.3832101821899414e-01" nType="0">
          <Node pos="l" depth="2" NCoef="0" IVar="-1" Cut="0.0000000000000000e+00" cType="1" res="-7.4323057197034359e-04" rms="4.3171110749244690e-01" purity="6.5654921531677246e-01" nType="-99"/>
          <Node pos="r" depth="2" NCoef="0" IVar="-1" Cut="0.0000000000000000e+00" cType="1" res="3.4274049103260040e-03" rms="4.3430778384208679e-01" purity="4.0042221546173096e-01" nType="-99"/>
        </Node>
        <Node pos="r" depth="1" NCoef="0" IVar="7" Cut="2.4958834648132324e+00" cType="1" res="-3.1805965118110180e-03" rms="4.3495494127273560e-01" purity="4.7919499874114990e-01" nType="0">
          <Node pos="l" depth="2" NCoef="0" IVar="-1" Cut="0.0000000000000000e+00" cType="1" res="-2.3946005385369062e-03" rms="4.4499856233596802e-01" purity="4.1518226265907288e-01" nType="-99"/>
          <Node pos="r" depth="2" NCoef="0" IVar="-1" Cut="0.0000000000000000e+00" cType="1" res="6.9635553518310189e-04" rms="4.2549791932106018e-01" purity="5.3762608766555786e-01" nType="-99"/>
        </Node>
      </Node>
    </BinaryTree>
    <BinaryTree type="DecisionTree" boostWeight="1.0000000000000000e+00" itree="238">
      <Node pos="s" depth="0" NCoef="0" IVar="7" Cut="2.4836485385894775e+00" cType="1" res="-5.3789908997714520e-04" rms="4.3380570411682129e-01" purity="4.9847489595413208e-01" nType="0">
        <Node pos="l" depth="1" NCoef="0" IVar="8" Cut="-5.3072971105575562e-01" cType="1" res="-4.4709309004247189e-03" rms="4.4692331552505493e-01" purity="4.2880409955978394e-01" nType="0">
          <Node pos="l" depth="2" NCoef="0" IVar="-1" Cut="0.0000000000000000e+00" cType="1" res="4.4351024553179741e-03" rms="4.5615762472152710e-01" purity="5.1964664459228516e-01" nType="-99"/>
          <Node pos="r" depth="2" NCoef="0" IVar="-1" Cut="0.0000000000000000e+00" cType="1" res="-2.0788020920008421e-03" rms="4.4524824619293213e-01" purity="4.1361346840858459e-01" nType="-99"/>
        </Node>
        <Node pos="r" depth="1" NCoef="0" IVar="4" Cut="4.7554257512092590e-01" cType="1" res="2.1880303975194693e-03" rms="4.2445489764213562e-01" purity="5.4676270484924316e-01" nType="0">
          <Node pos="l" depth="2" NCoef="0" IVar="-1" Cut="0.0000000000000000e+00" cType="1" res="-9.1721583157777786e-03" rms="2.9818740487098694e-01" purity="1.0433528572320938e-01" nType="-99"/>
          <Node pos="r" depth="2" NCoef="0" IVar="-1" Cut="0.0000000000000000e+00" cType="1" res="1.3754275860264897e-03" rms="4.4071349501609802e-01" purity="6.1535477638244629e-01" nType="-99"/>
        </Node>
      </Node>
    </BinaryTree>
    <BinaryTree type="DecisionTree" boostWeight="1.0000000000000000e+00" itree="239">
      <Node pos="s" depth="0" NCoef="0" IVar="6" Cut="-6.7142858505249023e+00" cType="1" res="3.0163588235154748e-04" rms="4.3472585082054138e-01" purity="5.0028318166732788e-01" nType="0">
        <Node pos="l" depth="1" NCoef="0" IVar="-1" Cut="0.0000000000000000e+00" cType="1" res="-4.5299446210265160e-03" rms="4.1596025228500366e-01" purity="4.2438003420829773e-01" nType="-99"/>
        <Node pos="r" depth="1" NCoef="0" IVar="10" Cut="8.8571424484252930e+00" cType="1" res="9.7899406682699919e-04" rms="4.3545892834663391e-01" purity="5.0337213277816772e-01" nType="0">
          <Node pos="l" depth="2" NCoef="0" IVar="-1" Cut="0.0000000000000000e+00" cType="1" res="2.2149581927806139e-03" rms="4.6003428101539612e-01" purity="5.2886319160461426e-01" nType="-99"/>
          <Node pos="r" depth="2" NCoef="0" IVar="-1" Cut="0.0000000000000000e+00" cType="1" res="-6.8131071748211980e-04" rms="4.2461976408958435e-01" purity="4.9262130260467529e-01" nType="-99"/>
        </Node>
      </Node>
    </BinaryTree>
    <BinaryTree type="DecisionTree" boostWeight="1.0000000000000000e+00" itree="240">
      <Node pos="s" depth="0" NCoef="0" IVar="5" Cut="1.5554730892181396e+00" cType="1" res="8.8030297774821520e-04" rms="4.3427336215972900e-01" purity="4.9968472123146057e-01" nType="0">
        <Node pos="l" depth="1" NCoef="0" IVar="4" Cut="8.2081419229507446e-01" cType="1" res="2.9698098078370094e-03" rms="4.3919238448143005e-01" purity="5.0989079475402832e-01" nType="0">
          <Node pos="l" depth="2" NCoef="0" IVar="-1" Cut="0.0000000000000000e+00" cType="1" res="-6.8156898487359285e-04" rms="4.3824887275695801e-01" purity="3.6070388555526733e-01" nType="-99"/>
          <Node pos="r" depth="2" NCoef="0" IVar="-1" Cut="0.0000000000000000e+00" cType="1" res="2.2771013900637627e-03" rms="4.4013604521751404e-01" purity="6.7217683792114258e-01" nType="-99"/>
        </Node>
        <Node pos="r" depth="1" NCoef="0" IVar="4" Cut="7.7761113643646240e-01" cType="1" res="-2.8586164116859436e-03" rms="4.2530381679534912e-01" purity="4.8142212629318237e-01" nType="0">
          <Node pos="l" depth="2" NCoef="0" IVar="-1" Cut="0.0000000000000000e+00" cType="1" res="2.2597236093133688e-03" rms="4.1409808397293091e-01" purity="3.3484411239624023e-01" nType="-99"/>
          <Node pos="r" depth="2" NCoef="0" IVar="-1" Cut="0.0000000000000000e+00" cType="1" res="-3.7746182642877102e-03" rms="4.3666756153106689e-01" purity="6.3815468549728394e-01" nType="-99"/>
        </Node>
      </Node>
    </BinaryTree>
    <BinaryTree type="DecisionTree" boostWeight="1.0000000000000000e+00" itree="241">
      <Node pos="s" depth="0" NCoef="0" IVar="3" Cut="6.1904764175415039e-01" cType="1" res="-6.4692198066040874e-04" rms="4.3402427434921265e-01" purity="5.0033372640609741e-01" nType="0">
        <Node pos="l" depth="1" NCoef="0" IVar="0" Cut="6.4332157373428345e-01" cType="1" res="3.4020509338006377e-04" rms="4.3195697665214539e-01" purity="5.0096422433853149e-01" nType="0">
          <Node pos="l" depth="2" NCoef="0" IVar="-1" Cut="0.0000000000000000e+00" cType="1" res="2.8695908840745687e-03" rms="4.2871075868606567e-01" purity="6.9053184986114502e-01" nType="-99"/>
          <Node pos="r" depth="2" NCoef="0" IVar="-1" Cut="0.0000000000000000e+00" cType="1" res="-2.0023234537802637e-04" rms="4.3229389190673828e-01" purity="4.8036488890647888e-01" nType="-99"/>
        </Node>
        <Node pos="r" depth="1" NCoef="0" IVar="4" Cut="8.2692402601242065e-01" cType="1" res="-1.1732647195458412e-02" rms="4.5645165443420410e-01" purity="4.9325257539749146e-01" nType="0">
          <Node pos="l" depth="2" NCoef="0" IVar="-1" Cut="0.0000000000000000e+00" cType="1" res="2.9307950171642005e-04" rms="4.4907599687576294e-01" purity="3.7662032246589661e-01" nType="-99"/>
          <Node pos="r" depth="2" NCoef="0" IVar="-1" Cut="0.0000000000000000e+00" cType="1" res="-5.4490612819790840e-03" rms="4.6246150135993958e-01" purity="5.9439158439636230e-01" nType="-99"/>
        </Node>
      </Node>
    </BinaryTree>
    <BinaryTree type="DecisionTree" boostWeight="1.0000000000000000e+00" itree="242">
      <Node pos="s" depth="0" NCoef="0" IVar="10" Cut="6.0666667938232422e+01" cType="1" res="4.3884495971724391e-04" rms="4.3330550193786621e-01" purity="5.0057625770568848e-01" nType="0">
        <Node pos="l" depth="1" NCoef="0" IVar="4" Cut="8.1810283660888672e-01" cType="1" res="1.0953390737995505e-03" rms="4.3358415365219116e-01" purity="5.0671046972274780e-01" nType="0">
          <Node pos="l" depth="2" NCoef="0" IVar="-1" Cut="0.0000000000000000e+00" cType="1" res="-8.7872910080477595e-04" rms="4.3029844760894775e-01" purity="3.5744172334671021e-01" nType="-99"/>
          <Node pos="r" depth="2" NCoef="0" IVar="-1" Cut="0.0000000000000000e+00" cType="1" res="1.5964837512001395e-03" rms="4.3730822205543518e-01" purity="6.7982280254364014e-01" nType="-99"/>
        </Node>
        <Node pos="r" depth="1" NCoef="0" IVar="-1" Cut="0.0000000000000000e+00" cType="1" res="-4.4617871753871441e-03" rms="4.2552357912063599e-01" purity="3.3876496553421021e-01" nType="-99"/>
      </Node>
    </BinaryTree>
    <BinaryTree type="DecisionTree" boostWeight="1.0000000000000000e+00" itree="243">
      <Node pos="s" depth="0" NCoef="0" IVar="7" Cut="2.7690470218658447e+00" cType="1" res="-9.5310789765790105e-04" rms="4.3324404954910278e-01" purity="4.9886304140090942e-01" nType="0">
        <Node pos="l" depth="1" NCoef="0" IVar="4" Cut="4.9028509855270386e-01" cType="1" res="-5.4762284271419048e-03" rms="4.4446659088134766e-01" purity="4.3073457479476929e-01" nType="0">
          <Node pos="l" depth="2" NCoef="0" IVar="-1" Cut="0.0000000000000000e+00" cType="1" res="3.5228093620389700e-03" rms="3.7128022313117981e-01" purity="1.7491514980792999e-01" nType="-99"/>
          <Node pos="r" depth="2" NCoef="0" IVar="-1" Cut="0.0000000000000000e+00" cType="1" res="-2.2964088711887598e-03" rms="4.6428325772285461e-01" purity="5.0827187299728394e-01" nType="-99"/>
        </Node>
        <Node pos="r" depth="1" NCoef="0" IVar="4" Cut="5.6086796522140503e-01" cType="1" res="3.0134085100144148e-03" rms="4.2311784625053406e-01" purity="5.5860775709152222e-01" nType="0">
          <Node pos="l" depth="2" NCoef="0" IVar="-1" Cut="0.0000000000000000e+00" cType="1" res="-5.4989345371723175e-03" rms="3.4996721148490906e-01" purity="1.6672861576080322e-01" nType="-99"/>
          <Node pos="r" depth="2" NCoef="0" IVar="-1" Cut="0.0000000000000000e+00" cType="1" res="1.7226733034476638e-03" rms="4.3708157539367676e-01" purity="6.4239913225173950e-01" nType="-99"/>
        </Node>
      </Node>
    </BinaryTree>
    <BinaryTree type="DecisionTree" boostWeight="1.0000000000000000e+00" itree="244">
      <Node pos="s" depth="0" NCoef="0" IVar="3" Cut="-7.1428573131561279e-01" cType="1" res="2.7171810506843030e-04" rms="4.3466559052467346e-01" purity="4.9878782033920288e-01" nType="0">
        <Node pos="l" depth="1" NCoef="0" IVar="-1" Cut="0.0000000000000000e+00" cType="1" res="3.6000199615955353e-03" rms="4.6182972192764282e-01" purity="5.1048302650451660e-01" nType="-99"/>
        <Node pos="r" depth="1" NCoef="0" IVar="5" Cut="2.6915321350097656e+00" cType="1" res="-6.9622060982510448e-04" rms="4.3279775977134705e-01" purity="4.9801692366600037e-01" nType="0">
          <Node pos="l" depth="2" NCoef="0" IVar="-1" Cut="0.0000000000000000e+00" cType="1" res="-5.3755298722535372e-04" rms="4.3371737003326416e-01" purity="4.9677255749702454e-01" nType="-99"/>
          <Node pos="r" depth="2" NCoef="0" IVar="-1" Cut="0.0000000000000000e+00" cType="1" res="3.3557573333382607e-03" rms="4.2350280284881592e-01" purity="5.1014882326126099e-01" nType="-99"/>
        </Node>
      </Node>
    </BinaryTree>
    <BinaryTree type="DecisionTree" boostWeight="1.0000000000000000e+00" itree="245">
      <Node pos="s" depth="0" NCoef="0" IVar="7" Cut="9.5761880874633789e+00" cType="1" res="3.2301514875143766e-04" rms="4.3358367681503296e-01" purity="5.0074285268783569e-01" nType="0">
        <Node pos="l" depth="1" NCoef="0" IVar="6" Cut="2.8095238208770752e+00" cType="1" res="-4.2684626532718539e-04" rms="4.3487799167633057e-01" purity="4.9052020907402039e-01" nType="0">
          <Node pos="l" depth="2" NCoef="0" IVar="-1" Cut="0.0000000000000000e+00" cType="1" res="2.8386540361680090e-04" rms="4.3639975786209106e-01" purity="4.9841970205307007e-01" nType="-99"/>
          <Node pos="r" depth="2" NCoef="0" IVar="-1" Cut="0.0000000000000000e+00" cType="1" res="-1.5054482501000166e-03" rms="4.2961919307708740e-01" purity="4.6364173293113708e-01" nType="-99"/>
        </Node>
        <Node pos="r" depth="1" NCoef="0" IVar="-1" Cut="0.0000000000000000e+00" cType="1" res="4.2675016447901726e-03" rms="4.0709009766578674e-01" purity="7.0122909545898438e-01" nType="-99"/>
      </Node>
    </BinaryTree>
    <BinaryTree type="DecisionTree" boostWeight="1.0000000000000000e+00" itree="246">
      <Node pos="s" depth="0" NCoef="0" IVar="9" Cut="4.7619048506021500e-02" cType="1" res="-5.2020192379131913e-04" rms="4.3404942750930786e-01" purity="4.9960854649543762e-01" nType="0">
        <Node pos="l" depth="1" NCoef="0" IVar="6" Cut="-3.8571429252624512e+00" cType="1" res="1.7340113408863544e-03" rms="4.3391522765159607e-01" purity="5.0087821483612061e-01" nType="0">
          <Node pos="l" depth="2" NCoef="0" IVar="-1" Cut="0.0000000000000000e+00" cType="1" res="-2.2484455257654190e-03" rms="4.2576879262924194e-01" purity="4.6320083737373352e-01" nType="-99"/>
          <Node pos="r" depth="2" NCoef="0" IVar="-1" Cut="0.0000000000000000e+00" cType="1" res="8.8327395496889949e-04" rms="4.3522137403488159e-01" purity="5.0708991289138794e-01" nType="-99"/>
        </Node>
        <Node pos="r" depth="1" NCoef="0" IVar="8" Cut="6.8032041192054749e-02" cType="1" res="-3.2507535070180893e-03" rms="4.3419626355171204e-01" purity="4.9807062745094299e-01" nType="0">
          <Node pos="l" depth="2" NCoef="0" IVar="-1" Cut="0.0000000000000000e+00" cType="1" res="-3.0592379625886679e-03" rms="4.2824932932853699e-01" purity="4.1874930262565613e-01" nType="-99"/>
          <Node pos="r" depth="2" NCoef="0" IVar="-1" Cut="0.0000000000000000e+00" cType="1" res="7.8417896293103695e-04" rms="4.3858468532562256e-01" purity="5.5871361494064331e-01" nType="-99"/>
        </Node>
      </Node>
    </BinaryTree>
    <BinaryTree type="DecisionTree" boostWeight="1.0000000000000000e+00" itree="247">
      <Node pos="s" depth="0" NCoef="0" IVar="8" Cut="3.1143113970756531e-01" cType="1" res="-5.6226953165605664e-04" rms="4.3446108698844910e-01" purity="4.9859595298767090e-01" nType="0">
        <Node pos="l" depth="1" NCoef="0" IVar="9" Cut="1.4285714924335480e-01" cType="1" res="-3.1656839419156313e-03" rms="4.3627631664276123e-01" purity="4.7792941331863403e-01" nType="0">
          <Node pos="l" depth="2" NCoef="0" IVar="-1" Cut="0.0000000000000000e+00" cType="1" res="-1.1772195284720510e-04" rms="4.3806183338165283e-01" purity="5.0859576463699341e-01" nType="-99"/>
          <Node pos="r" depth="2" NCoef="0" IVar="-1" Cut="0.0000000000000000e+00" cType="1" res="-2.6471121236681938e-03" rms="4.3169710040092468e-01" purity="4.0111911296844482e-01" nType="-99"/>
        </Node>
        <Node pos="r" depth="1" NCoef="0" IVar="4" Cut="5.3366386890411377e-01" cType="1" res="4.1267862543463707e-03" rms="4.3113267421722412e-01" purity="5.3581887483596802e-01" nType="0">
          <Node pos="l" depth="2" NCoef="0" IVar="-1" Cut="0.0000000000000000e+00" cType="1" res="-3.3397311344742775e-03" rms="3.5584929585456848e-01" purity="1.6193902492523193e-01" nType="-99"/>
          <Node pos="r" depth="2" NCoef="0" IVar="-1" Cut="0.0000000000000000e+00" cType="1" res="1.7552544595673680e-03" rms="4.4665628671646118e-01" purity="6.2210613489151001e-01" nType="-99"/>
        </Node>
      </Node>
    </BinaryTree>
    <BinaryTree type="DecisionTree" boostWeight="1.0000000000000000e+00" itree="248">
      <Node pos="s" depth="0" NCoef="0" IVar="3" Cut="-1.4285714924335480e-01" cType="1" res="9.1960362624377012e-04" rms="4.3421876430511475e-01" purity="5.0179278850555420e-01" nType="0">
        <Node pos="l" depth="1" NCoef="0" IVar="7" Cut="3.7385134696960449e+00" cType="1" res="5.5394605733454227e-03" rms="4.3700870871543884e-01" purity="5.1104331016540527e-01" nType="0">
          <Node pos="l" depth="2" NCoef="0" IVar="-1" Cut="0.0000000000000000e+00" cType="1" res="1.6710015188436955e-04" rms="4.4524854421615601e-01" purity="4.5819213986396790e-01" nType="-99"/>
          <Node pos="r" depth="2" NCoef="0" IVar="-1" Cut="0.0000000000000000e+00" cType="1" res="4.1734748519957066e-03" rms="4.1983860731124878e-01" purity="6.1695879697799683e-01" nType="-99"/>
        </Node>
        <Node pos="r" depth="1" NCoef="0" IVar="3" Cut="7.4834354221820831e-02" cType="1" res="-1.7148983897641301e-03" rms="4.3259763717651367e-01" purity="4.9651768803596497e-01" nType="0">
          <Node pos="l" depth="2" NCoef="0" IVar="-1" Cut="0.0000000000000000e+00" cType="1" res="-2.6532858610153198e-03" rms="4.2642343044281006e-01" purity="4.8068434000015259e-01" nType="-99"/>
          <Node pos="r" depth="2" NCoef="0" IVar="-1" Cut="0.0000000000000000e+00" cType="1" res="6.4322142861783504e-04" rms="4.3565601110458374e-01" purity="5.0459963083267212e-01" nType="-99"/>
        </Node>
      </Node>
    </BinaryTree>
    <BinaryTree type="DecisionTree" boostWeight="1.0000000000000000e+00" itree="249">
      <Node pos="s" depth="0" NCoef="0" IVar="2" Cut="-1.4979419708251953e+00" cType="1" res="1.2651702854782343e-03" rms="4.3358090519905090e-01" purity="5.0069057941436768e-01" nType="0">
        <Node pos="l" depth="1" NCoef="0" IVar="0" Cut="9.4524157047271729e-01" cType="1" res="-1.0892875492572784e-02" rms="4.2324948310852051e-01" purity="4.8986539244651794e-01" nType="0">
          <Node pos="l" depth="2" NCoef="0" IVar="-1" Cut="0.0000000000000000e+00" cType="1" res="-1.6588750295341015e-03" rms="4.2852473258972168e-01" purity="6.4159172773361206e-01" nType="-99"/>
          <Node pos="r" depth="2" NCoef="0" IVar="-1" Cut="0.0000000000000000e+00" cType="1" res="-4.3936995789408684e-03" rms="4.1757577657699585e-01" purity="3.3050921559333801e-01" nType="-99"/>
        </Node>
        <Node pos="r" depth="1" NCoef="0" IVar="3" Cut="2.3809523880481720e-01" cType="1" res="2.2858877200633287e-03" rms="4.3442159891128540e-01" purity="5.0159937143325806e-01" nType="0">
          <Node pos="l" depth="2" NCoef="0" IVar="-1" Cut="0.0000000000000000e+00" cType="1" res="8.8249835243914276e-05" rms="4.3204838037490845e-01" purity="4.9787396192550659e-01" nType="-99"/>
          <Node pos="r" depth="2" NCoef="0" IVar="-1" Cut="0.0000000000000000e+00" cType="1" res="1.7691453685984015e-03" rms="4.3994030356407166e-01" purity="5.1039594411849976e-01" nType="-99"/>
        </Node>
      </Node>
    </BinaryTree>
    <BinaryTree type="DecisionTree" boostWeight="1.0000000000000000e+00" itree="250">
      <Node pos="s" depth="0" NCoef="0" IVar="4" Cut="7.3262721300125122e-01" cType="1" res="-1.5020065475255251e-03" rms="4.3443953990936279e-01" purity="4.9900209903717041e-01" nType="0">
        <Node pos="l" depth="1" NCoef="0" IVar="7" Cut="1.3924108743667603e+00" cType="1" res="3.4264323767274618e-03" rms="4.2257791757583618e-01" purity="3.1106656789779663e-01" nType="0">
          <Node pos="l" depth="2" NCoef="0" IVar="-1" Cut="0.0000000000000000e+00" cType="1" res="8.1052994355559349e-03" rms="4.5968207716941833e-01" purity="3.4900009632110596e-01" nType="-99"/>
          <Node pos="r" depth="2" NCoef="0" IVar="-1" Cut="0.0000000000000000e+00" cType="1" res="-1.8011523934546858e-04" rms="4.1682666540145874e-01" purity="3.0562493205070496e-01" nType="-99"/>
        </Node>
        <Node pos="r" depth="1" NCoef="0" IVar="4" Cut="9.7675526142120361e-01" cType="1" res="-5.0960215739905834e-03" rms="4.4285467267036438e-01" purity="6.3605219125747681e-01" nType="0">
          <Node pos="l" depth="2" NCoef="0" IVar="-1" Cut="0.0000000000000000e+00" cType="1" res="-2.4077710695564747e-03" rms="4.4540026783943176e-01" purity="6.2352710962295532e-01" nType="-99"/>
          <Node pos="r" depth="2" NCoef="0" IVar="-1" Cut="0.0000000000000000e+00" cType="1" res="8.8047189638018608e-03" rms="4.1833874583244324e-01" purity="7.4363470077514648e-01" nType="-99"/>
        </Node>
      </Node>
    </BinaryTree>
    <BinaryTree type="DecisionTree" boostWeight="1.0000000000000000e+00" itree="251">
      <Node pos="s" depth="0" NCoef="0" IVar="10" Cut="5.2285713195800781e+01" cType="1" res="-3.5043733078055084e-04" rms="4.3451178073883057e-01" purity="4.9939978122711182e-01" nType="0">
        <Node pos="l" depth="1" NCoef="0" IVar="7" Cut="3.7385134696960449e+00" cType="1" res="-1.3731210492551327e-03" rms="4.3466800451278687e-01" purity="5.0560635328292847e-01" nType="0">
          <Node pos="l" depth="2" NCoef="0" IVar="-1" Cut="0.0000000000000000e+00" cType="1" res="-1.2160809710621834e-03" rms="4.4249275326728821e-01" purity="4.4683209061622620e-01" nType="-99"/>
          <Node pos="r" depth="2" NCoef="0" IVar="-1" Cut="0.0000000000000000e+00" cType="1" res="1.3885281514376402e-03" rms="4.1920050978660583e-01" purity="6.1815947294235229e-01" nType="-99"/>
        </Node>
        <Node pos="r" depth="1" NCoef="0" IVar="-1" Cut="0.0000000000000000e+00" cType="1" res="4.1117221117019653e-03" rms="4.3175247311592102e-01" purity="4.0252777934074402e-01" nType="-99"/>
      </Node>
    </BinaryTree>
    <BinaryTree type="DecisionTree" boostWeight="1.0000000000000000e+00" itree="252">
      <Node pos="s" depth="0" NCoef="0" IVar="6" Cut="7.0000000000000000e+00" cType="1" res="4.5517206308431923e-04" rms="4.3436998128890991e-01" purity="5.0059586763381958e-01" nType="0">
        <Node pos="l" depth="1" NCoef="0" IVar="0" Cut="1.1749670505523682e+00" cType="1" res="1.1819562641903758e-03" rms="4.3527215719223022e-01" purity="5.0411885976791382e-01" nType="0">
          <Node pos="l" depth="2" NCoef="0" IVar="-1" Cut="0.0000000000000000e+00" cType="1" res="-1.7231283709406853e-04" rms="4.4095498323440552e-01" purity="5.7531243562698364e-01" nType="-99"/>
          <Node pos="r" depth="2" NCoef="0" IVar="-1" Cut="0.0000000000000000e+00" cType="1" res="1.7122364370152354e-03" rms="4.1918095946311951e-01" purity="3.0804601311683655e-01" nType="-99"/>
        </Node>
        <Node pos="r" depth="1" NCoef="0" IVar="-1" Cut="0.0000000000000000e+00" cType="1" res="-3.7304903380572796e-03" rms="4.1642391681671143e-01" purity="4.3295586109161377e-01" nType="-99"/>
      </Node>
    </BinaryTree>
    <BinaryTree type="DecisionTree" boostWeight="1.0000000000000000e+00" itree="253">
      <Node pos="s" depth="0" NCoef="0" IVar="9" Cut="-1.4285714924335480e-01" cType="1" res="-7.6007202733308077e-04" rms="4.3489554524421692e-01" purity="4.9885812401771545e-01" nType="0">
        <Node pos="l" depth="1" NCoef="0" IVar="8" Cut="-1.4562165737152100e+00" cType="1" res="-5.7635800912976265e-03" rms="4.3569409847259521e-01" purity="4.8546344041824341e-01" nType="0">
          <Node pos="l" depth="2" NCoef="0" IVar="-1" Cut="0.0000000000000000e+00" cType="1" res="5.4074800573289394e-03" rms="4.0197336673736572e-01" purity="7.3437678813934326e-01" nType="-99"/>
          <Node pos="r" depth="2" NCoef="0" IVar="-1" Cut="0.0000000000000000e+00" cType="1" res="-2.2771765943616629e-03" rms="4.3958210945129395e-01" purity="4.5474267005920410e-01" nType="-99"/>
        </Node>
        <Node pos="r" depth="1" NCoef="0" IVar="4" Cut="6.5649229288101196e-01" cType="1" res="1.9978822674602270e-03" rms="4.3443012237548828e-01" purity="5.0624132156372070e-01" nType="0">
          <Node pos="l" depth="2" NCoef="0" IVar="-1" Cut="0.0000000000000000e+00" cType="1" res="2.3343977518379688e-03" rms="4.1290408372879028e-01" purity="2.7424928545951843e-01" nType="-99"/>
          <Node pos="r" depth="2" NCoef="0" IVar="-1" Cut="0.0000000000000000e+00" cType="1" res="-2.4389526515733451e-04" rms="4.4478070735931396e-01" purity="6.2232869863510132e-01" nType="-99"/>
        </Node>
      </Node>
    </BinaryTree>
    <BinaryTree type="DecisionTree" boostWeight="1.0000000000000000e+00" itree="254">
      <Node pos="s" depth="0" NCoef="0" IVar="3" Cut="4.7619048506021500e-02" cType="1" res="-4.4555458589456975e-04" rms="4.3427675962448120e-01" purity="4.9962282180786133e-01" nType="0">
        <Node pos="l" depth="1" NCoef="0" IVar="6" Cut="3.8571429252624512e+00" cType="1" res="-2.9987783636897802e-03" rms="4.3351295590400696e-01" purity="4.9630627036094666e-01" nType="0">
          <Node pos="l" depth="2" NCoef="0" IVar="-1" Cut="0.0000000000000000e+00" cType="1" res="-3.6569082294590771e-04" rms="4.3517249822616577e-01" purity="5.0305199623107910e-01" nType="-99"/>
          <Node pos="r" depth="2" NCoef="0" IVar="-1" Cut="0.0000000000000000e+00" cType="1" res="-2.9958542436361313e-03" rms="4.2498937249183655e-01" purity="4.6242550015449524e-01" nType="-99"/>
        </Node>
        <Node pos="r" depth="1" NCoef="0" IVar="9" Cut="-4.7619048506021500e-02" cType="1" res="2.6879606302827597e-03" rms="4.3519186973571777e-01" purity="5.0369310379028320e-01" nType="0">
          <Node pos="l" depth="2" NCoef="0" IVar="-1" Cut="0.0000000000000000e+00" cType="1" res="-9.1632059775292873e-04" rms="4.3431222438812256e-01" purity="4.9292498826980591e-01" nType="-99"/>
          <Node pos="r" depth="2" NCoef="0" IVar="-1" Cut="0.0000000000000000e+00" cType="1" res="2.0055128261446953e-03" rms="4.3583986163139343e-01" purity="5.1243311166763306e-01" nType="-99"/>
        </Node>
      </Node>
    </BinaryTree>
    <BinaryTree type="DecisionTree" boostWeight="1.0000000000000000e+00" itree="255">
      <Node pos="s" depth="0" NCoef="0" IVar="5" Cut="3.3740830421447754e+00" cType="1" res="-1.6924506780924276e-05" rms="4.3466338515281677e-01" purity="4.9975010752677917e-01" nType="0">
        <Node pos="l" depth="1" NCoef="0" IVar="9" Cut="1.4285714924335480e-01" cType="1" res="-7.4313656659796834e-04" rms="4.3539845943450928e-01" purity="4.9744459986686707e-01" nType="0">
          <Node pos="l" depth="2" NCoef="0" IVar="-1" Cut="0.0000000000000000e+00" cType="1" res="-8.6773373186588287e-04" rms="4.3511065840721130e-01" purity="4.9632427096366882e-01" nType="-99"/>
          <Node pos="r" depth="2" NCoef="0" IVar="-1" Cut="0.0000000000000000e+00" cType="1" res="9.9494436290115118e-04" rms="4.3586885929107666e-01" purity="4.9942195415496826e-01" nType="-99"/>
        </Node>
        <Node pos="r" depth="1" NCoef="0" IVar="-1" Cut="0.0000000000000000e+00" cType="1" res="4.4122408144176006e-03" rms="4.1729059815406799e-01" purity="5.5208152532577515e-01" nType="-99"/>
      </Node>
    </BinaryTree>
    <BinaryTree type="DecisionTree" boostWeight="1.0000000000000000e+00" itree="256">
      <Node pos="s" depth="0" NCoef="0" IVar="5" Cut="2.1395993232727051e+00" cType="1" res="-3.7309032632037997e-04" rms="4.3411043286323547e-01" purity="4.9930784106254578e-01" nType="0">
        <Node pos="l" depth="1" NCoef="0" IVar="4" Cut="7.7928954362869263e-01" cType="1" res="1.0508784325793386e-03" rms="4.3580812215805054e-01" purity="5.0305771827697754e-01" nType="0">
          <Node pos="l" depth="2" NCoef="0" IVar="-1" Cut="0.0000000000000000e+00" cType="1" res="-1.0388011578470469e-03" rms="4.2883205413818359e-01" purity="3.3108538389205933e-01" nType="-99"/>
          <Node pos="r" depth="2" NCoef="0" IVar="-1" Cut="0.0000000000000000e+00" cType="1" res="1.3808014336973429e-03" rms="4.4196835160255432e-01" purity="6.5840709209442139e-01" nType="-99"/>
        </Node>
        <Node pos="r" depth="1" NCoef="0" IVar="0" Cut="8.6737102270126343e-01" cType="1" res="-7.0853522047400475e-03" rms="4.2595273256301880e-01" purity="4.8163160681724548e-01" nType="0">
          <Node pos="l" depth="2" NCoef="0" IVar="-1" Cut="0.0000000000000000e+00" cType="1" res="3.4384110476821661e-03" rms="4.2425101995468140e-01" purity="6.7133575677871704e-01" nType="-99"/>
          <Node pos="r" depth="2" NCoef="0" IVar="-1" Cut="0.0000000000000000e+00" cType="1" res="-4.7901137731969357e-03" rms="4.2650598287582397e-01" purity="3.7703520059585571e-01" nType="-99"/>
        </Node>
      </Node>
    </BinaryTree>
    <BinaryTree type="DecisionTree" boostWeight="1.0000000000000000e+00" itree="257">
      <Node pos="s" depth="0" NCoef="0" IVar="3" Cut="6.1904764175415039e-01" cType="1" res="2.0303926430642605e-04" rms="4.3421134352684021e-01" purity="4.9907705187797546e-01" nType="0">
        <Node pos="l" depth="1" NCoef="0" IVar="9" Cut="4.7619048506021500e-02" cType="1" res="1.4320110203698277e-03" rms="4.3186619877815247e-01" purity="5.0005334615707397e-01" nType="0">
          <Node pos="l" depth="2" NCoef="0" IVar="-1" Cut="0.0000000000000000e+00" cType="1" res="1.1633733520284295e-03" rms="4.3149730563163757e-01" purity="5.0187373161315918e-01" nType="-99"/>
          <Node pos="r" depth="2" NCoef="0" IVar="-1" Cut="0.0000000000000000e+00" cType="1" res="-5.8061582967638969e-04" rms="4.3228876590728760e-01" purity="4.9782910943031311e-01" nType="-99"/>
        </Node>
        <Node pos="r" depth="1" NCoef="0" IVar="5" Cut="4.5357412099838257e-01" cType="1" res="-1.3442939147353172e-02" rms="4.5922616124153137e-01" purity="4.8823630809783936e-01" nType="0">
          <Node pos="l" depth="2" NCoef="0" IVar="-1" Cut="0.0000000000000000e+00" cType="1" res="-3.7449027877300978e-04" rms="4.6513795852661133e-01" purity="4.8289895057678223e-01" nType="-99"/>
          <Node pos="r" depth="2" NCoef="0" IVar="-1" Cut="0.0000000000000000e+00" cType="1" res="-5.9116794727742672e-03" rms="4.5379427075386047e-01" purity="4.9285870790481567e-01" nType="-99"/>
        </Node>
      </Node>
    </BinaryTree>
    <BinaryTree type="DecisionTree" boostWeight="1.0000000000000000e+00" itree="258">
      <Node pos="s" depth="0" NCoef="0" IVar="9" Cut="-6.1904764175415039e-01" cType="1" res="-1.7972232308238745e-04" rms="4.3415606021881104e-01" purity="4.9992567300796509e-01" nType="0">
        <Node pos="l" depth="1" NCoef="0" IVar="0" Cut="1.0084432363510132e+00" cType="1" res="-1.5091462060809135e-02" rms="4.4404268264770508e-01" purity="3.9760836958885193e-01" nType="0">
          <Node pos="l" depth="2" NCoef="0" IVar="-1" Cut="0.0000000000000000e+00" cType="1" res="-5.0224899314343929e-03" rms="4.6496307849884033e-01" purity="4.9638143181800842e-01" nType="-99"/>
          <Node pos="r" depth="2" NCoef="0" IVar="-1" Cut="0.0000000000000000e+00" cType="1" res="-2.7729186695069075e-03" rms="4.2205426096916199e-01" purity="2.9894474148750305e-01" nType="-99"/>
        </Node>
        <Node pos="r" depth="1" NCoef="0" IVar="10" Cut="6.0666667938232422e+01" cType="1" res="9.7937532700598240e-04" rms="4.3335664272308350e-01" purity="5.0787889957427979e-01" nType="0">
          <Node pos="l" depth="2" NCoef="0" IVar="-1" Cut="0.0000000000000000e+00" cType="1" res="4.3427641503512859e-04" rms="4.3366888165473938e-01" purity="5.1473140716552734e-01" nType="-99"/>
          <Node pos="r" depth="2" NCoef="0" IVar="-1" Cut="0.0000000000000000e+00" cType="1" res="-4.2501571588218212e-03" rms="4.2509633302688599e-01" purity="3.3599689602851868e-01" nType="-99"/>
        </Node>
      </Node>
    </BinaryTree>
    <BinaryTree type="DecisionTree" boostWeight="1.0000000000000000e+00" itree="259">
      <Node pos="s" depth="0" NCoef="0" IVar="6" Cut="-6.8571429252624512e+00" cType="1" res="2.4222456850111485e-03" rms="4.3427181243896484e-01" purity="5.0338208675384521e-01" nType="0">
        <Node pos="l" depth="1" NCoef="0" IVar="-1" Cut="0.0000000000000000e+00" cType="1" res="-4.0067196823656559e-03" rms="4.0932127833366394e-01" purity="4.2250674962997437e-01" nType="-99"/>
        <Node pos="r" depth="1" NCoef="0" IVar="1" Cut="4.8906760215759277e+00" cType="1" res="3.1030480749905109e-03" rms="4.3523585796356201e-01" purity="5.0664889812469482e-01" nType="0">
          <Node pos="l" depth="2" NCoef="0" IVar="-1" Cut="0.0000000000000000e+00" cType="1" res="2.6039939257316291e-04" rms="4.3995004892349243e-01" purity="5.0670099258422852e-01" nType="-99"/>
          <Node pos="r" depth="2" NCoef="0" IVar="-1" Cut="0.0000000000000000e+00" cType="1" res="2.5541717186570168e-03" rms="4.2085087299346924e-01" purity="5.0649386644363403e-01" nType="-99"/>
        </Node>
      </Node>
    </BinaryTree>
    <BinaryTree type="DecisionTree" boostWeight="1.0000000000000000e+00" itree="260">
      <Node pos="s" depth="0" NCoef="0" IVar="4" Cut="9.0490841865539551e-01" cType="1" res="1.2992254050914198e-04" rms="4.3401235342025757e-01" purity="5.0039994716644287e-01" nType="0">
        <Node pos="l" depth="1" NCoef="0" IVar="0" Cut="1.6666887998580933e+00" cType="1" res="1.9911834970116615e-03" rms="4.3544423580169678e-01" purity="4.1355276107788086e-01" nType="0">
          <Node pos="l" depth="2" NCoef="0" IVar="-1" Cut="0.0000000000000000e+00" cType="1" res="1.0946731781587005e-03" rms="4.3958556652069092e-01" purity="4.3011459708213806e-01" nType="-99"/>
          <Node pos="r" depth="2" NCoef="0" IVar="-1" Cut="0.0000000000000000e+00" cType="1" res="-9.3563217669725418e-03" rms="3.7186866998672485e-01" purity="1.8389143049716949e-01" nType="-99"/>
        </Node>
        <Node pos="r" depth="1" NCoef="0" IVar="4" Cut="9.7697573900222778e-01" cType="1" res="-4.3199826031923294e-03" rms="4.3053710460662842e-01" purity="7.0803445577621460e-01" nType="0">
          <Node pos="l" depth="2" NCoef="0" IVar="-1" Cut="0.0000000000000000e+00" cType="1" res="-3.4927304368466139e-03" rms="4.3247994780540466e-01" purity="6.9990909099578857e-01" nType="-99"/>
          <Node pos="r" depth="2" NCoef="0" IVar="-1" Cut="0.0000000000000000e+00" cType="1" res="7.6837288215756416e-03" rms="4.2108896374702454e-01" purity="7.4008846282958984e-01" nType="-99"/>
        </Node>
      </Node>
    </BinaryTree>
    <BinaryTree type="DecisionTree" boostWeight="1.0000000000000000e+00" itree="261">
      <Node pos="s" depth="0" NCoef="0" IVar="5" Cut="3.0690398812294006e-01" cType="1" res="-7.5697834836319089e-04" rms="4.3342503905296326e-01" purity="4.9899905920028687e-01" nType="0">
        <Node pos="l" depth="1" NCoef="0" IVar="0" Cut="1.2041730880737305e+00" cType="1" res="7.4648465961217880e-03" rms="4.5604929327964783e-01" purity="5.0803071260452271e-01" nType="0">
          <Node pos="l" depth="2" NCoef="0" IVar="-1" Cut="0.0000000000000000e+00" cType="1" res="-1.2664906680583954e-03" rms="4.6143645048141479e-01" purity="5.9759157896041870e-01" nType="-99"/>
          <Node pos="r" depth="2" NCoef="0" IVar="-1" Cut="0.0000000000000000e+00" cType="1" res="6.4709270372986794e-03" rms="4.4723865389823914e-01" purity="3.7483742833137512e-01" nType="-99"/>
        </Node>
        <Node pos="r" depth="1" NCoef="0" IVar="0" Cut="6.5038007497787476e-01" cType="1" res="-2.1512908861041069e-03" rms="4.2945447564125061e-01" purity="4.9746745824813843e-01" nType="0">
          <Node pos="l" depth="2" NCoef="0" IVar="-1" Cut="0.0000000000000000e+00" cType="1" res="3.9482000283896923e-03" rms="4.1799640655517578e-01" purity="6.9523769617080688e-01" nType="-99"/>
          <Node pos="r" depth="2" NCoef="0" IVar="-1" Cut="0.0000000000000000e+00" cType="1" res="-1.0211656335741282e-03" rms="4.3060943484306335e-01" purity="4.7661423683166504e-01" nType="-99"/>
        </Node>
      </Node>
    </BinaryTree>
    <BinaryTree type="DecisionTree" boostWeight="1.0000000000000000e+00" itree="262">
      <Node pos="s" depth="0" NCoef="0" IVar="0" Cut="1.2752993106842041e+00" cType="1" res="-1.5419144183397293e-03" rms="4.3353572487831116e-01" purity="4.9855151772499084e-01" nType="0">
        <Node pos="l" depth="1" NCoef="0" IVar="10" Cut="1.8761905670166016e+01" cType="1" res="7.6954944233875722e-05" rms="4.3936508893966675e-01" purity="5.5061924457550049e-01" nType="0">
          <Node pos="l" depth="2" NCoef="0" IVar="-1" Cut="0.0000000000000000e+00" cType="1" res="-1.4132710639387369e-03" rms="4.5097690820693970e-01" purity="5.7016021013259888e-01" nType="-99"/>
          <Node pos="r" depth="2" NCoef="0" IVar="-1" Cut="0.0000000000000000e+00" cType="1" res="1.7392348963767290e-03" rms="4.2587509751319885e-01" purity="5.2870523929595947e-01" nType="-99"/>
        </Node>
        <Node pos="r" depth="1" NCoef="0" IVar="10" Cut="1.3333333015441895e+01" cType="1" res="-8.5546895861625671e-03" rms="4.0724679827690125e-01" purity="2.7299940586090088e-01" nType="0">
          <Node pos="l" depth="2" NCoef="0" IVar="-1" Cut="0.0000000000000000e+00" cType="1" res="1.8654522718861699e-03" rms="4.3698969483375549e-01" purity="3.3562326431274414e-01" nType="-99"/>
          <Node pos="r" depth="2" NCoef="0" IVar="-1" Cut="0.0000000000000000e+00" cType="1" res="-1.6293063759803772e-02" rms="3.3044639229774475e-01" purity="1.3610239326953888e-01" nType="-99"/>
        </Node>
      </Node>
    </BinaryTree>
    <BinaryTree type="DecisionTree" boostWeight="1.0000000000000000e+00" itree="263">
      <Node pos="s" depth="0" NCoef="0" IVar="9" Cut="-5.2380955219268799e-01" cType="1" res="8.5419701645150781e-04" rms="4.3419724702835083e-01" purity="4.9999231100082397e-01" nType="0">
        <Node pos="l" depth="1" NCoef="0" IVar="4" Cut="6.1997193098068237e-01" cType="1" res="-8.2866270095109940e-03" rms="4.4137814640998840e-01" purity="4.3083965778350830e-01" nType="0">
          <Node pos="l" depth="2" NCoef="0" IVar="-1" Cut="0.0000000000000000e+00" cType="1" res="5.7026855647563934e-03" rms="3.9698246121406555e-01" purity="2.2175669670104980e-01" nType="-99"/>
          <Node pos="r" depth="2" NCoef="0" IVar="-1" Cut="0.0000000000000000e+00" cType="1" res="-4.9068382941186428e-03" rms="4.6169817447662354e-01" purity="5.3662002086639404e-01" nType="-99"/>
        </Node>
        <Node pos="r" depth="1" NCoef="0" IVar="9" Cut="2.7438691258430481e-01" cType="1" res="1.9260211847722530e-03" rms="4.3333482742309570e-01" purity="5.0810086727142334e-01" nType="0">
          <Node pos="l" depth="2" NCoef="0" IVar="-1" Cut="0.0000000000000000e+00" cType="1" res="1.1252554832026362e-03" rms="4.3215364217758179e-01" purity="5.1850861310958862e-01" nType="-99"/>
          <Node pos="r" depth="2" NCoef="0" IVar="-1" Cut="0.0000000000000000e+00" cType="1" res="-1.1661987518891692e-03" rms="4.3643248081207275e-01" purity="4.8010531067848206e-01" nType="-99"/>
        </Node>
      </Node>
    </BinaryTree>
    <BinaryTree type="DecisionTree" boostWeight="1.0000000000000000e+00" itree="264">
      <Node pos="s" depth="0" NCoef="0" IVar="8" Cut="-4.6285352110862732e-01" cType="1" res="2.8524152003228664e-04" rms="4.3338620662689209e-01" purity="4.9935054779052734e-01" nType="0">
        <Node pos="l" depth="1" NCoef="0" IVar="7" Cut="2.9598388671875000e+00" cType="1" res="4.9241385422646999e-03" rms="4.3113335967063904e-01" purity="5.5335468053817749e-01" nType="0">
          <Node pos="l" depth="2" NCoef="0" IVar="-1" Cut="0.0000000000000000e+00" cType="1" res="3.9126272313296795e-03" rms="4.5074877142906189e-01" purity="5.0572204589843750e-01" nType="-99"/>
          <Node pos="r" depth="2" NCoef="0" IVar="-1" Cut="0.0000000000000000e+00" cType="1" res="-1.4941852714400738e-04" rms="4.2061018943786621e-01" purity="5.7779216766357422e-01" nType="-99"/>
        </Node>
        <Node pos="r" depth="1" NCoef="0" IVar="7" Cut="3.5788912773132324e+00" cType="1" res="-1.7150727799162269e-03" rms="4.3433874845504761e-01" purity="4.7606366872787476e-01" nType="0">
          <Node pos="l" depth="2" NCoef="0" IVar="-1" Cut="0.0000000000000000e+00" cType="1" res="-1.4339089393615723e-03" rms="4.3936520814895630e-01" purity="4.2587018013000488e-01" nType="-99"/>
          <Node pos="r" depth="2" NCoef="0" IVar="-1" Cut="0.0000000000000000e+00" cType="1" res="1.6079684719443321e-03" rms="4.2402356863021851e-01" purity="5.7624375820159912e-01" nType="-99"/>
        </Node>
      </Node>
    </BinaryTree>
    <BinaryTree type="DecisionTree" boostWeight="1.0000000000000000e+00" itree="265">
      <Node pos="s" depth="0" NCoef="0" IVar="2" Cut="7.4728733301162720e-01" cType="1" res="-1.3598806981462985e-04" rms="4.3421173095703125e-01" purity="4.9911332130432129e-01" nType="0">
        <Node pos="l" depth="1" NCoef="0" IVar="3" Cut="-6.1904764175415039e-01" cType="1" res="-1.6690092161297798e-03" rms="4.3598762154579163e-01" purity="4.9758574366569519e-01" nType="0">
          <Node pos="l" depth="2" NCoef="0" IVar="-1" Cut="0.0000000000000000e+00" cType="1" res="1.9732641521841288e-03" rms="4.5071646571159363e-01" purity="5.0716090202331543e-01" nType="-99"/>
          <Node pos="r" depth="2" NCoef="0" IVar="-1" Cut="0.0000000000000000e+00" cType="1" res="-7.3458900442346931e-04" rms="4.3423247337341309e-01" purity="4.9647486209869385e-01" nType="-99"/>
        </Node>
        <Node pos="r" depth="1" NCoef="0" IVar="0" Cut="1.1074364185333252e+00" cType="1" res="5.6954850442707539e-03" rms="4.2733874917030334e-01" purity="5.0492399930953979e-01" nType="0">
          <Node pos="l" depth="2" NCoef="0" IVar="-1" Cut="0.0000000000000000e+00" cType="1" res="2.5564928073436022e-03" rms="4.3524435162544250e-01" purity="5.9485065937042236e-01" nType="-99"/>
          <Node pos="r" depth="2" NCoef="0" IVar="-1" Cut="0.0000000000000000e+00" cType="1" res="-1.2234898749738932e-03" rms="4.0711972117424011e-01" purity="2.8429374098777771e-01" nType="-99"/>
        </Node>
      </Node>
    </BinaryTree>
    <BinaryTree type="DecisionTree" boostWeight="1.0000000000000000e+00" itree="266">
      <Node pos="s" depth="0" NCoef="0" IVar="3" Cut="-8.0952382087707520e-01" cType="1" res="8.3376717520877719e-04" rms="4.3407577276229858e-01" purity="5.0038498640060425e-01" nType="0">
        <Node pos="l" depth="1" NCoef="0" IVar="-1" Cut="0.0000000000000000e+00" cType="1" res="-2.9869102872908115e-03" rms="4.5657065510749817e-01" purity="4.7615110874176025e-01" nType="-99"/>
        <Node pos="r" depth="1" NCoef="0" IVar="6" Cut="2.1428570747375488e+00" cType="1" res="1.4335131272673607e-03" rms="4.3302935361862183e-01" purity="5.0147241353988647e-01" nType="0">
          <Node pos="l" depth="2" NCoef="0" IVar="-1" Cut="0.0000000000000000e+00" cType="1" res="-1.9218501620343886e-05" rms="4.3461865186691284e-01" purity="5.0571960210800171e-01" nType="-99"/>
          <Node pos="r" depth="2" NCoef="0" IVar="-1" Cut="0.0000000000000000e+00" cType="1" res="1.6659108223393559e-03" rms="4.2794880270957947e-01" purity="4.8809140920639038e-01" nType="-99"/>
        </Node>
      </Node>
    </BinaryTree>
    <BinaryTree type="DecisionTree" boostWeight="1.0000000000000000e+00" itree="267">
      <Node pos="s" depth="0" NCoef="0" IVar="3" Cut="-8.0952382087707520e-01" cType="1" res="-9.1794197214767337e-04" rms="4.3368577957153320e-01" purity="5.0036334991455078e-01" nType="0">
        <Node pos="l" depth="1" NCoef="0" IVar="-1" Cut="0.0000000000000000e+00" cType="1" res="-3.6461509298533201e-03" rms="4.5744502544403076e-01" purity="4.7143357992172241e-01" nType="-99"/>
        <Node pos="r" depth="1" NCoef="0" IVar="3" Cut="-5.5099314451217651e-01" cType="1" res="-2.5467696832492948e-04" rms="4.3255284428596497e-01" purity="5.0169062614440918e-01" nType="0">
          <Node pos="l" depth="2" NCoef="0" IVar="-1" Cut="0.0000000000000000e+00" cType="1" res="3.0443782452493906e-03" rms="4.4032892584800720e-01" purity="5.3284084796905518e-01" nType="-99"/>
          <Node pos="r" depth="2" NCoef="0" IVar="-1" Cut="0.0000000000000000e+00" cType="1" res="-2.9423050000332296e-04" rms="4.3198829889297485e-01" purity="4.9950221180915833e-01" nType="-99"/>
        </Node>
      </Node>
    </BinaryTree>
    <BinaryTree type="DecisionTree" boostWeight="1.0000000000000000e+00" itree="268">
      <Node pos="s" depth="0" NCoef="0" IVar="9" Cut="7.1428573131561279e-01" cType="1" res="-1.3988121645525098e-03" rms="4.3323490023612976e-01" purity="4.9866580963134766e-01" nType="0">
        <Node pos="l" depth="1" NCoef="0" IVar="9" Cut="-7.5510543584823608e-01" cType="1" res="-6.8630534224212170e-04" rms="4.3248125910758972e-01" purity="5.0454169511795044e-01" nType="0">
          <Node pos="l" depth="2" NCoef="0" IVar="-1" Cut="0.0000000000000000e+00" cType="1" res="-4.3774675577878952e-03" rms="4.4625183939933777e-01" purity="3.6136505007743835e-01" nType="-99"/>
          <Node pos="r" depth="2" NCoef="0" IVar="-1" Cut="0.0000000000000000e+00" cType="1" res="-5.5365903790516313e-06" rms="4.3189558386802673e-01" purity="5.1039814949035645e-01" nType="-99"/>
        </Node>
        <Node pos="r" depth="1" NCoef="0" IVar="-1" Cut="0.0000000000000000e+00" cType="1" res="-4.0041487663984299e-03" rms="4.4779443740844727e-01" purity="3.8122561573982239e-01" nType="-99"/>
      </Node>
    </BinaryTree>
    <BinaryTree type="DecisionTree" boostWeight="1.0000000000000000e+00" itree="269">
      <Node pos="s" depth="0" NCoef="0" IVar="3" Cut="-8.0952382087707520e-01" cType="1" res="3.1611637677997351e-04" rms="4.3425813317298889e-01" purity="4.9947160482406616e-01" nType="0">
        <Node pos="l" depth="1" NCoef="0" IVar="-1" Cut="0.0000000000000000e+00" cType="1" res="-3.8266750052571297e-03" rms="4.5896485447883606e-01" purity="4.7301787137985229e-01" nType="-99"/>
        <Node pos="r" depth="1" NCoef="0" IVar="9" Cut="-4.7619048506021500e-02" cType="1" res="1.0496854083612561e-03" rms="4.3310761451721191e-01" purity="5.0065273046493530e-01" nType="0">
          <Node pos="l" depth="2" NCoef="0" IVar="-1" Cut="0.0000000000000000e+00" cType="1" res="-5.1758805057033896e-04" rms="4.3389344215393066e-01" purity="4.9171176552772522e-01" nType="-99"/>
          <Node pos="r" depth="2" NCoef="0" IVar="-1" Cut="0.0000000000000000e+00" cType="1" res="9.1613765107467771e-04" rms="4.3245792388916016e-01" purity="5.0785893201828003e-01" nType="-99"/>
        </Node>
      </Node>
    </BinaryTree>
    <BinaryTree type="DecisionTree" boostWeight="1.0000000000000000e+00" itree="270">
      <Node pos="s" depth="0" NCoef="0" IVar="3" Cut="1.4285714924335480e-01" cType="1" res="7.7349238563328981e-04" rms="4.3331158161163330e-01" purity="5.0081557035446167e-01" nType="0">
        <Node pos="l" depth="1" NCoef="0" IVar="4" Cut="9.4743305444717407e-01" cType="1" res="2.8100858908146620e-03" rms="4.3075889348983765e-01" purity="5.0099265575408936e-01" nType="0">
          <Node pos="l" depth="2" NCoef="0" IVar="-1" Cut="0.0000000000000000e+00" cType="1" res="2.3118803801480681e-04" rms="4.3403172492980957e-01" purity="4.4997403025627136e-01" nType="-99"/>
          <Node pos="r" depth="2" NCoef="0" IVar="-1" Cut="0.0000000000000000e+00" cType="1" res="3.4837780985981226e-03" rms="4.1403901576995850e-01" purity="7.5363636016845703e-01" nType="-99"/>
        </Node>
        <Node pos="r" depth="1" NCoef="0" IVar="0" Cut="1.1749670505523682e+00" cType="1" res="-2.9405171517282724e-03" rms="4.3790408968925476e-01" purity="5.0049257278442383e-01" nType="0">
          <Node pos="l" depth="2" NCoef="0" IVar="-1" Cut="0.0000000000000000e+00" cType="1" res="-1.9078402547165751e-03" rms="4.4355764985084534e-01" purity="5.7156509160995483e-01" nType="-99"/>
          <Node pos="r" depth="2" NCoef="0" IVar="-1" Cut="0.0000000000000000e+00" cType="1" res="2.3258491419255733e-03" rms="4.2278146743774414e-01" purity="3.1753119826316833e-01" nType="-99"/>
        </Node>
      </Node>
    </BinaryTree>
    <BinaryTree type="DecisionTree" boostWeight="1.0000000000000000e+00" itree="271">
      <Node pos="s" depth="0" NCoef="0" IVar="5" Cut="1.4342039823532104e+00" cType="1" res="1.7603685846552253e-03" rms="4.3415668606758118e-01" purity="5.0059509277343750e-01" nType="0">
        <Node pos="l" depth="1" NCoef="0" IVar="4" Cut="7.8151541948318481e-01" cType="1" res="4.3471716344356537e-03" rms="4.3957617878913879e-01" purity="5.1072716712951660e-01" nType="0">
          <Node pos="l" depth="2" NCoef="0" IVar="-1" Cut="0.0000000000000000e+00" cType="1" res="-7.3159794555976987e-04" rms="4.3618887662887573e-01" purity="3.3670878410339355e-01" nType="-99"/>
          <Node pos="r" depth="2" NCoef="0" IVar="-1" Cut="0.0000000000000000e+00" cType="1" res="2.6196716353297234e-03" rms="4.4239568710327148e-01" purity="6.6139501333236694e-01" nType="-99"/>
        </Node>
        <Node pos="r" depth="1" NCoef="0" IVar="4" Cut="7.8209620714187622e-01" cType="1" res="-1.9339164718985558e-03" rms="4.2627030611038208e-01" purity="4.8612534999847412e-01" nType="0">
          <Node pos="l" depth="2" NCoef="0" IVar="-1" Cut="0.0000000000000000e+00" cType="1" res="2.3900205269455910e-03" rms="4.1691774129867554e-01" purity="3.3986309170722961e-01" nType="-99"/>
          <Node pos="r" depth="2" NCoef="0" IVar="-1" Cut="0.0000000000000000e+00" cType="1" res="-3.4670096356421709e-03" rms="4.3587979674339294e-01" purity="6.4435172080993652e-01" nType="-99"/>
        </Node>
      </Node>
    </BinaryTree>
    <BinaryTree type="DecisionTree" boostWeight="1.0000000000000000e+00" itree="272">
      <Node pos="s" depth="0" NCoef="0" IVar="1" Cut="9.2813520431518555e+00" cType="1" res="1.4703607885167003e-03" rms="4.3354466557502747e-01" purity="5.0141280889511108e-01" nType="0">
        <Node pos="l" depth="1" NCoef="0" IVar="1" Cut="1.3362712860107422e+00" cType="1" res="7.0927082560956478e-04" rms="4.3463689088821411e-01" purity="5.0141549110412598e-01" nType="0">
          <Node pos="l" depth="2" NCoef="0" IVar="-1" Cut="0.0000000000000000e+00" cType="1" res="-1.9316115649417043e-03" rms="4.6732175350189209e-01" purity="4.8227685689926147e-01" nType="-99"/>
          <Node pos="r" depth="2" NCoef="0" IVar="-1" Cut="0.0000000000000000e+00" cType="1" res="5.4842315148562193e-04" rms="4.2949670553207397e-01" purity="5.0429010391235352e-01" nType="-99"/>
        </Node>
        <Node pos="r" depth="1" NCoef="0" IVar="4" Cut="7.4335628747940063e-01" cType="1" res="1.0191563516855240e-02" rms="4.2072850465774536e-01" purity="5.0138151645660400e-01" nType="0">
          <Node pos="l" depth="2" NCoef="0" IVar="-1" Cut="0.0000000000000000e+00" cType="1" res="7.5539685785770416e-03" rms="4.1626578569412231e-01" purity="3.4640121459960938e-01" nType="-99"/>
          <Node pos="r" depth="2" NCoef="0" IVar="-1" Cut="0.0000000000000000e+00" cType="1" res="-7.3119089938700199e-04" rms="4.2392984032630920e-01" purity="6.2901622056961060e-01" nType="-99"/>
        </Node>
      </Node>
    </BinaryTree>
    <BinaryTree type="DecisionTree" boostWeight="1.0000000000000000e+00" itree="273">
      <Node pos="s" depth="0" NCoef="0" IVar="4" Cut="6.8993020057678223e-01" cType="1" res="1.5789845201652497e-04" rms="4.3399700522422791e-01" purity="5.0017452239990234e-01" nType="0">
        <Node pos="l" depth="1" NCoef="0" IVar="7" Cut="1.3909727334976196e+00" cType="1" res="3.0604393687099218e-03" rms="4.1508129239082336e-01" purity="2.8656092286109924e-01" nType="0">
          <Node pos="l" depth="2" NCoef="0" IVar="-1" Cut="0.0000000000000000e+00" cType="1" res="1.0084129869937897e-02" rms="4.5965540409088135e-01" purity="3.5161501169204712e-01" nType="-99"/>
          <Node pos="r" depth="2" NCoef="0" IVar="-1" Cut="0.0000000000000000e+00" cType="1" res="-6.7407410824671388e-04" rms="4.0777945518493652e-01" purity="2.7690672874450684e-01" nType="-99"/>
        </Node>
        <Node pos="r" depth="1" NCoef="0" IVar="0" Cut="9.1267633438110352e-01" cType="1" res="-1.5830931952223182e-03" rms="4.4494825601577759e-01" purity="6.2830346822738647e-01" nType="0">
          <Node pos="l" depth="2" NCoef="0" IVar="-1" Cut="0.0000000000000000e+00" cType="1" res="-3.4313031937927008e-03" rms="4.2494973540306091e-01" purity="7.4340033531188965e-01" nType="-99"/>
          <Node pos="r" depth="2" NCoef="0" IVar="-1" Cut="0.0000000000000000e+00" cType="1" res="1.8439978593960404e-03" rms="4.6252515912055969e-01" purity="5.2145248651504517e-01" nType="-99"/>
        </Node>
      </Node>
    </BinaryTree>
    <BinaryTree type="DecisionTree" boostWeight="1.0000000000000000e+00" itree="274">
      <Node pos="s" depth="0" NCoef="0" IVar="10" Cut="1.8761905670166016e+01" cType="1" res="4.3794093653559685e-04" rms="4.3382468819618225e-01" purity="5.0090116262435913e-01" nType="0">
        <Node pos="l" depth="1" NCoef="0" IVar="0" Cut="1.1551470756530762e+00" cType="1" res="-1.9737400580197573e-03" rms="4.4666168093681335e-01" purity="5.0485938787460327e-01" nType="0">
          <Node pos="l" depth="2" NCoef="0" IVar="-1" Cut="0.0000000000000000e+00" cType="1" res="-2.7534794062376022e-03" rms="4.5030802488327026e-01" purity="5.8730292320251465e-01" nType="-99"/>
          <Node pos="r" depth="2" NCoef="0" IVar="-1" Cut="0.0000000000000000e+00" cType="1" res="3.6990372464060783e-03" rms="4.3934550881385803e-01" purity="3.5212409496307373e-01" nType="-99"/>
        </Node>
        <Node pos="r" depth="1" NCoef="0" IVar="0" Cut="1.0302671194076538e+00" cType="1" res="3.7536728195846081e-03" rms="4.1550576686859131e-01" purity="4.9545907974243164e-01" nType="0">
          <Node pos="l" depth="2" NCoef="0" IVar="-1" Cut="0.0000000000000000e+00" cType="1" res="4.3520149774849415e-03" rms="4.2728045582771301e-01" purity="6.1757957935333252e-01" nType="-99"/>
          <Node pos="r" depth="2" NCoef="0" IVar="-1" Cut="0.0000000000000000e+00" cType="1" res="-6.3166781328618526e-03" rms="3.9015957713127136e-01" purity="2.5561577081680298e-01" nType="-99"/>
        </Node>
      </Node>
    </BinaryTree>
    <BinaryTree type="DecisionTree" boostWeight="1.0000000000000000e+00" itree="275">
      <Node pos="s" depth="0" NCoef="0" IVar="10" Cut="6.0666667938232422e+01" cType="1" res="-1.1816844344139099e-03" rms="4.3363174796104431e-01" purity="4.9884006381034851e-01" nType="0">
        <Node pos="l" depth="1" NCoef="0" IVar="7" Cut="7.6403403282165527e+00" cType="1" res="-5.6495371973142028e-04" rms="4.3391638994216919e-01" purity="5.0491553544998169e-01" nType="0">
          <Node pos="l" depth="2" NCoef="0" IVar="-1" Cut="0.0000000000000000e+00" cType="1" res="-4.7930033179000020e-04" rms="4.3638372421264648e-01" purity="4.8590782284736633e-01" nType="-99"/>
          <Node pos="r" depth="2" NCoef="0" IVar="-1" Cut="0.0000000000000000e+00" cType="1" res="3.9376537315547466e-03" rms="4.0525907278060913e-01" purity="7.1584373712539673e-01" nType="-99"/>
        </Node>
        <Node pos="r" depth="1" NCoef="0" IVar="-1" Cut="0.0000000000000000e+00" cType="1" res="-4.6680187806487083e-03" rms="4.2562836408615112e-01" purity="3.3657386898994446e-01" nType="-99"/>
      </Node>
    </BinaryTree>
    <BinaryTree type="DecisionTree" boostWeight="1.0000000000000000e+00" itree="276">
      <Node pos="s" depth="0" NCoef="0" IVar="8" Cut="-1.9749028980731964e-01" cType="1" res="-1.1486082803457975e-03" rms="4.3343403935432434e-01" purity="4.9814385175704956e-01" nType="0">
        <Node pos="l" depth="1" NCoef="0" IVar="9" Cut="4.7619048506021500e-02" cType="1" res="3.2819136977195740e-03" rms="4.3225485086441040e-01" purity="5.2144640684127808e-01" nType="0">
          <Node pos="l" depth="2" NCoef="0" IVar="-1" Cut="0.0000000000000000e+00" cType="1" res="1.9590537995100021e-03" rms="4.3716517090797424e-01" purity="5.6703275442123413e-01" nType="-99"/>
          <Node pos="r" depth="2" NCoef="0" IVar="-1" Cut="0.0000000000000000e+00" cType="1" res="-1.5856954269111156e-03" rms="4.2163151502609253e-01" purity="4.2586556077003479e-01" nType="-99"/>
        </Node>
        <Node pos="r" depth="1" NCoef="0" IVar="9" Cut="-6.1904764175415039e-01" cType="1" res="-4.0935985743999481e-03" rms="4.3419104814529419e-01" purity="4.8265454173088074e-01" nType="0">
          <Node pos="l" depth="2" NCoef="0" IVar="-1" Cut="0.0000000000000000e+00" cType="1" res="-6.3090780749917030e-03" rms="4.2362719774246216e-01" purity="2.8165629506111145e-01" nType="-99"/>
          <Node pos="r" depth="2" NCoef="0" IVar="-1" Cut="0.0000000000000000e+00" cType="1" res="-7.5657648267224431e-04" rms="4.3483400344848633e-01" purity="4.9556502699851990e-01" nType="-99"/>
        </Node>
      </Node>
    </BinaryTree>
    <BinaryTree type="DecisionTree" boostWeight="1.0000000000000000e+00" itree="277">
      <Node pos="s" depth="0" NCoef="0" IVar="4" Cut="6.9471299648284912e-01" cType="1" res="5.9682870050892234e-04" rms="4.3383705615997314e-01" purity="5.0097262859344482e-01" nType="0">
        <Node pos="l" depth="1" NCoef="0" IVar="7" Cut="1.4063184261322021e+00" cType="1" res="3.7596176844090223e-03" rms="4.1591006517410278e-01" purity="2.8942984342575073e-01" nType="0">
          <Node pos="l" depth="2" NCoef="0" IVar="-1" Cut="0.0000000000000000e+00" cType="1" res="1.0190296918153763e-02" rms="4.5834365487098694e-01" purity="3.5328528285026550e-01" nType="-99"/>
          <Node pos="r" depth="2" NCoef="0" IVar="-1" Cut="0.0000000000000000e+00" cType="1" res="-5.2727974252775311e-04" rms="4.0868467092514038e-01" purity="2.7957224845886230e-01" nType="-99"/>
        </Node>
        <Node pos="r" depth="1" NCoef="0" IVar="4" Cut="9.7497361898422241e-01" cType="1" res="-1.3183333212509751e-03" rms="4.4433003664016724e-01" purity="6.2906807661056519e-01" nType="0">
          <Node pos="l" depth="2" NCoef="0" IVar="-1" Cut="0.0000000000000000e+00" cType="1" res="-1.4242605539038777e-03" rms="4.4779360294342041e-01" purity="6.1355072259902954e-01" nType="-99"/>
          <Node pos="r" depth="2" NCoef="0" IVar="-1" Cut="0.0000000000000000e+00" cType="1" res="8.7837409228086472e-03" rms="4.1488656401634216e-01" purity="7.4937349557876587e-01" nType="-99"/>
        </Node>
      </Node>
    </BinaryTree>
    <BinaryTree type="DecisionTree" boostWeight="1.0000000000000000e+00" itree="278">
      <Node pos="s" depth="0" NCoef="0" IVar="0" Cut="1.9056568145751953e+00" cType="1" res="1.7904910491779447e-03" rms="4.3444904685020447e-01" purity="5.0183957815170288e-01" nType="0">
        <Node pos="l" depth="1" NCoef="0" IVar="0" Cut="9.1505151987075806e-01" cType="1" res="2.5445213541388512e-03" rms="4.3598529696464539e-01" purity="5.1194405555725098e-01" nType="0">
          <Node pos="l" depth="2" NCoef="0" IVar="-1" Cut="0.0000000000000000e+00" cType="1" res="-6.4446282340213656e-04" rms="4.3505823612213135e-01" purity="6.4638108015060425e-01" nType="-99"/>
          <Node pos="r" depth="2" NCoef="0" IVar="-1" Cut="0.0000000000000000e+00" cType="1" res="1.6557730268687010e-03" rms="4.3668726086616516e-01" purity="4.0409275889396667e-01" nType="-99"/>
        </Node>
        <Node pos="r" depth="1" NCoef="0" IVar="-1" Cut="0.0000000000000000e+00" cType="1" res="-5.5661709047853947e-03" rms="3.8930255174636841e-01" purity="2.2417971491813660e-01" nType="-99"/>
      </Node>
    </BinaryTree>
    <BinaryTree type="DecisionTree" boostWeight="1.0000000000000000e+00" itree="279">
      <Node pos="s" depth="0" NCoef="0" IVar="9" Cut="-7.1428573131561279e-01" cType="1" res="-1.7706328071653843e-03" rms="4.3435156345367432e-01" purity="4.9790510535240173e-01" nType="0">
        <Node pos="l" depth="1" NCoef="0" IVar="-1" Cut="0.0000000000000000e+00" cType="1" res="3.2165341544896364e-03" rms="4.4823646545410156e-01" purity="3.9863869547843933e-01" nType="-99"/>
        <Node pos="r" depth="1" NCoef="0" IVar="4" Cut="9.4627553224563599e-01" cType="1" res="-2.4802880361676216e-03" rms="4.3363311886787415e-01" purity="5.0287067890167236e-01" nType="0">
          <Node pos="l" depth="2" NCoef="0" IVar="-1" Cut="0.0000000000000000e+00" cType="1" res="-9.3811174156144261e-04" rms="4.3692511320114136e-01" purity="4.5148670673370361e-01" nType="-99"/>
          <Node pos="r" depth="2" NCoef="0" IVar="-1" Cut="0.0000000000000000e+00" cType="1" res="8.7366846855729818e-04" rms="4.1734534502029419e-01" purity="7.5071561336517334e-01" nType="-99"/>
        </Node>
      </Node>
    </BinaryTree>
    <BinaryTree type="DecisionTree" boostWeight="1.0000000000000000e+00" itree="280">
      <Node pos="s" depth="0" NCoef="0" IVar="6" Cut="2.5714285373687744e+00" cType="1" res="1.5568771632388234e-03" rms="4.3348225951194763e-01" purity="5.0211018323898315e-01" nType="0">
        <Node pos="l" depth="1" NCoef="0" IVar="4" Cut="3.5840031504631042e-01" cType="1" res="3.7794273812323809e-03" rms="4.3490371108055115e-01" purity="5.0942283868789673e-01" nType="0">
          <Node pos="l" depth="2" NCoef="0" IVar="-1" Cut="0.0000000000000000e+00" cType="1" res="-4.8752492293715477e-03" rms="2.7207002043724060e-01" purity="8.3293363451957703e-02" nType="-99"/>
          <Node pos="r" depth="2" NCoef="0" IVar="-1" Cut="0.0000000000000000e+00" cType="1" res="1.1223650071769953e-03" rms="4.4252192974090576e-01" purity="5.3419744968414307e-01" nType="-99"/>
        </Node>
        <Node pos="r" depth="1" NCoef="0" IVar="9" Cut="-5.4158329963684082e-02" cType="1" res="-5.8006066828966141e-03" rms="4.2866080999374390e-01" purity="4.7790238261222839e-01" nType="0">
          <Node pos="l" depth="2" NCoef="0" IVar="-1" Cut="0.0000000000000000e+00" cType="1" res="-3.8796598091721535e-03" rms="4.2502346634864807e-01" purity="4.6245014667510986e-01" nType="-99"/>
          <Node pos="r" depth="2" NCoef="0" IVar="-1" Cut="0.0000000000000000e+00" cType="1" res="1.6825085913296789e-04" rms="4.3128326535224915e-01" purity="4.8960214853286743e-01" nType="-99"/>
        </Node>
      </Node>
    </BinaryTree>
    <BinaryTree type="DecisionTree" boostWeight="1.0000000000000000e+00" itree="281">
      <Node pos="s" depth="0" NCoef="0" IVar="3" Cut="5.2380955219268799e-01" cType="1" res="-6.8819097941741347e-04" rms="4.3416911363601685e-01" purity="4.9941042065620422e-01" nType="0">
        <Node pos="l" depth="1" NCoef="0" IVar="4" Cut="7.3728287220001221e-01" cType="1" res="4.4979693484492600e-04" rms="4.3205398321151733e-01" purity="4.9969735741615295e-01" nType="0">
          <Node pos="l" depth="2" NCoef="0" IVar="-1" Cut="0.0000000000000000e+00" cType="1" res="1.0169032029807568e-03" rms="4.1995981335639954e-01" purity="3.1172466278076172e-01" nType="-99"/>
          <Node pos="r" depth="2" NCoef="0" IVar="-1" Cut="0.0000000000000000e+00" cType="1" res="-5.0345726776868105e-04" rms="4.4110482931137085e-01" purity="6.4411002397537231e-01" nType="-99"/>
        </Node>
        <Node pos="r" depth="1" NCoef="0" IVar="0" Cut="9.6849411725997925e-01" cType="1" res="-9.7379302605986595e-03" rms="4.5053371787071228e-01" purity="4.9712842702865601e-01" nType="0">
          <Node pos="l" depth="2" NCoef="0" IVar="-1" Cut="0.0000000000000000e+00" cType="1" res="-6.3200276345014572e-03" rms="4.5346757769584656e-01" purity="6.1383759975433350e-01" nType="-99"/>
          <Node pos="r" depth="2" NCoef="0" IVar="-1" Cut="0.0000000000000000e+00" cType="1" res="8.9484505588188767e-04" rms="4.4748702645301819e-01" purity="3.9362511038780212e-01" nType="-99"/>
        </Node>
      </Node>
    </BinaryTree>
    <BinaryTree type="DecisionTree" boostWeight="1.0000000000000000e+00" itree="282">
      <Node pos="s" depth="0" NCoef="0" IVar="0" Cut="1.8005030155181885e+00" cType="1" res="-1.1263702763244510e-03" rms="4.3382108211517334e-01" purity="4.9829658865928650e-01" nType="0">
        <Node pos="l" depth="1" NCoef="0" IVar="0" Cut="1.3744703531265259e+00" cType="1" res="-4.7043577069416642e-04" rms="4.3550911545753479e-01" purity="5.1019960641860962e-01" nType="0">
          <Node pos="l" depth="2" NCoef="0" IVar="-1" Cut="0.0000000000000000e+00" cType="1" res="3.1442035106010735e-04" rms="4.3855127692222595e-01" purity="5.3611928224563599e-01" nType="-99"/>
          <Node pos="r" depth="2" NCoef="0" IVar="-1" Cut="0.0000000000000000e+00" cType="1" res="-4.4170194305479527e-03" rms="4.0644416213035583e-01" purity="2.7420347929000854e-01" nType="-99"/>
        </Node>
        <Node pos="r" depth="1" NCoef="0" IVar="-1" Cut="0.0000000000000000e+00" cType="1" res="-4.6638646163046360e-03" rms="3.9357325434684753e-01" purity="2.3003694415092468e-01" nType="-99"/>
      </Node>
    </BinaryTree>
    <BinaryTree type="DecisionTree" boostWeight="1.0000000000000000e+00" itree="283">
      <Node pos="s" depth="0" NCoef="0" IVar="4" Cut="9.4742518663406372e-01" cType="1" res="5.6028738617897034e-04" rms="4.3388414382934570e-01" purity="5.0010132789611816e-01" nType="0">
        <Node pos="l" depth="1" NCoef="0" IVar="0" Cut="1.8420704603195190e+00" cType="1" res="-5.9709144989028573e-04" rms="4.3684706091880798e-01" purity="4.4954577088356018e-01" nType="0">
          <Node pos="l" depth="2" NCoef="0" IVar="-1" Cut="0.0000000000000000e+00" cType="1" res="1.3596079952549189e-04" rms="4.3931353092193604e-01" purity="4.6135452389717102e-01" nType="-99"/>
          <Node pos="r" depth="2" NCoef="0" IVar="-1" Cut="0.0000000000000000e+00" cType="1" res="-7.7763483859598637e-03" rms="3.7843161821365356e-01" purity="1.9272910058498383e-01" nType="-99"/>
        </Node>
        <Node pos="r" depth="1" NCoef="0" IVar="0" Cut="9.1977131366729736e-01" cType="1" res="6.0173030942678452e-03" rms="4.1958925127983093e-01" purity="7.3846989870071411e-01" nType="0">
          <Node pos="l" depth="2" NCoef="0" IVar="-1" Cut="0.0000000000000000e+00" cType="1" res="-2.9118978418409824e-03" rms="4.0441921353340149e-01" purity="7.7090269327163696e-01" nType="-99"/>
          <Node pos="r" depth="2" NCoef="0" IVar="-1" Cut="0.0000000000000000e+00" cType="1" res="8.1458799540996552e-03" rms="4.4489014148712158e-01" purity="6.7842411994934082e-01" nType="-99"/>
        </Node>
      </Node>
    </BinaryTree>
    <BinaryTree type="DecisionTree" boostWeight="1.0000000000000000e+00" itree="284">
      <Node pos="s" depth="0" NCoef="0" IVar="5" Cut="3.0919933319091797e+00" cType="1" res="-1.0024780640378594e-03" rms="4.3347832560539246e-01" purity="4.9876371026039124e-01" nType="0">
        <Node pos="l" depth="1" NCoef="0" IVar="7" Cut="9.4254255294799805e+00" cType="1" res="-1.7971791094169021e-03" rms="4.3442341685295105e-01" purity="4.9669927358627319e-01" nType="0">
          <Node pos="l" depth="2" NCoef="0" IVar="-1" Cut="0.0000000000000000e+00" cType="1" res="-3.1073181889951229e-04" rms="4.3544474244117737e-01" purity="4.8871457576751709e-01" nType="-99"/>
          <Node pos="r" depth="2" NCoef="0" IVar="-1" Cut="0.0000000000000000e+00" cType="1" res="-4.4788788072764874e-03" rms="4.1055250167846680e-01" purity="6.7623621225357056e-01" nType="-99"/>
        </Node>
        <Node pos="r" depth="1" NCoef="0" IVar="-1" Cut="0.0000000000000000e+00" cType="1" res="3.4394627436995506e-03" rms="4.1653913259506226e-01" purity="5.3449869155883789e-01" nType="-99"/>
      </Node>
    </BinaryTree>
    <BinaryTree type="DecisionTree" boostWeight="1.0000000000000000e+00" itree="285">
      <Node pos="s" depth="0" NCoef="0" IVar="4" Cut="6.9808286428451538e-01" cType="1" res="9.9421350751072168e-04" rms="4.3388387560844421e-01" purity="5.0052058696746826e-01" nType="0">
        <Node pos="l" depth="1" NCoef="0" IVar="7" Cut="1.4326692819595337e+00" cType="1" res="4.7675431706011295e-03" rms="4.1695928573608398e-01" purity="2.9313677549362183e-01" nType="0">
          <Node pos="l" depth="2" NCoef="0" IVar="-1" Cut="0.0000000000000000e+00" cType="1" res="8.0834999680519104e-03" rms="4.5825448632240295e-01" purity="3.4794038534164429e-01" nType="-99"/>
          <Node pos="r" depth="2" NCoef="0" IVar="-1" Cut="0.0000000000000000e+00" cType="1" res="1.1941772390855476e-04" rms="4.0970736742019653e-01" purity="2.8425309062004089e-01" nType="-99"/>
        </Node>
        <Node pos="r" depth="1" NCoef="0" IVar="4" Cut="9.7514688968658447e-01" cType="1" res="-1.3447668170556426e-03" rms="4.4403511285781860e-01" purity="6.2907195091247559e-01" nType="0">
          <Node pos="l" depth="2" NCoef="0" IVar="-1" Cut="0.0000000000000000e+00" cType="1" res="-1.1145403841510415e-03" rms="4.4714891910552979e-01" purity="6.1435508728027344e-01" nType="-99"/>
          <Node pos="r" depth="2" NCoef="0" IVar="-1" Cut="0.0000000000000000e+00" cType="1" res="6.1155958101153374e-03" rms="4.1848632693290710e-01" purity="7.4238514900207520e-01" nType="-99"/>
        </Node>
      </Node>
    </BinaryTree>
    <BinaryTree type="DecisionTree" boostWeight="1.0000000000000000e+00" itree="286">
      <Node pos="s" depth="0" NCoef="0" IVar="7" Cut="2.8278248310089111e+00" cType="1" res="7.0035917451605201e-04" rms="4.3420812487602234e-01" purity="5.0085300207138062e-01" nType="0">
        <Node pos="l" depth="1" NCoef="0" IVar="4" Cut="4.9057653546333313e-01" cType="1" res="-3.1629605218768120e-03" rms="4.4544005393981934e-01" purity="4.3412485718727112e-01" nType="0">
          <Node pos="l" depth="2" NCoef="0" IVar="-1" Cut="0.0000000000000000e+00" cType="1" res="4.3288711458444595e-03" rms="3.7259098887443542e-01" purity="1.7731852829456329e-01" nType="-99"/>
          <Node pos="r" depth="2" NCoef="0" IVar="-1" Cut="0.0000000000000000e+00" cType="1" res="-1.7436461057513952e-03" rms="4.6503943204879761e-01" purity="5.1138579845428467e-01" nType="-99"/>
        </Node>
        <Node pos="r" depth="1" NCoef="0" IVar="0" Cut="1.2771166563034058e+00" cType="1" res="4.2343605309724808e-03" rms="4.2364209890365601e-01" purity="5.6189310550689697e-01" nType="0">
          <Node pos="l" depth="2" NCoef="0" IVar="-1" Cut="0.0000000000000000e+00" cType="1" res="1.8427742179483175e-03" rms="4.2874041199684143e-01" purity="5.9772402048110962e-01" nType="-99"/>
          <Node pos="r" depth="2" NCoef="0" IVar="-1" Cut="0.0000000000000000e+00" cType="1" res="-6.5369796939194202e-03" rms="3.7179592251777649e-01" purity="2.2757486999034882e-01" nType="-99"/>
        </Node>
      </Node>
    </BinaryTree>
    <BinaryTree type="DecisionTree" boostWeight="1.0000000000000000e+00" itree="287">
      <Node pos="s" depth="0" NCoef="0" IVar="5" Cut="1.4670118093490601e+00" cType="1" res="-1.7905527784023434e-04" rms="4.3339991569519043e-01" purity="5.0038522481918335e-01" nType="0">
        <Node pos="l" depth="1" NCoef="0" IVar="8" Cut="-5.3085571527481079e-01" cType="1" res="1.6211689217016101e-03" rms="4.3843969702720642e-01" purity="5.0990271568298340e-01" nType="0">
          <Node pos="l" depth="2" NCoef="0" IVar="-1" Cut="0.0000000000000000e+00" cType="1" res="3.0104606412351131e-03" rms="4.3239474296569824e-01" purity="5.8305299282073975e-01" nType="-99"/>
          <Node pos="r" depth="2" NCoef="0" IVar="-1" Cut="0.0000000000000000e+00" cType="1" res="-4.3534280848689377e-04" rms="4.4042605161666870e-01" purity="4.8503640294075012e-01" nType="-99"/>
        </Node>
        <Node pos="r" depth="1" NCoef="0" IVar="0" Cut="8.0141234397888184e-01" cType="1" res="-2.9110307805240154e-03" rms="4.2562317848205566e-01" purity="4.8594182729721069e-01" nType="0">
          <Node pos="l" depth="2" NCoef="0" IVar="-1" Cut="0.0000000000000000e+00" cType="1" res="3.9435965009033680e-03" rms="4.1496518254280090e-01" purity="6.9063669443130493e-01" nType="-99"/>
          <Node pos="r" depth="2" NCoef="0" IVar="-1" Cut="0.0000000000000000e+00" cType="1" res="-2.1670914720743895e-03" rms="4.2875659465789795e-01" purity="4.2214891314506531e-01" nType="-99"/>
        </Node>
      </Node>
    </BinaryTree>
    <BinaryTree type="DecisionTree" boostWeight="1.0000000000000000e+00" itree="288">
      <Node pos="s" depth="0" NCoef="0" IVar="10" Cut="5.6666667938232422e+01" cType="1" res="5.3236522944644094e-04" rms="4.3331375718116760e-01" purity="5.0069350004196167e-01" nType="0">
        <Node pos="l" depth="1" NCoef="0" IVar="9" Cut="4.2857143282890320e-01" cType="1" res="-2.5176172493956983e-04" rms="4.3358117341995239e-01" purity="5.0662016868591309e-01" nType="0">
          <Node pos="l" depth="2" NCoef="0" IVar="-1" Cut="0.0000000000000000e+00" cType="1" res="2.3393069568555802e-04" rms="4.3264403939247131e-01" purity="5.1566052436828613e-01" nType="-99"/>
          <Node pos="r" depth="2" NCoef="0" IVar="-1" Cut="0.0000000000000000e+00" cType="1" res="-1.6921922797337174e-03" rms="4.3861123919487000e-01" purity="4.5724853873252869e-01" nType="-99"/>
        </Node>
        <Node pos="r" depth="1" NCoef="0" IVar="-1" Cut="0.0000000000000000e+00" cType="1" res="4.4202799908816814e-03" rms="4.2747592926025391e-01" purity="3.7916293740272522e-01" nType="-99"/>
      </Node>
    </BinaryTree>
    <BinaryTree type="DecisionTree" boostWeight="1.0000000000000000e+00" itree="289">
      <Node pos="s" depth="0" NCoef="0" IVar="3" Cut="-2.3809523880481720e-01" cType="1" res="-6.4593383285682648e-05" rms="4.3290388584136963e-01" purity="4.9911892414093018e-01" nType="0">
        <Node pos="l" depth="1" NCoef="0" IVar="0" Cut="9.7525721788406372e-01" cType="1" res="5.7147317565977573e-03" rms="4.3771183490753174e-01" purity="5.1279586553573608e-01" nType="0">
          <Node pos="l" depth="2" NCoef="0" IVar="-1" Cut="0.0000000000000000e+00" cType="1" res="-3.4107768442481756e-04" rms="4.3575167655944824e-01" purity="6.3261902332305908e-01" nType="-99"/>
          <Node pos="r" depth="2" NCoef="0" IVar="-1" Cut="0.0000000000000000e+00" cType="1" res="3.2468356657773256e-03" rms="4.3958985805511475e-01" purity="3.9039394259452820e-01" nType="-99"/>
        </Node>
        <Node pos="r" depth="1" NCoef="0" IVar="4" Cut="9.4740384817123413e-01" cType="1" res="-2.3233324754983187e-03" rms="4.3098914623260498e-01" purity="4.9377354979515076e-01" nType="0">
          <Node pos="l" depth="2" NCoef="0" IVar="-1" Cut="0.0000000000000000e+00" cType="1" res="-1.0371303651481867e-03" rms="4.3415850400924683e-01" purity="4.4458577036857605e-01" nType="-99"/>
          <Node pos="r" depth="2" NCoef="0" IVar="-1" Cut="0.0000000000000000e+00" cType="1" res="1.7820049542933702e-03" rms="4.1399079561233521e-01" purity="7.4984902143478394e-01" nType="-99"/>
        </Node>
      </Node>
    </BinaryTree>
    <BinaryTree type="DecisionTree" boostWeight="1.0000000000000000e+00" itree="290">
      <Node pos="s" depth="0" NCoef="0" IVar="4" Cut="3.2403779029846191e-01" cType="1" res="-5.5816659005358815e-04" rms="4.3302688002586365e-01" purity="5.0001055002212524e-01" nType="0">
        <Node pos="l" depth="1" NCoef="0" IVar="-1" Cut="0.0000000000000000e+00" cType="1" res="-9.1689638793468475e-03" rms="2.5535002350807190e-01" purity="7.1976229548454285e-02" nType="-99"/>
        <Node pos="r" depth="1" NCoef="0" IVar="4" Cut="9.5729881525039673e-01" cType="1" res="-5.3422951168613508e-05" rms="4.3821004033088684e-01" purity="5.1583892107009888e-01" nType="0">
          <Node pos="l" depth="2" NCoef="0" IVar="-1" Cut="0.0000000000000000e+00" cType="1" res="-5.9409753885120153e-04" rms="4.4225710630416870e-01" purity="4.7463199496269226e-01" nType="-99"/>
          <Node pos="r" depth="2" NCoef="0" IVar="-1" Cut="0.0000000000000000e+00" cType="1" res="3.5531918983906507e-03" rms="4.1451886296272278e-01" purity="7.4720758199691772e-01" nType="-99"/>
        </Node>
      </Node>
    </BinaryTree>
    <BinaryTree type="DecisionTree" boostWeight="1.0000000000000000e+00" itree="291">
      <Node pos="s" depth="0" NCoef="0" IVar="4" Cut="4.4365659356117249e-01" cType="1" res="1.0417002486065030e-03" rms="4.3477529287338257e-01" purity="4.9997127056121826e-01" nType="0">
        <Node pos="l" depth="1" NCoef="0" IVar="7" Cut="2.2224268913269043e+00" cType="1" res="1.0092284530401230e-02" rms="3.3363062143325806e-01" purity="1.3516198098659515e-01" nType="0">
          <Node pos="l" depth="2" NCoef="0" IVar="-1" Cut="0.0000000000000000e+00" cType="1" res="1.1820776388049126e-02" rms="3.7729060649871826e-01" purity="1.8132087588310242e-01" nType="-99"/>
          <Node pos="r" depth="2" NCoef="0" IVar="-1" Cut="0.0000000000000000e+00" cType="1" res="-2.1898944396525621e-03" rms="2.9730656743049622e-01" purity="1.0178433358669281e-01" nType="-99"/>
        </Node>
        <Node pos="r" depth="1" NCoef="0" IVar="4" Cut="9.6299231052398682e-01" cType="1" res="-3.9803422987461090e-04" rms="4.4875147938728333e-01" purity="5.5800384283065796e-01" nType="0">
          <Node pos="l" depth="2" NCoef="0" IVar="-1" Cut="0.0000000000000000e+00" cType="1" res="-5.5581709602847695e-04" rms="4.5385256409645081e-01" purity="5.2663749456405640e-01" nType="-99"/>
          <Node pos="r" depth="2" NCoef="0" IVar="-1" Cut="0.0000000000000000e+00" cType="1" res="3.0187070369720459e-03" rms="4.1703036427497864e-01" purity="7.4407505989074707e-01" nType="-99"/>
        </Node>
      </Node>
    </BinaryTree>
    <BinaryTree type="DecisionTree" boostWeight="1.0000000000000000e+00" itree="292">
      <Node pos="s" depth="0" NCoef="0" IVar="3" Cut="-2.3809523880481720e-01" cType="1" res="-1.3601890532299876e-03" rms="4.3250647187232971e-01" purity="4.9899354577064514e-01" nType="0">
        <Node pos="l" depth="1" NCoef="0" IVar="3" Cut="-8.1859874725341797e-01" cType="1" res="4.3326634913682938e-03" rms="4.3735337257385254e-01" purity="5.1304578781127930e-01" nType="0">
          <Node pos="l" depth="2" NCoef="0" IVar="-1" Cut="0.0000000000000000e+00" cType="1" res="-2.5061438791453838e-03" rms="4.6067732572555542e-01" purity="4.7443801164627075e-01" nType="-99"/>
          <Node pos="r" depth="2" NCoef="0" IVar="-1" Cut="0.0000000000000000e+00" cType="1" res="1.8229587003588676e-03" rms="4.3305936455726624e-01" purity="5.1985073089599609e-01" nType="-99"/>
        </Node>
        <Node pos="r" depth="1" NCoef="0" IVar="10" Cut="4.3904762268066406e+01" cType="1" res="-3.5664278548210859e-03" rms="4.3059316277503967e-01" purity="4.9354770779609680e-01" nType="0">
          <Node pos="l" depth="2" NCoef="0" IVar="-1" Cut="0.0000000000000000e+00" cType="1" res="-1.2806488666683435e-03" rms="4.3155276775360107e-01" purity="5.0126802921295166e-01" nType="-99"/>
          <Node pos="r" depth="2" NCoef="0" IVar="-1" Cut="0.0000000000000000e+00" cType="1" res="1.4094937359914184e-03" rms="4.2383855581283569e-01" purity="4.4053032994270325e-01" nType="-99"/>
        </Node>
      </Node>
    </BinaryTree>
    <BinaryTree type="DecisionTree" boostWeight="1.0000000000000000e+00" itree="293">
      <Node pos="s" depth="0" NCoef="0" IVar="7" Cut="2.4958834648132324e+00" cType="1" res="-4.3870764784514904e-04" rms="4.3352910876274109e-01" purity="4.9917489290237427e-01" nType="0">
        <Node pos="l" depth="1" NCoef="0" IVar="8" Cut="-5.3693330287933350e-01" cType="1" res="-5.6619294919073582e-03" rms="4.4786214828491211e-01" purity="4.2978161573410034e-01" nType="0">
          <Node pos="l" depth="2" NCoef="0" IVar="-1" Cut="0.0000000000000000e+00" cType="1" res="4.7793984413146973e-03" rms="4.5629313588142395e-01" purity="5.2898806333541870e-01" nType="-99"/>
          <Node pos="r" depth="2" NCoef="0" IVar="-1" Cut="0.0000000000000000e+00" cType="1" res="-2.4793713819235563e-03" rms="4.4630342721939087e-01" purity="4.1324579715728760e-01" nType="-99"/>
        </Node>
        <Node pos="r" depth="1" NCoef="0" IVar="4" Cut="5.2601033449172974e-01" cType="1" res="3.2032863236963749e-03" rms="4.2320987582206726e-01" purity="5.4756075143814087e-01" nType="0">
          <Node pos="l" depth="2" NCoef="0" IVar="-1" Cut="0.0000000000000000e+00" cType="1" res="-5.3766979835927486e-03" rms="3.3338364958763123e-01" purity="1.4178010821342468e-01" nType="-99"/>
          <Node pos="r" depth="2" NCoef="0" IVar="-1" Cut="0.0000000000000000e+00" cType="1" res="1.6349313082173467e-03" rms="4.3908402323722839e-01" purity="6.2966459989547729e-01" nType="-99"/>
        </Node>
      </Node>
    </BinaryTree>
    <BinaryTree type="DecisionTree" boostWeight="1.0000000000000000e+00" itree="294">
      <Node pos="s" depth="0" NCoef="0" IVar="1" Cut="3.9624185562133789e+00" cType="1" res="1.4293759595602751e-03" rms="4.3361097574234009e-01" purity="5.0151038169860840e-01" nType="0">
        <Node pos="l" depth="1" NCoef="0" IVar="1" Cut="1.1594892740249634e+00" cType="1" res="-1.3570096343755722e-03" rms="4.4108286499977112e-01" purity="5.0278693437576294e-01" nType="0">
          <Node pos="l" depth="2" NCoef="0" IVar="-1" Cut="0.0000000000000000e+00" cType="1" res="-2.8610192239284515e-03" rms="4.7048801183700562e-01" purity="4.7088932991027832e-01" nType="-99"/>
          <Node pos="r" depth="2" NCoef="0" IVar="-1" Cut="0.0000000000000000e+00" cType="1" res="2.1456270769704133e-04" rms="4.3498089909553528e-01" purity="5.0911426544189453e-01" nType="-99"/>
        </Node>
        <Node pos="r" depth="1" NCoef="0" IVar="0" Cut="1.2026131153106689e+00" cType="1" res="6.2307622283697128e-03" rms="4.2038089036941528e-01" purity="4.9931073188781738e-01" nType="0">
          <Node pos="l" depth="2" NCoef="0" IVar="-1" Cut="0.0000000000000000e+00" cType="1" res="2.8999650385230780e-03" rms="4.3047168850898743e-01" purity="5.5730479955673218e-01" nType="-99"/>
          <Node pos="r" depth="2" NCoef="0" IVar="-1" Cut="0.0000000000000000e+00" cType="1" res="-6.8012760020792484e-03" rms="3.5952422022819519e-01" purity="1.8406569957733154e-01" nType="-99"/>
        </Node>
      </Node>
    </BinaryTree>
    <BinaryTree type="DecisionTree" boostWeight="1.0000000000000000e+00" itree="295">
      <Node pos="s" depth="0" NCoef="0" IVar="7" Cut="9.8112993240356445e+00" cType="1" res="-1.3347088824957609e-03" rms="4.3361201882362366e-01" purity="4.9924436211585999e-01" nType="0">
        <Node pos="l" depth="1" NCoef="0" IVar="7" Cut="3.1602585315704346e+00" cType="1" res="-2.0093051716685295e-03" rms="4.3492263555526733e-01" purity="4.8979887366294861e-01" nType="0">
          <Node pos="l" depth="2" NCoef="0" IVar="-1" Cut="0.0000000000000000e+00" cType="1" res="-1.4015270862728357e-03" rms="4.4281443953514099e-01" purity="4.3672510981559753e-01" nType="-99"/>
          <Node pos="r" depth="2" NCoef="0" IVar="-1" Cut="0.0000000000000000e+00" cType="1" res="6.6898530349135399e-04" rms="4.2445427179336548e-01" purity="5.5845397710800171e-01" nType="-99"/>
        </Node>
        <Node pos="r" depth="1" NCoef="0" IVar="-1" Cut="0.0000000000000000e+00" cType="1" res="3.8749976083636284e-03" rms="4.0351668000221252e-01" purity="7.0639175176620483e-01" nType="-99"/>
      </Node>
    </BinaryTree>
    <BinaryTree type="DecisionTree" boostWeight="1.0000000000000000e+00" itree="296">
      <Node pos="s" depth="0" NCoef="0" IVar="5" Cut="1.8993316888809204e+00" cType="1" res="-4.6266410208772868e-05" rms="4.3380501866340637e-01" purity="4.9944537878036499e-01" nType="0">
        <Node pos="l" depth="1" NCoef="0" IVar="3" Cut="-6.1904764175415039e-01" cType="1" res="1.7305264482274652e-03" rms="4.3704482913017273e-01" purity="5.0479513406753540e-01" nType="0">
          <Node pos="l" depth="2" NCoef="0" IVar="-1" Cut="0.0000000000000000e+00" cType="1" res="-2.4556675925850868e-03" rms="4.5420324802398682e-01" purity="4.9119701981544495e-01" nType="-99"/>
          <Node pos="r" depth="2" NCoef="0" IVar="-1" Cut="0.0000000000000000e+00" cType="1" res="8.0984149826690555e-04" rms="4.3499606847763062e-01" purity="5.0636786222457886e-01" nType="-99"/>
        </Node>
        <Node pos="r" depth="1" NCoef="0" IVar="0" Cut="8.2762944698333740e-01" cType="1" res="-5.8134859427809715e-03" rms="4.2306673526763916e-01" purity="4.8208087682723999e-01" nType="0">
          <Node pos="l" depth="2" NCoef="0" IVar="-1" Cut="0.0000000000000000e+00" cType="1" res="3.8013646844774485e-03" rms="4.1647523641586304e-01" purity="6.8742841482162476e-01" nType="-99"/>
          <Node pos="r" depth="2" NCoef="0" IVar="-1" Cut="0.0000000000000000e+00" cType="1" res="-3.5562375560402870e-03" rms="4.2534077167510986e-01" purity="4.0316110849380493e-01" nType="-99"/>
        </Node>
      </Node>
    </BinaryTree>
    <BinaryTree type="DecisionTree" boostWeight="1.0000000000000000e+00" itree="297">
      <Node pos="s" depth="0" NCoef="0" IVar="2" Cut="1.1752878427505493e+00" cType="1" res="-6.6814484307542443e-04" rms="4.3307831883430481e-01" purity="4.9893683195114136e-01" nType="0">
        <Node pos="l" depth="1" NCoef="0" IVar="8" Cut="4.6925824880599976e-01" cType="1" res="-1.4650789089500904e-03" rms="4.3391722440719604e-01" purity="4.9802735447883606e-01" nType="0">
          <Node pos="l" depth="2" NCoef="0" IVar="-1" Cut="0.0000000000000000e+00" cType="1" res="-8.1491871969774365e-04" rms="4.3568524718284607e-01" purity="4.7553303837776184e-01" nType="-99"/>
          <Node pos="r" depth="2" NCoef="0" IVar="-1" Cut="0.0000000000000000e+00" cType="1" res="6.8300298880785704e-04" rms="4.2960280179977417e-01" purity="5.5219995975494385e-01" nType="-99"/>
        </Node>
        <Node pos="r" depth="1" NCoef="0" IVar="9" Cut="1.2831567227840424e-01" cType="1" res="5.1776045002043247e-03" rms="4.2682880163192749e-01" purity="5.0560790300369263e-01" nType="0">
          <Node pos="l" depth="2" NCoef="0" IVar="-1" Cut="0.0000000000000000e+00" cType="1" res="2.9384335502982140e-03" rms="4.2977431416511536e-01" purity="5.1124495267868042e-01" nType="-99"/>
          <Node pos="r" depth="2" NCoef="0" IVar="-1" Cut="0.0000000000000000e+00" cType="1" res="-1.5730637824162841e-03" rms="4.2087933421134949e-01" purity="4.9474748969078064e-01" nType="-99"/>
        </Node>
      </Node>
    </BinaryTree>
    <BinaryTree type="DecisionTree" boostWeight="1.0000000000000000e+00" itree="298">
      <Node pos="s" depth="0" NCoef="0" IVar="3" Cut="4.7619048506021500e-02" cType="1" res="2.3054161574691534e-03" rms="4.3420854210853577e-01" purity="5.0193279981613159e-01" nType="0">
        <Node pos="l" depth="1" NCoef="0" IVar="9" Cut="-3.3333334326744080e-01" cType="1" res="-2.1359864622354507e-03" rms="4.3266281485557556e-01" purity="4.9645602703094482e-01" nType="0">
          <Node pos="l" depth="2" NCoef="0" IVar="-1" Cut="0.0000000000000000e+00" cType="1" res="1.5823033172637224e-03" rms="4.3515288829803467e-01" purity="4.7301566600799561e-01" nType="-99"/>
          <Node pos="r" depth="2" NCoef="0" IVar="-1" Cut="0.0000000000000000e+00" cType="1" res="-1.0908644180744886e-03" rms="4.3201971054077148e-01" purity="5.0226944684982300e-01" nType="-99"/>
        </Node>
        <Node pos="r" depth="1" NCoef="0" IVar="3" Cut="2.7439886331558228e-01" cType="1" res="7.7523286454379559e-03" rms="4.3603497743606567e-01" purity="5.0864952802658081e-01" nType="0">
          <Node pos="l" depth="2" NCoef="0" IVar="-1" Cut="0.0000000000000000e+00" cType="1" res="3.2766233198344707e-03" rms="4.2817938327789307e-01" purity="5.1009994745254517e-01" nType="-99"/>
          <Node pos="r" depth="2" NCoef="0" IVar="-1" Cut="0.0000000000000000e+00" cType="1" res="1.0245576268061996e-03" rms="4.4249424338340759e-01" purity="5.0743055343627930e-01" nType="-99"/>
        </Node>
      </Node>
    </BinaryTree>
    <BinaryTree type="DecisionTree" boostWeight="1.0000000000000000e+00" itree="299">
      <Node pos="s" depth="0" NCoef="0" IVar="3" Cut="-7.1428573131561279e-01" cType="1" res="-4.3867182102985680e-04" rms="4.3323609232902527e-01" purity="4.9892175197601318e-01" nType="0">
        <Node pos="l" depth="1" NCoef="0" IVar="-1" Cut="0.0000000000000000e+00" cType="1" res="2.6204339228570461e-03" rms="4.5751056075096130e-01" purity="5.0437498092651367e-01" nType="-99"/>
        <Node pos="r" depth="1" NCoef="0" IVar="7" Cut="2.8278248310089111e+00" cType="1" res="-1.1797585757449269e-03" rms="4.3158385157585144e-01" purity="4.9856361746788025e-01" nType="0">
          <Node pos="l" depth="2" NCoef="0" IVar="-1" Cut="0.0000000000000000e+00" cType="1" res="-1.0021458147093654e-03" rms="4.4141498208045959e-01" purity="4.2791676521301270e-01" nType="-99"/>
          <Node pos="r" depth="2" NCoef="0" IVar="-1" Cut="0.0000000000000000e+00" cType="1" res="3.0662809149362147e-04" rms="4.2311039566993713e-01" purity="5.5808198451995850e-01" nType="-99"/>
        </Node>
      </Node>
    </BinaryTree>
    <BinaryTree type="DecisionTree" boostWeight="1.0000000000000000e+00" itree="300">
      <Node pos="s" depth="0" NCoef="0" IVar="0" Cut="1.0893620252609253e+00" cType="1" res="-3.5870526335202157e-04" rms="4.3493348360061646e-01" purity="5.0102567672729492e-01" nType="0">
        <Node pos="l" depth="1" NCoef="0" IVar="10" Cut="1.0380952835083008e+01" cType="1" res="-4.2886910960078239e-03" rms="4.4064202904701233e-01" purity="5.9311115741729736e-01" nType="0">
          <Node pos="l" depth="2" NCoef="0" IVar="-1" Cut="0.0000000000000000e+00" cType="1" res="-4.5592170208692551e-03" rms="4.5760527253150940e-01" purity="6.1255139112472534e-01" nType="-99"/>
          <Node pos="r" depth="2" NCoef="0" IVar="-1" Cut="0.0000000000000000e+00" cType="1" res="4.7826487571001053e-04" rms="4.3298137187957764e-01" purity="5.8472961187362671e-01" nType="-99"/>
        </Node>
        <Node pos="r" depth="1" NCoef="0" IVar="10" Cut="1.6857143402099609e+01" cType="1" res="7.1695134975016117e-03" rms="4.2368185520172119e-01" purity="3.2462838292121887e-01" nType="0">
          <Node pos="l" depth="2" NCoef="0" IVar="-1" Cut="0.0000000000000000e+00" cType="1" res="5.0186831504106522e-03" rms="4.4479405879974365e-01" purity="3.8176739215850830e-01" nType="-99"/>
          <Node pos="r" depth="2" NCoef="0" IVar="-1" Cut="0.0000000000000000e+00" cType="1" res="-5.3799697197973728e-03" rms="3.8096609711647034e-01" purity="2.2028082609176636e-01" nType="-99"/>
        </Node>
      </Node>
    </BinaryTree>
    <BinaryTree type="DecisionTree" boostWeight="1.0000000000000000e+00" itree="301">
      <Node pos="s" depth="0" NCoef="0" IVar="9" Cut="1.4285714924335480e-01" cType="1" res="-1.3139414368197322e-03" rms="4.3402081727981567e-01" purity="4.9869868159294128e-01" nType="0">
        <Node pos="l" depth="1" NCoef="0" IVar="6" Cut="2.8571429848670959e-01" cType="1" res="-3.7095735315233469e-03" rms="4.3345850706100464e-01" purity="4.9817931652069092e-01" nType="0">
          <Node pos="l" depth="2" NCoef="0" IVar="-1" Cut="0.0000000000000000e+00" cType="1" res="-1.6481347847729921e-03" rms="4.3300640583038330e-01" purity="4.9744859337806702e-01" nType="-99"/>
          <Node pos="r" depth="2" NCoef="0" IVar="-1" Cut="0.0000000000000000e+00" cType="1" res="-1.5790855104569346e-04" rms="4.3398165702819824e-01" purity="4.9905881285667419e-01" nType="-99"/>
        </Node>
        <Node pos="r" depth="1" NCoef="0" IVar="9" Cut="2.2450697422027588e-01" cType="1" res="3.0103283934295177e-03" rms="4.3500056862831116e-01" purity="4.9963614344596863e-01" nType="0">
          <Node pos="l" depth="2" NCoef="0" IVar="-1" Cut="0.0000000000000000e+00" cType="1" res="3.2321789767593145e-03" rms="4.3282622098922729e-01" purity="5.2796471118927002e-01" nType="-99"/>
          <Node pos="r" depth="2" NCoef="0" IVar="-1" Cut="0.0000000000000000e+00" cType="1" res="1.5546932991128415e-04" rms="4.3552947044372559e-01" purity="4.9229687452316284e-01" nType="-99"/>
        </Node>
      </Node>
    </BinaryTree>
    <BinaryTree type="DecisionTree" boostWeight="1.0000000000000000e+00" itree="302">
      <Node pos="s" depth="0" NCoef="0" IVar="9" Cut="-6.1904764175415039e-01" cType="1" res="-2.3059789091348648e-03" rms="4.3413594365119934e-01" purity="4.9775192141532898e-01" nType="0">
        <Node pos="l" depth="1" NCoef="0" IVar="8" Cut="-1.9709010422229767e-01" cType="1" res="1.1677142232656479e-02" rms="4.4297319650650024e-01" purity="4.2563527822494507e-01" nType="0">
          <Node pos="l" depth="2" NCoef="0" IVar="-1" Cut="0.0000000000000000e+00" cType="1" res="5.6265410967171192e-03" rms="4.5810535550117493e-01" purity="5.4087340831756592e-01" nType="-99"/>
          <Node pos="r" depth="2" NCoef="0" IVar="-1" Cut="0.0000000000000000e+00" cType="1" res="-4.2110536014661193e-05" rms="4.2620092630386353e-01" purity="3.0473902821540833e-01" nType="-99"/>
        </Node>
        <Node pos="r" depth="1" NCoef="0" IVar="5" Cut="3.5760307312011719e-01" cType="1" res="-3.4281918779015541e-03" rms="4.3339934945106506e-01" purity="5.0353968143463135e-01" nType="0">
          <Node pos="l" depth="2" NCoef="0" IVar="-1" Cut="0.0000000000000000e+00" cType="1" res="1.5605223597958684e-03" rms="4.5476025342941284e-01" purity="5.2187186479568481e-01" nType="-99"/>
          <Node pos="r" depth="2" NCoef="0" IVar="-1" Cut="0.0000000000000000e+00" cType="1" res="-1.3512970181182027e-03" rms="4.2977610230445862e-01" purity="5.0053572654724121e-01" nType="-99"/>
        </Node>
      </Node>
    </BinaryTree>
    <BinaryTree type="DecisionTree" boostWeight="1.0000000000000000e+00" itree="303">
      <Node pos="s" depth="0" NCoef="0" IVar="9" Cut="-3.3333334326744080e-01" cType="1" res="-8.9301721891388297e-04" rms="4.3351459503173828e-01" purity="4.9960017204284668e-01" nType="0">
        <Node pos="l" depth="1" NCoef="0" IVar="4" Cut="9.0649354457855225e-01" cType="1" res="3.6212822888046503e-03" rms="4.3735510110855103e-01" purity="4.7506508231163025e-01" nType="0">
          <Node pos="l" depth="2" NCoef="0" IVar="-1" Cut="0.0000000000000000e+00" cType="1" res="2.6923778932541609e-03" rms="4.3535342812538147e-01" purity="3.8412639498710632e-01" nType="-99"/>
          <Node pos="r" depth="2" NCoef="0" IVar="-1" Cut="0.0000000000000000e+00" cType="1" res="-2.5886381044983864e-03" rms="4.4126722216606140e-01" purity="6.6840273141860962e-01" nType="-99"/>
        </Node>
        <Node pos="r" depth="1" NCoef="0" IVar="3" Cut="-7.1428573131561279e-01" cType="1" res="-2.0426320843398571e-03" rms="4.3252357840538025e-01" purity="5.0584828853607178e-01" nType="0">
          <Node pos="l" depth="2" NCoef="0" IVar="-1" Cut="0.0000000000000000e+00" cType="1" res="3.4112620633095503e-03" rms="4.5416569709777832e-01" purity="5.2019578218460083e-01" nType="-99"/>
          <Node pos="r" depth="2" NCoef="0" IVar="-1" Cut="0.0000000000000000e+00" cType="1" res="-7.7699369285255671e-04" rms="4.3126991391181946e-01" purity="5.0505012273788452e-01" nType="-99"/>
        </Node>
      </Node>
    </BinaryTree>
    <BinaryTree type="DecisionTree" boostWeight="1.0000000000000000e+00" itree="304">
      <Node pos="s" depth="0" NCoef="0" IVar="4" Cut="5.1903337240219116e-01" cType="1" res="7.8689561632927507e-05" rms="4.3431499600410461e-01" purity="5.0045013427734375e-01" nType="0">
        <Node pos="l" depth="1" NCoef="0" IVar="7" Cut="2.3126368522644043e+00" cType="1" res="5.4231500253081322e-03" rms="3.6770620942115784e-01" purity="1.7745202779769897e-01" nType="0">
          <Node pos="l" depth="2" NCoef="0" IVar="-1" Cut="0.0000000000000000e+00" cType="1" res="6.3275257125496864e-03" rms="4.0025761723518372e-01" purity="2.1493440866470337e-01" nType="-99"/>
          <Node pos="r" depth="2" NCoef="0" IVar="-1" Cut="0.0000000000000000e+00" cType="1" res="-2.9561866540461779e-03" rms="3.3456644415855408e-01" purity="1.4303718507289886e-01" nType="-99"/>
        </Node>
        <Node pos="r" depth="1" NCoef="0" IVar="0" Cut="1.0469477176666260e+00" cType="1" res="-1.3116261688992381e-03" rms="4.5001927018165588e-01" purity="5.8447533845901489e-01" nType="0">
          <Node pos="l" depth="2" NCoef="0" IVar="-1" Cut="0.0000000000000000e+00" cType="1" res="-1.4285549987107515e-03" rms="4.4544881582260132e-01" purity="6.7757874727249146e-01" nType="-99"/>
          <Node pos="r" depth="2" NCoef="0" IVar="-1" Cut="0.0000000000000000e+00" cType="1" res="1.5107539948076010e-03" rms="4.5814090967178345e-01" purity="4.1448161005973816e-01" nType="-99"/>
        </Node>
      </Node>
    </BinaryTree>
    <BinaryTree type="DecisionTree" boostWeight="1.0000000000000000e+00" itree="305">
      <Node pos="s" depth="0" NCoef="0" IVar="10" Cut="1.8761905670166016e+01" cType="1" res="7.4646226130425930e-04" rms="4.3334984779357910e-01" purity="5.0014007091522217e-01" nType="0">
        <Node pos="l" depth="1" NCoef="0" IVar="0" Cut="1.2054123878479004e+00" cType="1" res="-2.0976637024432421e-03" rms="4.4530159235000610e-01" purity="5.0483071804046631e-01" nType="0">
          <Node pos="l" depth="2" NCoef="0" IVar="-1" Cut="0.0000000000000000e+00" cType="1" res="-1.8511434318497777e-03" rms="4.5039269328117371e-01" purity="5.7921993732452393e-01" nType="-99"/>
          <Node pos="r" depth="2" NCoef="0" IVar="-1" Cut="0.0000000000000000e+00" cType="1" res="2.4963375180959702e-03" rms="4.3349608778953552e-01" purity="3.3887875080108643e-01" nType="-99"/>
        </Node>
        <Node pos="r" depth="1" NCoef="0" IVar="0" Cut="1.2134091854095459e+00" cType="1" res="4.5996792614459991e-03" rms="4.1658005118370056e-01" purity="4.9378511309623718e-01" nType="0">
          <Node pos="l" depth="2" NCoef="0" IVar="-1" Cut="0.0000000000000000e+00" cType="1" res="2.6420936919748783e-03" rms="4.2735549807548523e-01" purity="5.4640150070190430e-01" nType="-99"/>
          <Node pos="r" depth="2" NCoef="0" IVar="-1" Cut="0.0000000000000000e+00" cType="1" res="-1.1985403485596180e-02" rms="3.3343771100044250e-01" purity="1.4140041172504425e-01" nType="-99"/>
        </Node>
      </Node>
    </BinaryTree>
    <BinaryTree type="DecisionTree" boostWeight="1.0000000000000000e+00" itree="306">
      <Node pos="s" depth="0" NCoef="0" IVar="3" Cut="7.1428573131561279e-01" cType="1" res="-1.6155048797372729e-04" rms="4.3395957350730896e-01" purity="4.9935072660446167e-01" nType="0">
        <Node pos="l" depth="1" NCoef="0" IVar="9" Cut="3.3333334326744080e-01" cType="1" res="5.8860582066699862e-04" rms="4.3234184384346008e-01" purity="5.0035554170608521e-01" nType="0">
          <Node pos="l" depth="2" NCoef="0" IVar="-1" Cut="0.0000000000000000e+00" cType="1" res="-2.9820323106832802e-04" rms="4.3181589245796204e-01" purity="5.0398331880569458e-01" nType="-99"/>
          <Node pos="r" depth="2" NCoef="0" IVar="-1" Cut="0.0000000000000000e+00" cType="1" res="1.9897101446986198e-03" rms="4.3439260125160217e-01" purity="4.8568841814994812e-01" nType="-99"/>
        </Node>
        <Node pos="r" depth="1" NCoef="0" IVar="-1" Cut="0.0000000000000000e+00" cType="1" res="-2.9102382250130177e-03" rms="4.5891290903091431e-01" purity="4.8326620459556580e-01" nType="-99"/>
      </Node>
    </BinaryTree>
    <BinaryTree type="DecisionTree" boostWeight="1.0000000000000000e+00" itree="307">
      <Node pos="s" depth="0" NCoef="0" IVar="9" Cut="6.1904764175415039e-01" cType="1" res="-8.9167506666854024e-04" rms="4.3197938799858093e-01" purity="4.9865391850471497e-01" nType="0">
        <Node pos="l" depth="1" NCoef="0" IVar="0" Cut="1.5313829183578491e+00" cType="1" res="-7.5023388490080833e-05" rms="4.3092560768127441e-01" purity="5.0530171394348145e-01" nType="0">
          <Node pos="l" depth="2" NCoef="0" IVar="-1" Cut="0.0000000000000000e+00" cType="1" res="3.5528029548004270e-04" rms="4.3372425436973572e-01" purity="5.2673524618148804e-01" nType="-99"/>
          <Node pos="r" depth="2" NCoef="0" IVar="-1" Cut="0.0000000000000000e+00" cType="1" res="-4.8258556053042412e-03" rms="3.9617621898651123e-01" purity="2.5346031785011292e-01" nType="-99"/>
        </Node>
        <Node pos="r" depth="1" NCoef="0" IVar="4" Cut="7.8658455610275269e-01" cType="1" res="-1.1170790530741215e-02" rms="4.4490170478820801e-01" purity="4.1497856378555298e-01" nType="0">
          <Node pos="l" depth="2" NCoef="0" IVar="-1" Cut="0.0000000000000000e+00" cType="1" res="8.2846218720078468e-04" rms="4.2424616217613220e-01" purity="2.8193441033363342e-01" nType="-99"/>
          <Node pos="r" depth="2" NCoef="0" IVar="-1" Cut="0.0000000000000000e+00" cType="1" res="-5.8487909846007824e-03" rms="4.6426382660865784e-01" purity="5.4836255311965942e-01" nType="-99"/>
        </Node>
      </Node>
    </BinaryTree>
    <BinaryTree type="DecisionTree" boostWeight="1.0000000000000000e+00" itree="308">
      <Node pos="s" depth="0" NCoef="0" IVar="4" Cut="3.2441562414169312e-01" cType="1" res="-3.6234196159057319e-04" rms="4.3275967240333557e-01" purity="4.9917373061180115e-01" nType="0">
        <Node pos="l" depth="1" NCoef="0" IVar="-1" Cut="0.0000000000000000e+00" cType="1" res="-9.5365792512893677e-03" rms="2.5193735957145691e-01" purity="6.9760829210281372e-02" nType="-99"/>
        <Node pos="r" depth="1" NCoef="0" IVar="10" Cut="4.8571430206298828e+01" cType="1" res="1.5857591642998159e-04" rms="4.3800547719001770e-01" purity="5.1504319906234741e-01" nType="0">
          <Node pos="l" depth="2" NCoef="0" IVar="-1" Cut="0.0000000000000000e+00" cType="1" res="2.0942841365467757e-04" rms="4.3884637951850891e-01" purity="5.2387285232543945e-01" nType="-99"/>
          <Node pos="r" depth="2" NCoef="0" IVar="-1" Cut="0.0000000000000000e+00" cType="1" res="-1.9753926899284124e-03" rms="4.2795029282569885e-01" purity="4.1154465079307556e-01" nType="-99"/>
        </Node>
      </Node>
    </BinaryTree>
    <BinaryTree type="DecisionTree" boostWeight="1.0000000000000000e+00" itree="309">
      <Node pos="s" depth="0" NCoef="0" IVar="5" Cut="2.0567753314971924e+00" cType="1" res="-1.5500034205615520e-03" rms="4.3309175968170166e-01" purity="4.9783685803413391e-01" nType="0">
        <Node pos="l" depth="1" NCoef="0" IVar="9" Cut="4.7619048506021500e-02" cType="1" res="-3.1991782598197460e-03" rms="4.3541017174720764e-01" purity="4.9937218427658081e-01" nType="0">
          <Node pos="l" depth="2" NCoef="0" IVar="-1" Cut="0.0000000000000000e+00" cType="1" res="-1.6015884466469288e-03" rms="4.3498092889785767e-01" purity="4.9645417928695679e-01" nType="-99"/>
          <Node pos="r" depth="2" NCoef="0" IVar="-1" Cut="0.0000000000000000e+00" cType="1" res="7.6992451795376837e-05" rms="4.3589282035827637e-01" purity="5.0283253192901611e-01" nType="-99"/>
        </Node>
        <Node pos="r" depth="1" NCoef="0" IVar="0" Cut="8.2352364063262939e-01" cType="1" res="5.1815994083881378e-03" rms="4.2343026399612427e-01" purity="4.9156999588012695e-01" nType="0">
          <Node pos="l" depth="2" NCoef="0" IVar="-1" Cut="0.0000000000000000e+00" cType="1" res="7.3988586664199829e-03" rms="4.1062614321708679e-01" purity="7.0428043603897095e-01" nType="-99"/>
          <Node pos="r" depth="2" NCoef="0" IVar="-1" Cut="0.0000000000000000e+00" cType="1" res="-6.4079713774845004e-04" rms="4.2771366238594055e-01" purity="4.1465672850608826e-01" nType="-99"/>
        </Node>
      </Node>
    </BinaryTree>
    <BinaryTree type="DecisionTree" boostWeight="1.0000000000000000e+00" itree="310">
      <Node pos="s" depth="0" NCoef="0" IVar="10" Cut="3.2666667938232422e+01" cType="1" res="1.0196287184953690e-03" rms="4.3312081694602966e-01" purity="5.0108313560485840e-01" nType="0">
        <Node pos="l" depth="1" NCoef="0" IVar="10" Cut="3.4285714626312256e+00" cType="1" res="2.3774856235831976e-03" rms="4.3604823946952820e-01" purity="5.0735598802566528e-01" nType="0">
          <Node pos="l" depth="2" NCoef="0" IVar="-1" Cut="0.0000000000000000e+00" cType="1" res="-3.3973965328186750e-03" rms="4.7506928443908691e-01" purity="4.5283234119415283e-01" nType="-99"/>
          <Node pos="r" depth="2" NCoef="0" IVar="-1" Cut="0.0000000000000000e+00" cType="1" res="1.1965675512328744e-03" rms="4.3090456724166870e-01" purity="5.1413166522979736e-01" nType="-99"/>
        </Node>
        <Node pos="r" depth="1" NCoef="0" IVar="0" Cut="8.1618058681488037e-01" cType="1" res="-4.5619970187544823e-03" rms="4.2082747817039490e-01" purity="4.7529795765876770e-01" nType="0">
          <Node pos="l" depth="2" NCoef="0" IVar="-1" Cut="0.0000000000000000e+00" cType="1" res="1.2456393800675869e-02" rms="4.0763664245605469e-01" purity="7.3418891429901123e-01" nType="-99"/>
          <Node pos="r" depth="2" NCoef="0" IVar="-1" Cut="0.0000000000000000e+00" cType="1" res="-5.4044425487518311e-03" rms="4.2366853356361389e-01" purity="3.9483115077018738e-01" nType="-99"/>
        </Node>
      </Node>
    </BinaryTree>
    <BinaryTree type="DecisionTree" boostWeight="1.0000000000000000e+00" itree="311">
      <Node pos="s" depth="0" NCoef="0" IVar="5" Cut="2.0567753314971924e+00" cType="1" res="7.1598857175558805e-04" rms="4.3315604329109192e-01" purity="5.0051325559616089e-01" nType="0">
        <Node pos="l" depth="1" NCoef="0" IVar="4" Cut="7.8129434585571289e-01" cType="1" res="1.7494841013103724e-03" rms="4.3546783924102783e-01" purity="5.0368672609329224e-01" nType="0">
          <Node pos="l" depth="2" NCoef="0" IVar="-1" Cut="0.0000000000000000e+00" cType="1" res="-6.2731595244258642e-04" rms="4.2968398332595825e-01" purity="3.3403173089027405e-01" nType="-99"/>
          <Node pos="r" depth="2" NCoef="0" IVar="-1" Cut="0.0000000000000000e+00" cType="1" res="1.3861043844372034e-03" rms="4.4066345691680908e-01" purity="6.5901207923889160e-01" nType="-99"/>
        </Node>
        <Node pos="r" depth="1" NCoef="0" IVar="4" Cut="7.4150216579437256e-01" cType="1" res="-3.4774057567119598e-03" rms="4.2362058162689209e-01" purity="4.8763674497604370e-01" nType="0">
          <Node pos="l" depth="2" NCoef="0" IVar="-1" Cut="0.0000000000000000e+00" cType="1" res="2.7243071235716343e-03" rms="4.1010871529579163e-01" purity="3.1962618231773376e-01" nType="-99"/>
          <Node pos="r" depth="2" NCoef="0" IVar="-1" Cut="0.0000000000000000e+00" cType="1" res="-3.6974165122956038e-03" rms="4.3423271179199219e-01" purity="6.2716501951217651e-01" nType="-99"/>
        </Node>
      </Node>
    </BinaryTree>
    <BinaryTree type="DecisionTree" boostWeight="1.0000000000000000e+00" itree="312">
      <Node pos="s" depth="0" NCoef="0" IVar="3" Cut="4.2857143282890320e-01" cType="1" res="9.9756801500916481e-04" rms="4.3332171440124512e-01" purity="5.0104749202728271e-01" nType="0">
        <Node pos="l" depth="1" NCoef="0" IVar="3" Cut="-7.2789365053176880e-01" cType="1" res="-6.0803769156336784e-04" rms="4.3053415417671204e-01" purity="4.9846097826957703e-01" nType="0">
          <Node pos="l" depth="2" NCoef="0" IVar="-1" Cut="0.0000000000000000e+00" cType="1" res="3.0003837309777737e-03" rms="4.5709517598152161e-01" purity="5.0842410326004028e-01" nType="-99"/>
          <Node pos="r" depth="2" NCoef="0" IVar="-1" Cut="0.0000000000000000e+00" cType="1" res="-4.1905057150870562e-04" rms="4.2851260304450989e-01" purity="4.9773281812667847e-01" nType="-99"/>
        </Node>
        <Node pos="r" depth="1" NCoef="0" IVar="0" Cut="9.0153324604034424e-01" cType="1" res="9.9032130092382431e-03" rms="4.4836437702178955e-01" purity="5.1539403200149536e-01" nType="0">
          <Node pos="l" depth="2" NCoef="0" IVar="-1" Cut="0.0000000000000000e+00" cType="1" res="-2.0223748870193958e-03" rms="4.4803124666213989e-01" purity="6.4019834995269775e-01" nType="-99"/>
          <Node pos="r" depth="2" NCoef="0" IVar="-1" Cut="0.0000000000000000e+00" cType="1" res="5.3864275105297565e-03" rms="4.4818949699401855e-01" purity="4.3024748563766479e-01" nType="-99"/>
        </Node>
      </Node>
    </BinaryTree>
    <BinaryTree type="DecisionTree" boostWeight="1.0000000000000000e+00" itree="313">
      <Node pos="s" depth="0" NCoef="0" IVar="8" Cut="6.8032041192054749e-02" cType="1" res="2.4159061722457409e-03" rms="4.3330186605453491e-01" purity="5.0220549106597900e-01" nType="0">
        <Node pos="l" depth="1" NCoef="0" IVar="1" Cut="9.2813520431518555e+00" cType="1" res="-8.7067962158471346e-04" rms="4.3413934111595154e-01" purity="4.9186637997627258e-01" nType="0">
          <Node pos="l" depth="2" NCoef="0" IVar="-1" Cut="0.0000000000000000e+00" cType="1" res="-5.0472829025238752e-04" rms="4.3535768985748291e-01" purity="4.9137747287750244e-01" nType="-99"/>
          <Node pos="r" depth="2" NCoef="0" IVar="-1" Cut="0.0000000000000000e+00" cType="1" res="3.4072035923600197e-03" rms="4.1872507333755493e-01" purity="4.9784752726554871e-01" nType="-99"/>
        </Node>
        <Node pos="r" depth="1" NCoef="0" IVar="9" Cut="6.1919581890106201e-01" cType="1" res="6.3890363089740276e-03" rms="4.3225395679473877e-01" purity="5.1470446586608887e-01" nType="0">
          <Node pos="l" depth="2" NCoef="0" IVar="-1" Cut="0.0000000000000000e+00" cType="1" res="1.3356921263039112e-03" rms="4.2981970310211182e-01" purity="5.1344764232635498e-01" nType="-99"/>
          <Node pos="r" depth="2" NCoef="0" IVar="-1" Cut="0.0000000000000000e+00" cType="1" res="4.8802345991134644e-03" rms="4.5523345470428467e-01" purity="5.2704143524169922e-01" nType="-99"/>
        </Node>
      </Node>
    </BinaryTree>
    <BinaryTree type="DecisionTree" boostWeight="1.0000000000000000e+00" itree="314">
      <Node pos="s" depth="0" NCoef="0" IVar="3" Cut="-2.3809523880481720e-01" cType="1" res="2.3122651036828756e-03" rms="4.3425461649894714e-01" purity="5.0237756967544556e-01" nType="0">
        <Node pos="l" depth="1" NCoef="0" IVar="5" Cut="1.8330873250961304e+00" cType="1" res="7.9091321676969528e-03" rms="4.3982136249542236e-01" purity="5.1619708538055420e-01" nType="0">
          <Node pos="l" depth="2" NCoef="0" IVar="-1" Cut="0.0000000000000000e+00" cType="1" res="1.1055873474106193e-03" rms="4.4201812148094177e-01" purity="5.1526325941085815e-01" nType="-99"/>
          <Node pos="r" depth="2" NCoef="0" IVar="-1" Cut="0.0000000000000000e+00" cType="1" res="6.1735827475786209e-03" rms="4.3031215667724609e-01" purity="5.2005445957183838e-01" nType="-99"/>
        </Node>
        <Node pos="r" depth="1" NCoef="0" IVar="4" Cut="7.3961013555526733e-01" cType="1" res="1.3912822760175914e-04" rms="4.3205431103706360e-01" purity="4.9701181054115295e-01" nType="0">
          <Node pos="l" depth="2" NCoef="0" IVar="-1" Cut="0.0000000000000000e+00" cType="1" res="1.3393732951954007e-03" rms="4.2003914713859558e-01" purity="3.1442582607269287e-01" nType="-99"/>
          <Node pos="r" depth="2" NCoef="0" IVar="-1" Cut="0.0000000000000000e+00" cType="1" res="-8.7914400501176715e-04" rms="4.4117474555969238e-01" purity="6.3957744836807251e-01" nType="-99"/>
        </Node>
      </Node>
    </BinaryTree>
    <BinaryTree type="DecisionTree" boostWeight="1.0000000000000000e+00" itree="315">
      <Node pos="s" depth="0" NCoef="0" IVar="1" Cut="4.8906760215759277e+00" cType="1" res="2.7897363179363310e-04" rms="4.3348184227943420e-01" purity="4.9983566999435425e-01" nType="0">
        <Node pos="l" depth="1" NCoef="0" IVar="0" Cut="1.2041730880737305e+00" cType="1" res="-1.0893576545640826e-03" rms="4.3912681937217712e-01" purity="5.0177556276321411e-01" nType="0">
          <Node pos="l" depth="2" NCoef="0" IVar="-1" Cut="0.0000000000000000e+00" cType="1" res="-8.4514060290530324e-04" rms="4.4441077113151550e-01" purity="5.7010632753372192e-01" nType="-99"/>
          <Node pos="r" depth="2" NCoef="0" IVar="-1" Cut="0.0000000000000000e+00" cType="1" res="1.3044569641351700e-03" rms="4.2454135417938232e-01" purity="3.1812053918838501e-01" nType="-99"/>
        </Node>
        <Node pos="r" depth="1" NCoef="0" IVar="0" Cut="8.6419701576232910e-01" cType="1" res="4.1345688514411449e-03" rms="4.1714099049568176e-01" purity="4.9436983466148376e-01" nType="0">
          <Node pos="l" depth="2" NCoef="0" IVar="-1" Cut="0.0000000000000000e+00" cType="1" res="4.8336838372051716e-03" rms="4.1352832317352295e-01" purity="6.9208568334579468e-01" nType="-99"/>
          <Node pos="r" depth="2" NCoef="0" IVar="-1" Cut="0.0000000000000000e+00" cType="1" res="-8.3076360169798136e-04" rms="4.1896134614944458e-01" purity="3.8462132215499878e-01" nType="-99"/>
        </Node>
      </Node>
    </BinaryTree>
    <BinaryTree type="DecisionTree" boostWeight="1.0000000000000000e+00" itree="316">
      <Node pos="s" depth="0" NCoef="0" IVar="9" Cut="3.3333334326744080e-01" cType="1" res="-1.9432911649346352e-03" rms="4.3346679210662842e-01" purity="4.9750983715057373e-01" nType="0">
        <Node pos="l" depth="1" NCoef="0" IVar="10" Cut="1.0380952835083008e+01" cType="1" res="-5.6305620819330215e-04" rms="4.3257069587707520e-01" purity="5.0414049625396729e-01" nType="0">
          <Node pos="l" depth="2" NCoef="0" IVar="-1" Cut="0.0000000000000000e+00" cType="1" res="-1.5525030903518200e-03" rms="4.5643699169158936e-01" purity="5.2124458551406860e-01" nType="-99"/>
          <Node pos="r" depth="2" NCoef="0" IVar="-1" Cut="0.0000000000000000e+00" cType="1" res="5.6028849212452769e-04" rms="4.2145124077796936e-01" purity="4.9650305509567261e-01" nType="-99"/>
        </Node>
        <Node pos="r" depth="1" NCoef="0" IVar="0" Cut="9.8505669832229614e-01" cType="1" res="-7.3208827525377274e-03" rms="4.3689906597137451e-01" purity="4.7167590260505676e-01" nType="0">
          <Node pos="l" depth="2" NCoef="0" IVar="-1" Cut="0.0000000000000000e+00" cType="1" res="-4.9652056768536568e-03" rms="4.4294410943984985e-01" purity="5.8138513565063477e-01" nType="-99"/>
          <Node pos="r" depth="2" NCoef="0" IVar="-1" Cut="0.0000000000000000e+00" cType="1" res="1.1098448885604739e-03" rms="4.3043807148933411e-01" purity="3.6160528659820557e-01" nType="-99"/>
        </Node>
      </Node>
    </BinaryTree>
    <BinaryTree type="DecisionTree" boostWeight="1.0000000000000000e+00" itree="317">
      <Node pos="s" depth="0" NCoef="0" IVar="2" Cut="1.8005815744400024e+00" cType="1" res="3.1975498422980309e-03" rms="4.3239638209342957e-01" purity="5.0398617982864380e-01" nType="0">
        <Node pos="l" depth="1" NCoef="0" IVar="7" Cut="4.4917669296264648e+00" cType="1" res="4.0026055648922920e-03" rms="4.3338844180107117e-01" purity="5.0481456518173218e-01" nType="0">
          <Node pos="l" depth="2" NCoef="0" IVar="-1" Cut="0.0000000000000000e+00" cType="1" res="5.9119134675711393e-04" rms="4.3890669941902161e-01" purity="4.6249955892562866e-01" nType="-99"/>
          <Node pos="r" depth="2" NCoef="0" IVar="-1" Cut="0.0000000000000000e+00" cType="1" res="2.3218505084514618e-03" rms="4.1853931546211243e-01" purity="6.1577814817428589e-01" nType="-99"/>
        </Node>
        <Node pos="r" depth="1" NCoef="0" IVar="-1" Cut="0.0000000000000000e+00" cType="1" res="-2.8247663285583258e-03" rms="4.1517236828804016e-01" purity="4.9009346961975098e-01" nType="-99"/>
      </Node>
    </BinaryTree>
    <BinaryTree type="DecisionTree" boostWeight="1.0000000000000000e+00" itree="318">
      <Node pos="s" depth="0" NCoef="0" IVar="9" Cut="7.1428573131561279e-01" cType="1" res="-1.6997635830193758e-03" rms="4.3372485041618347e-01" purity="4.9766087532043457e-01" nType="0">
        <Node pos="l" depth="1" NCoef="0" IVar="9" Cut="5.5096697807312012e-01" cType="1" res="-2.5269493926316500e-03" rms="4.3296557664871216e-01" purity="5.0202077627182007e-01" nType="0">
          <Node pos="l" depth="2" NCoef="0" IVar="-1" Cut="0.0000000000000000e+00" cType="1" res="-5.2788248285651207e-04" rms="4.3264880776405334e-01" purity="5.0359731912612915e-01" nType="-99"/>
          <Node pos="r" depth="2" NCoef="0" IVar="-1" Cut="0.0000000000000000e+00" cType="1" res="-3.2141716219484806e-03" rms="4.3872347474098206e-01" purity="4.7258320450782776e-01" nType="-99"/>
        </Node>
        <Node pos="r" depth="1" NCoef="0" IVar="-1" Cut="0.0000000000000000e+00" cType="1" res="3.8157799281179905e-03" rms="4.4842800498008728e-01" purity="4.0979275107383728e-01" nType="-99"/>
      </Node>
    </BinaryTree>
    <BinaryTree type="DecisionTree" boostWeight="1.0000000000000000e+00" itree="319">
      <Node pos="s" depth="0" NCoef="0" IVar="2" Cut="3.2031285762786865e-01" cType="1" res="1.0739287827163935e-03" rms="4.3351143598556519e-01" purity="5.0169754028320312e-01" nType="0">
        <Node pos="l" depth="1" NCoef="0" IVar="4" Cut="6.9823092222213745e-01" cType="1" res="3.1518186442553997e-03" rms="4.3471533060073853e-01" purity="5.0182461738586426e-01" nType="0">
          <Node pos="l" depth="2" NCoef="0" IVar="-1" Cut="0.0000000000000000e+00" cType="1" res="2.1742579992860556e-03" rms="4.1984462738037109e-01" purity="2.9641434550285339e-01" nType="-99"/>
          <Node pos="r" depth="2" NCoef="0" IVar="-1" Cut="0.0000000000000000e+00" cType="1" res="1.1249355156905949e-04" rms="4.4345787167549133e-01" purity="6.2623518705368042e-01" nType="-99"/>
        </Node>
        <Node pos="r" depth="1" NCoef="0" IVar="3" Cut="4.2857143282890320e-01" cType="1" res="-2.7673901058733463e-03" rms="4.3125057220458984e-01" purity="5.0146263837814331e-01" nType="0">
          <Node pos="l" depth="2" NCoef="0" IVar="-1" Cut="0.0000000000000000e+00" cType="1" res="-1.6065990785136819e-03" rms="4.2690017819404602e-01" purity="4.9639642238616943e-01" nType="-99"/>
          <Node pos="r" depth="2" NCoef="0" IVar="-1" Cut="0.0000000000000000e+00" cType="1" res="1.7118817195296288e-03" rms="4.4368878006935120e-01" purity="5.1639437675476074e-01" nType="-99"/>
        </Node>
      </Node>
    </BinaryTree>
    <BinaryTree type="DecisionTree" boostWeight="1.0000000000000000e+00" itree="320">
      <Node pos="s" depth="0" NCoef="0" IVar="9" Cut="-7.1428573131561279e-01" cType="1" res="1.3584457337856293e-03" rms="4.3406081199645996e-01" purity="5.0108355283737183e-01" nType="0">
        <Node pos="l" depth="1" NCoef="0" IVar="-1" Cut="0.0000000000000000e+00" cType="1" res="3.4738755784928799e-03" rms="4.4776237010955811e-01" purity="3.9704489707946777e-01" nType="-99"/>
        <Node pos="r" depth="1" NCoef="0" IVar="10" Cut="1.8761905670166016e+01" cType="1" res="7.4800581205636263e-04" rms="4.3334615230560303e-01" purity="5.0635504722595215e-01" nType="0">
          <Node pos="l" depth="2" NCoef="0" IVar="-1" Cut="0.0000000000000000e+00" cType="1" res="-6.2261987477540970e-04" rms="4.4636598229408264e-01" purity="5.1300239562988281e-01" nType="-99"/>
          <Node pos="r" depth="2" NCoef="0" IVar="-1" Cut="0.0000000000000000e+00" cType="1" res="1.3437804300338030e-03" rms="4.1623693704605103e-01" purity="4.9793630838394165e-01" nType="-99"/>
        </Node>
      </Node>
    </BinaryTree>
    <BinaryTree type="DecisionTree" boostWeight="1.0000000000000000e+00" itree="321">
      <Node pos="s" depth="0" NCoef="0" IVar="10" Cut="3.3619049072265625e+01" cType="1" res="-1.3748435594607145e-04" rms="4.3381530046463013e-01" purity="5.0062358379364014e-01" nType="0">
        <Node pos="l" depth="1" NCoef="0" IVar="10" Cut="3.4761905670166016e+00" cType="1" res="1.2613586150109768e-03" rms="4.3644154071807861e-01" purity="5.0722402334213257e-01" nType="0">
          <Node pos="l" depth="2" NCoef="0" IVar="-1" Cut="0.0000000000000000e+00" cType="1" res="-4.3993811123073101e-03" rms="4.7163337469100952e-01" purity="4.4604861736297607e-01" nType="-99"/>
          <Node pos="r" depth="2" NCoef="0" IVar="-1" Cut="0.0000000000000000e+00" cType="1" res="9.9350418895483017e-04" rms="4.3188613653182983e-01" purity="5.1468735933303833e-01" nType="-99"/>
        </Node>
        <Node pos="r" depth="1" NCoef="0" IVar="0" Cut="9.9551016092300415e-01" cType="1" res="-6.2445770017802715e-03" rms="4.2210391163825989e-01" purity="4.7180753946304321e-01" nType="0">
          <Node pos="l" depth="2" NCoef="0" IVar="-1" Cut="0.0000000000000000e+00" cType="1" res="2.5651026517152786e-03" rms="4.4166204333305359e-01" purity="6.1093145608901978e-01" nType="-99"/>
          <Node pos="r" depth="2" NCoef="0" IVar="-1" Cut="0.0000000000000000e+00" cType="1" res="-1.0478368028998375e-02" rms="3.8429680466651917e-01" purity="2.3105959594249725e-01" nType="-99"/>
        </Node>
      </Node>
    </BinaryTree>
    <BinaryTree type="DecisionTree" boostWeight="1.0000000000000000e+00" itree="322">
      <Node pos="s" depth="0" NCoef="0" IVar="9" Cut="-7.1428573131561279e-01" cType="1" res="-2.6312663685530424e-03" rms="4.3333905935287476e-01" purity="4.9816411733627319e-01" nType="0">
        <Node pos="l" depth="1" NCoef="0" IVar="-1" Cut="0.0000000000000000e+00" cType="1" res="3.1370692886412144e-03" rms="4.4834202527999878e-01" purity="3.9887371659278870e-01" nType="-99"/>
        <Node pos="r" depth="1" NCoef="0" IVar="4" Cut="9.4624412059783936e-01" cType="1" res="-3.3596730791032314e-03" rms="4.3257161974906921e-01" purity="5.0306755304336548e-01" nType="0">
          <Node pos="l" depth="2" NCoef="0" IVar="-1" Cut="0.0000000000000000e+00" cType="1" res="-1.1827115667983890e-03" rms="4.3588334321975708e-01" purity="4.5147579908370972e-01" nType="-99"/>
          <Node pos="r" depth="2" NCoef="0" IVar="-1" Cut="0.0000000000000000e+00" cType="1" res="6.9755566073581576e-04" rms="4.1630667448043823e-01" purity="7.5000798702239990e-01" nType="-99"/>
        </Node>
      </Node>
    </BinaryTree>
    <BinaryTree type="DecisionTree" boostWeight="1.0000000000000000e+00" itree="323">
      <Node pos="s" depth="0" NCoef="0" IVar="5" Cut="3.3837871551513672e+00" cType="1" res="-2.2016922011971474e-03" rms="4.3416407704353333e-01" purity="4.9848145246505737e-01" nType="0">
        <Node pos="l" depth="1" NCoef="0" IVar="5" Cut="-8.0596886575222015e-02" cType="1" res="-2.7273974847048521e-03" rms="4.3480974435806274e-01" purity="4.9631565809249878e-01" nType="0">
          <Node pos="l" depth="2" NCoef="0" IVar="-1" Cut="0.0000000000000000e+00" cType="1" res="3.0679963529109955e-03" rms="4.6559667587280273e-01" purity="5.3970384597778320e-01" nType="-99"/>
          <Node pos="r" depth="2" NCoef="0" IVar="-1" Cut="0.0000000000000000e+00" cType="1" res="-8.9206534903496504e-04" rms="4.3345719575881958e-01" purity="4.9449440836906433e-01" nType="-99"/>
        </Node>
        <Node pos="r" depth="1" NCoef="0" IVar="-1" Cut="0.0000000000000000e+00" cType="1" res="2.7198905590921640e-03" rms="4.1864031553268433e-01" purity="5.4897850751876831e-01" nType="-99"/>
      </Node>
    </BinaryTree>
    <BinaryTree type="DecisionTree" boostWeight="1.0000000000000000e+00" itree="324">
      <Node pos="s" depth="0" NCoef="0" IVar="4" Cut="6.8990826606750488e-01" cType="1" res="5.0372339319437742e-04" rms="4.3459272384643555e-01" purity="5.0009071826934814e-01" nType="0">
        <Node pos="l" depth="1" NCoef="0" IVar="0" Cut="1.2600063085556030e+00" cType="1" res="4.5323628000915051e-03" rms="4.1719892621040344e-01" purity="2.9037663340568542e-01" nType="0">
          <Node pos="l" depth="2" NCoef="0" IVar="-1" Cut="0.0000000000000000e+00" cType="1" res="2.7901688590645790e-03" rms="4.3589958548545837e-01" purity="3.3469125628471375e-01" nType="-99"/>
          <Node pos="r" depth="2" NCoef="0" IVar="-1" Cut="0.0000000000000000e+00" cType="1" res="-4.8756389878690243e-03" rms="3.5577860474586487e-01" purity="1.5963721275329590e-01" nType="-99"/>
        </Node>
        <Node pos="r" depth="1" NCoef="0" IVar="4" Cut="9.7472620010375977e-01" cType="1" res="-1.9170000450685620e-03" rms="4.4469964504241943e-01" purity="6.2610334157943726e-01" nType="0">
          <Node pos="l" depth="2" NCoef="0" IVar="-1" Cut="0.0000000000000000e+00" cType="1" res="-1.3334240065887570e-03" rms="4.4790613651275635e-01" purity="6.1084437370300293e-01" nType="-99"/>
          <Node pos="r" depth="2" NCoef="0" IVar="-1" Cut="0.0000000000000000e+00" cType="1" res="6.5635219216346741e-03" rms="4.1836029291152954e-01" purity="7.4304908514022827e-01" nType="-99"/>
        </Node>
      </Node>
    </BinaryTree>
    <BinaryTree type="DecisionTree" boostWeight="1.0000000000000000e+00" itree="325">
      <Node pos="s" depth="0" NCoef="0" IVar="2" Cut="1.9549679756164551e+00" cType="1" res="2.4861232377588749e-03" rms="4.3321049213409424e-01" purity="5.0309300422668457e-01" nType="0">
        <Node pos="l" depth="1" NCoef="0" IVar="5" Cut="1.8906113505363464e-01" cType="1" res="3.1683892011642456e-03" rms="4.3397077918052673e-01" purity="5.0354659557342529e-01" nType="0">
          <Node pos="l" depth="2" NCoef="0" IVar="-1" Cut="0.0000000000000000e+00" cType="1" res="-1.1024252744391561e-03" rms="4.5927253365516663e-01" purity="4.8958081007003784e-01" nType="-99"/>
          <Node pos="r" depth="2" NCoef="0" IVar="-1" Cut="0.0000000000000000e+00" cType="1" res="1.1429197620600462e-03" rms="4.3020126223564148e-01" purity="5.0555336475372314e-01" nType="-99"/>
        </Node>
        <Node pos="r" depth="1" NCoef="0" IVar="-1" Cut="0.0000000000000000e+00" cType="1" res="-3.1673070043325424e-03" rms="4.1700801253318787e-01" purity="4.9375885725021362e-01" nType="-99"/>
      </Node>
    </BinaryTree>
    <BinaryTree type="DecisionTree" boostWeight="1.0000000000000000e+00" itree="326">
      <Node pos="s" depth="0" NCoef="0" IVar="9" Cut="-1.4285714924335480e-01" cType="1" res="-1.1947789607802406e-04" rms="4.3225777149200439e-01" purity="4.9965745210647583e-01" nType="0">
        <Node pos="l" depth="1" NCoef="0" IVar="8" Cut="-1.1169861555099487e+00" cType="1" res="4.1627208702266216e-03" rms="4.3352451920509338e-01" purity="4.9318099021911621e-01" nType="0">
          <Node pos="l" depth="2" NCoef="0" IVar="-1" Cut="0.0000000000000000e+00" cType="1" res="3.9834557101130486e-03" rms="4.1795831918716431e-01" purity="6.9557231664657593e-01" nType="-99"/>
          <Node pos="r" depth="2" NCoef="0" IVar="-1" Cut="0.0000000000000000e+00" cType="1" res="4.9156666500493884e-04" rms="4.3692341446876526e-01" purity="4.4757327437400818e-01" nType="-99"/>
        </Node>
        <Node pos="r" depth="1" NCoef="0" IVar="4" Cut="8.6082708835601807e-01" cType="1" res="-2.4414293002337217e-03" rms="4.3155157566070557e-01" purity="5.0316917896270752e-01" nType="0">
          <Node pos="l" depth="2" NCoef="0" IVar="-1" Cut="0.0000000000000000e+00" cType="1" res="-1.5758526278659701e-03" rms="4.3124741315841675e-01" purity="3.8189610838890076e-01" nType="-99"/>
          <Node pos="r" depth="2" NCoef="0" IVar="-1" Cut="0.0000000000000000e+00" cType="1" res="8.2000967813655734e-04" rms="4.3196475505828857e-01" purity="6.9142448902130127e-01" nType="-99"/>
        </Node>
      </Node>
    </BinaryTree>
    <BinaryTree type="DecisionTree" boostWeight="1.0000000000000000e+00" itree="327">
      <Node pos="s" depth="0" NCoef="0" IVar="9" Cut="7.1428573131561279e-01" cType="1" res="1.0833565611392260e-03" rms="4.3358021974563599e-01" purity="5.0052583217620850e-01" nType="0">
        <Node pos="l" depth="1" NCoef="0" IVar="4" Cut="6.1496376991271973e-01" cType="1" res="5.0649064360186458e-04" rms="4.3266052007675171e-01" purity="5.0509381294250488e-01" nType="0">
          <Node pos="l" depth="2" NCoef="0" IVar="-1" Cut="0.0000000000000000e+00" cType="1" res="-9.7133009694516659e-04" rms="3.9801165461540222e-01" purity="2.3443236947059631e-01" nType="-99"/>
          <Node pos="r" depth="2" NCoef="0" IVar="-1" Cut="0.0000000000000000e+00" cType="1" res="5.0303753232583404e-04" rms="4.4644904136657715e-01" purity="6.1915791034698486e-01" nType="-99"/>
        </Node>
        <Node pos="r" depth="1" NCoef="0" IVar="-1" Cut="0.0000000000000000e+00" cType="1" res="3.1826049089431763e-03" rms="4.5124399662017822e-01" purity="4.1012483835220337e-01" nType="-99"/>
      </Node>
    </BinaryTree>
    <BinaryTree type="DecisionTree" boostWeight="1.0000000000000000e+00" itree="328">
      <Node pos="s" depth="0" NCoef="0" IVar="9" Cut="-4.7619048506021500e-02" cType="1" res="-1.4093111967667937e-03" rms="4.3258723616600037e-01" purity="4.9874874949455261e-01" nType="0">
        <Node pos="l" depth="1" NCoef="0" IVar="8" Cut="7.0792996883392334e-01" cType="1" res="1.8737844657152891e-03" rms="4.3397310376167297e-01" purity="4.9554327130317688e-01" nType="0">
          <Node pos="l" depth="2" NCoef="0" IVar="-1" Cut="0.0000000000000000e+00" cType="1" res="9.9347147624939680e-04" rms="4.3727278709411621e-01" purity="4.9948516488075256e-01" nType="-99"/>
          <Node pos="r" depth="2" NCoef="0" IVar="-1" Cut="0.0000000000000000e+00" cType="1" res="-2.9939636588096619e-03" rms="4.1169682145118713e-01" purity="4.6996012330055237e-01" nType="-99"/>
        </Node>
        <Node pos="r" depth="1" NCoef="0" IVar="2" Cut="2.2797290235757828e-02" cType="1" res="-4.0576350875198841e-03" rms="4.3144783377647400e-01" purity="5.0133448839187622e-01" nType="0">
          <Node pos="l" depth="2" NCoef="0" IVar="-1" Cut="0.0000000000000000e+00" cType="1" res="-2.4765150155872107e-03" rms="4.3205079436302185e-01" purity="4.9273604154586792e-01" nType="-99"/>
          <Node pos="r" depth="2" NCoef="0" IVar="-1" Cut="0.0000000000000000e+00" cType="1" res="5.1308970432728529e-04" rms="4.3069756031036377e-01" purity="5.1088577508926392e-01" nType="-99"/>
        </Node>
      </Node>
    </BinaryTree>
    <BinaryTree type="DecisionTree" boostWeight="1.0000000000000000e+00" itree="329">
      <Node pos="s" depth="0" NCoef="0" IVar="9" Cut="-7.1428573131561279e-01" cType="1" res="8.4835558664053679e-04" rms="4.3316444754600525e-01" purity="5.0076997280120850e-01" nType="0">
        <Node pos="l" depth="1" NCoef="0" IVar="-1" Cut="0.0000000000000000e+00" cType="1" res="-3.9822752587497234e-03" rms="4.3999007344245911e-01" purity="3.7492698431015015e-01" nType="-99"/>
        <Node pos="r" depth="1" NCoef="0" IVar="8" Cut="-9.8726063966751099e-01" cType="1" res="1.6517417971044779e-03" rms="4.3280896544456482e-01" purity="5.0697982311248779e-01" nType="0">
          <Node pos="l" depth="2" NCoef="0" IVar="-1" Cut="0.0000000000000000e+00" cType="1" res="-1.5804718714207411e-03" rms="4.2217999696731567e-01" purity="6.1197030544281006e-01" nType="-99"/>
          <Node pos="r" depth="2" NCoef="0" IVar="-1" Cut="0.0000000000000000e+00" cType="1" res="7.7364797471091151e-04" rms="4.3465429544448853e-01" purity="4.8835420608520508e-01" nType="-99"/>
        </Node>
      </Node>
    </BinaryTree>
    <BinaryTree type="DecisionTree" boostWeight="1.0000000000000000e+00" itree="330">
      <Node pos="s" depth="0" NCoef="0" IVar="10" Cut="8.9523811340332031e+00" cType="1" res="-2.0641179289668798e-03" rms="4.3312960863113403e-01" purity="4.9772864580154419e-01" nType="0">
        <Node pos="l" depth="1" NCoef="0" IVar="0" Cut="1.2725206613540649e+00" cType="1" res="4.1741561144590378e-03" rms="4.5866492390632629e-01" purity="5.2535939216613770e-01" nType="0">
          <Node pos="l" depth="2" NCoef="0" IVar="-1" Cut="0.0000000000000000e+00" cType="1" res="-1.6531993169337511e-03" rms="4.6310538053512573e-01" purity="6.0031723976135254e-01" nType="-99"/>
          <Node pos="r" depth="2" NCoef="0" IVar="-1" Cut="0.0000000000000000e+00" cType="1" res="6.4108381047844887e-03" rms="4.4892778992652893e-01" purity="3.7694069743156433e-01" nType="-99"/>
        </Node>
        <Node pos="r" depth="1" NCoef="0" IVar="0" Cut="1.4762276411056519e+00" cType="1" res="-4.5426576398313046e-03" rms="4.2253044247627258e-01" purity="4.8675057291984558e-01" nType="0">
          <Node pos="l" depth="2" NCoef="0" IVar="-1" Cut="0.0000000000000000e+00" cType="1" res="-7.2756485315039754e-04" rms="4.2645046114921570e-01" purity="5.0453066825866699e-01" nType="-99"/>
          <Node pos="r" depth="2" NCoef="0" IVar="-1" Cut="0.0000000000000000e+00" cType="1" res="-1.4783418737351894e-02" rms="3.3672955632209778e-01" purity="1.4580604434013367e-01" nType="-99"/>
        </Node>
      </Node>
    </BinaryTree>
    <BinaryTree type="DecisionTree" boostWeight="1.0000000000000000e+00" itree="331">
      <Node pos="s" depth="0" NCoef="0" IVar="9" Cut="3.3333334326744080e-01" cType="1" res="8.1293622497469187e-04" rms="4.3255802989006042e-01" purity="5.0063103437423706e-01" nType="0">
        <Node pos="l" depth="1" NCoef="0" IVar="0" Cut="1.2725206613540649e+00" cType="1" res="-4.4539489317685366e-04" rms="4.3191012740135193e-01" purity="5.0474286079406738e-01" nType="0">
          <Node pos="l" depth="2" NCoef="0" IVar="-1" Cut="0.0000000000000000e+00" cType="1" res="2.9953374178148806e-04" rms="4.3766108155250549e-01" purity="5.5507707595825195e-01" nType="-99"/>
          <Node pos="r" depth="2" NCoef="0" IVar="-1" Cut="0.0000000000000000e+00" cType="1" res="-2.2920272313058376e-03" rms="4.0383458137512207e-01" purity="2.6926344633102417e-01" nType="-99"/>
        </Node>
        <Node pos="r" depth="1" NCoef="0" IVar="8" Cut="1.3432544469833374e-01" cType="1" res="5.7490314356982708e-03" rms="4.3505522608757019e-01" purity="4.8450163006782532e-01" nType="0">
          <Node pos="l" depth="2" NCoef="0" IVar="-1" Cut="0.0000000000000000e+00" cType="1" res="-1.6899389447644353e-03" rms="4.2600235342979431e-01" purity="3.6308494210243225e-01" nType="-99"/>
          <Node pos="r" depth="2" NCoef="0" IVar="-1" Cut="0.0000000000000000e+00" cType="1" res="3.7779153790324926e-03" rms="4.4149389863014221e-01" purity="5.7533586025238037e-01" nType="-99"/>
        </Node>
      </Node>
    </BinaryTree>
    <BinaryTree type="DecisionTree" boostWeight="1.0000000000000000e+00" itree="332">
      <Node pos="s" depth="0" NCoef="0" IVar="9" Cut="7.1428573131561279e-01" cType="1" res="4.2230519466102123e-04" rms="4.3273952603340149e-01" purity="5.0104856491088867e-01" nType="0">
        <Node pos="l" depth="1" NCoef="0" IVar="5" Cut="2.1532218456268311e+00" cType="1" res="9.9781237076967955e-04" rms="4.3212139606475830e-01" purity="5.0679767131805420e-01" nType="0">
          <Node pos="l" depth="2" NCoef="0" IVar="-1" Cut="0.0000000000000000e+00" cType="1" res="6.2538182828575373e-04" rms="4.3395376205444336e-01" purity="5.1108443737030029e-01" nType="-99"/>
          <Node pos="r" depth="2" NCoef="0" IVar="-1" Cut="0.0000000000000000e+00" cType="1" res="-1.4527539024129510e-03" rms="4.2368471622467041e-01" purity="4.8742544651031494e-01" nType="-99"/>
        </Node>
        <Node pos="r" depth="1" NCoef="0" IVar="-1" Cut="0.0000000000000000e+00" cType="1" res="-2.8055110014975071e-03" rms="4.4467869400978088e-01" purity="3.8691720366477966e-01" nType="-99"/>
      </Node>
    </BinaryTree>
    <BinaryTree type="DecisionTree" boostWeight="1.0000000000000000e+00" itree="333">
      <Node pos="s" depth="0" NCoef="0" IVar="4" Cut="5.2655667066574097e-01" cType="1" res="-1.5048993518576026e-03" rms="4.3404421210289001e-01" purity="4.9892997741699219e-01" nType="0">
        <Node pos="l" depth="1" NCoef="0" IVar="7" Cut="4.0696434974670410e+00" cType="1" res="3.7045951467007399e-03" rms="3.7156358361244202e-01" purity="1.8304885923862457e-01" nType="0">
          <Node pos="l" depth="2" NCoef="0" IVar="-1" Cut="0.0000000000000000e+00" cType="1" res="3.6442300770431757e-03" rms="3.8118186593055725e-01" purity="1.9441662728786469e-01" nType="-99"/>
          <Node pos="r" depth="2" NCoef="0" IVar="-1" Cut="0.0000000000000000e+00" cType="1" res="-1.2238485738635063e-02" rms="3.1653743982315063e-01" purity="1.2562699615955353e-01" nType="-99"/>
        </Node>
        <Node pos="r" depth="1" NCoef="0" IVar="4" Cut="9.6696645021438599e-01" cType="1" res="-2.9335790313780308e-03" rms="4.4965431094169617e-01" purity="5.8555889129638672e-01" nType="0">
          <Node pos="l" depth="2" NCoef="0" IVar="-1" Cut="0.0000000000000000e+00" cType="1" res="-1.3239778345450759e-03" rms="4.5468521118164062e-01" purity="5.6008911132812500e-01" nType="-99"/>
          <Node pos="r" depth="2" NCoef="0" IVar="-1" Cut="0.0000000000000000e+00" cType="1" res="3.6552606616169214e-03" rms="4.1645976901054382e-01" purity="7.4480766057968140e-01" nType="-99"/>
        </Node>
      </Node>
    </BinaryTree>
    <BinaryTree type="DecisionTree" boostWeight="1.0000000000000000e+00" itree="334">
      <Node pos="s" depth="0" NCoef="0" IVar="0" Cut="1.2737600803375244e+00" cType="1" res="6.9471064489334822e-04" rms="4.3260782957077026e-01" purity="5.0084257125854492e-01" nType="0">
        <Node pos="l" depth="1" NCoef="0" IVar="4" Cut="7.3737764358520508e-01" cType="1" res="2.8780510183423758e-03" rms="4.3889740109443665e-01" purity="5.5433362722396851e-01" nType="0">
          <Node pos="l" depth="2" NCoef="0" IVar="-1" Cut="0.0000000000000000e+00" cType="1" res="2.1871989592909813e-03" rms="4.3946200609207153e-01" purity="3.6125376820564270e-01" nType="-99"/>
          <Node pos="r" depth="2" NCoef="0" IVar="-1" Cut="0.0000000000000000e+00" cType="1" res="-2.1241573267616332e-04" rms="4.3848136067390442e-01" purity="6.8309980630874634e-01" nType="-99"/>
        </Node>
        <Node pos="r" depth="1" NCoef="0" IVar="10" Cut="1.5714285850524902e+01" cType="1" res="-8.6259990930557251e-03" rms="4.0452718734741211e-01" purity="2.7248841524124146e-01" nType="0">
          <Node pos="l" depth="2" NCoef="0" IVar="-1" Cut="0.0000000000000000e+00" cType="1" res="7.8609492629766464e-04" rms="4.3313446640968323e-01" purity="3.2746282219886780e-01" nType="-99"/>
          <Node pos="r" depth="2" NCoef="0" IVar="-1" Cut="0.0000000000000000e+00" cType="1" res="-1.7070105299353600e-02" rms="3.0753582715988159e-01" purity="1.1742106080055237e-01" nType="-99"/>
        </Node>
      </Node>
    </BinaryTree>
    <BinaryTree type="DecisionTree" boostWeight="1.0000000000000000e+00" itree="335">
      <Node pos="s" depth="0" NCoef="0" IVar="8" Cut="6.8032041192054749e-02" cType="1" res="-1.3148073048796505e-04" rms="4.3336731195449829e-01" purity="4.9964419007301331e-01" nType="0">
        <Node pos="l" depth="1" NCoef="0" IVar="7" Cut="2.8278248310089111e+00" cType="1" res="1.9045531516894698e-03" rms="4.3512713909149170e-01" purity="4.9374672770500183e-01" nType="0">
          <Node pos="l" depth="2" NCoef="0" IVar="-1" Cut="0.0000000000000000e+00" cType="1" res="-5.7843554532155395e-04" rms="4.4679737091064453e-01" purity="4.2839092016220093e-01" nType="-99"/>
          <Node pos="r" depth="2" NCoef="0" IVar="-1" Cut="0.0000000000000000e+00" cType="1" res="1.7350460402667522e-03" rms="4.2231294512748718e-01" purity="5.6327068805694580e-01" nType="-99"/>
        </Node>
        <Node pos="r" depth="1" NCoef="0" IVar="9" Cut="-4.2324882000684738e-02" cType="1" res="-2.6144064031541348e-03" rms="4.3119847774505615e-01" purity="5.0683611631393433e-01" nType="0">
          <Node pos="l" depth="2" NCoef="0" IVar="-1" Cut="0.0000000000000000e+00" cType="1" res="-2.3091209586709738e-03" rms="4.2137247323989868e-01" purity="4.1869211196899414e-01" nType="-99"/>
          <Node pos="r" depth="2" NCoef="0" IVar="-1" Cut="0.0000000000000000e+00" cType="1" res="6.4876621763687581e-05" rms="4.3598711490631104e-01" purity="5.5078822374343872e-01" nType="-99"/>
        </Node>
      </Node>
    </BinaryTree>
    <BinaryTree type="DecisionTree" boostWeight="1.0000000000000000e+00" itree="336">
      <Node pos="s" depth="0" NCoef="0" IVar="3" Cut="5.2380955219268799e-01" cType="1" res="-2.3043646942824125e-03" rms="4.3362680077552795e-01" purity="4.9859619140625000e-01" nType="0">
        <Node pos="l" depth="1" NCoef="0" IVar="9" Cut="-7.1428573131561279e-01" cType="1" res="-3.6092654336243868e-03" rms="4.3139633536338806e-01" purity="4.9688825011253357e-01" nType="0">
          <Node pos="l" depth="2" NCoef="0" IVar="-1" Cut="0.0000000000000000e+00" cType="1" res="2.4570401292294264e-03" rms="4.4138172268867493e-01" purity="3.9275169372558594e-01" nType="-99"/>
          <Node pos="r" depth="2" NCoef="0" IVar="-1" Cut="0.0000000000000000e+00" cType="1" res="-1.1049394961446524e-03" rms="4.3095543980598450e-01" purity="5.0134187936782837e-01" nType="-99"/>
        </Node>
        <Node pos="r" depth="1" NCoef="0" IVar="0" Cut="9.5280802249908447e-01" cType="1" res="7.9206116497516632e-03" rms="4.5059171319007874e-01" purity="5.1197952032089233e-01" nType="0">
          <Node pos="l" depth="2" NCoef="0" IVar="-1" Cut="0.0000000000000000e+00" cType="1" res="-2.2920549381524324e-03" rms="4.4908821582794189e-01" purity="6.2615782022476196e-01" nType="-99"/>
          <Node pos="r" depth="2" NCoef="0" IVar="-1" Cut="0.0000000000000000e+00" cType="1" res="5.2839275449514389e-03" rms="4.5133817195892334e-01" purity="4.1907298564910889e-01" nType="-99"/>
        </Node>
      </Node>
    </BinaryTree>
    <BinaryTree type="DecisionTree" boostWeight="1.0000000000000000e+00" itree="337">
      <Node pos="s" depth="0" NCoef="0" IVar="7" Cut="2.8278248310089111e+00" cType="1" res="8.5357972420752048e-04" rms="4.3330499529838562e-01" purity="5.0061327219009399e-01" nType="0">
        <Node pos="l" depth="1" NCoef="0" IVar="8" Cut="5.7471716403961182e-01" cType="1" res="-2.1733031608164310e-03" rms="4.4402575492858887e-01" purity="4.3484443426132202e-01" nType="0">
          <Node pos="l" depth="2" NCoef="0" IVar="-1" Cut="0.0000000000000000e+00" cType="1" res="-1.3411667896434665e-03" rms="4.4357872009277344e-01" purity="4.1921913623809814e-01" nType="-99"/>
          <Node pos="r" depth="2" NCoef="0" IVar="-1" Cut="0.0000000000000000e+00" cType="1" res="4.4418256729841232e-03" rms="4.4635382294654846e-01" purity="5.3451502323150635e-01" nType="-99"/>
        </Node>
        <Node pos="r" depth="1" NCoef="0" IVar="4" Cut="4.3314287066459656e-01" cType="1" res="3.6381192039698362e-03" rms="4.2318370938301086e-01" purity="5.6111645698547363e-01" nType="0">
          <Node pos="l" depth="2" NCoef="0" IVar="-1" Cut="0.0000000000000000e+00" cType="1" res="-8.2879737019538879e-03" rms="2.6530620455741882e-01" purity="7.7226065099239349e-02" nType="-99"/>
          <Node pos="r" depth="2" NCoef="0" IVar="-1" Cut="0.0000000000000000e+00" cType="1" res="1.3875518925487995e-03" rms="4.3612319231033325e-01" purity="6.1075854301452637e-01" nType="-99"/>
        </Node>
      </Node>
    </BinaryTree>
    <BinaryTree type="DecisionTree" boostWeight="1.0000000000000000e+00" itree="338">
      <Node pos="s" depth="0" NCoef="0" IVar="10" Cut="5.7333332061767578e+01" cType="1" res="-7.4661249527707696e-04" rms="4.3329867720603943e-01" purity="4.9858114123344421e-01" nType="0">
        <Node pos="l" depth="1" NCoef="0" IVar="0" Cut="1.0932023525238037e+00" cType="1" res="-1.9504141528159380e-04" rms="4.3352636694908142e-01" purity="5.0522661209106445e-01" nType="0">
          <Node pos="l" depth="2" NCoef="0" IVar="-1" Cut="0.0000000000000000e+00" cType="1" res="-6.2748161144554615e-04" rms="4.3830299377441406e-01" purity="6.0036528110504150e-01" nType="-99"/>
          <Node pos="r" depth="2" NCoef="0" IVar="-1" Cut="0.0000000000000000e+00" cType="1" res="1.0747113265097141e-03" rms="4.2427542805671692e-01" purity="3.2455149292945862e-01" nType="-99"/>
        </Node>
        <Node pos="r" depth="1" NCoef="0" IVar="-1" Cut="0.0000000000000000e+00" cType="1" res="-3.4720811527222395e-03" rms="4.2803940176963806e-01" purity="3.5130423307418823e-01" nType="-99"/>
      </Node>
    </BinaryTree>
    <BinaryTree type="DecisionTree" boostWeight="1.0000000000000000e+00" itree="339">
      <Node pos="s" depth="0" NCoef="0" IVar="4" Cut="9.4626301527023315e-01" cType="1" res="1.6037767054513097e-03" rms="4.3361544609069824e-01" purity="5.0068038702011108e-01" nType="0">
        <Node pos="l" depth="1" NCoef="0" IVar="2" Cut="-1.9144723415374756e+00" cType="1" res="2.9756203293800354e-03" rms="4.3574884533882141e-01" purity="4.5066002011299133e-01" nType="0">
          <Node pos="l" depth="2" NCoef="0" IVar="-1" Cut="0.0000000000000000e+00" cType="1" res="5.3294110111892223e-03" rms="4.1665810346603394e-01" purity="5.0772005319595337e-01" nType="-99"/>
          <Node pos="r" depth="2" NCoef="0" IVar="-1" Cut="0.0000000000000000e+00" cType="1" res="5.2740750834345818e-04" rms="4.3680009245872498e-01" purity="4.4738647341728210e-01" nType="-99"/>
        </Node>
        <Node pos="r" depth="1" NCoef="0" IVar="0" Cut="1.0586920976638794e+00" cType="1" res="-4.6813734807074070e-03" rms="4.2364716529846191e-01" purity="7.2985023260116577e-01" nType="0">
          <Node pos="l" depth="2" NCoef="0" IVar="-1" Cut="0.0000000000000000e+00" cType="1" res="-4.7543421387672424e-03" rms="4.1280889511108398e-01" purity="7.5632321834564209e-01" nType="-99"/>
          <Node pos="r" depth="2" NCoef="0" IVar="-1" Cut="0.0000000000000000e+00" cType="1" res="8.3331996574997902e-03" rms="4.6040144562721252e-01" purity="6.2821769714355469e-01" nType="-99"/>
        </Node>
      </Node>
    </BinaryTree>
    <BinaryTree type="DecisionTree" boostWeight="1.0000000000000000e+00" itree="340">
      <Node pos="s" depth="0" NCoef="0" IVar="3" Cut="2.3809523880481720e-01" cType="1" res="1.1076957453042269e-03" rms="4.3280789256095886e-01" purity="5.0095939636230469e-01" nType="0">
        <Node pos="l" depth="1" NCoef="0" IVar="3" Cut="-5.8730661869049072e-01" cType="1" res="-1.9424159836489707e-04" rms="4.3031179904937744e-01" purity="4.9746790528297424e-01" nType="0">
          <Node pos="l" depth="2" NCoef="0" IVar="-1" Cut="0.0000000000000000e+00" cType="1" res="1.7530660843476653e-03" rms="4.5173713564872742e-01" purity="5.1111197471618652e-01" nType="-99"/>
          <Node pos="r" depth="2" NCoef="0" IVar="-1" Cut="0.0000000000000000e+00" cType="1" res="-3.4359953133389354e-04" rms="4.2702442407608032e-01" purity="4.9543967843055725e-01" nType="-99"/>
        </Node>
        <Node pos="r" depth="1" NCoef="0" IVar="7" Cut="2.3428637981414795e+00" cType="1" res="4.5775566250085831e-03" rms="4.3937221169471741e-01" purity="5.1026487350463867e-01" nType="0">
          <Node pos="l" depth="2" NCoef="0" IVar="-1" Cut="0.0000000000000000e+00" cType="1" res="6.1375125369522721e-05" rms="4.5273461937904358e-01" purity="4.4565209746360779e-01" nType="-99"/>
          <Node pos="r" depth="2" NCoef="0" IVar="-1" Cut="0.0000000000000000e+00" cType="1" res="2.2896840237081051e-03" rms="4.2696985602378845e-01" purity="5.6833016872406006e-01" nType="-99"/>
        </Node>
      </Node>
    </BinaryTree>
    <BinaryTree type="DecisionTree" boostWeight="1.0000000000000000e+00" itree="341">
      <Node pos="s" depth="0" NCoef="0" IVar="3" Cut="1.4285714924335480e-01" cType="1" res="-1.0730812791734934e-03" rms="4.3346258997917175e-01" purity="4.9831879138946533e-01" nType="0">
        <Node pos="l" depth="1" NCoef="0" IVar="4" Cut="3.5837975144386292e-01" cType="1" res="1.1848157737404108e-03" rms="4.3138906359672546e-01" purity="4.9865525960922241e-01" nType="0">
          <Node pos="l" depth="2" NCoef="0" IVar="-1" Cut="0.0000000000000000e+00" cType="1" res="-8.6957942694425583e-03" rms="2.5395178794860840e-01" purity="7.1890607476234436e-02" nType="-99"/>
          <Node pos="r" depth="2" NCoef="0" IVar="-1" Cut="0.0000000000000000e+00" cType="1" res="5.4025650024414062e-04" rms="4.4032344222068787e-01" purity="5.2603769302368164e-01" nType="-99"/>
        </Node>
        <Node pos="r" depth="1" NCoef="0" IVar="6" Cut="2.4285714626312256e+00" cType="1" res="-5.2042291499674320e-03" rms="4.3720081448554993e-01" purity="4.9770310521125793e-01" nType="0">
          <Node pos="l" depth="2" NCoef="0" IVar="-1" Cut="0.0000000000000000e+00" cType="1" res="-8.6838303832337260e-04" rms="4.3866357207298279e-01" purity="5.0322788953781128e-01" nType="-99"/>
          <Node pos="r" depth="2" NCoef="0" IVar="-1" Cut="0.0000000000000000e+00" cType="1" res="-3.1684439163655043e-03" rms="4.3174371123313904e-01" purity="4.7749927639961243e-01" nType="-99"/>
        </Node>
      </Node>
    </BinaryTree>
    <BinaryTree type="DecisionTree" boostWeight="1.0000000000000000e+00" itree="342">
      <Node pos="s" depth="0" NCoef="0" IVar="3" Cut="4.7619048506021500e-02" cType="1" res="8.6667918367311358e-04" rms="4.3355885148048401e-01" purity="5.0050711631774902e-01" nType="0">
        <Node pos="l" depth="1" NCoef="0" IVar="9" Cut="3.3333334326744080e-01" cType="1" res="-2.1318977233022451e-03" rms="4.3301087617874146e-01" purity="4.9583461880683899e-01" nType="0">
          <Node pos="l" depth="2" NCoef="0" IVar="-1" Cut="0.0000000000000000e+00" cType="1" res="-8.3777311374433339e-05" rms="4.3289750814437866e-01" purity="5.0317722558975220e-01" nType="-99"/>
          <Node pos="r" depth="2" NCoef="0" IVar="-1" Cut="0.0000000000000000e+00" cType="1" res="-2.4774677585810423e-03" rms="4.3338739871978760e-01" purity="4.6653094887733459e-01" nType="-99"/>
        </Node>
        <Node pos="r" depth="1" NCoef="0" IVar="10" Cut="4.1523811340332031e+01" cType="1" res="4.5804986730217934e-03" rms="4.3420788645744324e-01" purity="5.0629413127899170e-01" nType="0">
          <Node pos="l" depth="2" NCoef="0" IVar="-1" Cut="0.0000000000000000e+00" cType="1" res="1.6350431833416224e-03" rms="4.3515086174011230e-01" purity="5.1369917392730713e-01" nType="-99"/>
          <Node pos="r" depth="2" NCoef="0" IVar="-1" Cut="0.0000000000000000e+00" cType="1" res="-2.5151313748210669e-03" rms="4.2603129148483276e-01" purity="4.4475096464157104e-01" nType="-99"/>
        </Node>
      </Node>
    </BinaryTree>
    <BinaryTree type="DecisionTree" boostWeight="1.0000000000000000e+00" itree="343">
      <Node pos="s" depth="0" NCoef="0" IVar="7" Cut="2.3826427459716797e+00" cType="1" res="1.6034084837883711e-03" rms="4.3374484777450562e-01" purity="5.0156974792480469e-01" nType="0">
        <Node pos="l" depth="1" NCoef="0" IVar="4" Cut="4.4904127717018127e-01" cType="1" res="-1.6930224373936653e-03" rms="4.4856718182563782e-01" purity="4.3357303738594055e-01" nType="0">
          <Node pos="l" depth="2" NCoef="0" IVar="-1" Cut="0.0000000000000000e+00" cType="1" res="8.5946461185812950e-03" rms="3.7258651852607727e-01" purity="1.7590659856796265e-01" nType="-99"/>
          <Node pos="r" depth="2" NCoef="0" IVar="-1" Cut="0.0000000000000000e+00" cType="1" res="-1.5074986731633544e-03" rms="4.6256434917449951e-01" purity="4.8680478334426880e-01" nType="-99"/>
        </Node>
        <Node pos="r" depth="1" NCoef="0" IVar="4" Cut="4.4337648153305054e-01" cType="1" res="3.6860578693449497e-03" rms="4.2410010099411011e-01" purity="5.4452931880950928e-01" nType="0">
          <Node pos="l" depth="2" NCoef="0" IVar="-1" Cut="0.0000000000000000e+00" cType="1" res="-5.9481370262801647e-03" rms="2.8145751357078552e-01" purity="8.9293368160724640e-02" nType="-99"/>
          <Node pos="r" depth="2" NCoef="0" IVar="-1" Cut="0.0000000000000000e+00" cType="1" res="1.4013777254149318e-03" rms="4.3905869126319885e-01" purity="6.0306090116500854e-01" nType="-99"/>
        </Node>
      </Node>
    </BinaryTree>
    <BinaryTree type="DecisionTree" boostWeight="1.0000000000000000e+00" itree="344">
      <Node pos="s" depth="0" NCoef="0" IVar="3" Cut="-4.7619048506021500e-02" cType="1" res="9.1653113486245275e-04" rms="4.3357533216476440e-01" purity="5.0134623050689697e-01" nType="0">
        <Node pos="l" depth="1" NCoef="0" IVar="0" Cut="1.0149223804473877e+00" cType="1" res="-3.6086577456444502e-03" rms="4.3589344620704651e-01" purity="4.9900734424591064e-01" nType="0">
          <Node pos="l" depth="2" NCoef="0" IVar="-1" Cut="0.0000000000000000e+00" cType="1" res="-3.0270656570792198e-03" rms="4.3951758742332458e-01" purity="6.0913360118865967e-01" nType="-99"/>
          <Node pos="r" depth="2" NCoef="0" IVar="-1" Cut="0.0000000000000000e+00" cType="1" res="1.7762602074071765e-03" rms="4.3086373805999756e-01" purity="3.5424649715423584e-01" nType="-99"/>
        </Node>
        <Node pos="r" depth="1" NCoef="0" IVar="5" Cut="2.1614058017730713e+00" cType="1" res="4.6807914040982723e-03" rms="4.3160140514373779e-01" purity="5.0329178571701050e-01" nType="0">
          <Node pos="l" depth="2" NCoef="0" IVar="-1" Cut="0.0000000000000000e+00" cType="1" res="1.6900484915822744e-03" rms="4.3392935395240784e-01" purity="5.0763577222824097e-01" nType="-99"/>
          <Node pos="r" depth="2" NCoef="0" IVar="-1" Cut="0.0000000000000000e+00" cType="1" res="-1.0146112181246281e-03" rms="4.2051559686660767e-01" purity="4.8311093449592590e-01" nType="-99"/>
        </Node>
      </Node>
    </BinaryTree>
    <BinaryTree type="DecisionTree" boostWeight="1.0000000000000000e+00" itree="345">
      <Node pos="s" depth="0" NCoef="0" IVar="8" Cut="-2.7350649237632751e-01" cType="1" res="-1.9505074014887214e-03" rms="4.3337729573249817e-01" purity="4.9842062592506409e-01" nType="0">
        <Node pos="l" depth="1" NCoef="0" IVar="10" Cut="3.6333332061767578e+01" cType="1" res="2.1314276382327080e-03" rms="4.3105486035346985e-01" purity="5.3033316135406494e-01" nType="0">
          <Node pos="l" depth="2" NCoef="0" IVar="-1" Cut="0.0000000000000000e+00" cType="1" res="1.1825945693999529e-03" rms="4.3279403448104858e-01" purity="5.4153430461883545e-01" nType="-99"/>
          <Node pos="r" depth="2" NCoef="0" IVar="-1" Cut="0.0000000000000000e+00" cType="1" res="-2.3713817354291677e-03" rms="4.2263308167457581e-01" purity="4.7781297564506531e-01" nType="-99"/>
        </Node>
        <Node pos="r" depth="1" NCoef="0" IVar="7" Cut="2.2850849628448486e+00" cType="1" res="-4.3423478491604328e-03" rms="4.3471455574035645e-01" purity="4.7972124814987183e-01" nType="0">
          <Node pos="l" depth="2" NCoef="0" IVar="-1" Cut="0.0000000000000000e+00" cType="1" res="-2.3695165291428566e-03" rms="4.4817078113555908e-01" purity="4.1643306612968445e-01" nType="-99"/>
          <Node pos="r" depth="2" NCoef="0" IVar="-1" Cut="0.0000000000000000e+00" cType="1" res="-1.4731756527908146e-04" rms="4.2456707358360291e-01" purity="5.2598911523818970e-01" nType="-99"/>
        </Node>
      </Node>
    </BinaryTree>
    <BinaryTree type="DecisionTree" boostWeight="1.0000000000000000e+00" itree="346">
      <Node pos="s" depth="0" NCoef="0" IVar="1" Cut="9.2813520431518555e+00" cType="1" res="8.8327162666246295e-04" rms="4.3342301249504089e-01" purity="5.0022947788238525e-01" nType="0">
        <Node pos="l" depth="1" NCoef="0" IVar="1" Cut="1.3362900018692017e+00" cType="1" res="9.5761373813729733e-05" rms="4.3477296829223633e-01" purity="4.9956467747688293e-01" nType="0">
          <Node pos="l" depth="2" NCoef="0" IVar="-1" Cut="0.0000000000000000e+00" cType="1" res="-1.2738843215629458e-03" rms="4.6776366233825684e-01" purity="4.8253566026687622e-01" nType="-99"/>
          <Node pos="r" depth="2" NCoef="0" IVar="-1" Cut="0.0000000000000000e+00" cType="1" res="2.5257113156840205e-04" rms="4.2950373888015747e-01" purity="5.0216615200042725e-01" nType="-99"/>
        </Node>
        <Node pos="r" depth="1" NCoef="0" IVar="3" Cut="-2.9498917981982231e-02" cType="1" res="9.9617196246981621e-03" rms="4.1743853688240051e-01" purity="5.0789332389831543e-01" nType="0">
          <Node pos="l" depth="2" NCoef="0" IVar="-1" Cut="0.0000000000000000e+00" cType="1" res="5.2694496698677540e-03" rms="4.1870847344398499e-01" purity="5.2400451898574829e-01" nType="-99"/>
          <Node pos="r" depth="2" NCoef="0" IVar="-1" Cut="0.0000000000000000e+00" cType="1" res="4.8911123303696513e-04" rms="4.1611188650131226e-01" purity="4.9325662851333618e-01" nType="-99"/>
        </Node>
      </Node>
    </BinaryTree>
    <BinaryTree type="DecisionTree" boostWeight="1.0000000000000000e+00" itree="347">
      <Node pos="s" depth="0" NCoef="0" IVar="10" Cut="5.2285713195800781e+01" cType="1" res="-1.1391063453629613e-03" rms="4.3334054946899414e-01" purity="4.9965804815292358e-01" nType="0">
        <Node pos="l" depth="1" NCoef="0" IVar="5" Cut="-4.0823861956596375e-02" cType="1" res="-1.9503333605825901e-03" rms="4.3378901481628418e-01" purity="5.0621813535690308e-01" nType="0">
          <Node pos="l" depth="2" NCoef="0" IVar="-1" Cut="0.0000000000000000e+00" cType="1" res="6.1404714360833168e-03" rms="4.6335700154304504e-01" purity="5.5080872774124146e-01" nType="-99"/>
          <Node pos="r" depth="2" NCoef="0" IVar="-1" Cut="0.0000000000000000e+00" cType="1" res="-8.6376635590568185e-04" rms="4.3229648470878601e-01" purity="5.0410974025726318e-01" nType="-99"/>
        </Node>
        <Node pos="r" depth="1" NCoef="0" IVar="-1" Cut="0.0000000000000000e+00" cType="1" res="3.1367675401270390e-03" rms="4.2598921060562134e-01" purity="3.9603808522224426e-01" nType="-99"/>
      </Node>
    </BinaryTree>
    <BinaryTree type="DecisionTree" boostWeight="1.0000000000000000e+00" itree="348">
      <Node pos="s" depth="0" NCoef="0" IVar="9" Cut="6.1904764175415039e-01" cType="1" res="-7.2034751065075397e-04" rms="4.3347349762916565e-01" purity="4.9924185872077942e-01" nType="0">
        <Node pos="l" depth="1" NCoef="0" IVar="9" Cut="-7.6870828866958618e-01" cType="1" res="-1.5952178509905934e-03" rms="4.3248179554939270e-01" purity="5.0411623716354370e-01" nType="0">
          <Node pos="l" depth="2" NCoef="0" IVar="-1" Cut="0.0000000000000000e+00" cType="1" res="-5.8587291277945042e-03" rms="4.4895109534263611e-01" purity="3.5630485415458679e-01" nType="-99"/>
          <Node pos="r" depth="2" NCoef="0" IVar="-1" Cut="0.0000000000000000e+00" cType="1" res="-2.0057073561474681e-04" rms="4.3179973959922791e-01" purity="5.0993055105209351e-01" nType="-99"/>
        </Node>
        <Node pos="r" depth="1" NCoef="0" IVar="9" Cut="7.6419252157211304e-01" cType="1" res="1.0095961391925812e-02" rms="4.4541022181510925e-01" purity="4.3897876143455505e-01" nType="0">
          <Node pos="l" depth="2" NCoef="0" IVar="-1" Cut="0.0000000000000000e+00" cType="1" res="5.9289080090820789e-03" rms="4.3980425596237183e-01" purity="4.8712852597236633e-01" nType="-99"/>
          <Node pos="r" depth="2" NCoef="0" IVar="-1" Cut="0.0000000000000000e+00" cType="1" res="-8.7713426910340786e-04" rms="4.5092266798019409e-01" purity="3.8757747411727905e-01" nType="-99"/>
        </Node>
      </Node>
    </BinaryTree>
    <BinaryTree type="DecisionTree" boostWeight="1.0000000000000000e+00" itree="349">
      <Node pos="s" depth="0" NCoef="0" IVar="3" Cut="-4.7619048506021500e-02" cType="1" res="-1.9571159500628710e-03" rms="4.3341735005378723e-01" purity="4.9803835153579712e-01" nType="0">
        <Node pos="l" depth="1" NCoef="0" IVar="1" Cut="3.8078997135162354e+00" cType="1" res="-4.3140919879078865e-03" rms="4.3370506167411804e-01" purity="4.9826219677925110e-01" nType="0">
          <Node pos="l" depth="2" NCoef="0" IVar="-1" Cut="0.0000000000000000e+00" cType="1" res="-2.0698588341474533e-03" rms="4.4147163629531860e-01" purity="4.9763020873069763e-01" nType="-99"/>
          <Node pos="r" depth="2" NCoef="0" IVar="-1" Cut="0.0000000000000000e+00" cType="1" res="5.3595856297761202e-04" rms="4.2061081528663635e-01" purity="4.9929633736610413e-01" nType="-99"/>
        </Node>
        <Node pos="r" depth="1" NCoef="0" IVar="4" Cut="4.0169930458068848e-01" cType="1" res="9.3279741122387350e-06" rms="4.3316739797592163e-01" purity="4.9785161018371582e-01" nType="0">
          <Node pos="l" depth="2" NCoef="0" IVar="-1" Cut="0.0000000000000000e+00" cType="1" res="5.8735022321343422e-03" rms="3.0882486701011658e-01" purity="1.1193848401308060e-01" nType="-99"/>
          <Node pos="r" depth="2" NCoef="0" IVar="-1" Cut="0.0000000000000000e+00" cType="1" res="-2.7920477441512048e-04" rms="4.4453510642051697e-01" purity="5.3964036703109741e-01" nType="-99"/>
        </Node>
      </Node>
    </BinaryTree>
    <BinaryTree type="DecisionTree" boostWeight="1.0000000000000000e+00" itree="350">
      <Node pos="s" depth="0" NCoef="0" IVar="0" Cut="1.1397097110748291e+00" cType="1" res="3.2274890691041946e-04" rms="4.3368861079216003e-01" purity="5.0023061037063599e-01" nType="0">
        <Node pos="l" depth="1" NCoef="0" IVar="1" Cut="3.7678723335266113e+00" cType="1" res="-1.2905737385153770e-03" rms="4.4054156541824341e-01" purity="5.7999390363693237e-01" nType="0">
          <Node pos="l" depth="2" NCoef="0" IVar="-1" Cut="0.0000000000000000e+00" cType="1" res="-2.3367342073470354e-03" rms="4.4655951857566833e-01" purity="5.8366531133651733e-01" nType="-99"/>
          <Node pos="r" depth="2" NCoef="0" IVar="-1" Cut="0.0000000000000000e+00" cType="1" res="2.2980568464845419e-03" rms="4.3258881568908691e-01" purity="5.7534211874008179e-01" nType="-99"/>
        </Node>
        <Node pos="r" depth="1" NCoef="0" IVar="10" Cut="1.7047618865966797e+01" cType="1" res="4.2198365554213524e-03" rms="4.1664442420005798e-01" purity="3.0755692720413208e-01" nType="0">
          <Node pos="l" depth="2" NCoef="0" IVar="-1" Cut="0.0000000000000000e+00" cType="1" res="3.8599739782512188e-03" rms="4.4047486782073975e-01" purity="3.6364504694938660e-01" nType="-99"/>
          <Node pos="r" depth="2" NCoef="0" IVar="-1" Cut="0.0000000000000000e+00" cType="1" res="-7.6869102194905281e-03" rms="3.5393124818801880e-01" purity="1.7748501896858215e-01" nType="-99"/>
        </Node>
      </Node>
    </BinaryTree>
    <BinaryTree type="DecisionTree" boostWeight="1.0000000000000000e+00" itree="351">
      <Node pos="s" depth="0" NCoef="0" IVar="10" Cut="4.9428569793701172e+01" cType="1" res="2.5777479168027639e-03" rms="4.3302607536315918e-01" purity="5.0254487991333008e-01" nType="0">
        <Node pos="l" depth="1" NCoef="0" IVar="8" Cut="-5.8010900020599365e-01" cType="1" res="3.3284812234342098e-03" rms="4.3353170156478882e-01" purity="5.1032197475433350e-01" nType="0">
          <Node pos="l" depth="2" NCoef="0" IVar="-1" Cut="0.0000000000000000e+00" cType="1" res="2.2516723256558180e-03" rms="4.2745879292488098e-01" purity="5.8776354789733887e-01" nType="-99"/>
          <Node pos="r" depth="2" NCoef="0" IVar="-1" Cut="0.0000000000000000e+00" cType="1" res="4.3851818190887570e-04" rms="4.3549957871437073e-01" purity="4.8483172059059143e-01" nType="-99"/>
        </Node>
        <Node pos="r" depth="1" NCoef="0" IVar="4" Cut="7.9518008232116699e-01" cType="1" res="-7.1511389687657356e-03" rms="4.2630001902580261e-01" purity="4.0176039934158325e-01" nType="0">
          <Node pos="l" depth="2" NCoef="0" IVar="-1" Cut="0.0000000000000000e+00" cType="1" res="5.5856909602880478e-03" rms="4.0803897380828857e-01" purity="3.1984248757362366e-01" nType="-99"/>
          <Node pos="r" depth="2" NCoef="0" IVar="-1" Cut="0.0000000000000000e+00" cType="1" res="-8.3249481394886971e-03" rms="4.4268834590911865e-01" purity="4.8603329062461853e-01" nType="-99"/>
        </Node>
      </Node>
    </BinaryTree>
    <BinaryTree type="DecisionTree" boostWeight="1.0000000000000000e+00" itree="352">
      <Node pos="s" depth="0" NCoef="0" IVar="9" Cut="-4.2857143282890320e-01" cType="1" res="-5.4787087719887495e-04" rms="4.3243873119354248e-01" purity="4.9882629513740540e-01" nType="0">
        <Node pos="l" depth="1" NCoef="0" IVar="4" Cut="9.0502619743347168e-01" cType="1" res="-9.5758782699704170e-03" rms="4.3748903274536133e-01" purity="4.4555777311325073e-01" nType="0">
          <Node pos="l" depth="2" NCoef="0" IVar="-1" Cut="0.0000000000000000e+00" cType="1" res="1.6474739823024720e-04" rms="4.2925181984901428e-01" purity="3.5995185375213623e-01" nType="-99"/>
          <Node pos="r" depth="2" NCoef="0" IVar="-1" Cut="0.0000000000000000e+00" cType="1" res="-7.5800120830535889e-03" rms="4.5332744717597961e-01" purity="6.2263172864913940e-01" nType="-99"/>
        </Node>
        <Node pos="r" depth="1" NCoef="0" IVar="6" Cut="-5.5714287757873535e+00" cType="1" res="1.0004977229982615e-03" rms="4.3154764175415039e-01" purity="5.0796222686767578e-01" nType="0">
          <Node pos="l" depth="2" NCoef="0" IVar="-1" Cut="0.0000000000000000e+00" cType="1" res="3.1159785576164722e-03" rms="4.2562496662139893e-01" purity="4.6006748080253601e-01" nType="-99"/>
          <Node pos="r" depth="2" NCoef="0" IVar="-1" Cut="0.0000000000000000e+00" cType="1" res="7.2141403506975621e-05" rms="4.3195635080337524e-01" purity="5.1136642694473267e-01" nType="-99"/>
        </Node>
      </Node>
    </BinaryTree>
    <BinaryTree type="DecisionTree" boostWeight="1.0000000000000000e+00" itree="353">
      <Node pos="s" depth="0" NCoef="0" IVar="6" Cut="-3.9047617912292480e+00" cType="1" res="-1.3333884999155998e-03" rms="4.3345904350280762e-01" purity="4.9884119629859924e-01" nType="0">
        <Node pos="l" depth="1" NCoef="0" IVar="4" Cut="7.3824048042297363e-01" cType="1" res="-6.7749680019915104e-03" rms="4.2399844527244568e-01" purity="4.6323603391647339e-01" nType="0">
          <Node pos="l" depth="2" NCoef="0" IVar="-1" Cut="0.0000000000000000e+00" cType="1" res="1.0835406137630343e-03" rms="4.0836152434349060e-01" purity="2.9954218864440918e-01" nType="-99"/>
          <Node pos="r" depth="2" NCoef="0" IVar="-1" Cut="0.0000000000000000e+00" cType="1" res="-4.3144566006958485e-03" rms="4.3814626336097717e-01" purity="6.1921113729476929e-01" nType="-99"/>
        </Node>
        <Node pos="r" depth="1" NCoef="0" IVar="3" Cut="-6.1904764175415039e-01" cType="1" res="-4.5081481221131980e-04" rms="4.3496766686439514e-01" purity="5.0461596250534058e-01" nType="0">
          <Node pos="l" depth="2" NCoef="0" IVar="-1" Cut="0.0000000000000000e+00" cType="1" res="-1.7885530833154917e-03" rms="4.5575296878814697e-01" purity="4.9708256125450134e-01" nType="-99"/>
          <Node pos="r" depth="2" NCoef="0" IVar="-1" Cut="0.0000000000000000e+00" cType="1" res="6.4811909396667033e-05" rms="4.3280267715454102e-01" purity="5.0537830591201782e-01" nType="-99"/>
        </Node>
      </Node>
    </BinaryTree>
    <BinaryTree type="DecisionTree" boostWeight="1.0000000000000000e+00" itree="354">
      <Node pos="s" depth="0" NCoef="0" IVar="9" Cut="-7.1428573131561279e-01" cType="1" res="-2.7597241569310427e-04" rms="4.3335640430450439e-01" purity="5.0093865394592285e-01" nType="0">
        <Node pos="l" depth="1" NCoef="0" IVar="-1" Cut="0.0000000000000000e+00" cType="1" res="2.7645393274724483e-03" rms="4.4407337903976440e-01" purity="3.9912319183349609e-01" nType="-99"/>
        <Node pos="r" depth="1" NCoef="0" IVar="8" Cut="-1.3119003772735596e+00" cType="1" res="-8.0790393985807896e-04" rms="4.3282595276832581e-01" purity="5.0584703683853149e-01" nType="0">
          <Node pos="l" depth="2" NCoef="0" IVar="-1" Cut="0.0000000000000000e+00" cType="1" res="-2.8997242916375399e-03" rms="4.1915535926818848e-01" purity="6.5032184123992920e-01" nType="-99"/>
          <Node pos="r" depth="2" NCoef="0" IVar="-1" Cut="0.0000000000000000e+00" cType="1" res="5.5888143833726645e-05" rms="4.3425405025482178e-01" purity="4.9035340547561646e-01" nType="-99"/>
        </Node>
      </Node>
    </BinaryTree>
    <BinaryTree type="DecisionTree" boostWeight="1.0000000000000000e+00" itree="355">
      <Node pos="s" depth="0" NCoef="0" IVar="3" Cut="-8.0952382087707520e-01" cType="1" res="5.8594916481524706e-04" rms="4.3374866247177124e-01" purity="5.0033032894134521e-01" nType="0">
        <Node pos="l" depth="1" NCoef="0" IVar="-1" Cut="0.0000000000000000e+00" cType="1" res="-2.7040615677833557e-03" rms="4.5646825432777405e-01" purity="4.7008863091468811e-01" nType="-99"/>
        <Node pos="r" depth="1" NCoef="0" IVar="2" Cut="-1.3192811012268066e+00" cType="1" res="1.1210700031369925e-03" rms="4.3269717693328857e-01" purity="5.0168257951736450e-01" nType="0">
          <Node pos="l" depth="2" NCoef="0" IVar="-1" Cut="0.0000000000000000e+00" cType="1" res="-1.5125906793400645e-03" rms="4.2354366183280945e-01" purity="4.9693542718887329e-01" nType="-99"/>
          <Node pos="r" depth="2" NCoef="0" IVar="-1" Cut="0.0000000000000000e+00" cType="1" res="4.8339331988245249e-04" rms="4.3367651104927063e-01" purity="5.0219959020614624e-01" nType="-99"/>
        </Node>
      </Node>
    </BinaryTree>
    <BinaryTree type="DecisionTree" boostWeight="1.0000000000000000e+00" itree="356">
      <Node pos="s" depth="0" NCoef="0" IVar="9" Cut="4.2857143282890320e-01" cType="1" res="3.7262460682541132e-04" rms="4.3349787592887878e-01" purity="5.0014293193817139e-01" nType="0">
        <Node pos="l" depth="1" NCoef="0" IVar="4" Cut="9.4705146551132202e-01" cType="1" res="1.7291950061917305e-03" rms="4.3238005042076111e-01" purity="5.0807595252990723e-01" nType="0">
          <Node pos="l" depth="2" NCoef="0" IVar="-1" Cut="0.0000000000000000e+00" cType="1" res="1.6094460443127900e-04" rms="4.3597346544265747e-01" purity="4.5903396606445312e-01" nType="-99"/>
          <Node pos="r" depth="2" NCoef="0" IVar="-1" Cut="0.0000000000000000e+00" cType="1" res="2.0711384713649750e-03" rms="4.1387474536895752e-01" purity="7.5362324714660645e-01" nType="-99"/>
        </Node>
        <Node pos="r" depth="1" NCoef="0" IVar="4" Cut="9.0340495109558105e-01" cType="1" res="-7.3111308738589287e-03" rms="4.3969675898551941e-01" purity="4.5520916581153870e-01" nType="0">
          <Node pos="l" depth="2" NCoef="0" IVar="-1" Cut="0.0000000000000000e+00" cType="1" res="6.1706709675490856e-04" rms="4.3440237641334534e-01" purity="3.6694431304931641e-01" nType="-99"/>
          <Node pos="r" depth="2" NCoef="0" IVar="-1" Cut="0.0000000000000000e+00" cType="1" res="-6.7334584891796112e-03" rms="4.4969764351844788e-01" purity="6.3588750362396240e-01" nType="-99"/>
        </Node>
      </Node>
    </BinaryTree>
    <BinaryTree type="DecisionTree" boostWeight="1.0000000000000000e+00" itree="357">
      <Node pos="s" depth="0" NCoef="0" IVar="9" Cut="-1.4285714924335480e-01" cType="1" res="7.4420066084712744e-04" rms="4.3251398205757141e-01" purity="5.0225049257278442e-01" nType="0">
        <Node pos="l" depth="1" NCoef="0" IVar="8" Cut="-4.8852115869522095e-01" cType="1" res="-2.0808191038668156e-03" rms="4.3300354480743408e-01" purity="4.9054041504859924e-01" nType="0">
          <Node pos="l" depth="2" NCoef="0" IVar="-1" Cut="0.0000000000000000e+00" cType="1" res="1.4571205247193575e-03" rms="4.3703731894493103e-01" purity="6.1214315891265869e-01" nType="-99"/>
          <Node pos="r" depth="2" NCoef="0" IVar="-1" Cut="0.0000000000000000e+00" cType="1" res="-1.9782539457082748e-03" rms="4.3006008863449097e-01" purity="4.0494841337203979e-01" nType="-99"/>
        </Node>
        <Node pos="r" depth="1" NCoef="0" IVar="0" Cut="1.1762064695358276e+00" cType="1" res="2.2811901289969683e-03" rms="4.3223965167999268e-01" purity="5.0862157344818115e-01" nType="0">
          <Node pos="l" depth="2" NCoef="0" IVar="-1" Cut="0.0000000000000000e+00" cType="1" res="1.1620788136497140e-03" rms="4.3909004330635071e-01" purity="5.8006167411804199e-01" nType="-99"/>
          <Node pos="r" depth="2" NCoef="0" IVar="-1" Cut="0.0000000000000000e+00" cType="1" res="-1.2462039012461901e-03" rms="4.1081920266151428e-01" purity="2.9320916533470154e-01" nType="-99"/>
        </Node>
      </Node>
    </BinaryTree>
    <BinaryTree type="DecisionTree" boostWeight="1.0000000000000000e+00" itree="358">
      <Node pos="s" depth="0" NCoef="0" IVar="5" Cut="3.3325181007385254e+00" cType="1" res="9.0955646010115743e-04" rms="4.3243885040283203e-01" purity="5.0123196840286255e-01" nType="0">
        <Node pos="l" depth="1" NCoef="0" IVar="10" Cut="4.3904762268066406e+01" cType="1" res="3.5231214133091271e-04" rms="4.3318977952003479e-01" purity="4.9941048026084900e-01" nType="0">
          <Node pos="l" depth="2" NCoef="0" IVar="-1" Cut="0.0000000000000000e+00" cType="1" res="3.2290481613017619e-04" rms="4.3421229720115662e-01" purity="5.0741630792617798e-01" nType="-99"/>
          <Node pos="r" depth="2" NCoef="0" IVar="-1" Cut="0.0000000000000000e+00" cType="1" res="-2.4468437768518925e-03" rms="4.2201203107833862e-01" purity="4.1399374604225159e-01" nType="-99"/>
        </Node>
        <Node pos="r" depth="1" NCoef="0" IVar="-1" Cut="0.0000000000000000e+00" cType="1" res="3.5201872233301401e-03" rms="4.1555592417716980e-01" purity="5.4091650247573853e-01" nType="-99"/>
      </Node>
    </BinaryTree>
    <BinaryTree type="DecisionTree" boostWeight="1.0000000000000000e+00" itree="359">
      <Node pos="s" depth="0" NCoef="0" IVar="10" Cut="1.7809524536132812e+01" cType="1" res="-1.1622698511928320e-03" rms="4.3245920538902283e-01" purity="5.0002068281173706e-01" nType="0">
        <Node pos="l" depth="1" NCoef="0" IVar="10" Cut="3.4285714626312256e+00" cType="1" res="-5.5627180263400078e-03" rms="4.4642826914787292e-01" purity="5.0351315736770630e-01" nType="0">
          <Node pos="l" depth="2" NCoef="0" IVar="-1" Cut="0.0000000000000000e+00" cType="1" res="-6.0502709820866585e-03" rms="4.7360503673553467e-01" purity="4.3602389097213745e-01" nType="-99"/>
          <Node pos="r" depth="2" NCoef="0" IVar="-1" Cut="0.0000000000000000e+00" cType="1" res="-4.2282283538952470e-04" rms="4.4102621078491211e-01" purity="5.1619267463684082e-01" nType="-99"/>
        </Node>
        <Node pos="r" depth="1" NCoef="0" IVar="0" Cut="1.2137652635574341e+00" cType="1" res="4.3267179280519485e-03" rms="4.1430959105491638e-01" purity="4.9566420912742615e-01" nType="0">
          <Node pos="l" depth="2" NCoef="0" IVar="-1" Cut="0.0000000000000000e+00" cType="1" res="2.4220258928835392e-03" rms="4.2576035857200623e-01" purity="5.5016666650772095e-01" nType="-99"/>
          <Node pos="r" depth="2" NCoef="0" IVar="-1" Cut="0.0000000000000000e+00" cType="1" res="-1.0650171898305416e-02" rms="3.2805269956588745e-01" purity="1.3905748724937439e-01" nType="-99"/>
        </Node>
      </Node>
    </BinaryTree>
    <BinaryTree type="DecisionTree" boostWeight="1.0000000000000000e+00" itree="360">
      <Node pos="s" depth="0" NCoef="0" IVar="2" Cut="2.7175083756446838e-01" cType="1" res="-1.0614425264066085e-04" rms="4.3275162577629089e-01" purity="5.0019651651382446e-01" nType="0">
        <Node pos="l" depth="1" NCoef="0" IVar="4" Cut="5.3389078378677368e-01" cType="1" res="1.8729806179180741e-03" rms="4.3398320674896240e-01" purity="5.0034803152084351e-01" nType="0">
          <Node pos="l" depth="2" NCoef="0" IVar="-1" Cut="0.0000000000000000e+00" cType="1" res="-1.1901848483830690e-03" rms="3.6902284622192383e-01" purity="1.7989052832126617e-01" nType="-99"/>
          <Node pos="r" depth="2" NCoef="0" IVar="-1" Cut="0.0000000000000000e+00" cType="1" res="7.9895759699866176e-04" rms="4.5007139444351196e-01" purity="5.8778035640716553e-01" nType="-99"/>
        </Node>
        <Node pos="r" depth="1" NCoef="0" IVar="10" Cut="4.4666667938232422e+01" cType="1" res="-3.4299634862691164e-03" rms="4.3065488338470459e-01" purity="4.9994197487831116e-01" nType="0">
          <Node pos="l" depth="2" NCoef="0" IVar="-1" Cut="0.0000000000000000e+00" cType="1" res="-3.8743560435250401e-04" rms="4.3167802691459656e-01" purity="5.0945514440536499e-01" nType="-99"/>
          <Node pos="r" depth="2" NCoef="0" IVar="-1" Cut="0.0000000000000000e+00" cType="1" res="-5.2418233826756477e-03" rms="4.2183315753936768e-01" purity="4.2200332880020142e-01" nType="-99"/>
        </Node>
      </Node>
    </BinaryTree>
    <BinaryTree type="DecisionTree" boostWeight="1.0000000000000000e+00" itree="361">
      <Node pos="s" depth="0" NCoef="0" IVar="8" Cut="-4.8772454261779785e-01" cType="1" res="-2.1707988344132900e-04" rms="4.3346369266510010e-01" purity="5.0089812278747559e-01" nType="0">
        <Node pos="l" depth="1" NCoef="0" IVar="4" Cut="8.6059081554412842e-01" cType="1" res="-4.1981246322393417e-03" rms="4.3152582645416260e-01" purity="5.5034965276718140e-01" nType="0">
          <Node pos="l" depth="2" NCoef="0" IVar="-1" Cut="0.0000000000000000e+00" cType="1" res="2.1116995776537806e-04" rms="4.3520644307136536e-01" purity="4.3490752577781677e-01" nType="-99"/>
          <Node pos="r" depth="2" NCoef="0" IVar="-1" Cut="0.0000000000000000e+00" cType="1" res="-3.1603719107806683e-03" rms="4.2617002129554749e-01" purity="7.1348083019256592e-01" nType="-99"/>
        </Node>
        <Node pos="r" depth="1" NCoef="0" IVar="3" Cut="-8.0952382087707520e-01" cType="1" res="1.4263491611927748e-03" rms="4.3425050377845764e-01" purity="4.8048380017280579e-01" nType="0">
          <Node pos="l" depth="2" NCoef="0" IVar="-1" Cut="0.0000000000000000e+00" cType="1" res="-3.3196718432009220e-03" rms="4.5620557665824890e-01" purity="4.5697268843650818e-01" nType="-99"/>
          <Node pos="r" depth="2" NCoef="0" IVar="-1" Cut="0.0000000000000000e+00" cType="1" res="5.8899261057376862e-04" rms="4.3304878473281860e-01" purity="4.8172131180763245e-01" nType="-99"/>
        </Node>
      </Node>
    </BinaryTree>
    <BinaryTree type="DecisionTree" boostWeight="1.0000000000000000e+00" itree="362">
      <Node pos="s" depth="0" NCoef="0" IVar="10" Cut="1.0380952835083008e+01" cType="1" res="-1.3580258237197995e-03" rms="4.3271237611770630e-01" purity="4.9926811456680298e-01" nType="0">
        <Node pos="l" depth="1" NCoef="0" IVar="10" Cut="3.1428570747375488e+00" cType="1" res="2.3540165275335312e-03" rms="4.5490494370460510e-01" purity="5.2245473861694336e-01" nType="0">
          <Node pos="l" depth="2" NCoef="0" IVar="-1" Cut="0.0000000000000000e+00" cType="1" res="-4.5018987730145454e-03" rms="4.7079756855964661e-01" purity="4.4142454862594604e-01" nType="-99"/>
          <Node pos="r" depth="2" NCoef="0" IVar="-1" Cut="0.0000000000000000e+00" cType="1" res="2.3648119531571865e-03" rms="4.4928872585296631e-01" purity="5.4925590753555298e-01" nType="-99"/>
        </Node>
        <Node pos="r" depth="1" NCoef="0" IVar="0" Cut="1.3670966625213623e+00" cType="1" res="-3.4155319444835186e-03" rms="4.1989243030548096e-01" purity="4.8641622066497803e-01" nType="0">
          <Node pos="l" depth="2" NCoef="0" IVar="-1" Cut="0.0000000000000000e+00" cType="1" res="-1.5108184015844017e-04" rms="4.2689895629882812e-01" purity="5.1557826995849609e-01" nType="-99"/>
          <Node pos="r" depth="2" NCoef="0" IVar="-1" Cut="0.0000000000000000e+00" cType="1" res="-1.5568786300718784e-02" rms="3.1884437799453735e-01" purity="1.2612384557723999e-01" nType="-99"/>
        </Node>
      </Node>
    </BinaryTree>
    <BinaryTree type="DecisionTree" boostWeight="1.0000000000000000e+00" itree="363">
      <Node pos="s" depth="0" NCoef="0" IVar="9" Cut="-7.1428573131561279e-01" cType="1" res="-1.1262053158134222e-03" rms="4.3291935324668884e-01" purity="4.9902564287185669e-01" nType="0">
        <Node pos="l" depth="1" NCoef="0" IVar="-1" Cut="0.0000000000000000e+00" cType="1" res="3.7064969073981047e-03" rms="4.4607019424438477e-01" purity="3.9787343144416809e-01" nType="-99"/>
        <Node pos="r" depth="1" NCoef="0" IVar="10" Cut="4.3904762268066406e+01" cType="1" res="-1.8998211016878486e-03" rms="4.3223866820335388e-01" purity="5.0406861305236816e-01" nType="0">
          <Node pos="l" depth="2" NCoef="0" IVar="-1" Cut="0.0000000000000000e+00" cType="1" res="-2.5779925636015832e-04" rms="4.3330445885658264e-01" purity="5.1336801052093506e-01" nType="-99"/>
          <Node pos="r" depth="2" NCoef="0" IVar="-1" Cut="0.0000000000000000e+00" cType="1" res="-2.5448172818869352e-03" rms="4.2328912019729614e-01" purity="4.2753309011459351e-01" nType="-99"/>
        </Node>
      </Node>
    </BinaryTree>
    <BinaryTree type="DecisionTree" boostWeight="1.0000000000000000e+00" itree="364">
      <Node pos="s" depth="0" NCoef="0" IVar="10" Cut="6.0666667938232422e+01" cType="1" res="4.0087779052555561e-04" rms="4.3342146277427673e-01" purity="5.0009238719940186e-01" nType="0">
        <Node pos="l" depth="1" NCoef="0" IVar="4" Cut="8.2124108076095581e-01" cType="1" res="1.0944089153781533e-03" rms="4.3386584520339966e-01" purity="5.0619357824325562e-01" nType="0">
          <Node pos="l" depth="2" NCoef="0" IVar="-1" Cut="0.0000000000000000e+00" cType="1" res="-5.9863983187824488e-04" rms="4.3200692534446716e-01" purity="3.6082065105438232e-01" nType="-99"/>
          <Node pos="r" depth="2" NCoef="0" IVar="-1" Cut="0.0000000000000000e+00" cType="1" res="1.3104384997859597e-03" rms="4.3602749705314636e-01" purity="6.7864364385604858e-01" nType="-99"/>
        </Node>
        <Node pos="r" depth="1" NCoef="0" IVar="-1" Cut="0.0000000000000000e+00" cType="1" res="-4.8440005630254745e-03" rms="4.2093014717102051e-01" purity="3.3681362867355347e-01" nType="-99"/>
      </Node>
    </BinaryTree>
    <BinaryTree type="DecisionTree" boostWeight="1.0000000000000000e+00" itree="365">
      <Node pos="s" depth="0" NCoef="0" IVar="0" Cut="1.6340469121932983e+00" cType="1" res="-6.1190054111648351e-05" rms="4.3213230371475220e-01" purity="5.0023370981216431e-01" nType="0">
        <Node pos="l" depth="1" NCoef="0" IVar="0" Cut="7.0683330297470093e-01" cType="1" res="8.0368143972009420e-04" rms="4.3444398045539856e-01" purity="5.1783210039138794e-01" nType="0">
          <Node pos="l" depth="2" NCoef="0" IVar="-1" Cut="0.0000000000000000e+00" cType="1" res="2.3595024831593037e-03" rms="4.2659243941307068e-01" purity="6.8434536457061768e-01" nType="-99"/>
          <Node pos="r" depth="2" NCoef="0" IVar="-1" Cut="0.0000000000000000e+00" cType="1" res="-1.9253855862189084e-04" rms="4.3596491217613220e-01" purity="4.8486998677253723e-01" nType="-99"/>
        </Node>
        <Node pos="r" depth="1" NCoef="0" IVar="-1" Cut="0.0000000000000000e+00" cType="1" res="-3.6686293315142393e-03" rms="3.9678716659545898e-01" purity="2.4433596432209015e-01" nType="-99"/>
      </Node>
    </BinaryTree>
    <BinaryTree type="DecisionTree" boostWeight="1.0000000000000000e+00" itree="366">
      <Node pos="s" depth="0" NCoef="0" IVar="3" Cut="-2.3809523880481720e-01" cType="1" res="2.1949335932731628e-03" rms="4.3307623267173767e-01" purity="5.0230640172958374e-01" nType="0">
        <Node pos="l" depth="1" NCoef="0" IVar="0" Cut="1.0133831501007080e+00" cType="1" res="7.4420282617211342e-03" rms="4.3754854798316956e-01" purity="5.1524573564529419e-01" nType="0">
          <Node pos="l" depth="2" NCoef="0" IVar="-1" Cut="0.0000000000000000e+00" cType="1" res="5.0396093865856528e-04" rms="4.3798214197158813e-01" purity="6.2761831283569336e-01" nType="-99"/>
          <Node pos="r" depth="2" NCoef="0" IVar="-1" Cut="0.0000000000000000e+00" cType="1" res="3.6109958309680223e-03" rms="4.3692782521247864e-01" purity="3.7879523634910583e-01" nType="-99"/>
        </Node>
        <Node pos="r" depth="1" NCoef="0" IVar="10" Cut="5.2285713195800781e+01" cType="1" res="1.4840588846709579e-04" rms="4.3130204081535339e-01" purity="4.9725964665412903e-01" nType="0">
          <Node pos="l" depth="2" NCoef="0" IVar="-1" Cut="0.0000000000000000e+00" cType="1" res="-1.9888134556822479e-04" rms="4.3206530809402466e-01" purity="5.0536489486694336e-01" nType="-99"/>
          <Node pos="r" depth="2" NCoef="0" IVar="-1" Cut="0.0000000000000000e+00" cType="1" res="3.0446238815784454e-03" rms="4.2149934172630310e-01" purity="3.9611050486564636e-01" nType="-99"/>
        </Node>
      </Node>
    </BinaryTree>
    <BinaryTree type="DecisionTree" boostWeight="1.0000000000000000e+00" itree="367">
      <Node pos="s" depth="0" NCoef="0" IVar="9" Cut="-4.2857143282890320e-01" cType="1" res="-1.1670877574943006e-04" rms="4.3309348821640015e-01" purity="5.0009387731552124e-01" nType="0">
        <Node pos="l" depth="1" NCoef="0" IVar="4" Cut="5.2756261825561523e-01" cType="1" res="-6.1961645260453224e-03" rms="4.3746352195739746e-01" purity="4.4916731119155884e-01" nType="0">
          <Node pos="l" depth="2" NCoef="0" IVar="-1" Cut="0.0000000000000000e+00" cType="1" res="3.9355969056487083e-03" rms="3.7055614590644836e-01" purity="1.8088370561599731e-01" nType="-99"/>
          <Node pos="r" depth="2" NCoef="0" IVar="-1" Cut="0.0000000000000000e+00" cType="1" res="-2.7942419983446598e-03" rms="4.5768061280250549e-01" purity="5.3958964347839355e-01" nType="-99"/>
        </Node>
        <Node pos="r" depth="1" NCoef="0" IVar="3" Cut="3.3333334326744080e-01" cType="1" res="9.4238511519506574e-04" rms="4.3231895565986633e-01" purity="5.0896573066711426e-01" nType="0">
          <Node pos="l" depth="2" NCoef="0" IVar="-1" Cut="0.0000000000000000e+00" cType="1" res="-7.9521691077388823e-05" rms="4.3030020594596863e-01" purity="5.0491142272949219e-01" nType="-99"/>
          <Node pos="r" depth="2" NCoef="0" IVar="-1" Cut="0.0000000000000000e+00" cType="1" res="1.5716031193733215e-03" rms="4.4067430496215820e-01" purity="5.2602654695510864e-01" nType="-99"/>
        </Node>
      </Node>
    </BinaryTree>
    <BinaryTree type="DecisionTree" boostWeight="1.0000000000000000e+00" itree="368">
      <Node pos="s" depth="0" NCoef="0" IVar="2" Cut="-4.2536750435829163e-01" cType="1" res="2.4259112251456827e-04" rms="4.3435710668563843e-01" purity="5.0011217594146729e-01" nType="0">
        <Node pos="l" depth="1" NCoef="0" IVar="5" Cut="5.1213657855987549e-01" cType="1" res="-5.3837653249502182e-03" rms="4.3295878171920776e-01" purity="4.9908459186553955e-01" nType="0">
          <Node pos="l" depth="2" NCoef="0" IVar="-1" Cut="0.0000000000000000e+00" cType="1" res="2.0152584183961153e-03" rms="4.5220276713371277e-01" purity="5.2723240852355957e-01" nType="-99"/>
          <Node pos="r" depth="2" NCoef="0" IVar="-1" Cut="0.0000000000000000e+00" cType="1" res="-2.0989261101931334e-03" rms="4.2948254942893982e-01" purity="4.9419280886650085e-01" nType="-99"/>
        </Node>
        <Node pos="r" depth="1" NCoef="0" IVar="3" Cut="4.2857143282890320e-01" cType="1" res="2.7114606928080320e-03" rms="4.3494629859924316e-01" purity="5.0056308507919312e-01" nType="0">
          <Node pos="l" depth="2" NCoef="0" IVar="-1" Cut="0.0000000000000000e+00" cType="1" res="1.1459224624559283e-03" rms="4.3146008253097534e-01" purity="5.0069868564605713e-01" nType="-99"/>
          <Node pos="r" depth="2" NCoef="0" IVar="-1" Cut="0.0000000000000000e+00" cType="1" res="-9.0470392024144530e-04" rms="4.4825565814971924e-01" purity="5.0003296136856079e-01" nType="-99"/>
        </Node>
      </Node>
    </BinaryTree>
    <BinaryTree type="DecisionTree" boostWeight="1.0000000000000000e+00" itree="369">
      <Node pos="s" depth="0" NCoef="0" IVar="5" Cut="2.1704652309417725e+00" cType="1" res="9.2850206419825554e-04" rms="4.3310737609863281e-01" purity="5.0124043226242065e-01" nType="0">
        <Node pos="l" depth="1" NCoef="0" IVar="10" Cut="1.7619047164916992e+01" cType="1" res="2.3537012748420238e-03" rms="4.3507757782936096e-01" purity="5.0486010313034058e-01" nType="0">
          <Node pos="l" depth="2" NCoef="0" IVar="-1" Cut="0.0000000000000000e+00" cType="1" res="-9.5149596745613962e-05" rms="4.4663867354393005e-01" purity="5.0899422168731689e-01" nType="-99"/>
          <Node pos="r" depth="2" NCoef="0" IVar="-1" Cut="0.0000000000000000e+00" cType="1" res="2.0229255314916372e-03" rms="4.1396611928939819e-01" purity="4.9760523438453674e-01" nType="-99"/>
        </Node>
        <Node pos="r" depth="1" NCoef="0" IVar="0" Cut="8.0723243951797485e-01" cType="1" res="-6.1115971766412258e-03" rms="4.2317023873329163e-01" purity="4.8336058855056763e-01" nType="0">
          <Node pos="l" depth="2" NCoef="0" IVar="-1" Cut="0.0000000000000000e+00" cType="1" res="4.2280349880456924e-03" rms="4.0983816981315613e-01" purity="7.0888161659240723e-01" nType="-99"/>
          <Node pos="r" depth="2" NCoef="0" IVar="-1" Cut="0.0000000000000000e+00" cType="1" res="-3.4314419608563185e-03" rms="4.2709666490554810e-01" purity="4.1192936897277832e-01" nType="-99"/>
        </Node>
      </Node>
    </BinaryTree>
    <BinaryTree type="DecisionTree" boostWeight="1.0000000000000000e+00" itree="370">
      <Node pos="s" depth="0" NCoef="0" IVar="1" Cut="7.4248371124267578e+00" cType="1" res="-1.0888230754062533e-03" rms="4.3270015716552734e-01" purity="4.9947357177734375e-01" nType="0">
        <Node pos="l" depth="1" NCoef="0" IVar="6" Cut="-1.7142857313156128e+00" cType="1" res="2.0006495469715446e-04" rms="4.3495088815689087e-01" purity="5.0184899568557739e-01" nType="0">
          <Node pos="l" depth="2" NCoef="0" IVar="-1" Cut="0.0000000000000000e+00" cType="1" res="-1.3696507085114717e-03" rms="4.3102332949638367e-01" purity="4.8761352896690369e-01" nType="-99"/>
          <Node pos="r" depth="2" NCoef="0" IVar="-1" Cut="0.0000000000000000e+00" cType="1" res="6.2530883587896824e-04" rms="4.3653741478919983e-01" purity="5.0770604610443115e-01" nType="-99"/>
        </Node>
        <Node pos="r" depth="1" NCoef="0" IVar="0" Cut="8.5684585571289062e-01" cType="1" res="-1.0284988209605217e-02" rms="4.1617235541343689e-01" purity="4.8252502083778381e-01" nType="0">
          <Node pos="l" depth="2" NCoef="0" IVar="-1" Cut="0.0000000000000000e+00" cType="1" res="2.6291976682841778e-03" rms="4.1746270656585693e-01" purity="6.9642400741577148e-01" nType="-99"/>
          <Node pos="r" depth="2" NCoef="0" IVar="-1" Cut="0.0000000000000000e+00" cType="1" res="-5.7126744650304317e-03" rms="4.1511848568916321e-01" purity="3.6959415674209595e-01" nType="-99"/>
        </Node>
      </Node>
    </BinaryTree>
    <BinaryTree type="DecisionTree" boostWeight="1.0000000000000000e+00" itree="371">
      <Node pos="s" depth="0" NCoef="0" IVar="2" Cut="-1.3764443397521973e+00" cType="1" res="5.6587770814076066e-04" rms="4.3270778656005859e-01" purity="5.0091916322708130e-01" nType="0">
        <Node pos="l" depth="1" NCoef="0" IVar="9" Cut="-4.4953506439924240e-02" cType="1" res="-7.5175273232161999e-03" rms="4.1970771551132202e-01" purity="4.9733763933181763e-01" nType="0">
          <Node pos="l" depth="2" NCoef="0" IVar="-1" Cut="0.0000000000000000e+00" cType="1" res="1.5726226847618818e-03" rms="4.2170009016990662e-01" purity="5.0651913881301880e-01" nType="-99"/>
          <Node pos="r" depth="2" NCoef="0" IVar="-1" Cut="0.0000000000000000e+00" cType="1" res="-4.9777757376432419e-03" rms="4.1782212257385254e-01" purity="4.9004292488098145e-01" nType="-99"/>
        </Node>
        <Node pos="r" depth="1" NCoef="0" IVar="10" Cut="2.7142856597900391e+01" cType="1" res="1.3589671580120921e-03" rms="4.3395414948463440e-01" purity="5.0127059221267700e-01" nType="0">
          <Node pos="l" depth="2" NCoef="0" IVar="-1" Cut="0.0000000000000000e+00" cType="1" res="7.2075810749083757e-04" rms="4.3920639157295227e-01" purity="5.0698858499526978e-01" nType="-99"/>
          <Node pos="r" depth="2" NCoef="0" IVar="-1" Cut="0.0000000000000000e+00" cType="1" res="-8.4199494449421763e-04" rms="4.1740044951438904e-01" purity="4.8373079299926758e-01" nType="-99"/>
        </Node>
      </Node>
    </BinaryTree>
    <BinaryTree type="DecisionTree" boostWeight="1.0000000000000000e+00" itree="372">
      <Node pos="s" depth="0" NCoef="0" IVar="4" Cut="8.1809222698211670e-01" cType="1" res="-9.1396407242427813e-07" rms="4.3312215805053711e-01" purity="4.9977290630340576e-01" nType="0">
        <Node pos="l" depth="1" NCoef="0" IVar="10" Cut="3.5523811340332031e+01" cType="1" res="2.3257399443536997e-03" rms="4.2943415045738220e-01" purity="3.5983511805534363e-01" nType="0">
          <Node pos="l" depth="2" NCoef="0" IVar="-1" Cut="0.0000000000000000e+00" cType="1" res="-4.6603169175796211e-04" rms="4.3246304988861084e-01" purity="3.5742762684822083e-01" nType="-99"/>
          <Node pos="r" depth="2" NCoef="0" IVar="-1" Cut="0.0000000000000000e+00" cType="1" res="6.2936325557529926e-03" rms="4.1380143165588379e-01" purity="3.7155258655548096e-01" nType="-99"/>
        </Node>
        <Node pos="r" depth="1" NCoef="0" IVar="0" Cut="1.1176146268844604e+00" cType="1" res="-2.7308114804327488e-03" rms="4.3739396333694458e-01" purity="6.6396403312683105e-01" nType="0">
          <Node pos="l" depth="2" NCoef="0" IVar="-1" Cut="0.0000000000000000e+00" cType="1" res="-2.4854126386344433e-03" rms="4.2859169840812683e-01" purity="7.2254127264022827e-01" nType="-99"/>
          <Node pos="r" depth="2" NCoef="0" IVar="-1" Cut="0.0000000000000000e+00" cType="1" res="3.8841052446514368e-03" rms="4.6391367912292480e-01" purity="4.7612160444259644e-01" nType="-99"/>
        </Node>
      </Node>
    </BinaryTree>
    <BinaryTree type="DecisionTree" boostWeight="1.0000000000000000e+00" itree="373">
      <Node pos="s" depth="0" NCoef="0" IVar="2" Cut="-1.3764443397521973e+00" cType="1" res="-3.9595342241227627e-04" rms="4.3289276957511902e-01" purity="4.9966919422149658e-01" nType="0">
        <Node pos="l" depth="1" NCoef="0" IVar="7" Cut="4.0583162307739258e+00" cType="1" res="-9.2687634751200676e-03" rms="4.2018193006515503e-01" purity="4.9469715356826782e-01" nType="0">
          <Node pos="l" depth="2" NCoef="0" IVar="-1" Cut="0.0000000000000000e+00" cType="1" res="-4.8882178962230682e-03" rms="4.2335140705108643e-01" purity="3.9379364252090454e-01" nType="-99"/>
          <Node pos="r" depth="2" NCoef="0" IVar="-1" Cut="0.0000000000000000e+00" cType="1" res="-7.0243266236502677e-05" rms="4.1661521792411804e-01" purity="6.0136884450912476e-01" nType="-99"/>
        </Node>
        <Node pos="r" depth="1" NCoef="0" IVar="4" Cut="4.0187716484069824e-01" cType="1" res="4.7625377192161977e-04" rms="4.3411237001419067e-01" purity="5.0015795230865479e-01" nType="0">
          <Node pos="l" depth="2" NCoef="0" IVar="-1" Cut="0.0000000000000000e+00" cType="1" res="4.1660736314952374e-03" rms="3.0704948306083679e-01" purity="1.1045835912227631e-01" nType="-99"/>
          <Node pos="r" depth="2" NCoef="0" IVar="-1" Cut="0.0000000000000000e+00" cType="1" res="-6.3849780417513102e-05" rms="4.4528529047966003e-01" purity="5.4083979129791260e-01" nType="-99"/>
        </Node>
      </Node>
    </BinaryTree>
    <BinaryTree type="DecisionTree" boostWeight="1.0000000000000000e+00" itree="374">
      <Node pos="s" depth="0" NCoef="0" IVar="0" Cut="6.4332157373428345e-01" cType="1" res="-1.4977798564359546e-03" rms="4.3287307024002075e-01" purity="4.9849250912666321e-01" nType="0">
        <Node pos="l" depth="1" NCoef="0" IVar="0" Cut="5.5324018001556396e-01" cType="1" res="1.0211427696049213e-02" rms="4.3024390935897827e-01" purity="6.8639791011810303e-01" nType="0">
          <Node pos="l" depth="2" NCoef="0" IVar="-1" Cut="0.0000000000000000e+00" cType="1" res="4.7039426863193512e-03" rms="4.3953940272331238e-01" purity="6.8609046936035156e-01" nType="-99"/>
          <Node pos="r" depth="2" NCoef="0" IVar="-1" Cut="0.0000000000000000e+00" cType="1" res="1.7152579675894231e-04" rms="4.1843131184577942e-01" purity="6.8677282333374023e-01" nType="-99"/>
        </Node>
        <Node pos="r" depth="1" NCoef="0" IVar="9" Cut="-2.3809523880481720e-01" cType="1" res="-2.8531802818179131e-03" rms="4.3315592408180237e-01" purity="4.7674146294593811e-01" nType="0">
          <Node pos="l" depth="2" NCoef="0" IVar="-1" Cut="0.0000000000000000e+00" cType="1" res="6.2418094603344798e-04" rms="4.3298533558845520e-01" purity="4.6002331376075745e-01" nType="-99"/>
          <Node pos="r" depth="2" NCoef="0" IVar="-1" Cut="0.0000000000000000e+00" cType="1" res="-1.2379462132230401e-03" rms="4.3320190906524658e-01" purity="4.8275184631347656e-01" nType="-99"/>
        </Node>
      </Node>
    </BinaryTree>
    <BinaryTree type="DecisionTree" boostWeight="1.0000000000000000e+00" itree="375">
      <Node pos="s" depth="0" NCoef="0" IVar="4" Cut="6.1064231395721436e-01" cType="1" res="1.3482683571055532e-03" rms="4.3362426757812500e-01" purity="5.0035953521728516e-01" nType="0">
        <Node pos="l" depth="1" NCoef="0" IVar="7" Cut="1.4326692819595337e+00" cType="1" res="5.1113478839397430e-03" rms="3.9905735850334167e-01" purity="2.3836970329284668e-01" nType="0">
          <Node pos="l" depth="2" NCoef="0" IVar="-1" Cut="0.0000000000000000e+00" cType="1" res="9.6923112869262695e-03" rms="4.5422732830047607e-01" purity="3.2357361912727356e-01" nType="-99"/>
          <Node pos="r" depth="2" NCoef="0" IVar="-1" Cut="0.0000000000000000e+00" cType="1" res="1.1484060451039113e-05" rms="3.8929206132888794e-01" purity="2.2477494180202484e-01" nType="-99"/>
        </Node>
        <Node pos="r" depth="1" NCoef="0" IVar="0" Cut="9.1267633438110352e-01" cType="1" res="-2.1897350961808115e-04" rms="4.4722396135330200e-01" purity="6.0947263240814209e-01" nType="0">
          <Node pos="l" depth="2" NCoef="0" IVar="-1" Cut="0.0000000000000000e+00" cType="1" res="-2.4166968651115894e-03" rms="4.2928096652030945e-01" purity="7.3091435432434082e-01" nType="-99"/>
          <Node pos="r" depth="2" NCoef="0" IVar="-1" Cut="0.0000000000000000e+00" cType="1" res="1.7075833166018128e-03" rms="4.6268939971923828e-01" purity="4.9982839822769165e-01" nType="-99"/>
        </Node>
      </Node>
    </BinaryTree>
    <BinaryTree type="DecisionTree" boostWeight="1.0000000000000000e+00" itree="376">
      <Node pos="s" depth="0" NCoef="0" IVar="3" Cut="-7.1428573131561279e-01" cType="1" res="-3.0135165434330702e-04" rms="4.3292605876922607e-01" purity="5.0031101703643799e-01" nType="0">
        <Node pos="l" depth="1" NCoef="0" IVar="-1" Cut="0.0000000000000000e+00" cType="1" res="2.9796094167977571e-03" rms="4.5918086171150208e-01" purity="5.0567841529846191e-01" nType="-99"/>
        <Node pos="r" depth="1" NCoef="0" IVar="7" Cut="2.3428637981414795e+00" cType="1" res="-1.1202667374163866e-03" rms="4.3116179108619690e-01" purity="4.9996423721313477e-01" nType="0">
          <Node pos="l" depth="2" NCoef="0" IVar="-1" Cut="0.0000000000000000e+00" cType="1" res="-1.5031172661110759e-03" rms="4.4399902224540710e-01" purity="4.2429342865943909e-01" nType="-99"/>
          <Node pos="r" depth="2" NCoef="0" IVar="-1" Cut="0.0000000000000000e+00" cType="1" res="4.1690157377161086e-04" rms="4.2404735088348389e-01" purity="5.4081094264984131e-01" nType="-99"/>
        </Node>
      </Node>
    </BinaryTree>
    <BinaryTree type="DecisionTree" boostWeight="1.0000000000000000e+00" itree="377">
      <Node pos="s" depth="0" NCoef="0" IVar="3" Cut="5.2380955219268799e-01" cType="1" res="2.0444530528038740e-03" rms="4.3366619944572449e-01" purity="5.0162851810455322e-01" nType="0">
        <Node pos="l" depth="1" NCoef="0" IVar="5" Cut="3.3752520084381104e+00" cType="1" res="1.2153459247201681e-03" rms="4.3149951100349426e-01" purity="5.0022614002227783e-01" nType="0">
          <Node pos="l" depth="2" NCoef="0" IVar="-1" Cut="0.0000000000000000e+00" cType="1" res="1.7346523236483335e-04" rms="4.3223023414611816e-01" purity="4.9795556068420410e-01" nType="-99"/>
          <Node pos="r" depth="2" NCoef="0" IVar="-1" Cut="0.0000000000000000e+00" cType="1" res="3.4395917318761349e-03" rms="4.1619262099266052e-01" purity="5.4641318321228027e-01" nType="-99"/>
        </Node>
        <Node pos="r" depth="1" NCoef="0" IVar="8" Cut="2.6164171099662781e-01" cType="1" res="8.6211338639259338e-03" rms="4.5042982697486877e-01" purity="5.1275300979614258e-01" nType="0">
          <Node pos="l" depth="2" NCoef="0" IVar="-1" Cut="0.0000000000000000e+00" cType="1" res="2.9371629352681339e-04" rms="4.5034602284431458e-01" purity="4.8652631044387817e-01" nType="-99"/>
          <Node pos="r" depth="2" NCoef="0" IVar="-1" Cut="0.0000000000000000e+00" cType="1" res="6.1228815466165543e-03" rms="4.5020473003387451e-01" purity="5.6821709871292114e-01" nType="-99"/>
        </Node>
      </Node>
    </BinaryTree>
    <BinaryTree type="DecisionTree" boostWeight="1.0000000000000000e+00" itree="378">
      <Node pos="s" depth="0" NCoef="0" IVar="3" Cut="7.1428573131561279e-01" cType="1" res="1.2126584770157933e-03" rms="4.3289262056350708e-01" purity="5.0076073408126831e-01" nType="0">
        <Node pos="l" depth="1" NCoef="0" IVar="10" Cut="4.8857143402099609e+01" cType="1" res="3.9292566361837089e-04" rms="4.3138766288757324e-01" purity="5.0040882825851440e-01" nType="0">
          <Node pos="l" depth="2" NCoef="0" IVar="-1" Cut="0.0000000000000000e+00" cType="1" res="-1.0671514610294253e-04" rms="4.3163314461708069e-01" purity="5.0736331939697266e-01" nType="-99"/>
          <Node pos="r" depth="2" NCoef="0" IVar="-1" Cut="0.0000000000000000e+00" cType="1" res="2.5338034611195326e-03" rms="4.2846283316612244e-01" purity="4.2081341147422791e-01" nType="-99"/>
        </Node>
        <Node pos="r" depth="1" NCoef="0" IVar="-1" Cut="0.0000000000000000e+00" cType="1" res="3.4770651254802942e-03" rms="4.5653164386749268e-01" purity="5.0649976730346680e-01" nType="-99"/>
      </Node>
    </BinaryTree>
    <BinaryTree type="DecisionTree" boostWeight="1.0000000000000000e+00" itree="379">
      <Node pos="s" depth="0" NCoef="0" IVar="7" Cut="5.1556496620178223e+00" cType="1" res="-1.4898948138579726e-03" rms="4.3284130096435547e-01" purity="5.0049740076065063e-01" nType="0">
        <Node pos="l" depth="1" NCoef="0" IVar="7" Cut="7.2169661521911621e-01" cType="1" res="-3.1980592757463455e-03" rms="4.3768864870071411e-01" purity="4.6388816833496094e-01" nType="0">
          <Node pos="l" depth="2" NCoef="0" IVar="-1" Cut="0.0000000000000000e+00" cType="1" res="-4.3039727024734020e-03" rms="4.5486947894096375e-01" purity="4.1827040910720825e-01" nType="-99"/>
          <Node pos="r" depth="2" NCoef="0" IVar="-1" Cut="0.0000000000000000e+00" cType="1" res="-5.9412536211311817e-04" rms="4.3662419915199280e-01" purity="4.6661174297332764e-01" nType="-99"/>
        </Node>
        <Node pos="r" depth="1" NCoef="0" IVar="10" Cut="3.2285713195800781e+01" cType="1" res="4.3862573802471161e-03" rms="4.1568124294281006e-01" purity="6.2643450498580933e-01" nType="0">
          <Node pos="l" depth="2" NCoef="0" IVar="-1" Cut="0.0000000000000000e+00" cType="1" res="4.6097640879452229e-03" rms="4.0619668364524841e-01" purity="7.0015335083007812e-01" nType="-99"/>
          <Node pos="r" depth="2" NCoef="0" IVar="-1" Cut="0.0000000000000000e+00" cType="1" res="-2.0449114963412285e-03" rms="4.2498832941055298e-01" purity="5.4974263906478882e-01" nType="-99"/>
        </Node>
      </Node>
    </BinaryTree>
    <BinaryTree type="DecisionTree" boostWeight="1.0000000000000000e+00" itree="380">
      <Node pos="s" depth="0" NCoef="0" IVar="4" Cut="7.7880120277404785e-01" cType="1" res="-2.5351017247885466e-03" rms="4.3231615424156189e-01" purity="4.9733281135559082e-01" nType="0">
        <Node pos="l" depth="1" NCoef="0" IVar="10" Cut="1.6857143402099609e+01" cType="1" res="-5.5103609338402748e-03" rms="4.2376652359962463e-01" purity="3.3003315329551697e-01" nType="0">
          <Node pos="l" depth="2" NCoef="0" IVar="-1" Cut="0.0000000000000000e+00" cType="1" res="-3.5928634461015463e-03" rms="4.4140702486038208e-01" purity="3.3287194371223450e-01" nType="-99"/>
          <Node pos="r" depth="2" NCoef="0" IVar="-1" Cut="0.0000000000000000e+00" cType="1" res="8.7796087609604001e-04" rms="4.0521922707557678e-01" purity="3.2720026373863220e-01" nType="-99"/>
        </Node>
        <Node pos="r" depth="1" NCoef="0" IVar="0" Cut="1.0968500375747681e+00" cType="1" res="2.1714210743084550e-04" rms="4.4005915522575378e-01" purity="6.5209233760833740e-01" nType="0">
          <Node pos="l" depth="2" NCoef="0" IVar="-1" Cut="0.0000000000000000e+00" cType="1" res="-1.5097933355718851e-03" rms="4.3056750297546387e-01" purity="7.1941798925399780e-01" nType="-99"/>
          <Node pos="r" depth="2" NCoef="0" IVar="-1" Cut="0.0000000000000000e+00" cType="1" res="3.5408483818173409e-03" rms="4.6434867382049561e-01" purity="4.7036164999008179e-01" nType="-99"/>
        </Node>
      </Node>
    </BinaryTree>
    <BinaryTree type="DecisionTree" boostWeight="1.0000000000000000e+00" itree="381">
      <Node pos="s" depth="0" NCoef="0" IVar="3" Cut="-1.4285714924335480e-01" cType="1" res="5.9051887365058064e-04" rms="4.3306571245193481e-01" purity="4.9981731176376343e-01" nType="0">
        <Node pos="l" depth="1" NCoef="0" IVar="5" Cut="1.9108107686042786e-01" cType="1" res="4.7139152884483337e-03" rms="4.3553635478019714e-01" purity="5.0898224115371704e-01" nType="0">
          <Node pos="l" depth="2" NCoef="0" IVar="-1" Cut="0.0000000000000000e+00" cType="1" res="4.9850856885313988e-03" rms="4.5663458108901978e-01" purity="5.1037704944610596e-01" nType="-99"/>
          <Node pos="r" depth="2" NCoef="0" IVar="-1" Cut="0.0000000000000000e+00" cType="1" res="5.1107333274558187e-04" rms="4.3176963925361633e-01" purity="5.0874418020248413e-01" nType="-99"/>
        </Node>
        <Node pos="r" depth="1" NCoef="0" IVar="5" Cut="1.7047619819641113e-01" cType="1" res="-1.7637686105445027e-03" rms="4.3163105845451355e-01" purity="4.9458444118499756e-01" nType="0">
          <Node pos="l" depth="2" NCoef="0" IVar="-1" Cut="0.0000000000000000e+00" cType="1" res="-3.8004817906767130e-03" rms="4.5683300495147705e-01" purity="4.7458589076995850e-01" nType="-99"/>
          <Node pos="r" depth="2" NCoef="0" IVar="-1" Cut="0.0000000000000000e+00" cType="1" res="-3.3217154850717634e-05" rms="4.2861384153366089e-01" purity="4.9687930941581726e-01" nType="-99"/>
        </Node>
      </Node>
    </BinaryTree>
    <BinaryTree type="DecisionTree" boostWeight="1.0000000000000000e+00" itree="382">
      <Node pos="s" depth="0" NCoef="0" IVar="8" Cut="6.8032041192054749e-02" cType="1" res="-3.2793657737784088e-04" rms="4.3346878886222839e-01" purity="5.0037533044815063e-01" nType="0">
        <Node pos="l" depth="1" NCoef="0" IVar="7" Cut="2.4836485385894775e+00" cType="1" res="-3.4125961828976870e-03" rms="4.3406870961189270e-01" purity="4.8957011103630066e-01" nType="0">
          <Node pos="l" depth="2" NCoef="0" IVar="-1" Cut="0.0000000000000000e+00" cType="1" res="-2.1118544973433018e-03" rms="4.4503247737884521e-01" purity="4.2110997438430786e-01" nType="-99"/>
          <Node pos="r" depth="2" NCoef="0" IVar="-1" Cut="0.0000000000000000e+00" cType="1" res="1.7997415852732956e-04" rms="4.2502731084823608e-01" purity="5.4447698593139648e-01" nType="-99"/>
        </Node>
        <Node pos="r" depth="1" NCoef="0" IVar="0" Cut="9.5477253198623657e-01" cType="1" res="3.3944756723940372e-03" rms="4.3271449208259583e-01" purity="5.1341456174850464e-01" nType="0">
          <Node pos="l" depth="2" NCoef="0" IVar="-1" Cut="0.0000000000000000e+00" cType="1" res="-5.7859165826812387e-04" rms="4.3290007114410400e-01" purity="6.4284259080886841e-01" nType="-99"/>
          <Node pos="r" depth="2" NCoef="0" IVar="-1" Cut="0.0000000000000000e+00" cType="1" res="2.3310675751417875e-03" rms="4.3245953321456909e-01" purity="3.8477000594139099e-01" nType="-99"/>
        </Node>
      </Node>
    </BinaryTree>
    <BinaryTree type="DecisionTree" boostWeight="1.0000000000000000e+00" itree="383">
      <Node pos="s" depth="0" NCoef="0" IVar="0" Cut="1.2076667547225952e+00" cType="1" res="2.0018916111439466e-03" rms="4.3307414650917053e-01" purity="5.0095921754837036e-01" nType="0">
        <Node pos="l" depth="1" NCoef="0" IVar="4" Cut="6.9857090711593628e-01" cType="1" res="3.2948651351034641e-03" rms="4.3993437290191650e-01" purity="5.6620597839355469e-01" nType="0">
          <Node pos="l" depth="2" NCoef="0" IVar="-1" Cut="0.0000000000000000e+00" cType="1" res="3.1703913118690252e-03" rms="4.3839466571807861e-01" purity="3.5122954845428467e-01" nType="-99"/>
          <Node pos="r" depth="2" NCoef="0" IVar="-1" Cut="0.0000000000000000e+00" cType="1" res="-3.9230947731994092e-04" rms="4.4069808721542358e-01" purity="6.8361175060272217e-01" nType="-99"/>
        </Node>
        <Node pos="r" depth="1" NCoef="0" IVar="10" Cut="1.9714284896850586e+01" cType="1" res="-2.2046410012990236e-03" rms="4.0993347764015198e-01" purity="2.8868657350540161e-01" nType="0">
          <Node pos="l" depth="2" NCoef="0" IVar="-1" Cut="0.0000000000000000e+00" cType="1" res="1.6941460780799389e-03" rms="4.3200770020484924e-01" purity="3.3456948399543762e-01" nType="-99"/>
          <Node pos="r" depth="2" NCoef="0" IVar="-1" Cut="0.0000000000000000e+00" cType="1" res="-1.3123737648129463e-02" rms="3.2059901952743530e-01" purity="1.3045111298561096e-01" nType="-99"/>
        </Node>
      </Node>
    </BinaryTree>
    <BinaryTree type="DecisionTree" boostWeight="1.0000000000000000e+00" itree="384">
      <Node pos="s" depth="0" NCoef="0" IVar="9" Cut="2.3809523880481720e-01" cType="1" res="2.0108749158680439e-03" rms="4.3292742967605591e-01" purity="5.0272244215011597e-01" nType="0">
        <Node pos="l" depth="1" NCoef="0" IVar="8" Cut="1.5072053670883179e+00" cType="1" res="4.0148720145225525e-03" rms="4.3270900845527649e-01" purity="5.0916528701782227e-01" nType="0">
          <Node pos="l" depth="2" NCoef="0" IVar="-1" Cut="0.0000000000000000e+00" cType="1" res="1.2495914706960320e-03" rms="4.3359860777854919e-01" purity="5.0088375806808472e-01" nType="-99"/>
          <Node pos="r" depth="2" NCoef="0" IVar="-1" Cut="0.0000000000000000e+00" cType="1" res="-2.2646279539912939e-03" rms="4.1789677739143372e-01" purity="6.4288026094436646e-01" nType="-99"/>
        </Node>
        <Node pos="r" depth="1" NCoef="0" IVar="9" Cut="7.4603527784347534e-01" cType="1" res="-3.3043131697922945e-03" rms="4.3346136808395386e-01" purity="4.8563420772552490e-01" nType="0">
          <Node pos="l" depth="2" NCoef="0" IVar="-1" Cut="0.0000000000000000e+00" cType="1" res="-9.3035429017618299e-05" rms="4.3192049860954285e-01" purity="5.0480711460113525e-01" nType="-99"/>
          <Node pos="r" depth="2" NCoef="0" IVar="-1" Cut="0.0000000000000000e+00" cType="1" res="-5.2573299035429955e-03" rms="4.4207760691642761e-01" purity="3.7201657891273499e-01" nType="-99"/>
        </Node>
      </Node>
    </BinaryTree>
    <BinaryTree type="DecisionTree" boostWeight="1.0000000000000000e+00" itree="385">
      <Node pos="s" depth="0" NCoef="0" IVar="9" Cut="-6.1904764175415039e-01" cType="1" res="6.5461843041703105e-04" rms="4.3225809931755066e-01" purity="5.0213247537612915e-01" nType="0">
        <Node pos="l" depth="1" NCoef="0" IVar="4" Cut="7.8341329097747803e-01" cType="1" res="-9.3485647812485695e-03" rms="4.4022381305694580e-01" purity="4.0657582879066467e-01" nType="0">
          <Node pos="l" depth="2" NCoef="0" IVar="-1" Cut="0.0000000000000000e+00" cType="1" res="3.0859877006150782e-04" rms="4.1809529066085815e-01" purity="2.7289390563964844e-01" nType="-99"/>
          <Node pos="r" depth="2" NCoef="0" IVar="-1" Cut="0.0000000000000000e+00" cType="1" res="-4.5735184103250504e-03" rms="4.6114218235015869e-01" purity="5.4081600904464722e-01" nType="-99"/>
        </Node>
        <Node pos="r" depth="1" NCoef="0" IVar="4" Cut="3.9084973931312561e-01" cType="1" res="1.4309729449450970e-03" rms="4.3162402510643005e-01" purity="5.0954866409301758e-01" nType="0">
          <Node pos="l" depth="2" NCoef="0" IVar="-1" Cut="0.0000000000000000e+00" cType="1" res="-4.9588009715080261e-03" rms="2.8115054965019226e-01" purity="9.0117149055004120e-02" nType="-99"/>
          <Node pos="r" depth="2" NCoef="0" IVar="-1" Cut="0.0000000000000000e+00" cType="1" res="5.8655126485973597e-04" rms="4.4264015555381775e-01" purity="5.4725068807601929e-01" nType="-99"/>
        </Node>
      </Node>
    </BinaryTree>
    <BinaryTree type="DecisionTree" boostWeight="1.0000000000000000e+00" itree="386">
      <Node pos="s" depth="0" NCoef="0" IVar="7" Cut="8.4345941543579102e+00" cType="1" res="-1.5718286158517003e-03" rms="4.3243974447250366e-01" purity="4.9927937984466553e-01" nType="0">
        <Node pos="l" depth="1" NCoef="0" IVar="6" Cut="8.5714286565780640e-01" cType="1" res="-2.5564555544406176e-03" rms="4.3452775478363037e-01" purity="4.8480811715126038e-01" nType="0">
          <Node pos="l" depth="2" NCoef="0" IVar="-1" Cut="0.0000000000000000e+00" cType="1" res="8.8513705122750252e-05" rms="4.3497431278228760e-01" purity="4.9141579866409302e-01" nType="-99"/>
          <Node pos="r" depth="2" NCoef="0" IVar="-1" Cut="0.0000000000000000e+00" cType="1" res="-1.6114795580506325e-03" rms="4.3395087122917175e-01" purity="4.7667482495307922e-01" nType="-99"/>
        </Node>
        <Node pos="r" depth="1" NCoef="0" IVar="-1" Cut="0.0000000000000000e+00" cType="1" res="3.3158143050968647e-03" rms="4.0340071916580200e-01" purity="6.9183880090713501e-01" nType="-99"/>
      </Node>
    </BinaryTree>
    <BinaryTree type="DecisionTree" boostWeight="1.0000000000000000e+00" itree="387">
      <Node pos="s" depth="0" NCoef="0" IVar="3" Cut="-5.2380955219268799e-01" cType="1" res="1.3496787287294865e-03" rms="4.3283602595329285e-01" purity="5.0162756443023682e-01" nType="0">
        <Node pos="l" depth="1" NCoef="0" IVar="4" Cut="7.4691617488861084e-01" cType="1" res="1.3712142594158649e-02" rms="4.4514635205268860e-01" purity="5.2017706632614136e-01" nType="0">
          <Node pos="l" depth="2" NCoef="0" IVar="-1" Cut="0.0000000000000000e+00" cType="1" res="-1.1403467942727730e-04" rms="4.3728375434875488e-01" purity="3.3202567696571350e-01" nType="-99"/>
          <Node pos="r" depth="2" NCoef="0" IVar="-1" Cut="0.0000000000000000e+00" cType="1" res="5.3622741252183914e-03" rms="4.4964396953582764e-01" purity="6.3462263345718384e-01" nType="-99"/>
        </Node>
        <Node pos="r" depth="1" NCoef="0" IVar="8" Cut="-1.2043129205703735e+00" cType="1" res="-2.9327138327062130e-04" rms="4.3114686012268066e-01" purity="4.9916234612464905e-01" nType="0">
          <Node pos="l" depth="2" NCoef="0" IVar="-1" Cut="0.0000000000000000e+00" cType="1" res="-2.5754962116479874e-03" rms="4.2338702082633972e-01" purity="6.3267385959625244e-01" nType="-99"/>
          <Node pos="r" depth="2" NCoef="0" IVar="-1" Cut="0.0000000000000000e+00" cType="1" res="2.3733051784802228e-04" rms="4.3215903639793396e-01" purity="4.8132544755935669e-01" nType="-99"/>
        </Node>
      </Node>
    </BinaryTree>
    <BinaryTree type="DecisionTree" boostWeight="1.0000000000000000e+00" itree="388">
      <Node pos="s" depth="0" NCoef="0" IVar="3" Cut="7.1428573131561279e-01" cType="1" res="-4.8362612142227590e-04" rms="4.3256452679634094e-01" purity="4.9983420968055725e-01" nType="0">
        <Node pos="l" depth="1" NCoef="0" IVar="9" Cut="7.1428573131561279e-01" cType="1" res="-1.4888381119817495e-03" rms="4.3113598227500916e-01" purity="4.9897590279579163e-01" nType="0">
          <Node pos="l" depth="2" NCoef="0" IVar="-1" Cut="0.0000000000000000e+00" cType="1" res="-6.0552707873284817e-04" rms="4.3048959970474243e-01" purity="5.0297665596008301e-01" nType="-99"/>
          <Node pos="r" depth="2" NCoef="0" IVar="-1" Cut="0.0000000000000000e+00" cType="1" res="4.2406725697219372e-03" rms="4.4513502717018127e-01" purity="4.0843871235847473e-01" nType="-99"/>
        </Node>
        <Node pos="r" depth="1" NCoef="0" IVar="-1" Cut="0.0000000000000000e+00" cType="1" res="3.7247082218527794e-03" rms="4.5459464192390442e-01" purity="5.1362311840057373e-01" nType="-99"/>
      </Node>
    </BinaryTree>
    <BinaryTree type="DecisionTree" boostWeight="1.0000000000000000e+00" itree="389">
      <Node pos="s" depth="0" NCoef="0" IVar="9" Cut="4.2857143282890320e-01" cType="1" res="-2.2416519932448864e-03" rms="4.3303638696670532e-01" purity="4.9791836738586426e-01" nType="0">
        <Node pos="l" depth="1" NCoef="0" IVar="9" Cut="-3.8775521516799927e-01" cType="1" res="-7.7875377610325813e-04" rms="4.3229195475578308e-01" purity="5.0610589981079102e-01" nType="0">
          <Node pos="l" depth="2" NCoef="0" IVar="-1" Cut="0.0000000000000000e+00" cType="1" res="-2.0963244605809450e-03" rms="4.3455889821052551e-01" purity="4.5431017875671387e-01" nType="-99"/>
          <Node pos="r" depth="2" NCoef="0" IVar="-1" Cut="0.0000000000000000e+00" cType="1" res="2.6815812452696264e-04" rms="4.3170589208602905e-01" purity="5.1902699470520020e-01" nType="-99"/>
        </Node>
        <Node pos="r" depth="1" NCoef="0" IVar="8" Cut="5.5954957008361816e-01" cType="1" res="-1.0782673954963684e-02" rms="4.3725976347923279e-01" purity="4.5011582970619202e-01" nType="0">
          <Node pos="l" depth="2" NCoef="0" IVar="-1" Cut="0.0000000000000000e+00" cType="1" res="-4.4664465822279453e-03" rms="4.3418321013450623e-01" purity="3.5755071043968201e-01" nType="-99"/>
          <Node pos="r" depth="2" NCoef="0" IVar="-1" Cut="0.0000000000000000e+00" cType="1" res="4.3923897464992478e-05" rms="4.4233658909797668e-01" purity="6.1081916093826294e-01" nType="-99"/>
        </Node>
      </Node>
    </BinaryTree>
    <BinaryTree type="DecisionTree" boostWeight="1.0000000000000000e+00" itree="390">
      <Node pos="s" depth="0" NCoef="0" IVar="7" Cut="7.3071408271789551e+00" cType="1" res="-5.5534299463033676e-04" rms="4.3324744701385498e-01" purity="5.0105905532836914e-01" nType="0">
        <Node pos="l" depth="1" NCoef="0" IVar="4" Cut="6.9822537899017334e-01" cType="1" res="-1.6089476412162185e-03" rms="4.3583822250366211e-01" purity="4.8128843307495117e-01" nType="0">
          <Node pos="l" depth="2" NCoef="0" IVar="-1" Cut="0.0000000000000000e+00" cType="1" res="6.9393526064231992e-04" rms="4.1680052876472473e-01" purity="2.9366222023963928e-01" nType="-99"/>
          <Node pos="r" depth="2" NCoef="0" IVar="-1" Cut="0.0000000000000000e+00" cType="1" res="-1.1003275867551565e-03" rms="4.4886529445648193e-01" purity="6.1473369598388672e-01" nType="-99"/>
        </Node>
        <Node pos="r" depth="1" NCoef="0" IVar="10" Cut="3.3000000000000000e+01" cType="1" res="8.3036674186587334e-03" rms="4.1071069240570068e-01" purity="6.6729605197906494e-01" nType="0">
          <Node pos="l" depth="2" NCoef="0" IVar="-1" Cut="0.0000000000000000e+00" cType="1" res="5.9004747308790684e-03" rms="3.9586049318313599e-01" purity="7.5549697875976562e-01" nType="-99"/>
          <Node pos="r" depth="2" NCoef="0" IVar="-1" Cut="0.0000000000000000e+00" cType="1" res="1.1044692655559629e-04" rms="4.2096927762031555e-01" purity="6.0337853431701660e-01" nType="-99"/>
        </Node>
      </Node>
    </BinaryTree>
    <BinaryTree type="DecisionTree" boostWeight="1.0000000000000000e+00" itree="391">
      <Node pos="s" depth="0" NCoef="0" IVar="3" Cut="-7.1428573131561279e-01" cType="1" res="1.9894232973456383e-03" rms="4.3342533707618713e-01" purity="5.0276494026184082e-01" nType="0">
        <Node pos="l" depth="1" NCoef="0" IVar="-1" Cut="0.0000000000000000e+00" cType="1" res="2.9316826257854700e-03" rms="4.5760688185691833e-01" purity="5.0965201854705811e-01" nType="-99"/>
        <Node pos="r" depth="1" NCoef="0" IVar="9" Cut="-4.7619048506021500e-02" cType="1" res="1.3317613629624248e-03" rms="4.3180838227272034e-01" purity="5.0232005119323730e-01" nType="0">
          <Node pos="l" depth="2" NCoef="0" IVar="-1" Cut="0.0000000000000000e+00" cType="1" res="-3.0909705674275756e-04" rms="4.3156084418296814e-01" purity="4.9432742595672607e-01" nType="-99"/>
          <Node pos="r" depth="2" NCoef="0" IVar="-1" Cut="0.0000000000000000e+00" cType="1" res="8.8383478578180075e-04" rms="4.3199664354324341e-01" purity="5.0874048471450806e-01" nType="-99"/>
        </Node>
      </Node>
    </BinaryTree>
    <BinaryTree type="DecisionTree" boostWeight="1.0000000000000000e+00" itree="392">
      <Node pos="s" depth="0" NCoef="0" IVar="3" Cut="-4.7619048506021500e-02" cType="1" res="-7.3810445610433817e-04" rms="4.3313491344451904e-01" purity="4.9861061573028564e-01" nType="0">
        <Node pos="l" depth="1" NCoef="0" IVar="9" Cut="-3.3333334326744080e-01" cType="1" res="-3.7457554135471582e-03" rms="4.3385449051856995e-01" purity="4.9631622433662415e-01" nType="0">
          <Node pos="l" depth="2" NCoef="0" IVar="-1" Cut="0.0000000000000000e+00" cType="1" res="-3.5020431969314814e-03" rms="4.3589085340499878e-01" purity="4.5838114619255066e-01" nType="-99"/>
          <Node pos="r" depth="2" NCoef="0" IVar="-1" Cut="0.0000000000000000e+00" cType="1" res="-3.4608555142767727e-04" rms="4.3330243229866028e-01" purity="5.0594443082809448e-01" nType="-99"/>
        </Node>
        <Node pos="r" depth="1" NCoef="0" IVar="1" Cut="9.2813520431518555e+00" cType="1" res="1.7783010844141245e-03" rms="4.3251585960388184e-01" purity="5.0053024291992188e-01" nType="0">
          <Node pos="l" depth="2" NCoef="0" IVar="-1" Cut="0.0000000000000000e+00" cType="1" res="6.9931230973452330e-04" rms="4.3395766615867615e-01" purity="5.0242877006530762e-01" nType="-99"/>
          <Node pos="r" depth="2" NCoef="0" IVar="-1" Cut="0.0000000000000000e+00" cType="1" res="-2.3724099155515432e-03" rms="4.1536960005760193e-01" purity="4.7860965132713318e-01" nType="-99"/>
        </Node>
      </Node>
    </BinaryTree>
    <BinaryTree type="DecisionTree" boostWeight="1.0000000000000000e+00" itree="393">
      <Node pos="s" depth="0" NCoef="0" IVar="0" Cut="6.4569455385208130e-01" cType="1" res="5.2494951523840427e-04" rms="4.3280512094497681e-01" purity="5.0102740526199341e-01" nType="0">
        <Node pos="l" depth="1" NCoef="0" IVar="10" Cut="6.6190476417541504e+00" cType="1" res="9.5160687342286110e-03" rms="4.3000105023384094e-01" purity="6.8676978349685669e-01" nType="0">
          <Node pos="l" depth="2" NCoef="0" IVar="-1" Cut="0.0000000000000000e+00" cType="1" res="-1.2354206992313266e-03" rms="4.6093809604644775e-01" purity="6.5252852439880371e-01" nType="-99"/>
          <Node pos="r" depth="2" NCoef="0" IVar="-1" Cut="0.0000000000000000e+00" cType="1" res="5.7571809738874435e-03" rms="4.0741598606109619e-01" purity="7.0996290445327759e-01" nType="-99"/>
        </Node>
        <Node pos="r" depth="1" NCoef="0" IVar="0" Cut="1.8463217020034790e+00" cType="1" res="-5.3754082182422280e-04" rms="4.3312293291091919e-01" purity="4.7907805442810059e-01" nType="0">
          <Node pos="l" depth="2" NCoef="0" IVar="-1" Cut="0.0000000000000000e+00" cType="1" res="1.0723301784310024e-05" rms="4.3481874465942383e-01" purity="4.9028861522674561e-01" nType="-99"/>
          <Node pos="r" depth="2" NCoef="0" IVar="-1" Cut="0.0000000000000000e+00" cType="1" res="-3.9907856844365597e-03" rms="3.9315414428710938e-01" purity="2.2886243462562561e-01" nType="-99"/>
        </Node>
      </Node>
    </BinaryTree>
    <BinaryTree type="DecisionTree" boostWeight="1.0000000000000000e+00" itree="394">
      <Node pos="s" depth="0" NCoef="0" IVar="5" Cut="9.1114413738250732e-01" cType="1" res="6.3158397097140551e-04" rms="4.3251034617424011e-01" purity="5.0169360637664795e-01" nType="0">
        <Node pos="l" depth="1" NCoef="0" IVar="4" Cut="7.8128898143768311e-01" cType="1" res="5.9103434905409813e-03" rms="4.4632232189178467e-01" purity="5.1592934131622314e-01" nType="0">
          <Node pos="l" depth="2" NCoef="0" IVar="-1" Cut="0.0000000000000000e+00" cType="1" res="-6.3158082775771618e-04" rms="4.4304361939430237e-01" purity="3.4386426210403442e-01" nType="-99"/>
          <Node pos="r" depth="2" NCoef="0" IVar="-1" Cut="0.0000000000000000e+00" cType="1" res="2.9459949582815170e-03" rms="4.4864293932914734e-01" purity="6.4382642507553101e-01" nType="-99"/>
        </Node>
        <Node pos="r" depth="1" NCoef="0" IVar="0" Cut="1.3655611276626587e+00" cType="1" res="-2.2786254994571209e-03" rms="4.2467561364173889e-01" purity="4.9384537339210510e-01" nType="0">
          <Node pos="l" depth="2" NCoef="0" IVar="-1" Cut="0.0000000000000000e+00" cType="1" res="-6.2340994190890342e-05" rms="4.3056941032409668e-01" purity="5.2355593442916870e-01" nType="-99"/>
          <Node pos="r" depth="2" NCoef="0" IVar="-1" Cut="0.0000000000000000e+00" cType="1" res="-7.8134927898645401e-03" rms="3.5919970273971558e-01" purity="1.9408303499221802e-01" nType="-99"/>
        </Node>
      </Node>
    </BinaryTree>
    <BinaryTree type="DecisionTree" boostWeight="1.0000000000000000e+00" itree="395">
      <Node pos="s" depth="0" NCoef="0" IVar="0" Cut="6.4201694726943970e-01" cType="1" res="1.3394013512879610e-03" rms="4.3300610780715942e-01" purity="5.0115281343460083e-01" nType="0">
        <Node pos="l" depth="1" NCoef="0" IVar="4" Cut="8.2676178216934204e-01" cType="1" res="1.1910531669855118e-02" rms="4.3278467655181885e-01" purity="6.8627089262008667e-01" nType="0">
          <Node pos="l" depth="2" NCoef="0" IVar="-1" Cut="0.0000000000000000e+00" cType="1" res="6.1757122166454792e-03" rms="4.6855857968330383e-01" purity="5.6850171089172363e-01" nType="-99"/>
          <Node pos="r" depth="2" NCoef="0" IVar="-1" Cut="0.0000000000000000e+00" cType="1" res="4.9649813445284963e-04" rms="4.0447476506233215e-01" purity="7.7192980051040649e-01" nType="-99"/>
        </Node>
        <Node pos="r" depth="1" NCoef="0" IVar="4" Cut="8.1803435087203979e-01" cType="1" res="1.1724849900929257e-04" rms="4.3301504850387573e-01" purity="4.7975093126296997e-01" nType="0">
          <Node pos="l" depth="2" NCoef="0" IVar="-1" Cut="0.0000000000000000e+00" cType="1" res="-6.6925270948559046e-04" rms="4.2699301242828369e-01" purity="3.3966574072837830e-01" nType="-99"/>
          <Node pos="r" depth="2" NCoef="0" IVar="-1" Cut="0.0000000000000000e+00" cType="1" res="8.3650660235434771e-04" rms="4.4032931327819824e-01" purity="6.5303230285644531e-01" nType="-99"/>
        </Node>
      </Node>
    </BinaryTree>
    <BinaryTree type="DecisionTree" boostWeight="1.0000000000000000e+00" itree="396">
      <Node pos="s" depth="0" NCoef="0" IVar="9" Cut="-7.1428573131561279e-01" cType="1" res="7.6900108251720667e-04" rms="4.3261313438415527e-01" purity="5.0149571895599365e-01" nType="0">
        <Node pos="l" depth="1" NCoef="0" IVar="-1" Cut="0.0000000000000000e+00" cType="1" res="3.9226626977324486e-03" rms="4.4483637809753418e-01" purity="4.0218043327331543e-01" nType="-99"/>
        <Node pos="r" depth="1" NCoef="0" IVar="7" Cut="7.4834742546081543e+00" cType="1" res="5.5985958169912919e-05" rms="4.3198952078819275e-01" purity="5.0638836622238159e-01" nType="0">
          <Node pos="l" depth="2" NCoef="0" IVar="-1" Cut="0.0000000000000000e+00" cType="1" res="-2.5839798036031425e-04" rms="4.3465229868888855e-01" purity="4.8725238442420959e-01" nType="-99"/>
          <Node pos="r" depth="2" NCoef="0" IVar="-1" Cut="0.0000000000000000e+00" cType="1" res="2.5833160616457462e-03" rms="4.0814998745918274e-01" purity="6.7171716690063477e-01" nType="-99"/>
        </Node>
      </Node>
    </BinaryTree>
    <BinaryTree type="DecisionTree" boostWeight="1.0000000000000000e+00" itree="397">
      <Node pos="s" depth="0" NCoef="0" IVar="3" Cut="-7.1428573131561279e-01" cType="1" res="1.7336950404569507e-03" rms="4.3166252970695496e-01" purity="5.0164008140563965e-01" nType="0">
        <Node pos="l" depth="1" NCoef="0" IVar="-1" Cut="0.0000000000000000e+00" cType="1" res="-2.4990229867398739e-03" rms="4.5499548316001892e-01" purity="4.8562344908714294e-01" nType="-99"/>
        <Node pos="r" depth="1" NCoef="0" IVar="5" Cut="1.4342039823532104e+00" cType="1" res="2.5140235666185617e-03" rms="4.3010413646697998e-01" purity="5.0267201662063599e-01" nType="0">
          <Node pos="l" depth="2" NCoef="0" IVar="-1" Cut="0.0000000000000000e+00" cType="1" res="1.5068500069901347e-03" rms="4.3671700358390808e-01" purity="5.1445722579956055e-01" nType="-99"/>
          <Node pos="r" depth="2" NCoef="0" IVar="-1" Cut="0.0000000000000000e+00" cType="1" res="-5.1695195725187659e-04" rms="4.2113146185874939e-01" purity="4.8703819513320923e-01" nType="-99"/>
        </Node>
      </Node>
    </BinaryTree>
    <BinaryTree type="DecisionTree" boostWeight="1.0000000000000000e+00" itree="398">
      <Node pos="s" depth="0" NCoef="0" IVar="8" Cut="-6.3515365123748779e-01" cType="1" res="-4.0614153840579093e-04" rms="4.3290507793426514e-01" purity="5.0006359815597534e-01" nType="0">
        <Node pos="l" depth="1" NCoef="0" IVar="4" Cut="5.6109595298767090e-01" cType="1" res="-5.1687727682292461e-03" rms="4.2728081345558167e-01" purity="5.6769472360610962e-01" nType="0">
          <Node pos="l" depth="2" NCoef="0" IVar="-1" Cut="0.0000000000000000e+00" cType="1" res="-8.6734378710389137e-03" rms="3.4284627437591553e-01" purity="1.5417373180389404e-01" nType="-99"/>
          <Node pos="r" depth="2" NCoef="0" IVar="-1" Cut="0.0000000000000000e+00" cType="1" res="-4.7752470709383488e-04" rms="4.4162645936012268e-01" purity="6.4739406108856201e-01" nType="-99"/>
        </Node>
        <Node pos="r" depth="1" NCoef="0" IVar="10" Cut="1.7809524536132812e+01" cType="1" res="1.0703941807150841e-03" rms="4.3462339043617249e-01" purity="4.7909623384475708e-01" nType="0">
          <Node pos="l" depth="2" NCoef="0" IVar="-1" Cut="0.0000000000000000e+00" cType="1" res="-5.0478067714720964e-04" rms="4.4721984863281250e-01" purity="4.8536548018455505e-01" nType="-99"/>
          <Node pos="r" depth="2" NCoef="0" IVar="-1" Cut="0.0000000000000000e+00" cType="1" res="1.5194554580375552e-03" rms="4.1635265946388245e-01" purity="4.7033938765525818e-01" nType="-99"/>
        </Node>
      </Node>
    </BinaryTree>
    <BinaryTree type="DecisionTree" boostWeight="1.0000000000000000e+00" itree="399">
      <Node pos="s" depth="0" NCoef="0" IVar="5" Cut="2.7479763031005859e+00" cType="1" res="-1.4693108387291431e-03" rms="4.3371638655662537e-01" purity="4.9895855784416199e-01" nType="0">
        <Node pos="l" depth="1" NCoef="0" IVar="4" Cut="8.2117581367492676e-01" cType="1" res="-2.1980404853820801e-03" rms="4.3483030796051025e-01" purity="4.9750435352325439e-01" nType="0">
          <Node pos="l" depth="2" NCoef="0" IVar="-1" Cut="0.0000000000000000e+00" cType="1" res="7.9030956840142608e-05" rms="4.3032282590866089e-01" purity="3.5874691605567932e-01" nType="-99"/>
          <Node pos="r" depth="2" NCoef="0" IVar="-1" Cut="0.0000000000000000e+00" cType="1" res="-1.3280573766678572e-03" rms="4.4009920954704285e-01" purity="6.6210776567459106e-01" nType="-99"/>
        </Node>
        <Node pos="r" depth="1" NCoef="0" IVar="10" Cut="4.0571430206298828e+01" cType="1" res="6.5678339451551437e-03" rms="4.2115208506584167e-01" purity="5.1499682664871216e-01" nType="0">
          <Node pos="l" depth="2" NCoef="0" IVar="-1" Cut="0.0000000000000000e+00" cType="1" res="-9.8318269010633230e-04" rms="4.1832551360130310e-01" purity="5.2595913410186768e-01" nType="-99"/>
          <Node pos="r" depth="2" NCoef="0" IVar="-1" Cut="0.0000000000000000e+00" cType="1" res="5.0320634618401527e-03" rms="4.2428547143936157e-01" purity="5.0147658586502075e-01" nType="-99"/>
        </Node>
      </Node>
    </BinaryTree>
    <BinaryTree type="DecisionTree" boostWeight="1.0000000000000000e+00" itree="400">
      <Node pos="s" depth="0" NCoef="0" IVar="9" Cut="-7.1428573131561279e-01" cType="1" res="8.5999534348957241e-05" rms="4.3306568264961243e-01" purity="5.0076246261596680e-01" nType="0">
        <Node pos="l" depth="1" NCoef="0" IVar="-1" Cut="0.0000000000000000e+00" cType="1" res="3.4280063118785620e-03" rms="4.4215109944343567e-01" purity="3.9817667007446289e-01" nType="-99"/>
        <Node pos="r" depth="1" NCoef="0" IVar="5" Cut="2.6359820365905762e+00" cType="1" res="-5.7899672538042068e-04" rms="4.3259331583976746e-01" purity="5.0591862201690674e-01" nType="0">
          <Node pos="l" depth="2" NCoef="0" IVar="-1" Cut="0.0000000000000000e+00" cType="1" res="-4.0527866804040968e-04" rms="4.3402853608131409e-01" purity="5.0542509555816650e-01" nType="-99"/>
          <Node pos="r" depth="2" NCoef="0" IVar="-1" Cut="0.0000000000000000e+00" cType="1" res="2.2416913416236639e-03" rms="4.1923460364341736e-01" purity="5.1039987802505493e-01" nType="-99"/>
        </Node>
      </Node>
    </BinaryTree>
    <BinaryTree type="DecisionTree" boostWeight="1.0000000000000000e+00" itree="401">
      <Node pos="s" depth="0" NCoef="0" IVar="2" Cut="-8.5325759649276733e-01" cType="1" res="-2.0672217942774296e-03" rms="4.3214443325996399e-01" purity="4.9878957867622375e-01" nType="0">
        <Node pos="l" depth="1" NCoef="0" IVar="4" Cut="7.7727317810058594e-01" cType="1" res="3.9322264492511749e-03" rms="4.2481189966201782e-01" purity="5.0850403308868408e-01" nType="0">
          <Node pos="l" depth="2" NCoef="0" IVar="-1" Cut="0.0000000000000000e+00" cType="1" res="-2.4740127264522016e-04" rms="4.2197704315185547e-01" purity="3.4079480171203613e-01" nType="-99"/>
          <Node pos="r" depth="2" NCoef="0" IVar="-1" Cut="0.0000000000000000e+00" cType="1" res="2.4071251973509789e-03" rms="4.2772912979125977e-01" purity="6.8579202890396118e-01" nType="-99"/>
        </Node>
        <Node pos="r" depth="1" NCoef="0" IVar="6" Cut="4.6666665077209473e+00" cType="1" res="-3.3747628331184387e-03" rms="4.3371504545211792e-01" purity="4.9667239189147949e-01" nType="0">
          <Node pos="l" depth="2" NCoef="0" IVar="-1" Cut="0.0000000000000000e+00" cType="1" res="-6.5902044298127294e-04" rms="4.3492168188095093e-01" purity="5.0178265571594238e-01" nType="-99"/>
          <Node pos="r" depth="2" NCoef="0" IVar="-1" Cut="0.0000000000000000e+00" cType="1" res="-2.9600625857710838e-03" rms="4.2296344041824341e-01" purity="4.5206212997436523e-01" nType="-99"/>
        </Node>
      </Node>
    </BinaryTree>
    <BinaryTree type="DecisionTree" boostWeight="1.0000000000000000e+00" itree="402">
      <Node pos="s" depth="0" NCoef="0" IVar="5" Cut="3.4004492759704590e+00" cType="1" res="5.1195700507378206e-05" rms="4.3331295251846313e-01" purity="4.9952805042266846e-01" nType="0">
        <Node pos="l" depth="1" NCoef="0" IVar="10" Cut="3.5523811340332031e+01" cType="1" res="7.6484109740704298e-04" rms="4.3395709991455078e-01" purity="4.9864384531974792e-01" nType="0">
          <Node pos="l" depth="2" NCoef="0" IVar="-1" Cut="0.0000000000000000e+00" cType="1" res="4.3754230136983097e-04" rms="4.3605172634124756e-01" purity="5.0575500726699829e-01" nType="-99"/>
          <Node pos="r" depth="2" NCoef="0" IVar="-1" Cut="0.0000000000000000e+00" cType="1" res="-1.2589010875672102e-03" rms="4.2136225104331970e-01" purity="4.5673769712448120e-01" nType="-99"/>
        </Node>
        <Node pos="r" depth="1" NCoef="0" IVar="-1" Cut="0.0000000000000000e+00" cType="1" res="-4.5913862995803356e-03" rms="4.1743245720863342e-01" purity="5.2044117450714111e-01" nType="-99"/>
      </Node>
    </BinaryTree>
    <BinaryTree type="DecisionTree" boostWeight="1.0000000000000000e+00" itree="403">
      <Node pos="s" depth="0" NCoef="0" IVar="8" Cut="-4.8772454261779785e-01" cType="1" res="1.5667235711589456e-03" rms="4.3289625644683838e-01" purity="5.0290685892105103e-01" nType="0">
        <Node pos="l" depth="1" NCoef="0" IVar="10" Cut="3.4428569793701172e+01" cType="1" res="-2.6908547151833773e-03" rms="4.2897638678550720e-01" purity="5.5295455455780029e-01" nType="0">
          <Node pos="l" depth="2" NCoef="0" IVar="-1" Cut="0.0000000000000000e+00" cType="1" res="6.6753366263583302e-04" rms="4.3085712194442749e-01" purity="5.6995922327041626e-01" nType="-99"/>
          <Node pos="r" depth="2" NCoef="0" IVar="-1" Cut="0.0000000000000000e+00" cType="1" res="-6.0427510179579258e-03" rms="4.2119050025939941e-01" purity="4.8848429322242737e-01" nType="-99"/>
        </Node>
        <Node pos="r" depth="1" NCoef="0" IVar="9" Cut="-6.1904764175415039e-01" cType="1" res="3.3085418399423361e-03" rms="4.3447771668434143e-01" purity="4.8243182897567749e-01" nType="0">
          <Node pos="l" depth="2" NCoef="0" IVar="-1" Cut="0.0000000000000000e+00" cType="1" res="-2.8352278750389814e-03" rms="4.3125247955322266e-01" purity="3.1146153807640076e-01" nType="-99"/>
          <Node pos="r" depth="2" NCoef="0" IVar="-1" Cut="0.0000000000000000e+00" cType="1" res="1.1129702907055616e-03" rms="4.3468073010444641e-01" purity="4.9409320950508118e-01" nType="-99"/>
        </Node>
      </Node>
    </BinaryTree>
    <BinaryTree type="DecisionTree" boostWeight="1.0000000000000000e+00" itree="404">
      <Node pos="s" depth="0" NCoef="0" IVar="2" Cut="2.7175083756446838e-01" cType="1" res="-2.6738434098660946e-04" rms="4.3317434191703796e-01" purity="4.9947169423103333e-01" nType="0">
        <Node pos="l" depth="1" NCoef="0" IVar="6" Cut="5.0952382087707520e+00" cType="1" res="1.9541450310498476e-03" rms="4.3356680870056152e-01" purity="4.9969646334648132e-01" nType="0">
          <Node pos="l" depth="2" NCoef="0" IVar="-1" Cut="0.0000000000000000e+00" cType="1" res="2.3365439847111702e-04" rms="4.3422526121139526e-01" purity="5.0209438800811768e-01" nType="-99"/>
          <Node pos="r" depth="2" NCoef="0" IVar="-1" Cut="0.0000000000000000e+00" cType="1" res="4.4064270332455635e-03" rms="4.2464870214462280e-01" purity="4.6844127774238586e-01" nType="-99"/>
        </Node>
        <Node pos="r" depth="1" NCoef="0" IVar="9" Cut="-3.3281457424163818e-01" cType="1" res="-4.0062791667878628e-03" rms="4.3248727917671204e-01" purity="4.9909332394599915e-01" nType="0">
          <Node pos="l" depth="2" NCoef="0" IVar="-1" Cut="0.0000000000000000e+00" cType="1" res="-3.2344940118491650e-03" rms="4.3584311008453369e-01" purity="4.5722156763076782e-01" nType="-99"/>
          <Node pos="r" depth="2" NCoef="0" IVar="-1" Cut="0.0000000000000000e+00" cType="1" res="-5.5834342492744327e-04" rms="4.3168270587921143e-01" purity="5.0880920886993408e-01" nType="-99"/>
        </Node>
      </Node>
    </BinaryTree>
    <BinaryTree type="DecisionTree" boostWeight="1.0000000000000000e+00" itree="405">
      <Node pos="s" depth="0" NCoef="0" IVar="10" Cut="5.5666667938232422e+01" cType="1" res="-7.7306962339207530e-04" rms="4.3305090069770813e-01" purity="4.9989345669746399e-01" nType="0">
        <Node pos="l" depth="1" NCoef="0" IVar="7" Cut="6.9770269393920898e+00" cType="1" res="-1.8938991706818342e-04" rms="4.3363097310066223e-01" purity="5.0727552175521851e-01" nType="0">
          <Node pos="l" depth="2" NCoef="0" IVar="-1" Cut="0.0000000000000000e+00" cType="1" res="-2.7982873143628240e-04" rms="4.3685585260391235e-01" purity="4.8468211293220520e-01" nType="-99"/>
          <Node pos="r" depth="2" NCoef="0" IVar="-1" Cut="0.0000000000000000e+00" cType="1" res="2.2338922135531902e-03" rms="4.0395995974540710e-01" purity="7.0674771070480347e-01" nType="-99"/>
        </Node>
        <Node pos="r" depth="1" NCoef="0" IVar="-1" Cut="0.0000000000000000e+00" cType="1" res="-3.2276515848934650e-03" rms="4.2155978083610535e-01" purity="3.5765182971954346e-01" nType="-99"/>
      </Node>
    </BinaryTree>
    <BinaryTree type="DecisionTree" boostWeight="1.0000000000000000e+00" itree="406">
      <Node pos="s" depth="0" NCoef="0" IVar="2" Cut="1.5670368075370789e-01" cType="1" res="4.1505219996906817e-04" rms="4.3320038914680481e-01" purity="5.0032031536102295e-01" nType="0">
        <Node pos="l" depth="1" NCoef="0" IVar="10" Cut="9.8095235824584961e+00" cType="1" res="2.4275479372590780e-03" rms="4.3386000394821167e-01" purity="4.9970194697380066e-01" nType="0">
          <Node pos="l" depth="2" NCoef="0" IVar="-1" Cut="0.0000000000000000e+00" cType="1" res="1.8850804772228003e-03" rms="4.5744043588638306e-01" purity="5.2219396829605103e-01" nType="-99"/>
          <Node pos="r" depth="2" NCoef="0" IVar="-1" Cut="0.0000000000000000e+00" cType="1" res="-1.4431754243560135e-04" rms="4.2049938440322876e-01" purity="4.8751261830329895e-01" nType="-99"/>
        </Node>
        <Node pos="r" depth="1" NCoef="0" IVar="8" Cut="7.5552314519882202e-01" cType="1" res="-2.3902624379843473e-03" rms="4.3226364254951477e-01" purity="5.0118237733840942e-01" nType="0">
          <Node pos="l" depth="2" NCoef="0" IVar="-1" Cut="0.0000000000000000e+00" cType="1" res="-1.1169391218572855e-03" rms="4.3416288495063782e-01" purity="4.7391957044601440e-01" nType="-99"/>
          <Node pos="r" depth="2" NCoef="0" IVar="-1" Cut="0.0000000000000000e+00" cType="1" res="1.1851559393107891e-03" rms="4.2527943849563599e-01" purity="5.9944957494735718e-01" nType="-99"/>
        </Node>
      </Node>
    </BinaryTree>
    <BinaryTree type="DecisionTree" boostWeight="1.0000000000000000e+00" itree="407">
      <Node pos="s" depth="0" NCoef="0" IVar="4" Cut="9.4740879535675049e-01" cType="1" res="1.9513610750436783e-03" rms="4.3283280730247498e-01" purity="5.0328803062438965e-01" nType="0">
        <Node pos="l" depth="1" NCoef="0" IVar="8" Cut="3.5971477627754211e-01" cType="1" res="5.6619127281010151e-04" rms="4.3632435798645020e-01" purity="4.5221748948097229e-01" nType="0">
          <Node pos="l" depth="2" NCoef="0" IVar="-1" Cut="0.0000000000000000e+00" cType="1" res="-5.2293494809418917e-04" rms="4.3653231859207153e-01" purity="4.2672941088676453e-01" nType="-99"/>
          <Node pos="r" depth="2" NCoef="0" IVar="-1" Cut="0.0000000000000000e+00" cType="1" res="1.3899608748033643e-03" rms="4.3589800596237183e-01" purity="4.9951559305191040e-01" nType="-99"/>
        </Node>
        <Node pos="r" depth="1" NCoef="0" IVar="4" Cut="9.7709321975708008e-01" cType="1" res="8.4874453023076057e-03" rms="4.1590005159378052e-01" purity="7.4427014589309692e-01" nType="0">
          <Node pos="l" depth="2" NCoef="0" IVar="-1" Cut="0.0000000000000000e+00" cType="1" res="-2.8202231042087078e-03" rms="4.1708630323410034e-01" purity="7.3859095573425293e-01" nType="-99"/>
          <Node pos="r" depth="2" NCoef="0" IVar="-1" Cut="0.0000000000000000e+00" cType="1" res="1.1724442243576050e-02" rms="4.1113466024398804e-01" purity="7.5556182861328125e-01" nType="-99"/>
        </Node>
      </Node>
    </BinaryTree>
    <BinaryTree type="DecisionTree" boostWeight="1.0000000000000000e+00" itree="408">
      <Node pos="s" depth="0" NCoef="0" IVar="3" Cut="3.3333334326744080e-01" cType="1" res="-2.6755189173854887e-04" rms="4.3230473995208740e-01" purity="5.0039178133010864e-01" nType="0">
        <Node pos="l" depth="1" NCoef="0" IVar="10" Cut="1.0380952835083008e+01" cType="1" res="1.0921549983322620e-03" rms="4.2934641242027283e-01" purity="5.0025540590286255e-01" nType="0">
          <Node pos="l" depth="2" NCoef="0" IVar="-1" Cut="0.0000000000000000e+00" cType="1" res="1.5011777868494391e-03" rms="4.5203164219856262e-01" purity="5.3135174512863159e-01" nType="-99"/>
          <Node pos="r" depth="2" NCoef="0" IVar="-1" Cut="0.0000000000000000e+00" cType="1" res="-3.1604821560904384e-04" rms="4.1898030042648315e-01" purity="4.8660397529602051e-01" nType="-99"/>
        </Node>
        <Node pos="r" depth="1" NCoef="0" IVar="0" Cut="1.1749670505523682e+00" cType="1" res="-5.5951452814042568e-03" rms="4.4366589188575745e-01" purity="5.0092619657516479e-01" nType="0">
          <Node pos="l" depth="2" NCoef="0" IVar="-1" Cut="0.0000000000000000e+00" cType="1" res="-3.0975192785263062e-03" rms="4.4782441854476929e-01" purity="5.7597547769546509e-01" nType="-99"/>
          <Node pos="r" depth="2" NCoef="0" IVar="-1" Cut="0.0000000000000000e+00" cType="1" res="2.3858835920691490e-03" rms="4.3402767181396484e-01" purity="3.3607298135757446e-01" nType="-99"/>
        </Node>
      </Node>
    </BinaryTree>
    <BinaryTree type="DecisionTree" boostWeight="1.0000000000000000e+00" itree="409">
      <Node pos="s" depth="0" NCoef="0" IVar="8" Cut="1.5679434537887573e+00" cType="1" res="-5.1911827176809311e-04" rms="4.3269610404968262e-01" purity="4.9993330240249634e-01" nType="0">
        <Node pos="l" depth="1" NCoef="0" IVar="4" Cut="7.7879118919372559e-01" cType="1" res="-1.2940077576786280e-03" rms="4.3432527780532837e-01" purity="4.8621156811714172e-01" nType="0">
          <Node pos="l" depth="2" NCoef="0" IVar="-1" Cut="0.0000000000000000e+00" cType="1" res="2.1496231784112751e-04" rms="4.2514231801033020e-01" purity="3.3447235822677612e-01" nType="-99"/>
          <Node pos="r" depth="2" NCoef="0" IVar="-1" Cut="0.0000000000000000e+00" cType="1" res="-8.5301045328378677e-04" rms="4.4337546825408936e-01" purity="6.3909816741943359e-01" nType="-99"/>
        </Node>
        <Node pos="r" depth="1" NCoef="0" IVar="-1" Cut="0.0000000000000000e+00" cType="1" res="3.1296915840357542e-03" rms="4.0785425901412964e-01" purity="7.0143437385559082e-01" nType="-99"/>
      </Node>
    </BinaryTree>
    <BinaryTree type="DecisionTree" boostWeight="1.0000000000000000e+00" itree="410">
      <Node pos="s" depth="0" NCoef="0" IVar="1" Cut="1.2076898574829102e+01" cType="1" res="-1.9506944227032363e-04" rms="4.3254372477531433e-01" purity="5.0032192468643188e-01" nType="0">
        <Node pos="l" depth="1" NCoef="0" IVar="1" Cut="1.0512291193008423e+00" cType="1" res="-1.0875607840716839e-03" rms="4.3343964219093323e-01" purity="4.9955901503562927e-01" nType="0">
          <Node pos="l" depth="2" NCoef="0" IVar="-1" Cut="0.0000000000000000e+00" cType="1" res="-3.4100387711077929e-03" rms="4.6952602267265320e-01" purity="4.5619377493858337e-01" nType="-99"/>
          <Node pos="r" depth="2" NCoef="0" IVar="-1" Cut="0.0000000000000000e+00" cType="1" res="1.2177359167253599e-04" rms="4.2915341258049011e-01" purity="5.0444817543029785e-01" nType="-99"/>
        </Node>
        <Node pos="r" depth="1" NCoef="0" IVar="-1" Cut="0.0000000000000000e+00" cType="1" res="5.1169423386454582e-03" rms="4.1301554441452026e-01" purity="5.1620209217071533e-01" nType="-99"/>
      </Node>
    </BinaryTree>
    <BinaryTree type="DecisionTree" boostWeight="1.0000000000000000e+00" itree="411">
      <Node pos="s" depth="0" NCoef="0" IVar="4" Cut="4.3357995152473450e-01" cType="1" res="-1.5658177435398102e-03" rms="4.3359932303428650e-01" purity="4.9827188253402710e-01" nType="0">
        <Node pos="l" depth="1" NCoef="0" IVar="10" Cut="1.4857142448425293e+01" cType="1" res="5.6535019539296627e-03" rms="3.2283407449722290e-01" purity="1.2508969008922577e-01" nType="0">
          <Node pos="l" depth="2" NCoef="0" IVar="-1" Cut="0.0000000000000000e+00" cType="1" res="1.4006813056766987e-02" rms="3.7882459163665771e-01" purity="1.8185897171497345e-01" nType="-99"/>
          <Node pos="r" depth="2" NCoef="0" IVar="-1" Cut="0.0000000000000000e+00" cType="1" res="-5.4437615908682346e-03" rms="2.8681987524032593e-01" purity="9.4344489276409149e-02" nType="-99"/>
        </Node>
        <Node pos="r" depth="1" NCoef="0" IVar="4" Cut="9.6253871917724609e-01" cType="1" res="-2.6020703371614218e-03" rms="4.4724315404891968e-01" purity="5.5183804035186768e-01" nType="0">
          <Node pos="l" depth="2" NCoef="0" IVar="-1" Cut="0.0000000000000000e+00" cType="1" res="-1.2910413788631558e-03" rms="4.5241919159889221e-01" purity="5.1964598894119263e-01" nType="-99"/>
          <Node pos="r" depth="2" NCoef="0" IVar="-1" Cut="0.0000000000000000e+00" cType="1" res="3.7544416263699532e-03" rms="4.1465172171592712e-01" purity="7.4391365051269531e-01" nType="-99"/>
        </Node>
      </Node>
    </BinaryTree>
    <BinaryTree type="DecisionTree" boostWeight="1.0000000000000000e+00" itree="412">
      <Node pos="s" depth="0" NCoef="0" IVar="5" Cut="2.6359820365905762e+00" cType="1" res="5.3936016047373414e-04" rms="4.3243053555488586e-01" purity="5.0086873769760132e-01" nType="0">
        <Node pos="l" depth="1" NCoef="0" IVar="5" Cut="1.8140217065811157e+00" cType="1" res="-3.7301989505067468e-04" rms="4.3385091423988342e-01" purity="4.9969464540481567e-01" nType="0">
          <Node pos="l" depth="2" NCoef="0" IVar="-1" Cut="0.0000000000000000e+00" cType="1" res="2.9176863608881831e-04" rms="4.3637272715568542e-01" purity="5.0671744346618652e-01" nType="-99"/>
          <Node pos="r" depth="2" NCoef="0" IVar="-1" Cut="0.0000000000000000e+00" cType="1" res="-1.8633499275892973e-03" rms="4.2277228832244873e-01" purity="4.6948796510696411e-01" nType="-99"/>
        </Node>
        <Node pos="r" depth="1" NCoef="0" IVar="0" Cut="9.0794324874877930e-01" cType="1" res="9.3038082122802734e-03" rms="4.1843956708908081e-01" purity="5.1214748620986938e-01" nType="0">
          <Node pos="l" depth="2" NCoef="0" IVar="-1" Cut="0.0000000000000000e+00" cType="1" res="6.9054518826305866e-03" rms="4.1555574536323547e-01" purity="6.9563537836074829e-01" nType="-99"/>
          <Node pos="r" depth="2" NCoef="0" IVar="-1" Cut="0.0000000000000000e+00" cType="1" res="-8.6647470016032457e-04" rms="4.2033985257148743e-01" purity="3.6396881937980652e-01" nType="-99"/>
        </Node>
      </Node>
    </BinaryTree>
    <BinaryTree type="DecisionTree" boostWeight="1.0000000000000000e+00" itree="413">
      <Node pos="s" depth="0" NCoef="0" IVar="9" Cut="-2.3809523880481720e-01" cType="1" res="-1.5676849288865924e-03" rms="4.3292772769927979e-01" purity="4.9869635701179504e-01" nType="0">
        <Node pos="l" depth="1" NCoef="0" IVar="4" Cut="5.6859576702117920e-01" cType="1" res="-6.2108598649501801e-03" rms="4.3521019816398621e-01" purity="4.7570618987083435e-01" nType="0">
          <Node pos="l" depth="2" NCoef="0" IVar="-1" Cut="0.0000000000000000e+00" cType="1" res="3.2237078994512558e-03" rms="3.8640069961547852e-01" purity="2.0847357809543610e-01" nType="-99"/>
          <Node pos="r" depth="2" NCoef="0" IVar="-1" Cut="0.0000000000000000e+00" cType="1" res="-2.9502529650926590e-03" rms="4.5225292444229126e-01" purity="5.7734668254852295e-01" nType="-99"/>
        </Node>
        <Node pos="r" depth="1" NCoef="0" IVar="9" Cut="7.6417398452758789e-01" cType="1" res="1.4015735359862447e-04" rms="4.3207260966300964e-01" purity="5.0715255737304688e-01" nType="0">
          <Node pos="l" depth="2" NCoef="0" IVar="-1" Cut="0.0000000000000000e+00" cType="1" res="2.7609837707132101e-04" rms="4.3104219436645508e-01" purity="5.1415854692459106e-01" nType="-99"/>
          <Node pos="r" depth="2" NCoef="0" IVar="-1" Cut="0.0000000000000000e+00" cType="1" res="-4.3480801396071911e-03" rms="4.5111036300659180e-01" purity="3.7219312787055969e-01" nType="-99"/>
        </Node>
      </Node>
    </BinaryTree>
    <BinaryTree type="DecisionTree" boostWeight="1.0000000000000000e+00" itree="414">
      <Node pos="s" depth="0" NCoef="0" IVar="4" Cut="9.0353941917419434e-01" cType="1" res="-4.9169035628437996e-04" rms="4.3260130286216736e-01" purity="4.9947491288185120e-01" nType="0">
        <Node pos="l" depth="1" NCoef="0" IVar="9" Cut="6.1904764175415039e-01" cType="1" res="1.1407452402636409e-03" rms="4.3427646160125732e-01" purity="4.1249695420265198e-01" nType="0">
          <Node pos="l" depth="2" NCoef="0" IVar="-1" Cut="0.0000000000000000e+00" cType="1" res="-5.6884386140154675e-05" rms="4.3399098515510559e-01" purity="4.1729137301445007e-01" nType="-99"/>
          <Node pos="r" depth="2" NCoef="0" IVar="-1" Cut="0.0000000000000000e+00" cType="1" res="5.5039525032043457e-03" rms="4.3779817223548889e-01" purity="3.4564733505249023e-01" nType="-99"/>
        </Node>
        <Node pos="r" depth="1" NCoef="0" IVar="4" Cut="9.7271138429641724e-01" cType="1" res="-4.3920506723225117e-03" rms="4.2854714393615723e-01" purity="7.0729035139083862e-01" nType="0">
          <Node pos="l" depth="2" NCoef="0" IVar="-1" Cut="0.0000000000000000e+00" cType="1" res="-3.6804238334298134e-03" rms="4.3362915515899658e-01" purity="6.9287568330764771e-01" nType="-99"/>
          <Node pos="r" depth="2" NCoef="0" IVar="-1" Cut="0.0000000000000000e+00" cType="1" res="5.4068733006715775e-03" rms="4.1394603252410889e-01" purity="7.4507397413253784e-01" nType="-99"/>
        </Node>
      </Node>
    </BinaryTree>
    <BinaryTree type="DecisionTree" boostWeight="1.0000000000000000e+00" itree="415">
      <Node pos="s" depth="0" NCoef="0" IVar="4" Cut="5.7408237457275391e-01" cType="1" res="-4.7704204916954041e-04" rms="4.3296653032302856e-01" purity="4.9928513169288635e-01" nType="0">
        <Node pos="l" depth="1" NCoef="0" IVar="10" Cut="3.5523811340332031e+01" cType="1" res="-4.5298817567527294e-03" rms="3.8479590415954590e-01" purity="2.0382982492446899e-01" nType="0">
          <Node pos="l" depth="2" NCoef="0" IVar="-1" Cut="0.0000000000000000e+00" cType="1" res="-2.8896410949528217e-03" rms="3.8791793584823608e-01" purity="2.0379850268363953e-01" nType="-99"/>
          <Node pos="r" depth="2" NCoef="0" IVar="-1" Cut="0.0000000000000000e+00" cType="1" res="6.6581349819898605e-03" rms="3.6746367812156677e-01" purity="2.0399141311645508e-01" nType="-99"/>
        </Node>
        <Node pos="r" depth="1" NCoef="0" IVar="0" Cut="9.0358000993728638e-01" cType="1" res="9.2296465300023556e-04" rms="4.4839709997177124e-01" purity="6.0134673118591309e-01" nType="0">
          <Node pos="l" depth="2" NCoef="0" IVar="-1" Cut="0.0000000000000000e+00" cType="1" res="-1.7383818048983812e-03" rms="4.3125957250595093e-01" purity="7.2685724496841431e-01" nType="-99"/>
          <Node pos="r" depth="2" NCoef="0" IVar="-1" Cut="0.0000000000000000e+00" cType="1" res="1.6000648029148579e-03" rms="4.6213427186012268e-01" purity="4.9652358889579773e-01" nType="-99"/>
        </Node>
      </Node>
    </BinaryTree>
    <BinaryTree type="DecisionTree" boostWeight="1.0000000000000000e+00" itree="416">
      <Node pos="s" depth="0" NCoef="0" IVar="6" Cut="1.2857142686843872e+00" cType="1" res="-7.5115711661055684e-04" rms="4.3212720751762390e-01" purity="4.9935460090637207e-01" nType="0">
        <Node pos="l" depth="1" NCoef="0" IVar="5" Cut="1.6705849766731262e-01" cType="1" res="1.3047882821410894e-03" rms="4.3424978852272034e-01" purity="5.0674968957901001e-01" nType="0">
          <Node pos="l" depth="2" NCoef="0" IVar="-1" Cut="0.0000000000000000e+00" cType="1" res="2.6764648500829935e-03" rms="4.5948046445846558e-01" purity="5.0539284944534302e-01" nType="-99"/>
          <Node pos="r" depth="2" NCoef="0" IVar="-1" Cut="0.0000000000000000e+00" cType="1" res="-7.0040347054600716e-05" rms="4.3015533685684204e-01" purity="5.0696164369583130e-01" nType="-99"/>
        </Node>
        <Node pos="r" depth="1" NCoef="0" IVar="10" Cut="9.8095235824584961e+00" cType="1" res="-4.8160622827708721e-03" rms="4.2787051200866699e-01" purity="4.8473328351974487e-01" nType="0">
          <Node pos="l" depth="2" NCoef="0" IVar="-1" Cut="0.0000000000000000e+00" cType="1" res="-3.2269898802042007e-03" rms="4.5162385702133179e-01" purity="5.0280553102493286e-01" nType="-99"/>
          <Node pos="r" depth="2" NCoef="0" IVar="-1" Cut="0.0000000000000000e+00" cType="1" res="-6.1293417820706964e-04" rms="4.2034375667572021e-01" purity="4.7923547029495239e-01" nType="-99"/>
        </Node>
      </Node>
    </BinaryTree>
    <BinaryTree type="DecisionTree" boostWeight="1.0000000000000000e+00" itree="417">
      <Node pos="s" depth="0" NCoef="0" IVar="4" Cut="5.6859576702117920e-01" cType="1" res="2.6645659818314016e-04" rms="4.3182125687599182e-01" purity="5.0088179111480713e-01" nType="0">
        <Node pos="l" depth="1" NCoef="0" IVar="10" Cut="3.6761905670166016e+01" cType="1" res="-5.4342257790267467e-03" rms="3.8053578138351440e-01" purity="1.9967572391033173e-01" nType="0">
          <Node pos="l" depth="2" NCoef="0" IVar="-1" Cut="0.0000000000000000e+00" cType="1" res="-2.8411773964762688e-03" rms="3.8311177492141724e-01" purity="1.9998028874397278e-01" nType="-99"/>
          <Node pos="r" depth="2" NCoef="0" IVar="-1" Cut="0.0000000000000000e+00" cType="1" res="4.7721941955387592e-03" rms="3.6475920677185059e-01" purity="1.9791449606418610e-01" nType="-99"/>
        </Node>
        <Node pos="r" depth="1" NCoef="0" IVar="0" Cut="9.0481936931610107e-01" cType="1" res="2.1806294098496437e-03" rms="4.4771009683609009e-01" purity="6.0202062129974365e-01" nType="0">
          <Node pos="l" depth="2" NCoef="0" IVar="-1" Cut="0.0000000000000000e+00" cType="1" res="-1.5092327957972884e-03" rms="4.3040376901626587e-01" purity="7.2648423910140991e-01" nType="-99"/>
          <Node pos="r" depth="2" NCoef="0" IVar="-1" Cut="0.0000000000000000e+00" cType="1" res="1.9597725477069616e-03" rms="4.6149554848670959e-01" purity="4.9861967563629150e-01" nType="-99"/>
        </Node>
      </Node>
    </BinaryTree>
    <BinaryTree type="DecisionTree" boostWeight="1.0000000000000000e+00" itree="418">
      <Node pos="s" depth="0" NCoef="0" IVar="8" Cut="6.8032041192054749e-02" cType="1" res="-1.0416301665827632e-03" rms="4.3265813589096069e-01" purity="4.9878117442131042e-01" nType="0">
        <Node pos="l" depth="1" NCoef="0" IVar="3" Cut="-5.2380955219268799e-01" cType="1" res="1.6072762664407492e-03" rms="4.3469196557998657e-01" purity="4.9202057719230652e-01" nType="0">
          <Node pos="l" depth="2" NCoef="0" IVar="-1" Cut="0.0000000000000000e+00" cType="1" res="-2.3188889026641846e-03" rms="4.5107209682464600e-01" purity="4.8551940917968750e-01" nType="-99"/>
          <Node pos="r" depth="2" NCoef="0" IVar="-1" Cut="0.0000000000000000e+00" cType="1" res="8.4482313832268119e-04" rms="4.3225178122520447e-01" purity="4.9295952916145325e-01" nType="-99"/>
        </Node>
        <Node pos="r" depth="1" NCoef="0" IVar="8" Cut="1.3912847042083740e+00" cType="1" res="-4.2761638760566711e-03" rms="4.3013951182365417e-01" purity="5.0703650712966919e-01" nType="0">
          <Node pos="l" depth="2" NCoef="0" IVar="-1" Cut="0.0000000000000000e+00" cType="1" res="-6.0402433155104518e-04" rms="4.3352857232093811e-01" purity="4.7155213356018066e-01" nType="-99"/>
          <Node pos="r" depth="2" NCoef="0" IVar="-1" Cut="0.0000000000000000e+00" cType="1" res="-3.6166964564472437e-03" rms="4.1525095701217651e-01" purity="6.5856540203094482e-01" nType="-99"/>
        </Node>
      </Node>
    </BinaryTree>
    <BinaryTree type="DecisionTree" boostWeight="1.0000000000000000e+00" itree="419">
      <Node pos="s" depth="0" NCoef="0" IVar="7" Cut="2.8278248310089111e+00" cType="1" res="-2.9316612053662539e-03" rms="4.3321037292480469e-01" purity="4.9638816714286804e-01" nType="0">
        <Node pos="l" depth="1" NCoef="0" IVar="4" Cut="4.4872555136680603e-01" cType="1" res="-5.8371638879179955e-03" rms="4.4436901807785034e-01" purity="4.3059340119361877e-01" nType="0">
          <Node pos="l" depth="2" NCoef="0" IVar="-1" Cut="0.0000000000000000e+00" cType="1" res="6.7796716466546059e-03" rms="3.6012226343154907e-01" purity="1.6235619783401489e-01" nType="-99"/>
          <Node pos="r" depth="2" NCoef="0" IVar="-1" Cut="0.0000000000000000e+00" cType="1" res="-2.4789101444184780e-03" rms="4.6040293574333191e-01" purity="4.8851695656776428e-01" nType="-99"/>
        </Node>
        <Node pos="r" depth="1" NCoef="0" IVar="4" Cut="4.8512327671051025e-01" cType="1" res="-2.3244996555149555e-04" rms="4.2256215214729309e-01" purity="5.5751150846481323e-01" nType="0">
          <Node pos="l" depth="2" NCoef="0" IVar="-1" Cut="0.0000000000000000e+00" cType="1" res="-7.5475503690540791e-03" rms="2.9677578806877136e-01" purity="1.0305556654930115e-01" nType="-99"/>
          <Node pos="r" depth="2" NCoef="0" IVar="-1" Cut="0.0000000000000000e+00" cType="1" res="4.7925196122378111e-04" rms="4.3767434358596802e-01" purity="6.2298065423965454e-01" nType="-99"/>
        </Node>
      </Node>
    </BinaryTree>
    <BinaryTree type="DecisionTree" boostWeight="1.0000000000000000e+00" itree="420">
      <Node pos="s" depth="0" NCoef="0" IVar="2" Cut="-1.9145736694335938e+00" cType="1" res="2.4398118257522583e-03" rms="4.3326210975646973e-01" purity="5.0177651643753052e-01" nType="0">
        <Node pos="l" depth="1" NCoef="0" IVar="-1" Cut="0.0000000000000000e+00" cType="1" res="3.7646086420863867e-03" rms="4.1650328040122986e-01" purity="5.1850211620330811e-01" nType="-99"/>
        <Node pos="r" depth="1" NCoef="0" IVar="3" Cut="3.3333334326744080e-01" cType="1" res="1.8879522103816271e-03" rms="4.3407344818115234e-01" purity="5.0094252824783325e-01" nType="0">
          <Node pos="l" depth="2" NCoef="0" IVar="-1" Cut="0.0000000000000000e+00" cType="1" res="1.2345270079094917e-04" rms="4.3169310688972473e-01" purity="4.9748212099075317e-01" nType="-99"/>
          <Node pos="r" depth="2" NCoef="0" IVar="-1" Cut="0.0000000000000000e+00" cType="1" res="1.8021988216787577e-03" rms="4.4262334704399109e-01" purity="5.1358652114868164e-01" nType="-99"/>
        </Node>
      </Node>
    </BinaryTree>
    <BinaryTree type="DecisionTree" boostWeight="1.0000000000000000e+00" itree="421">
      <Node pos="s" depth="0" NCoef="0" IVar="9" Cut="-1.4285714924335480e-01" cType="1" res="2.5595615152269602e-03" rms="4.3280044198036194e-01" purity="5.0131261348724365e-01" nType="0">
        <Node pos="l" depth="1" NCoef="0" IVar="5" Cut="1.7176232337951660e+00" cType="1" res="-1.0831927284016274e-05" rms="4.3320244550704956e-01" purity="4.8790872097015381e-01" nType="0">
          <Node pos="l" depth="2" NCoef="0" IVar="-1" Cut="0.0000000000000000e+00" cType="1" res="1.0828814702108502e-03" rms="4.3730553984642029e-01" purity="4.9669635295867920e-01" nType="-99"/>
          <Node pos="r" depth="2" NCoef="0" IVar="-1" Cut="0.0000000000000000e+00" cType="1" res="-3.3987131901085377e-03" rms="4.2078164219856262e-01" purity="4.6230334043502808e-01" nType="-99"/>
        </Node>
        <Node pos="r" depth="1" NCoef="0" IVar="5" Cut="3.5157078504562378e-01" cType="1" res="3.9557460695505142e-03" rms="4.3257555365562439e-01" purity="5.0859344005584717e-01" nType="0">
          <Node pos="l" depth="2" NCoef="0" IVar="-1" Cut="0.0000000000000000e+00" cType="1" res="2.9424626845866442e-03" rms="4.5283746719360352e-01" purity="5.2421665191650391e-01" nType="-99"/>
          <Node pos="r" depth="2" NCoef="0" IVar="-1" Cut="0.0000000000000000e+00" cType="1" res="6.9467455614358187e-04" rms="4.2916285991668701e-01" purity="5.0604385137557983e-01" nType="-99"/>
        </Node>
      </Node>
    </BinaryTree>
    <BinaryTree type="DecisionTree" boostWeight="1.0000000000000000e+00" itree="422">
      <Node pos="s" depth="0" NCoef="0" IVar="3" Cut="-1.4285714924335480e-01" cType="1" res="1.7704881611280143e-04" rms="4.3231657147407532e-01" purity="5.0003057718276978e-01" nType="0">
        <Node pos="l" depth="1" NCoef="0" IVar="9" Cut="-2.3809523880481720e-01" cType="1" res="3.3952344674617052e-03" rms="4.3554994463920593e-01" purity="5.0841969251632690e-01" nType="0">
          <Node pos="l" depth="2" NCoef="0" IVar="-1" Cut="0.0000000000000000e+00" cType="1" res="-1.3685807352885604e-03" rms="4.3594023585319519e-01" purity="4.7990718483924866e-01" nType="-99"/>
          <Node pos="r" depth="2" NCoef="0" IVar="-1" Cut="0.0000000000000000e+00" cType="1" res="1.7708623781800270e-03" rms="4.3535012006759644e-01" purity="5.1960712671279907e-01" nType="-99"/>
        </Node>
        <Node pos="r" depth="1" NCoef="0" IVar="8" Cut="-9.9012508988380432e-02" cType="1" res="-1.6508041881024837e-03" rms="4.3045854568481445e-01" purity="4.9526572227478027e-01" nType="0">
          <Node pos="l" depth="2" NCoef="0" IVar="-1" Cut="0.0000000000000000e+00" cType="1" res="7.8388495603576303e-04" rms="4.3029788136482239e-01" purity="5.0861513614654541e-01" nType="-99"/>
          <Node pos="r" depth="2" NCoef="0" IVar="-1" Cut="0.0000000000000000e+00" cType="1" res="-1.3794254045933485e-03" rms="4.3054968118667603e-01" purity="4.8487344384193420e-01" nType="-99"/>
        </Node>
      </Node>
    </BinaryTree>
    <BinaryTree type="DecisionTree" boostWeight="1.0000000000000000e+00" itree="423">
      <Node pos="s" depth="0" NCoef="0" IVar="3" Cut="6.1904764175415039e-01" cType="1" res="-1.4416949125006795e-03" rms="4.3254289031028748e-01" purity="4.9905100464820862e-01" nType="0">
        <Node pos="l" depth="1" NCoef="0" IVar="9" Cut="-2.3809523880481720e-01" cType="1" res="-9.8997406894341111e-05" rms="4.3084138631820679e-01" purity="4.9995934963226318e-01" nType="0">
          <Node pos="l" depth="2" NCoef="0" IVar="-1" Cut="0.0000000000000000e+00" cType="1" res="1.1392168235033751e-03" rms="4.3138855695724487e-01" purity="4.8423871397972107e-01" nType="-99"/>
          <Node pos="r" depth="2" NCoef="0" IVar="-1" Cut="0.0000000000000000e+00" cType="1" res="-4.3721744441427290e-04" rms="4.3063643574714661e-01" purity="5.0553601980209351e-01" nType="-99"/>
        </Node>
        <Node pos="r" depth="1" NCoef="0" IVar="7" Cut="1.5364919900894165e+00" cType="1" res="-1.6663316637277603e-02" rms="4.5110458135604858e-01" purity="4.8875269293785095e-01" nType="0">
          <Node pos="l" depth="2" NCoef="0" IVar="-1" Cut="0.0000000000000000e+00" cType="1" res="-6.8086921237409115e-03" rms="4.6297219395637512e-01" purity="4.2756599187850952e-01" nType="-99"/>
          <Node pos="r" depth="2" NCoef="0" IVar="-1" Cut="0.0000000000000000e+00" cType="1" res="-1.1059796670451760e-03" rms="4.3887567520141602e-01" purity="5.4841297864913940e-01" nType="-99"/>
        </Node>
      </Node>
    </BinaryTree>
    <BinaryTree type="DecisionTree" boostWeight="1.0000000000000000e+00" itree="424">
      <Node pos="s" depth="0" NCoef="0" IVar="7" Cut="2.4958834648132324e+00" cType="1" res="3.7811772199347615e-04" rms="4.3360653519630432e-01" purity="4.9953201413154602e-01" nType="0">
        <Node pos="l" depth="1" NCoef="0" IVar="6" Cut="6.6666668653488159e-01" cType="1" res="4.2366380803287029e-03" rms="4.4670233130455017e-01" purity="4.3791517615318298e-01" nType="0">
          <Node pos="l" depth="2" NCoef="0" IVar="-1" Cut="0.0000000000000000e+00" cType="1" res="2.6075639761984348e-03" rms="4.4761830568313599e-01" purity="4.4948789477348328e-01" nType="-99"/>
          <Node pos="r" depth="2" NCoef="0" IVar="-1" Cut="0.0000000000000000e+00" cType="1" res="-1.0701850987970829e-03" rms="4.4531676173210144e-01" purity="4.2222219705581665e-01" nType="-99"/>
        </Node>
        <Node pos="r" depth="1" NCoef="0" IVar="8" Cut="-5.3380441665649414e-01" cType="1" res="-2.3493452463299036e-03" rms="4.2408445477485657e-01" purity="5.4308700561523438e-01" nType="0">
          <Node pos="l" depth="2" NCoef="0" IVar="-1" Cut="0.0000000000000000e+00" cType="1" res="-2.3773766588419676e-03" rms="4.2548298835754395e-01" purity="5.6367748975753784e-01" nType="-99"/>
          <Node pos="r" depth="2" NCoef="0" IVar="-1" Cut="0.0000000000000000e+00" cType="1" res="3.5915782791562378e-04" rms="4.2322298884391785e-01" purity="5.3106838464736938e-01" nType="-99"/>
        </Node>
      </Node>
    </BinaryTree>
    <BinaryTree type="DecisionTree" boostWeight="1.0000000000000000e+00" itree="425">
      <Node pos="s" depth="0" NCoef="0" IVar="10" Cut="1.0380952835083008e+01" cType="1" res="1.2257560156285763e-03" rms="4.3232843279838562e-01" purity="5.0172495841979980e-01" nType="0">
        <Node pos="l" depth="1" NCoef="0" IVar="10" Cut="3.1428570747375488e+00" cType="1" res="-3.9973538368940353e-03" rms="4.5476651191711426e-01" purity="5.1760154962539673e-01" nType="0">
          <Node pos="l" depth="2" NCoef="0" IVar="-1" Cut="0.0000000000000000e+00" cType="1" res="-5.5790985934436321e-03" rms="4.7192233800888062e-01" purity="4.3667188286781311e-01" nType="-99"/>
          <Node pos="r" depth="2" NCoef="0" IVar="-1" Cut="0.0000000000000000e+00" cType="1" res="6.3904124544933438e-04" rms="4.4882479310035706e-01" purity="5.4403167963027954e-01" nType="-99"/>
        </Node>
        <Node pos="r" depth="1" NCoef="0" IVar="0" Cut="1.3892991542816162e+00" cType="1" res="4.1156955994665623e-03" rms="4.1936999559402466e-01" purity="4.9294045567512512e-01" nType="0">
          <Node pos="l" depth="2" NCoef="0" IVar="-1" Cut="0.0000000000000000e+00" cType="1" res="1.7554441001266241e-03" rms="4.2531484365463257e-01" purity="5.1841300725936890e-01" nType="-99"/>
          <Node pos="r" depth="2" NCoef="0" IVar="-1" Cut="0.0000000000000000e+00" cType="1" res="-1.2065348215401173e-02" rms="3.2155093550682068e-01" purity="1.3142327964305878e-01" nType="-99"/>
        </Node>
      </Node>
    </BinaryTree>
    <BinaryTree type="DecisionTree" boostWeight="1.0000000000000000e+00" itree="426">
      <Node pos="s" depth="0" NCoef="0" IVar="3" Cut="6.1904764175415039e-01" cType="1" res="3.8310154923237860e-04" rms="4.3267154693603516e-01" purity="5.0060302019119263e-01" nType="0">
        <Node pos="l" depth="1" NCoef="0" IVar="9" Cut="7.1428573131561279e-01" cType="1" res="1.4099950203672051e-03" rms="4.3054553866386414e-01" purity="5.0168114900588989e-01" nType="0">
          <Node pos="l" depth="2" NCoef="0" IVar="-1" Cut="0.0000000000000000e+00" cType="1" res="2.1712602756451815e-04" rms="4.2994093894958496e-01" purity="5.0566917657852173e-01" nType="-99"/>
          <Node pos="r" depth="2" NCoef="0" IVar="-1" Cut="0.0000000000000000e+00" cType="1" res="3.8655840326100588e-03" rms="4.4390502572059631e-01" purity="4.1065934300422668e-01" nType="-99"/>
        </Node>
        <Node pos="r" depth="1" NCoef="0" IVar="2" Cut="4.6765682101249695e-01" cType="1" res="-1.1132200248539448e-02" rms="4.5567506551742554e-01" purity="4.8851272463798523e-01" nType="0">
          <Node pos="l" depth="2" NCoef="0" IVar="-1" Cut="0.0000000000000000e+00" cType="1" res="-4.3771546334028244e-03" rms="4.5858797430992126e-01" purity="4.7027289867401123e-01" nType="-99"/>
          <Node pos="r" depth="2" NCoef="0" IVar="-1" Cut="0.0000000000000000e+00" cType="1" res="-7.8175758244469762e-04" rms="4.5234349370002747e-01" purity="5.0839936733245850e-01" nType="-99"/>
        </Node>
      </Node>
    </BinaryTree>
    <BinaryTree type="DecisionTree" boostWeight="1.0000000000000000e+00" itree="427">
      <Node pos="s" depth="0" NCoef="0" IVar="9" Cut="6.1904764175415039e-01" cType="1" res="-3.2775590079836547e-04" rms="4.3241623044013977e-01" purity="5.0014054775238037e-01" nType="0">
        <Node pos="l" depth="1" NCoef="0" IVar="9" Cut="-7.6870840787887573e-01" cType="1" res="6.2443711794912815e-04" rms="4.3150120973587036e-01" purity="5.0712615251541138e-01" nType="0">
          <Node pos="l" depth="2" NCoef="0" IVar="-1" Cut="0.0000000000000000e+00" cType="1" res="-2.9384740628302097e-03" rms="4.4658529758453369e-01" purity="3.7043502926826477e-01" nType="-99"/>
          <Node pos="r" depth="2" NCoef="0" IVar="-1" Cut="0.0000000000000000e+00" cType="1" res="2.9539849492721260e-04" rms="4.3086984753608704e-01" purity="5.1268136501312256e-01" nType="-99"/>
        </Node>
        <Node pos="r" depth="1" NCoef="0" IVar="4" Cut="7.7535355091094971e-01" cType="1" res="-1.2109857983887196e-02" rms="4.4341275095939636e-01" purity="4.1370248794555664e-01" nType="0">
          <Node pos="l" depth="2" NCoef="0" IVar="-1" Cut="0.0000000000000000e+00" cType="1" res="1.0789298685267568e-03" rms="4.2661789059638977e-01" purity="2.8396934270858765e-01" nType="-99"/>
          <Node pos="r" depth="2" NCoef="0" IVar="-1" Cut="0.0000000000000000e+00" cType="1" res="-6.4631970599293709e-03" rms="4.5898678898811340e-01" purity="5.4292160272598267e-01" nType="-99"/>
        </Node>
      </Node>
    </BinaryTree>
    <BinaryTree type="DecisionTree" boostWeight="1.0000000000000000e+00" itree="428">
      <Node pos="s" depth="0" NCoef="0" IVar="5" Cut="3.4333469867706299e+00" cType="1" res="-1.1315615847706795e-03" rms="4.3284153938293457e-01" purity="4.9899464845657349e-01" nType="0">
        <Node pos="l" depth="1" NCoef="0" IVar="0" Cut="1.1384702920913696e+00" cType="1" res="-1.8441029824316502e-03" rms="4.3364018201828003e-01" purity="4.9656319618225098e-01" nType="0">
          <Node pos="l" depth="2" NCoef="0" IVar="-1" Cut="0.0000000000000000e+00" cType="1" res="-1.0301307775080204e-03" rms="4.4027927517890930e-01" purity="5.7672923803329468e-01" nType="-99"/>
          <Node pos="r" depth="2" NCoef="0" IVar="-1" Cut="0.0000000000000000e+00" cType="1" res="8.9660688536241651e-04" rms="4.1749095916748047e-01" purity="3.0715668201446533e-01" nType="-99"/>
        </Node>
        <Node pos="r" depth="1" NCoef="0" IVar="-1" Cut="0.0000000000000000e+00" cType="1" res="4.4536436907947063e-03" rms="4.1247820854187012e-01" purity="5.5836880207061768e-01" nType="-99"/>
      </Node>
    </BinaryTree>
    <BinaryTree type="DecisionTree" boostWeight="1.0000000000000000e+00" itree="429">
      <Node pos="s" depth="0" NCoef="0" IVar="9" Cut="2.3809523880481720e-01" cType="1" res="-3.0875976663082838e-03" rms="4.3290641903877258e-01" purity="4.9635881185531616e-01" nType="0">
        <Node pos="l" depth="1" NCoef="0" IVar="8" Cut="1.2770662307739258e+00" cType="1" res="-1.3017923338338733e-03" rms="4.3225482106208801e-01" purity="5.0216591358184814e-01" nType="0">
          <Node pos="l" depth="2" NCoef="0" IVar="-1" Cut="0.0000000000000000e+00" cType="1" res="-1.1646853090496734e-04" rms="4.3354168534278870e-01" purity="4.9258330464363098e-01" nType="-99"/>
          <Node pos="r" depth="2" NCoef="0" IVar="-1" Cut="0.0000000000000000e+00" cType="1" res="-3.0334896873682737e-03" rms="4.1749617457389832e-01" purity="6.0916799306869507e-01" nType="-99"/>
        </Node>
        <Node pos="r" depth="1" NCoef="0" IVar="8" Cut="4.2907258868217468e-01" cType="1" res="-7.8207273036241531e-03" rms="4.3459317088127136e-01" purity="4.8096746206283569e-01" nType="0">
          <Node pos="l" depth="2" NCoef="0" IVar="-1" Cut="0.0000000000000000e+00" cType="1" res="-4.0510748513042927e-03" rms="4.3089371919631958e-01" purity="3.8266223669052124e-01" nType="-99"/>
          <Node pos="r" depth="2" NCoef="0" IVar="-1" Cut="0.0000000000000000e+00" cType="1" res="4.2396158096380532e-04" rms="4.3904423713684082e-01" purity="6.0526186227798462e-01" nType="-99"/>
        </Node>
      </Node>
    </BinaryTree>
    <BinaryTree type="DecisionTree" boostWeight="1.0000000000000000e+00" itree="430">
      <Node pos="s" depth="0" NCoef="0" IVar="2" Cut="-4.5702400803565979e-01" cType="1" res="-7.5805693631991744e-04" rms="4.3190154433250427e-01" purity="4.9937438964843750e-01" nType="0">
        <Node pos="l" depth="1" NCoef="0" IVar="10" Cut="4.1809524536132812e+01" cType="1" res="-5.9169372543692589e-03" rms="4.2777121067047119e-01" purity="4.9714857339859009e-01" nType="0">
          <Node pos="l" depth="2" NCoef="0" IVar="-1" Cut="0.0000000000000000e+00" cType="1" res="-2.2260528057813644e-03" rms="4.2798444628715515e-01" purity="5.0338953733444214e-01" nType="-99"/>
          <Node pos="r" depth="2" NCoef="0" IVar="-1" Cut="0.0000000000000000e+00" cType="1" res="2.4300410877913237e-03" rms="4.2612895369529724e-01" purity="4.5803791284561157e-01" nType="-99"/>
        </Node>
        <Node pos="r" depth="1" NCoef="0" IVar="9" Cut="7.1428573131561279e-01" cType="1" res="1.4196245465427637e-03" rms="4.3361482024192810e-01" purity="5.0031393766403198e-01" nType="0">
          <Node pos="l" depth="2" NCoef="0" IVar="-1" Cut="0.0000000000000000e+00" cType="1" res="1.5080779849085957e-04" rms="4.3269699811935425e-01" purity="5.0549203157424927e-01" nType="-99"/>
          <Node pos="r" depth="2" NCoef="0" IVar="-1" Cut="0.0000000000000000e+00" cType="1" res="4.1627059690654278e-03" rms="4.4945615530014038e-01" purity="4.0764364600181580e-01" nType="-99"/>
        </Node>
      </Node>
    </BinaryTree>
    <BinaryTree type="DecisionTree" boostWeight="1.0000000000000000e+00" itree="431">
      <Node pos="s" depth="0" NCoef="0" IVar="6" Cut="4.0952382087707520e+00" cType="1" res="-1.4082686975598335e-03" rms="4.3352374434471130e-01" purity="4.9965268373489380e-01" nType="0">
        <Node pos="l" depth="1" NCoef="0" IVar="8" Cut="-1.3916268348693848e+00" cType="1" res="-2.1872727666050196e-03" rms="4.3463993072509766e-01" purity="5.0332105159759521e-01" nType="0">
          <Node pos="l" depth="2" NCoef="0" IVar="-1" Cut="0.0000000000000000e+00" cType="1" res="1.9291243515908718e-03" rms="4.1499558091163635e-01" purity="6.7934858798980713e-01" nType="-99"/>
          <Node pos="r" depth="2" NCoef="0" IVar="-1" Cut="0.0000000000000000e+00" cType="1" res="-7.7509932452812791e-04" rms="4.3632251024246216e-01" purity="4.8778322339057922e-01" nType="-99"/>
        </Node>
        <Node pos="r" depth="1" NCoef="0" IVar="4" Cut="7.7370429039001465e-01" cType="1" res="4.9420841969549656e-03" rms="4.2426183819770813e-01" purity="4.6974837779998779e-01" nType="0">
          <Node pos="l" depth="2" NCoef="0" IVar="-1" Cut="0.0000000000000000e+00" cType="1" res="4.2416541837155819e-03" rms="4.1305217146873474e-01" purity="3.2371413707733154e-01" nType="-99"/>
          <Node pos="r" depth="2" NCoef="0" IVar="-1" Cut="0.0000000000000000e+00" cType="1" res="-1.4933971688151360e-03" rms="4.3621909618377686e-01" purity="6.3320940732955933e-01" nType="-99"/>
        </Node>
      </Node>
    </BinaryTree>
    <BinaryTree type="DecisionTree" boostWeight="1.0000000000000000e+00" itree="432">
      <Node pos="s" depth="0" NCoef="0" IVar="9" Cut="4.2857143282890320e-01" cType="1" res="1.2261993251740932e-03" rms="4.3197789788246155e-01" purity="5.0018930435180664e-01" nType="0">
        <Node pos="l" depth="1" NCoef="0" IVar="1" Cut="1.0887255668640137e+01" cType="1" res="2.3186092730611563e-03" rms="4.3132746219635010e-01" purity="5.0784224271774292e-01" nType="0">
          <Node pos="l" depth="2" NCoef="0" IVar="-1" Cut="0.0000000000000000e+00" cType="1" res="8.1534404307603836e-04" rms="4.3232092261314392e-01" purity="5.0909018516540527e-01" nType="-99"/>
          <Node pos="r" depth="2" NCoef="0" IVar="-1" Cut="0.0000000000000000e+00" cType="1" res="-2.5528441183269024e-03" rms="4.1620805859565735e-01" purity="4.8940983414649963e-01" nType="-99"/>
        </Node>
        <Node pos="r" depth="1" NCoef="0" IVar="8" Cut="4.9937576055526733e-01" cType="1" res="-5.1237051375210285e-03" rms="4.3568539619445801e-01" purity="4.5570459961891174e-01" nType="0">
          <Node pos="l" depth="2" NCoef="0" IVar="-1" Cut="0.0000000000000000e+00" cType="1" res="-3.0316223856061697e-03" rms="4.2973181605339050e-01" purity="3.5355639457702637e-01" nType="-99"/>
          <Node pos="r" depth="2" NCoef="0" IVar="-1" Cut="0.0000000000000000e+00" cType="1" res="1.0956246405839920e-03" rms="4.4419807195663452e-01" purity="6.0714817047119141e-01" nType="-99"/>
        </Node>
      </Node>
    </BinaryTree>
    <BinaryTree type="DecisionTree" boostWeight="1.0000000000000000e+00" itree="433">
      <Node pos="s" depth="0" NCoef="0" IVar="5" Cut="3.3305376768112183e-01" cType="1" res="3.3991108648478985e-03" rms="4.3231648206710815e-01" purity="5.0222957134246826e-01" nType="0">
        <Node pos="l" depth="1" NCoef="0" IVar="6" Cut="1.7142857313156128e+00" cType="1" res="1.0680630803108215e-02" rms="4.5535644888877869e-01" purity="5.0653749704360962e-01" nType="0">
          <Node pos="l" depth="2" NCoef="0" IVar="-1" Cut="0.0000000000000000e+00" cType="1" res="4.2378697544336319e-03" rms="4.5608633756637573e-01" purity="5.1763623952865601e-01" nType="-99"/>
          <Node pos="r" depth="2" NCoef="0" IVar="-1" Cut="0.0000000000000000e+00" cType="1" res="-2.6274032425135374e-03" rms="4.5245265960693359e-01" purity="4.7276908159255981e-01" nType="-99"/>
        </Node>
        <Node pos="r" depth="1" NCoef="0" IVar="0" Cut="1.5329550504684448e+00" cType="1" res="2.1068064961582422e-03" rms="4.2808490991592407e-01" purity="5.0146502256393433e-01" nType="0">
          <Node pos="l" depth="2" NCoef="0" IVar="-1" Cut="0.0000000000000000e+00" cType="1" res="8.2527648191899061e-04" rms="4.3072813749313354e-01" purity="5.1860177516937256e-01" nType="-99"/>
          <Node pos="r" depth="2" NCoef="0" IVar="-1" Cut="0.0000000000000000e+00" cType="1" res="-4.4501107186079025e-03" rms="3.8211119174957275e-01" purity="2.2239050269126892e-01" nType="-99"/>
        </Node>
      </Node>
    </BinaryTree>
    <BinaryTree type="DecisionTree" boostWeight="1.0000000000000000e+00" itree="434">
      <Node pos="s" depth="0" NCoef="0" IVar="5" Cut="3.5760307312011719e-01" cType="1" res="1.0746746556833386e-03" rms="4.3262696266174316e-01" purity="5.0031137466430664e-01" nType="0">
        <Node pos="l" depth="1" NCoef="0" IVar="0" Cut="1.0944416522979736e+00" cType="1" res="7.6452135108411312e-03" rms="4.5495519042015076e-01" purity="5.0736379623413086e-01" nType="0">
          <Node pos="l" depth="2" NCoef="0" IVar="-1" Cut="0.0000000000000000e+00" cType="1" res="-1.4578528935089707e-03" rms="4.5949995517730713e-01" purity="6.0607022047042847e-01" nType="-99"/>
          <Node pos="r" depth="2" NCoef="0" IVar="-1" Cut="0.0000000000000000e+00" cType="1" res="5.4664034396409988e-03" rms="4.4942846894264221e-01" purity="3.9900347590446472e-01" nType="-99"/>
        </Node>
        <Node pos="r" depth="1" NCoef="0" IVar="5" Cut="3.5112595558166504e+00" cType="1" res="-1.6223233251366764e-04" rms="4.2828220129013062e-01" purity="4.9898374080657959e-01" nType="0">
          <Node pos="l" depth="2" NCoef="0" IVar="-1" Cut="0.0000000000000000e+00" cType="1" res="-2.0011668675579131e-04" rms="4.2875826358795166e-01" purity="4.9629104137420654e-01" nType="-99"/>
          <Node pos="r" depth="2" NCoef="0" IVar="-1" Cut="0.0000000000000000e+00" cType="1" res="3.3832853659987450e-03" rms="4.1767790913581848e-01" purity="5.5709493160247803e-01" nType="-99"/>
        </Node>
      </Node>
    </BinaryTree>
    <BinaryTree type="DecisionTree" boostWeight="1.0000000000000000e+00" itree="435">
      <Node pos="s" depth="0" NCoef="0" IVar="9" Cut="-2.3809523880481720e-01" cType="1" res="-1.3803073670715094e-03" rms="4.3312108516693115e-01" purity="4.9863442778587341e-01" nType="0">
        <Node pos="l" depth="1" NCoef="0" IVar="0" Cut="9.8871046304702759e-01" cType="1" res="5.1821633242070675e-03" rms="4.3480601906776428e-01" purity="4.8470062017440796e-01" nType="0">
          <Node pos="l" depth="2" NCoef="0" IVar="-1" Cut="0.0000000000000000e+00" cType="1" res="-1.0088444832945243e-04" rms="4.3859061598777771e-01" purity="6.0274374485015869e-01" nType="-99"/>
          <Node pos="r" depth="2" NCoef="0" IVar="-1" Cut="0.0000000000000000e+00" cType="1" res="2.9467404820024967e-03" rms="4.3068283796310425e-01" purity="3.5967442393302917e-01" nType="-99"/>
        </Node>
        <Node pos="r" depth="1" NCoef="0" IVar="9" Cut="7.6417320966720581e-01" cType="1" res="-3.7964049261063337e-03" rms="4.3247401714324951e-01" purity="5.0376445055007935e-01" nType="0">
          <Node pos="l" depth="2" NCoef="0" IVar="-1" Cut="0.0000000000000000e+00" cType="1" res="-7.8574917279183865e-04" rms="4.3181771039962769e-01" purity="5.1075190305709839e-01" nType="-99"/>
          <Node pos="r" depth="2" NCoef="0" IVar="-1" Cut="0.0000000000000000e+00" cType="1" res="-4.8326281830668449e-03" rms="4.4434428215026855e-01" purity="3.7248364090919495e-01" nType="-99"/>
        </Node>
      </Node>
    </BinaryTree>
    <BinaryTree type="DecisionTree" boostWeight="1.0000000000000000e+00" itree="436">
      <Node pos="s" depth="0" NCoef="0" IVar="5" Cut="7.8685265779495239e-01" cType="1" res="-1.5629759291186929e-03" rms="4.3155610561370850e-01" purity="4.9862831830978394e-01" nType="0">
        <Node pos="l" depth="1" NCoef="0" IVar="0" Cut="9.5404738187789917e-01" cType="1" res="-7.4730077758431435e-03" rms="4.4952952861785889e-01" purity="4.9730417132377625e-01" nType="0">
          <Node pos="l" depth="2" NCoef="0" IVar="-1" Cut="0.0000000000000000e+00" cType="1" res="-4.5993300154805183e-03" rms="4.5132654905319214e-01" purity="6.1362653970718384e-01" nType="-99"/>
          <Node pos="r" depth="2" NCoef="0" IVar="-1" Cut="0.0000000000000000e+00" cType="1" res="2.9383090441115201e-04" rms="4.4788831472396851e-01" purity="4.0361392498016357e-01" nType="-99"/>
        </Node>
        <Node pos="r" depth="1" NCoef="0" IVar="0" Cut="1.0316625833511353e+00" cType="1" res="9.8433205857872963e-04" rms="4.2354872822761536e-01" purity="4.9919912219047546e-01" nType="0">
          <Node pos="l" depth="2" NCoef="0" IVar="-1" Cut="0.0000000000000000e+00" cType="1" res="1.3684590812772512e-03" rms="4.3153989315032959e-01" purity="6.1433368921279907e-01" nType="-99"/>
          <Node pos="r" depth="2" NCoef="0" IVar="-1" Cut="0.0000000000000000e+00" cType="1" res="-1.6779194120317698e-03" rms="4.0983557701110840e-01" purity="3.0793589353561401e-01" nType="-99"/>
        </Node>
      </Node>
    </BinaryTree>
    <BinaryTree type="DecisionTree" boostWeight="1.0000000000000000e+00" itree="437">
      <Node pos="s" depth="0" NCoef="0" IVar="8" Cut="-1.8569519519805908e+00" cType="1" res="5.3032516734674573e-04" rms="4.3136179447174072e-01" purity="4.9984851479530334e-01" nType="0">
        <Node pos="l" depth="1" NCoef="0" IVar="-1" Cut="0.0000000000000000e+00" cType="1" res="4.6251355670392513e-03" rms="4.0082064270973206e-01" purity="7.3225623369216919e-01" nType="-99"/>
        <Node pos="r" depth="1" NCoef="0" IVar="9" Cut="-1.4285714924335480e-01" cType="1" res="-9.1747380793094635e-05" rms="4.3255412578582764e-01" purity="4.9033927917480469e-01" nType="0">
          <Node pos="l" depth="2" NCoef="0" IVar="-1" Cut="0.0000000000000000e+00" cType="1" res="-9.5172855071723461e-04" rms="4.3518444895744324e-01" purity="4.6838539838790894e-01" nType="-99"/>
          <Node pos="r" depth="2" NCoef="0" IVar="-1" Cut="0.0000000000000000e+00" cType="1" res="4.6968559036031365e-04" rms="4.3114614486694336e-01" purity="5.0193828344345093e-01" nType="-99"/>
        </Node>
      </Node>
    </BinaryTree>
    <BinaryTree type="DecisionTree" boostWeight="1.0000000000000000e+00" itree="438">
      <Node pos="s" depth="0" NCoef="0" IVar="4" Cut="9.4744014739990234e-01" cType="1" res="5.5397121468558908e-04" rms="4.3287616968154907e-01" purity="5.0057792663574219e-01" nType="0">
        <Node pos="l" depth="1" NCoef="0" IVar="9" Cut="-4.2857143282890320e-01" cType="1" res="-9.6110993763431907e-04" rms="4.3615809082984924e-01" purity="4.4918787479400635e-01" nType="0">
          <Node pos="l" depth="2" NCoef="0" IVar="-1" Cut="0.0000000000000000e+00" cType="1" res="2.8239015955477953e-03" rms="4.3459194898605347e-01" purity="3.9413371682167053e-01" nType="-99"/>
          <Node pos="r" depth="2" NCoef="0" IVar="-1" Cut="0.0000000000000000e+00" cType="1" res="-7.1383808972314000e-04" rms="4.3637311458587646e-01" purity="4.5772516727447510e-01" nType="-99"/>
        </Node>
        <Node pos="r" depth="1" NCoef="0" IVar="4" Cut="9.7316801548004150e-01" cType="1" res="7.6103005558252335e-03" rms="4.1717854142189026e-01" purity="7.3992145061492920e-01" nType="0">
          <Node pos="l" depth="2" NCoef="0" IVar="-1" Cut="0.0000000000000000e+00" cType="1" res="-2.7214689180254936e-03" rms="4.1813728213310242e-01" purity="7.3312252759933472e-01" nType="-99"/>
          <Node pos="r" depth="2" NCoef="0" IVar="-1" Cut="0.0000000000000000e+00" cType="1" res="7.6357852667570114e-03" rms="4.1506507992744446e-01" purity="7.4816334247589111e-01" nType="-99"/>
        </Node>
      </Node>
    </BinaryTree>
    <BinaryTree type="DecisionTree" boostWeight="1.0000000000000000e+00" itree="439">
      <Node pos="s" depth="0" NCoef="0" IVar="7" Cut="9.8112993240356445e+00" cType="1" res="-3.0431197956204414e-04" rms="4.3200165033340454e-01" purity="4.9890089035034180e-01" nType="0">
        <Node pos="l" depth="1" NCoef="0" IVar="5" Cut="3.1276085376739502e+00" cType="1" res="-9.9288614001125097e-04" rms="4.3345695734024048e-01" purity="4.8881265521049500e-01" nType="0">
          <Node pos="l" depth="2" NCoef="0" IVar="-1" Cut="0.0000000000000000e+00" cType="1" res="-9.0201407147105783e-05" rms="4.3432372808456421e-01" purity="4.8917087912559509e-01" nType="-99"/>
          <Node pos="r" depth="2" NCoef="0" IVar="-1" Cut="0.0000000000000000e+00" cType="1" res="-3.9288573898375034e-03" rms="4.1502040624618530e-01" purity="4.8145139217376709e-01" nType="-99"/>
        </Node>
        <Node pos="r" depth="1" NCoef="0" IVar="-1" Cut="0.0000000000000000e+00" cType="1" res="4.1995779611170292e-03" rms="3.9956092834472656e-01" purity="7.1318113803863525e-01" nType="-99"/>
      </Node>
    </BinaryTree>
    <BinaryTree type="DecisionTree" boostWeight="1.0000000000000000e+00" itree="440">
      <Node pos="s" depth="0" NCoef="0" IVar="5" Cut="3.3901813626289368e-01" cType="1" res="-2.3752318229526281e-03" rms="4.3275356292724609e-01" purity="4.9842980504035950e-01" nType="0">
        <Node pos="l" depth="1" NCoef="0" IVar="0" Cut="1.2086673974990845e+00" cType="1" res="-8.8872304186224937e-03" rms="4.5652365684509277e-01" purity="4.8895063996315002e-01" nType="0">
          <Node pos="l" depth="2" NCoef="0" IVar="-1" Cut="0.0000000000000000e+00" cType="1" res="-3.9729117415845394e-03" rms="4.6617457270622253e-01" purity="5.7294046878814697e-01" nType="-99"/>
          <Node pos="r" depth="2" NCoef="0" IVar="-1" Cut="0.0000000000000000e+00" cType="1" res="8.3429669030010700e-04" rms="4.4106400012969971e-01" purity="3.6042904853820801e-01" nType="-99"/>
        </Node>
        <Node pos="r" depth="1" NCoef="0" IVar="0" Cut="7.0213979482650757e-01" cType="1" res="-1.2182703940197825e-03" rms="4.2838209867477417e-01" purity="5.0011390447616577e-01" nType="0">
          <Node pos="l" depth="2" NCoef="0" IVar="-1" Cut="0.0000000000000000e+00" cType="1" res="3.0451132915914059e-03" rms="4.1726595163345337e-01" purity="6.9562065601348877e-01" nType="-99"/>
          <Node pos="r" depth="2" NCoef="0" IVar="-1" Cut="0.0000000000000000e+00" cType="1" res="-8.2911620847880840e-04" rms="4.3010357022285461e-01" purity="4.6883234381675720e-01" nType="-99"/>
        </Node>
      </Node>
    </BinaryTree>
    <BinaryTree type="DecisionTree" boostWeight="1.0000000000000000e+00" itree="441">
      <Node pos="s" depth="0" NCoef="0" IVar="5" Cut="3.2548889517784119e-01" cType="1" res="1.1485683498904109e-03" rms="4.3253657221794128e-01" purity="5.0032174587249756e-01" nType="0">
        <Node pos="l" depth="1" NCoef="0" IVar="10" Cut="5.8095235824584961e+00" cType="1" res="-7.0940172299742699e-03" rms="4.5399370789527893e-01" purity="4.9079689383506775e-01" nType="0">
          <Node pos="l" depth="2" NCoef="0" IVar="-1" Cut="0.0000000000000000e+00" cType="1" res="-3.3206108491867781e-04" rms="4.5809713006019592e-01" purity="4.8393082618713379e-01" nType="-99"/>
          <Node pos="r" depth="2" NCoef="0" IVar="-1" Cut="0.0000000000000000e+00" cType="1" res="-4.6290624886751175e-03" rms="4.4557717442512512e-01" purity="5.0434166193008423e-01" nType="-99"/>
        </Node>
        <Node pos="r" depth="1" NCoef="0" IVar="10" Cut="4.4666667938232422e+01" cType="1" res="2.5862487964332104e-03" rms="4.2866778373718262e-01" purity="5.0198304653167725e-01" nType="0">
          <Node pos="l" depth="2" NCoef="0" IVar="-1" Cut="0.0000000000000000e+00" cType="1" res="1.0009413817897439e-03" rms="4.2920404672622681e-01" purity="5.1194274425506592e-01" nType="-99"/>
          <Node pos="r" depth="2" NCoef="0" IVar="-1" Cut="0.0000000000000000e+00" cType="1" res="-1.6946338582783937e-03" rms="4.2438653111457825e-01" purity="4.2484569549560547e-01" nType="-99"/>
        </Node>
      </Node>
    </BinaryTree>
    <BinaryTree type="DecisionTree" boostWeight="1.0000000000000000e+00" itree="442">
      <Node pos="s" depth="0" NCoef="0" IVar="9" Cut="1.4285714924335480e-01" cType="1" res="-6.1130564427003264e-04" rms="4.3310004472732544e-01" purity="4.9942556023597717e-01" nType="0">
        <Node pos="l" depth="1" NCoef="0" IVar="8" Cut="1.2597254514694214e+00" cType="1" res="-3.2576131634414196e-03" rms="4.3261933326721191e-01" purity="4.9904111027717590e-01" nType="0">
          <Node pos="l" depth="2" NCoef="0" IVar="-1" Cut="0.0000000000000000e+00" cType="1" res="-5.9045432135462761e-04" rms="4.3383133411407471e-01" purity="4.9183189868927002e-01" nType="-99"/>
          <Node pos="r" depth="2" NCoef="0" IVar="-1" Cut="0.0000000000000000e+00" cType="1" res="-4.2715910822153091e-03" rms="4.1751396656036377e-01" purity="5.8609384298324585e-01" nType="-99"/>
        </Node>
        <Node pos="r" depth="1" NCoef="0" IVar="4" Cut="5.1900947093963623e-01" cType="1" res="4.1733398102223873e-03" rms="4.3392691016197205e-01" purity="5.0012069940567017e-01" nType="0">
          <Node pos="l" depth="2" NCoef="0" IVar="-1" Cut="0.0000000000000000e+00" cType="1" res="4.9773785285651684e-03" rms="3.7364119291305542e-01" purity="1.8678322434425354e-01" nType="-99"/>
          <Node pos="r" depth="2" NCoef="0" IVar="-1" Cut="0.0000000000000000e+00" cType="1" res="4.1067763231694698e-04" rms="4.4896000623703003e-01" purity="5.8572912216186523e-01" nType="-99"/>
        </Node>
      </Node>
    </BinaryTree>
    <BinaryTree type="DecisionTree" boostWeight="1.0000000000000000e+00" itree="443">
      <Node pos="s" depth="0" NCoef="0" IVar="5" Cut="2.6793467998504639e+00" cType="1" res="1.9830665551126003e-03" rms="4.3311908841133118e-01" purity="5.0234180688858032e-01" nType="0">
        <Node pos="l" depth="1" NCoef="0" IVar="10" Cut="8.9523811340332031e+00" cType="1" res="1.2801742414012551e-03" rms="4.3430826067924500e-01" purity="5.0072556734085083e-01" nType="0">
          <Node pos="l" depth="2" NCoef="0" IVar="-1" Cut="0.0000000000000000e+00" cType="1" res="1.1844552354887128e-03" rms="4.5628359913825989e-01" purity="5.2585029602050781e-01" nType="-99"/>
          <Node pos="r" depth="2" NCoef="0" IVar="-1" Cut="0.0000000000000000e+00" cType="1" res="-1.0509212006581947e-04" rms="4.2400142550468445e-01" purity="4.8938012123107910e-01" nType="-99"/>
        </Node>
        <Node pos="r" depth="1" NCoef="0" IVar="0" Cut="9.6772271394729614e-01" cType="1" res="9.2543419450521469e-03" rms="4.2055097222328186e-01" purity="5.1906144618988037e-01" nType="0">
          <Node pos="l" depth="2" NCoef="0" IVar="-1" Cut="0.0000000000000000e+00" cType="1" res="5.4013077169656754e-03" rms="4.2220279574394226e-01" purity="6.7244976758956909e-01" nType="-99"/>
          <Node pos="r" depth="2" NCoef="0" IVar="-1" Cut="0.0000000000000000e+00" cType="1" res="-1.2414050288498402e-03" rms="4.1802513599395752e-01" purity="3.2228326797485352e-01" nType="-99"/>
        </Node>
      </Node>
    </BinaryTree>
    <BinaryTree type="DecisionTree" boostWeight="1.0000000000000000e+00" itree="444">
      <Node pos="s" depth="0" NCoef="0" IVar="8" Cut="2.6277574896812439e-01" cType="1" res="1.8607105594128370e-03" rms="4.3270289897918701e-01" purity="5.0166141986846924e-01" nType="0">
        <Node pos="l" depth="1" NCoef="0" IVar="9" Cut="1.4285714924335480e-01" cType="1" res="-2.7528943610377610e-04" rms="4.3452346324920654e-01" purity="4.8179280757904053e-01" nType="0">
          <Node pos="l" depth="2" NCoef="0" IVar="-1" Cut="0.0000000000000000e+00" cType="1" res="7.1641238173469901e-04" rms="4.3670383095741272e-01" purity="5.1385647058486938e-01" nType="-99"/>
          <Node pos="r" depth="2" NCoef="0" IVar="-1" Cut="0.0000000000000000e+00" cType="1" res="-2.1162154152989388e-03" rms="4.2888164520263672e-01" purity="4.0095445513725281e-01" nType="-99"/>
        </Node>
        <Node pos="r" depth="1" NCoef="0" IVar="0" Cut="1.0884513854980469e+00" cType="1" res="5.4365079849958420e-03" rms="4.2961415648460388e-01" purity="5.3492271900177002e-01" nType="0">
          <Node pos="l" depth="2" NCoef="0" IVar="-1" Cut="0.0000000000000000e+00" cType="1" res="3.4024612978100777e-04" rms="4.3268477916717529e-01" purity="6.2074971199035645e-01" nType="-99"/>
          <Node pos="r" depth="2" NCoef="0" IVar="-1" Cut="0.0000000000000000e+00" cType="1" res="3.9415680803358555e-03" rms="4.2266538739204407e-01" purity="3.4686473011970520e-01" nType="-99"/>
        </Node>
      </Node>
    </BinaryTree>
    <BinaryTree type="DecisionTree" boostWeight="1.0000000000000000e+00" itree="445">
      <Node pos="s" depth="0" NCoef="0" IVar="10" Cut="4.3904762268066406e+01" cType="1" res="-7.7571917790919542e-04" rms="4.3216806650161743e-01" purity="4.9851936101913452e-01" nType="0">
        <Node pos="l" depth="1" NCoef="0" IVar="10" Cut="3.9523808956146240e+00" cType="1" res="4.1532074101269245e-04" rms="4.3313533067703247e-01" purity="5.0679558515548706e-01" nType="0">
          <Node pos="l" depth="2" NCoef="0" IVar="-1" Cut="0.0000000000000000e+00" cType="1" res="-4.4052032753825188e-03" rms="4.7031593322753906e-01" purity="4.3940380215644836e-01" nType="-99"/>
          <Node pos="r" depth="2" NCoef="0" IVar="-1" Cut="0.0000000000000000e+00" cType="1" res="6.8996555637568235e-04" rms="4.2876550555229187e-01" purity="5.1425755023956299e-01" nType="-99"/>
        </Node>
        <Node pos="r" depth="1" NCoef="0" IVar="4" Cut="7.1994036436080933e-01" cType="1" res="-1.1022168211638927e-02" rms="4.2361727356910706e-01" purity="4.2731949687004089e-01" nType="0">
          <Node pos="l" depth="2" NCoef="0" IVar="-1" Cut="0.0000000000000000e+00" cType="1" res="5.3279213607311249e-03" rms="4.0003737807273865e-01" purity="2.9888197779655457e-01" nType="-99"/>
          <Node pos="r" depth="2" NCoef="0" IVar="-1" Cut="0.0000000000000000e+00" cType="1" res="-7.2130695916712284e-03" rms="4.3698516488075256e-01" purity="5.0889712572097778e-01" nType="-99"/>
        </Node>
      </Node>
    </BinaryTree>
    <BinaryTree type="DecisionTree" boostWeight="1.0000000000000000e+00" itree="446">
      <Node pos="s" depth="0" NCoef="0" IVar="2" Cut="1.3331086635589600e+00" cType="1" res="-2.3290654644370079e-04" rms="4.3271356821060181e-01" purity="5.0026267766952515e-01" nType="0">
        <Node pos="l" depth="1" NCoef="0" IVar="4" Cut="3.5840031504631042e-01" cType="1" res="8.5834437049925327e-04" rms="4.3375125527381897e-01" purity="5.0148576498031616e-01" nType="0">
          <Node pos="l" depth="2" NCoef="0" IVar="-1" Cut="0.0000000000000000e+00" cType="1" res="-6.1046038754284382e-03" rms="2.6406261324882507e-01" purity="7.7858962118625641e-02" nType="-99"/>
          <Node pos="r" depth="2" NCoef="0" IVar="-1" Cut="0.0000000000000000e+00" cType="1" res="3.7517401506192982e-04" rms="4.4184908270835876e-01" purity="5.2687710523605347e-01" nType="-99"/>
        </Node>
        <Node pos="r" depth="1" NCoef="0" IVar="2" Cut="1.8450610637664795e+00" cType="1" res="-1.0366948321461678e-02" rms="4.2282089591026306e-01" purity="4.8890444636344910e-01" nType="0">
          <Node pos="l" depth="2" NCoef="0" IVar="-1" Cut="0.0000000000000000e+00" cType="1" res="-4.9425242468714714e-03" rms="4.2456328868865967e-01" purity="4.7966584563255310e-01" nType="-99"/>
          <Node pos="r" depth="2" NCoef="0" IVar="-1" Cut="0.0000000000000000e+00" cType="1" res="-1.0932838777080178e-03" rms="4.2125782370567322e-01" purity="4.9659541249275208e-01" nType="-99"/>
        </Node>
      </Node>
    </BinaryTree>
    <BinaryTree type="DecisionTree" boostWeight="1.0000000000000000e+00" itree="447">
      <Node pos="s" depth="0" NCoef="0" IVar="5" Cut="3.3019182682037354e+00" cType="1" res="1.3557644560933113e-03" rms="4.3282705545425415e-01" purity="5.0198560953140259e-01" nType="0">
        <Node pos="l" depth="1" NCoef="0" IVar="10" Cut="1.5714285850524902e+01" cType="1" res="1.9934612791985273e-03" rms="4.3336775898933411e-01" purity="5.0133192539215088e-01" nType="0">
          <Node pos="l" depth="2" NCoef="0" IVar="-1" Cut="0.0000000000000000e+00" cType="1" res="-3.4057415905408561e-04" rms="4.4857189059257507e-01" purity="5.1042473316192627e-01" nType="-99"/>
          <Node pos="r" depth="2" NCoef="0" IVar="-1" Cut="0.0000000000000000e+00" cType="1" res="1.6186666907742620e-03" rms="4.1566070914268494e-01" purity="4.9115559458732605e-01" nType="-99"/>
        </Node>
        <Node pos="r" depth="1" NCoef="0" IVar="-1" Cut="0.0000000000000000e+00" cType="1" res="-3.4339383710175753e-03" rms="4.2071217298507690e-01" purity="5.1614004373550415e-01" nType="-99"/>
      </Node>
    </BinaryTree>
    <BinaryTree type="DecisionTree" boostWeight="1.0000000000000000e+00" itree="448">
      <Node pos="s" depth="0" NCoef="0" IVar="5" Cut="2.6076567173004150e+00" cType="1" res="1.1955633526667953e-03" rms="4.3317443132400513e-01" purity="5.0132560729980469e-01" nType="0">
        <Node pos="l" depth="1" NCoef="0" IVar="8" Cut="1.0687345266342163e+00" cType="1" res="2.2542939987033606e-03" rms="4.3475157022476196e-01" purity="5.0170010328292847e-01" nType="0">
          <Node pos="l" depth="2" NCoef="0" IVar="-1" Cut="0.0000000000000000e+00" cType="1" res="8.6010096129029989e-04" rms="4.3688958883285522e-01" purity="4.8226591944694519e-01" nType="-99"/>
          <Node pos="r" depth="2" NCoef="0" IVar="-1" Cut="0.0000000000000000e+00" cType="1" res="-1.3308174675330520e-03" rms="4.2016729712486267e-01" purity="6.3113421201705933e-01" nType="-99"/>
        </Node>
        <Node pos="r" depth="1" NCoef="0" IVar="0" Cut="8.9286810159683228e-01" cType="1" res="-8.6885793134570122e-03" rms="4.1803410649299622e-01" purity="4.9782949686050415e-01" nType="0">
          <Node pos="l" depth="2" NCoef="0" IVar="-1" Cut="0.0000000000000000e+00" cType="1" res="1.6921744681894779e-03" rms="4.1582858562469482e-01" purity="6.8603479862213135e-01" nType="-99"/>
          <Node pos="r" depth="2" NCoef="0" IVar="-1" Cut="0.0000000000000000e+00" cType="1" res="-5.2609769627451897e-03" rms="4.1930767893791199e-01" purity="3.6096790432929993e-01" nType="-99"/>
        </Node>
      </Node>
    </BinaryTree>
    <BinaryTree type="DecisionTree" boostWeight="1.0000000000000000e+00" itree="449">
      <Node pos="s" depth="0" NCoef="0" IVar="4" Cut="8.1809222698211670e-01" cType="1" res="8.6686771828681231e-04" rms="4.3177831172943115e-01" purity="5.0073099136352539e-01" nType="0">
        <Node pos="l" depth="1" NCoef="0" IVar="7" Cut="1.3944694995880127e+00" cType="1" res="-2.3365851957350969e-03" rms="4.2854940891265869e-01" purity="3.5435688495635986e-01" nType="0">
          <Node pos="l" depth="2" NCoef="0" IVar="-1" Cut="0.0000000000000000e+00" cType="1" res="3.6948195192962885e-03" rms="4.5559415221214294e-01" purity="3.4239390492439270e-01" nType="-99"/>
          <Node pos="r" depth="2" NCoef="0" IVar="-1" Cut="0.0000000000000000e+00" cType="1" res="-1.2384855654090643e-03" rms="4.2486286163330078e-01" purity="3.5590925812721252e-01" nType="-99"/>
        </Node>
        <Node pos="r" depth="1" NCoef="0" IVar="10" Cut="3.2666667938232422e+01" cType="1" res="4.5956736430525780e-03" rms="4.3547689914703369e-01" purity="6.7110997438430786e-01" nType="0">
          <Node pos="l" depth="2" NCoef="0" IVar="-1" Cut="0.0000000000000000e+00" cType="1" res="2.2852397523820400e-03" rms="4.3683469295501709e-01" purity="6.8371289968490601e-01" nType="-99"/>
          <Node pos="r" depth="2" NCoef="0" IVar="-1" Cut="0.0000000000000000e+00" cType="1" res="-3.5263656172901392e-03" rms="4.2924880981445312e-01" purity="6.1807072162628174e-01" nType="-99"/>
        </Node>
      </Node>
    </BinaryTree>
    <BinaryTree type="DecisionTree" boostWeight="1.0000000000000000e+00" itree="450">
      <Node pos="s" depth="0" NCoef="0" IVar="3" Cut="8.0952382087707520e-01" cType="1" res="-1.4910984318703413e-03" rms="4.3245121836662292e-01" purity="4.9921515583992004e-01" nType="0">
        <Node pos="l" depth="1" NCoef="0" IVar="6" Cut="-3.9047617912292480e+00" cType="1" res="-2.2947937250137329e-03" rms="4.3115207552909851e-01" purity="4.9902969598770142e-01" nType="0">
          <Node pos="l" depth="2" NCoef="0" IVar="-1" Cut="0.0000000000000000e+00" cType="1" res="-2.5972174480557442e-03" rms="4.2099711298942566e-01" purity="4.5801511406898499e-01" nType="-99"/>
          <Node pos="r" depth="2" NCoef="0" IVar="-1" Cut="0.0000000000000000e+00" cType="1" res="-2.8953602304682136e-04" rms="4.3281695246696472e-01" purity="5.0589466094970703e-01" nType="-99"/>
        </Node>
        <Node pos="r" depth="1" NCoef="0" IVar="-1" Cut="0.0000000000000000e+00" cType="1" res="3.9028138853609562e-03" rms="4.6026685833930969e-01" purity="5.0337576866149902e-01" nType="-99"/>
      </Node>
    </BinaryTree>
    <BinaryTree type="DecisionTree" boostWeight="1.0000000000000000e+00" itree="451">
      <Node pos="s" depth="0" NCoef="0" IVar="2" Cut="1.0005257129669189e+00" cType="1" res="4.5780671644024551e-04" rms="4.3266588449478149e-01" purity="5.0007742643356323e-01" nType="0">
        <Node pos="l" depth="1" NCoef="0" IVar="0" Cut="6.4201694726943970e-01" cType="1" res="-1.0033887811005116e-03" rms="4.3399369716644287e-01" purity="4.9862781167030334e-01" nType="0">
          <Node pos="l" depth="2" NCoef="0" IVar="-1" Cut="0.0000000000000000e+00" cType="1" res="-2.2465188521891832e-03" rms="4.3753871321678162e-01" purity="6.6545319557189941e-01" nType="-99"/>
          <Node pos="r" depth="2" NCoef="0" IVar="-1" Cut="0.0000000000000000e+00" cType="1" res="-3.4414832043694332e-05" rms="4.3356254696846008e-01" purity="4.7881820797920227e-01" nType="-99"/>
        </Node>
        <Node pos="r" depth="1" NCoef="0" IVar="1" Cut="5.4976911544799805e+00" cType="1" res="8.6972201243042946e-03" rms="4.2500704526901245e-01" purity="5.0825124979019165e-01" nType="0">
          <Node pos="l" depth="2" NCoef="0" IVar="-1" Cut="0.0000000000000000e+00" cType="1" res="1.2989074457436800e-04" rms="4.3587607145309448e-01" purity="5.0598639249801636e-01" nType="-99"/>
          <Node pos="r" depth="2" NCoef="0" IVar="-1" Cut="0.0000000000000000e+00" cType="1" res="3.9562289603054523e-03" rms="4.1749155521392822e-01" purity="5.0976562500000000e-01" nType="-99"/>
        </Node>
      </Node>
    </BinaryTree>
    <BinaryTree type="DecisionTree" boostWeight="1.0000000000000000e+00" itree="452">
      <Node pos="s" depth="0" NCoef="0" IVar="9" Cut="3.3333334326744080e-01" cType="1" res="-9.8756747320294380e-04" rms="4.3297058343887329e-01" purity="4.9935591220855713e-01" nType="0">
        <Node pos="l" depth="1" NCoef="0" IVar="7" Cut="2.8278248310089111e+00" cType="1" res="-2.2385288029909134e-03" rms="4.3157052993774414e-01" purity="5.0350081920623779e-01" nType="0">
          <Node pos="l" depth="2" NCoef="0" IVar="-1" Cut="0.0000000000000000e+00" cType="1" res="-1.2313914485275745e-03" rms="4.4171345233917236e-01" purity="4.3435856699943542e-01" nType="-99"/>
          <Node pos="r" depth="2" NCoef="0" IVar="-1" Cut="0.0000000000000000e+00" cType="1" res="-5.4341224313247949e-05" rms="4.2346897721290588e-01" purity="5.5749964714050293e-01" nType="-99"/>
        </Node>
        <Node pos="r" depth="1" NCoef="0" IVar="2" Cut="1.6788126528263092e-01" cType="1" res="3.8851757999509573e-03" rms="4.3834739923477173e-01" purity="4.8321077227592468e-01" nType="0">
          <Node pos="l" depth="2" NCoef="0" IVar="-1" Cut="0.0000000000000000e+00" cType="1" res="-5.2918115397915244e-04" rms="4.3873381614685059e-01" purity="4.6957102417945862e-01" nType="-99"/>
          <Node pos="r" depth="2" NCoef="0" IVar="-1" Cut="0.0000000000000000e+00" cType="1" res="3.4270633477717638e-03" rms="4.3760040402412415e-01" purity="5.0408607721328735e-01" nType="-99"/>
        </Node>
      </Node>
    </BinaryTree>
    <BinaryTree type="DecisionTree" boostWeight="1.0000000000000000e+00" itree="453">
      <Node pos="s" depth="0" NCoef="0" IVar="3" Cut="3.3333334326744080e-01" cType="1" res="9.7590193036012352e-05" rms="4.3258124589920044e-01" purity="5.0044602155685425e-01" nType="0">
        <Node pos="l" depth="1" NCoef="0" IVar="1" Cut="4.8906760215759277e+00" cType="1" res="-1.5405252343043685e-03" rms="4.3028765916824341e-01" purity="4.9705529212951660e-01" nType="0">
          <Node pos="l" depth="2" NCoef="0" IVar="-1" Cut="0.0000000000000000e+00" cType="1" res="-1.0108440183103085e-03" rms="4.3509331345558167e-01" purity="4.9656170606613159e-01" nType="-99"/>
          <Node pos="r" depth="2" NCoef="0" IVar="-1" Cut="0.0000000000000000e+00" cType="1" res="1.2342999689280987e-03" rms="4.1764995455741882e-01" purity="4.9832117557525635e-01" nType="-99"/>
        </Node>
        <Node pos="r" depth="1" NCoef="0" IVar="4" Cut="7.8117287158966064e-01" cType="1" res="6.4790500327944756e-03" rms="4.4134449958801270e-01" purity="5.1365506649017334e-01" nType="0">
          <Node pos="l" depth="2" NCoef="0" IVar="-1" Cut="0.0000000000000000e+00" cType="1" res="-7.2049058508127928e-04" rms="4.3939986824989319e-01" purity="3.4558400511741638e-01" nType="-99"/>
          <Node pos="r" depth="2" NCoef="0" IVar="-1" Cut="0.0000000000000000e+00" cType="1" res="3.5573786590248346e-03" rms="4.4284456968307495e-01" purity="6.5704101324081421e-01" nType="-99"/>
        </Node>
      </Node>
    </BinaryTree>
    <BinaryTree type="DecisionTree" boostWeight="1.0000000000000000e+00" itree="454">
      <Node pos="s" depth="0" NCoef="0" IVar="5" Cut="3.4004492759704590e+00" cType="1" res="-1.9892924465239048e-03" rms="4.3276381492614746e-01" purity="4.9857157468795776e-01" nType="0">
        <Node pos="l" depth="1" NCoef="0" IVar="3" Cut="-4.7619048506021500e-02" cType="1" res="-2.5961787905544043e-03" rms="4.3330803513526917e-01" purity="4.9621602892875671e-01" nType="0">
          <Node pos="l" depth="2" NCoef="0" IVar="-1" Cut="0.0000000000000000e+00" cType="1" res="-1.4611022779718041e-03" rms="4.3397858738899231e-01" purity="4.9448814988136292e-01" nType="-99"/>
          <Node pos="r" depth="2" NCoef="0" IVar="-1" Cut="0.0000000000000000e+00" cType="1" res="-3.0149998565320857e-05" rms="4.3272775411605835e-01" purity="4.9766904115676880e-01" nType="-99"/>
        </Node>
        <Node pos="r" depth="1" NCoef="0" IVar="-1" Cut="0.0000000000000000e+00" cType="1" res="3.2806051895022392e-03" rms="4.1979098320007324e-01" purity="5.5282741785049438e-01" nType="-99"/>
      </Node>
    </BinaryTree>
    <BinaryTree type="DecisionTree" boostWeight="1.0000000000000000e+00" itree="455">
      <Node pos="s" depth="0" NCoef="0" IVar="2" Cut="1.9808368682861328e+00" cType="1" res="-9.3427079264074564e-04" rms="4.3274441361427307e-01" purity="4.9875023961067200e-01" nType="0">
        <Node pos="l" depth="1" NCoef="0" IVar="7" Cut="5.0380940437316895e+00" cType="1" res="-2.4326438142452389e-04" rms="4.3354776501655579e-01" purity="4.9909326434135437e-01" nType="0">
          <Node pos="l" depth="2" NCoef="0" IVar="-1" Cut="0.0000000000000000e+00" cType="1" res="-4.7317604185082018e-04" rms="4.3823868036270142e-01" purity="4.6231868863105774e-01" nType="-99"/>
          <Node pos="r" depth="2" NCoef="0" IVar="-1" Cut="0.0000000000000000e+00" cType="1" res="1.4206289779394865e-03" rms="4.1719344258308411e-01" purity="6.2387365102767944e-01" nType="-99"/>
        </Node>
        <Node pos="r" depth="1" NCoef="0" IVar="-1" Cut="0.0000000000000000e+00" cType="1" res="-4.3238634243607521e-03" rms="4.1512936353683472e-01" purity="4.9149936437606812e-01" nType="-99"/>
      </Node>
    </BinaryTree>
    <BinaryTree type="DecisionTree" boostWeight="1.0000000000000000e+00" itree="456">
      <Node pos="s" depth="0" NCoef="0" IVar="5" Cut="1.5621974468231201e+00" cType="1" res="6.2112224986776710e-04" rms="4.3317705392837524e-01" purity="4.9993795156478882e-01" nType="0">
        <Node pos="l" depth="1" NCoef="0" IVar="4" Cut="4.4247850775718689e-01" cType="1" res="2.3324906360358000e-03" rms="4.3861466646194458e-01" purity="5.0829553604125977e-01" nType="0">
          <Node pos="l" depth="2" NCoef="0" IVar="-1" Cut="0.0000000000000000e+00" cType="1" res="7.1011357940733433e-03" rms="3.4783673286437988e-01" purity="1.4945076406002045e-01" nType="-99"/>
          <Node pos="r" depth="2" NCoef="0" IVar="-1" Cut="0.0000000000000000e+00" cType="1" res="1.0403552005300298e-04" rms="4.4994309544563293e-01" purity="5.5903792381286621e-01" nType="-99"/>
        </Node>
        <Node pos="r" depth="1" NCoef="0" IVar="4" Cut="7.8031337261199951e-01" cType="1" res="-2.4454323574900627e-03" rms="4.2324149608612061e-01" purity="4.8496204614639282e-01" nType="0">
          <Node pos="l" depth="2" NCoef="0" IVar="-1" Cut="0.0000000000000000e+00" cType="1" res="1.1376178590580821e-03" rms="4.1415375471115112e-01" purity="3.3621233701705933e-01" nType="-99"/>
          <Node pos="r" depth="2" NCoef="0" IVar="-1" Cut="0.0000000000000000e+00" cType="1" res="-2.4607609957456589e-03" rms="4.3260607123374939e-01" purity="6.4340668916702271e-01" nType="-99"/>
        </Node>
      </Node>
    </BinaryTree>
    <BinaryTree type="DecisionTree" boostWeight="1.0000000000000000e+00" itree="457">
      <Node pos="s" depth="0" NCoef="0" IVar="3" Cut="-5.2380955219268799e-01" cType="1" res="-6.2591303139925003e-04" rms="4.3227672576904297e-01" purity="4.9946096539497375e-01" nType="0">
        <Node pos="l" depth="1" NCoef="0" IVar="3" Cut="-7.5057500600814819e-01" cType="1" res="-7.8605469316244125e-03" rms="4.4682189822196960e-01" purity="4.9939939379692078e-01" nType="0">
          <Node pos="l" depth="2" NCoef="0" IVar="-1" Cut="0.0000000000000000e+00" cType="1" res="8.5308926645666361e-04" rms="4.5993694663047791e-01" purity="4.9692836403846741e-01" nType="-99"/>
          <Node pos="r" depth="2" NCoef="0" IVar="-1" Cut="0.0000000000000000e+00" cType="1" res="-4.6030953526496887e-03" rms="4.3476125597953796e-01" purity="5.0156414508819580e-01" nType="-99"/>
        </Node>
        <Node pos="r" depth="1" NCoef="0" IVar="5" Cut="9.7233957052230835e-01" cType="1" res="3.0839856481179595e-04" rms="4.3035361170768738e-01" purity="4.9946895241737366e-01" nType="0">
          <Node pos="l" depth="2" NCoef="0" IVar="-1" Cut="0.0000000000000000e+00" cType="1" res="1.1729170801118016e-03" rms="4.4358313083648682e-01" purity="5.1400566101074219e-01" nType="-99"/>
          <Node pos="r" depth="2" NCoef="0" IVar="-1" Cut="0.0000000000000000e+00" cType="1" res="-5.5071915267035365e-04" rms="4.2308950424194336e-01" purity="4.9169370532035828e-01" nType="-99"/>
        </Node>
      </Node>
    </BinaryTree>
    <BinaryTree type="DecisionTree" boostWeight="1.0000000000000000e+00" itree="458">
      <Node pos="s" depth="0" NCoef="0" IVar="8" Cut="6.2378865480422974e-01" cType="1" res="1.3980852963868529e-04" rms="4.3281340599060059e-01" purity="4.9890819191932678e-01" nType="0">
        <Node pos="l" depth="1" NCoef="0" IVar="7" Cut="2.8278248310089111e+00" cType="1" res="1.5998134622350335e-03" rms="4.3514358997344971e-01" purity="4.7606375813484192e-01" nType="0">
          <Node pos="l" depth="2" NCoef="0" IVar="-1" Cut="0.0000000000000000e+00" cType="1" res="-6.2796275597065687e-04" rms="4.4334986805915833e-01" purity="4.2078706622123718e-01" nType="-99"/>
          <Node pos="r" depth="2" NCoef="0" IVar="-1" Cut="0.0000000000000000e+00" cType="1" res="1.8411778146401048e-03" rms="4.2444783449172974e-01" purity="5.4619145393371582e-01" nType="-99"/>
        </Node>
        <Node pos="r" depth="1" NCoef="0" IVar="4" Cut="7.3664844036102295e-01" cType="1" res="-4.4799936003983021e-03" rms="4.2532303929328918e-01" purity="5.7119327783584595e-01" nType="0">
          <Node pos="l" depth="2" NCoef="0" IVar="-1" Cut="0.0000000000000000e+00" cType="1" res="-4.7364942729473114e-03" rms="4.1092377901077271e-01" purity="3.2120296359062195e-01" nType="-99"/>
          <Node pos="r" depth="2" NCoef="0" IVar="-1" Cut="0.0000000000000000e+00" cType="1" res="2.8541262145154178e-04" rms="4.3164852261543274e-01" purity="6.8576866388320923e-01" nType="-99"/>
        </Node>
      </Node>
    </BinaryTree>
    <BinaryTree type="DecisionTree" boostWeight="1.0000000000000000e+00" itree="459">
      <Node pos="s" depth="0" NCoef="0" IVar="1" Cut="9.2813520431518555e+00" cType="1" res="-1.0357901919633150e-03" rms="4.3250769376754761e-01" purity="4.9972617626190186e-01" nType="0">
        <Node pos="l" depth="1" NCoef="0" IVar="0" Cut="1.2086673974990845e+00" cType="1" res="-1.7962740967050195e-03" rms="4.3380784988403320e-01" purity="4.9970024824142456e-01" nType="0">
          <Node pos="l" depth="2" NCoef="0" IVar="-1" Cut="0.0000000000000000e+00" cType="1" res="-8.5157289868220687e-04" rms="4.3997812271118164e-01" purity="5.6370550394058228e-01" nType="-99"/>
          <Node pos="r" depth="2" NCoef="0" IVar="-1" Cut="0.0000000000000000e+00" cType="1" res="8.1320444587618113e-04" rms="4.1399997472763062e-01" purity="3.0068528652191162e-01" nType="-99"/>
        </Node>
        <Node pos="r" depth="1" NCoef="0" IVar="4" Cut="7.4231010675430298e-01" cType="1" res="7.5043262913823128e-03" rms="4.1753432154655457e-01" purity="5.0001728534698486e-01" nType="0">
          <Node pos="l" depth="2" NCoef="0" IVar="-1" Cut="0.0000000000000000e+00" cType="1" res="5.7842643000185490e-03" rms="4.1007491946220398e-01" purity="3.4153422713279724e-01" nType="-99"/>
          <Node pos="r" depth="2" NCoef="0" IVar="-1" Cut="0.0000000000000000e+00" cType="1" res="-6.3775607850402594e-04" rms="4.2333126068115234e-01" purity="6.3070183992385864e-01" nType="-99"/>
        </Node>
      </Node>
    </BinaryTree>
    <BinaryTree type="DecisionTree" boostWeight="1.0000000000000000e+00" itree="460">
      <Node pos="s" depth="0" NCoef="0" IVar="7" Cut="2.7690470218658447e+00" cType="1" res="1.6322040755767375e-04" rms="4.3200662732124329e-01" purity="5.0018942356109619e-01" nType="0">
        <Node pos="l" depth="1" NCoef="0" IVar="8" Cut="5.7471716403961182e-01" cType="1" res="-2.6079085655510426e-03" rms="4.4373393058776855e-01" purity="4.3361887335777283e-01" nType="0">
          <Node pos="l" depth="2" NCoef="0" IVar="-1" Cut="0.0000000000000000e+00" cType="1" res="-1.5077519929036498e-03" rms="4.4354212284088135e-01" purity="4.1782674193382263e-01" nType="-99"/>
          <Node pos="r" depth="2" NCoef="0" IVar="-1" Cut="0.0000000000000000e+00" cType="1" res="4.8892428167164326e-03" rms="4.4435855746269226e-01" purity="5.3735262155532837e-01" nType="-99"/>
        </Node>
        <Node pos="r" depth="1" NCoef="0" IVar="4" Cut="5.6114977598190308e-01" cType="1" res="2.5921042542904615e-03" rms="4.2144441604614258e-01" purity="5.5853831768035889e-01" nType="0">
          <Node pos="l" depth="2" NCoef="0" IVar="-1" Cut="0.0000000000000000e+00" cType="1" res="-4.3443390168249607e-03" rms="3.5021999478340149e-01" purity="1.6808049380779266e-01" nType="-99"/>
          <Node pos="r" depth="2" NCoef="0" IVar="-1" Cut="0.0000000000000000e+00" cType="1" res="1.4399728970602155e-03" rms="4.3524470925331116e-01" purity="6.4288461208343506e-01" nType="-99"/>
        </Node>
      </Node>
    </BinaryTree>
    <BinaryTree type="DecisionTree" boostWeight="1.0000000000000000e+00" itree="461">
      <Node pos="s" depth="0" NCoef="0" IVar="8" Cut="1.2770662307739258e+00" cType="1" res="-4.6817792463116348e-04" rms="4.3241336941719055e-01" purity="4.9853456020355225e-01" nType="0">
        <Node pos="l" depth="1" NCoef="0" IVar="3" Cut="1.4285714924335480e-01" cType="1" res="4.0456568240188062e-04" rms="4.3407800793647766e-01" purity="4.8182296752929688e-01" nType="0">
          <Node pos="l" depth="2" NCoef="0" IVar="-1" Cut="0.0000000000000000e+00" cType="1" res="7.1423064218834043e-04" rms="4.3135884404182434e-01" purity="4.8205310106277466e-01" nType="-99"/>
          <Node pos="r" depth="2" NCoef="0" IVar="-1" Cut="0.0000000000000000e+00" cType="1" res="-9.7293430007994175e-04" rms="4.3893224000930786e-01" purity="4.8140582442283630e-01" nType="-99"/>
        </Node>
        <Node pos="r" depth="1" NCoef="0" IVar="10" Cut="1.9952381134033203e+01" cType="1" res="-8.2628028467297554e-03" rms="4.1717082262039185e-01" purity="6.4778876304626465e-01" nType="0">
          <Node pos="l" depth="2" NCoef="0" IVar="-1" Cut="0.0000000000000000e+00" cType="1" res="2.4002380669116974e-03" rms="4.1808536648750305e-01" purity="6.9270557165145874e-01" nType="-99"/>
          <Node pos="r" depth="2" NCoef="0" IVar="-1" Cut="0.0000000000000000e+00" cType="1" res="-5.9795794077217579e-03" rms="4.1601601243019104e-01" purity="6.1351448297500610e-01" nType="-99"/>
        </Node>
      </Node>
    </BinaryTree>
    <BinaryTree type="DecisionTree" boostWeight="1.0000000000000000e+00" itree="462">
      <Node pos="s" depth="0" NCoef="0" IVar="3" Cut="-1.4285714924335480e-01" cType="1" res="1.0154031915590167e-03" rms="4.3264278769493103e-01" purity="5.0064110755920410e-01" nType="0">
        <Node pos="l" depth="1" NCoef="0" IVar="0" Cut="1.0133831501007080e+00" cType="1" res="4.7230869531631470e-03" rms="4.3509405851364136e-01" purity="5.0954794883728027e-01" nType="0">
          <Node pos="l" depth="2" NCoef="0" IVar="-1" Cut="0.0000000000000000e+00" cType="1" res="1.1837774218292907e-04" rms="4.3672099709510803e-01" purity="6.2045729160308838e-01" nType="-99"/>
          <Node pos="r" depth="2" NCoef="0" IVar="-1" Cut="0.0000000000000000e+00" cType="1" res="2.6316712610423565e-03" rms="4.3297502398490906e-01" purity="3.6977773904800415e-01" nType="-99"/>
        </Node>
        <Node pos="r" depth="1" NCoef="0" IVar="6" Cut="-1.6666666269302368e+00" cType="1" res="-1.0906264651566744e-03" rms="4.3123003840446472e-01" purity="4.9558186531066895e-01" nType="0">
          <Node pos="l" depth="2" NCoef="0" IVar="-1" Cut="0.0000000000000000e+00" cType="1" res="-1.5725957928225398e-03" rms="4.2751297354698181e-01" purity="4.8227727413177490e-01" nType="-99"/>
          <Node pos="r" depth="2" NCoef="0" IVar="-1" Cut="0.0000000000000000e+00" cType="1" res="2.6603275910019875e-04" rms="4.3283790349960327e-01" purity="5.0143277645111084e-01" nType="-99"/>
        </Node>
      </Node>
    </BinaryTree>
    <BinaryTree type="DecisionTree" boostWeight="1.0000000000000000e+00" itree="463">
      <Node pos="s" depth="0" NCoef="0" IVar="3" Cut="7.1428573131561279e-01" cType="1" res="1.2006195029243827e-03" rms="4.3158948421478271e-01" purity="5.0045490264892578e-01" nType="0">
        <Node pos="l" depth="1" NCoef="0" IVar="3" Cut="3.0610051751136780e-01" cType="1" res="6.0204777400940657e-04" rms="4.3020582199096680e-01" purity="5.0007724761962891e-01" nType="0">
          <Node pos="l" depth="2" NCoef="0" IVar="-1" Cut="0.0000000000000000e+00" cType="1" res="5.1999796414747834e-04" rms="4.2925223708152771e-01" purity="4.9970820546150208e-01" nType="-99"/>
          <Node pos="r" depth="2" NCoef="0" IVar="-1" Cut="0.0000000000000000e+00" cType="1" res="-1.5142901102080941e-03" rms="4.3462559580802917e-01" purity="5.0182074308395386e-01" nType="-99"/>
        </Node>
        <Node pos="r" depth="1" NCoef="0" IVar="-1" Cut="0.0000000000000000e+00" cType="1" res="2.5462466292083263e-03" rms="4.5285144448280334e-01" purity="5.0644022226333618e-01" nType="-99"/>
      </Node>
    </BinaryTree>
    <BinaryTree type="DecisionTree" boostWeight="1.0000000000000000e+00" itree="464">
      <Node pos="s" depth="0" NCoef="0" IVar="1" Cut="4.8906760215759277e+00" cType="1" res="1.9655975047498941e-03" rms="4.3341228365898132e-01" purity="5.0246232748031616e-01" nType="0">
        <Node pos="l" depth="1" NCoef="0" IVar="1" Cut="1.9635515213012695e+00" cType="1" res="3.7335947854444385e-04" rms="4.3863058090209961e-01" purity="5.0266659259796143e-01" nType="0">
          <Node pos="l" depth="2" NCoef="0" IVar="-1" Cut="0.0000000000000000e+00" cType="1" res="1.7920064274221659e-03" rms="4.5581305027008057e-01" purity="5.1742553710937500e-01" nType="-99"/>
          <Node pos="r" depth="2" NCoef="0" IVar="-1" Cut="0.0000000000000000e+00" cType="1" res="-8.2733243471011519e-04" rms="4.2991682887077332e-01" purity="4.9543353915214539e-01" nType="-99"/>
        </Node>
        <Node pos="r" depth="1" NCoef="0" IVar="4" Cut="7.3381859064102173e-01" cType="1" res="6.4559737220406532e-03" rms="4.1831266880035400e-01" purity="5.0188624858856201e-01" nType="0">
          <Node pos="l" depth="2" NCoef="0" IVar="-1" Cut="0.0000000000000000e+00" cType="1" res="5.0390027463436127e-03" rms="4.1052597761154175e-01" purity="3.2720452547073364e-01" nType="-99"/>
          <Node pos="r" depth="2" NCoef="0" IVar="-1" Cut="0.0000000000000000e+00" cType="1" res="-5.3565145935863256e-04" rms="4.2434316873550415e-01" purity="6.4375138282775879e-01" nType="-99"/>
        </Node>
      </Node>
    </BinaryTree>
    <BinaryTree type="DecisionTree" boostWeight="1.0000000000000000e+00" itree="465">
      <Node pos="s" depth="0" NCoef="0" IVar="5" Cut="3.4059128761291504e+00" cType="1" res="-9.8788121249526739e-04" rms="4.3221759796142578e-01" purity="4.9829205870628357e-01" nType="0">
        <Node pos="l" depth="1" NCoef="0" IVar="5" Cut="-1.0594717413187027e-01" cType="1" res="-1.6676090890541673e-03" rms="4.3285995721817017e-01" purity="4.9594339728355408e-01" nType="0">
          <Node pos="l" depth="2" NCoef="0" IVar="-1" Cut="0.0000000000000000e+00" cType="1" res="3.7937555462121964e-03" rms="4.5822441577911377e-01" purity="5.4692351818084717e-01" nType="-99"/>
          <Node pos="r" depth="2" NCoef="0" IVar="-1" Cut="0.0000000000000000e+00" cType="1" res="-6.2567845452576876e-04" rms="4.3182170391082764e-01" purity="4.9394735693931580e-01" nType="-99"/>
        </Node>
        <Node pos="r" depth="1" NCoef="0" IVar="-1" Cut="0.0000000000000000e+00" cType="1" res="4.1158841922879219e-03" rms="4.1639414429664612e-01" purity="5.5390369892120361e-01" nType="-99"/>
      </Node>
    </BinaryTree>
    <BinaryTree type="DecisionTree" boostWeight="1.0000000000000000e+00" itree="466">
      <Node pos="s" depth="0" NCoef="0" IVar="10" Cut="6.0666667938232422e+01" cType="1" res="-1.5560331521555781e-03" rms="4.3268764019012451e-01" purity="4.9870875477790833e-01" nType="0">
        <Node pos="l" depth="1" NCoef="0" IVar="6" Cut="5.8571429252624512e+00" cType="1" res="-9.3464663950726390e-04" rms="4.3314763903617859e-01" purity="5.0502324104309082e-01" nType="0">
          <Node pos="l" depth="2" NCoef="0" IVar="-1" Cut="0.0000000000000000e+00" cType="1" res="-4.5849304297007620e-04" rms="4.3407836556434631e-01" purity="5.0624072551727295e-01" nType="-99"/>
          <Node pos="r" depth="2" NCoef="0" IVar="-1" Cut="0.0000000000000000e+00" cType="1" res="2.7825946453958750e-03" rms="4.2016899585723877e-01" purity="4.8851391673088074e-01" nType="-99"/>
        </Node>
        <Node pos="r" depth="1" NCoef="0" IVar="-1" Cut="0.0000000000000000e+00" cType="1" res="-4.9127507954835892e-03" rms="4.1979786753654480e-01" purity="3.2907870411872864e-01" nType="-99"/>
      </Node>
    </BinaryTree>
    <BinaryTree type="DecisionTree" boostWeight="1.0000000000000000e+00" itree="467">
      <Node pos="s" depth="0" NCoef="0" IVar="10" Cut="5.2285713195800781e+01" cType="1" res="1.4052853221073747e-03" rms="4.3255880475044250e-01" purity="5.0098699331283569e-01" nType="0">
        <Node pos="l" depth="1" NCoef="0" IVar="5" Cut="2.8313939571380615e+00" cType="1" res="6.2169966986402869e-04" rms="4.3279203772544861e-01" purity="5.0732535123825073e-01" nType="0">
          <Node pos="l" depth="2" NCoef="0" IVar="-1" Cut="0.0000000000000000e+00" cType="1" res="3.9874835056252778e-04" rms="4.3376770615577698e-01" purity="5.0629699230194092e-01" nType="-99"/>
          <Node pos="r" depth="2" NCoef="0" IVar="-1" Cut="0.0000000000000000e+00" cType="1" res="-3.8492812309414148e-03" rms="4.1674226522445679e-01" purity="5.2364665269851685e-01" nType="-99"/>
        </Node>
        <Node pos="r" depth="1" NCoef="0" IVar="-1" Cut="0.0000000000000000e+00" cType="1" res="3.6908651236444712e-03" rms="4.2863565683364868e-01" purity="4.0008124709129333e-01" nType="-99"/>
      </Node>
    </BinaryTree>
    <BinaryTree type="DecisionTree" boostWeight="1.0000000000000000e+00" itree="468">
      <Node pos="s" depth="0" NCoef="0" IVar="8" Cut="-7.5469535589218140e-01" cType="1" res="-2.6066397549584508e-04" rms="4.3261340260505676e-01" purity="5.0014698505401611e-01" nType="0">
        <Node pos="l" depth="1" NCoef="0" IVar="10" Cut="3.8285713195800781e+01" cType="1" res="-6.7682634107768536e-03" rms="4.2546054720878601e-01" purity="5.8234751224517822e-01" nType="0">
          <Node pos="l" depth="2" NCoef="0" IVar="-1" Cut="0.0000000000000000e+00" cType="1" res="-4.5165407937020063e-04" rms="4.2521178722381592e-01" purity="6.0440438985824585e-01" nType="-99"/>
          <Node pos="r" depth="2" NCoef="0" IVar="-1" Cut="0.0000000000000000e+00" cType="1" res="-7.6990230008959770e-03" rms="4.2582389712333679e-01" purity="4.8618671298027039e-01" nType="-99"/>
        </Node>
        <Node pos="r" depth="1" NCoef="0" IVar="10" Cut="1.8761905670166016e+01" cType="1" res="1.4028105651959777e-03" rms="4.3440729379653931e-01" purity="4.7913482785224915e-01" nType="0">
          <Node pos="l" depth="2" NCoef="0" IVar="-1" Cut="0.0000000000000000e+00" cType="1" res="-6.7115621641278267e-04" rms="4.4571223855018616e-01" purity="4.8426827788352966e-01" nType="-99"/>
          <Node pos="r" depth="2" NCoef="0" IVar="-1" Cut="0.0000000000000000e+00" cType="1" res="2.1344854030758142e-03" rms="4.1658350825309753e-01" purity="4.7134196758270264e-01" nType="-99"/>
        </Node>
      </Node>
    </BinaryTree>
    <BinaryTree type="DecisionTree" boostWeight="1.0000000000000000e+00" itree="469">
      <Node pos="s" depth="0" NCoef="0" IVar="6" Cut="-5.5714287757873535e+00" cType="1" res="-6.4362760167568922e-04" rms="4.3271553516387939e-01" purity="4.9831312894821167e-01" nType="0">
        <Node pos="l" depth="1" NCoef="0" IVar="-1" Cut="0.0000000000000000e+00" cType="1" res="2.4458670523017645e-03" rms="4.1734471917152405e-01" purity="4.5776948332786560e-01" nType="-99"/>
        <Node pos="r" depth="1" NCoef="0" IVar="10" Cut="3.5523811340332031e+01" cType="1" res="-1.2614671140909195e-03" rms="4.3369579315185547e-01" purity="5.0096780061721802e-01" nType="0">
          <Node pos="l" depth="2" NCoef="0" IVar="-1" Cut="0.0000000000000000e+00" cType="1" res="-5.1897906814701855e-05" rms="4.3562030792236328e-01" purity="5.0670880079269409e-01" nType="-99"/>
          <Node pos="r" depth="2" NCoef="0" IVar="-1" Cut="0.0000000000000000e+00" cType="1" res="-1.9547797273844481e-03" rms="4.2272758483886719e-01" purity="4.6887639164924622e-01" nType="-99"/>
        </Node>
      </Node>
    </BinaryTree>
    <BinaryTree type="DecisionTree" boostWeight="1.0000000000000000e+00" itree="470">
      <Node pos="s" depth="0" NCoef="0" IVar="10" Cut="6.0666667938232422e+01" cType="1" res="-1.2063020403729752e-04" rms="4.3301284313201904e-01" purity="4.9867126345634460e-01" nType="0">
        <Node pos="l" depth="1" NCoef="0" IVar="8" Cut="-7.1374791860580444e-01" cType="1" res="4.1797381709329784e-04" rms="4.3346023559570312e-01" purity="5.0516450405120850e-01" nType="0">
          <Node pos="l" depth="2" NCoef="0" IVar="-1" Cut="0.0000000000000000e+00" cType="1" res="-1.2776757357642055e-03" rms="4.2585521936416626e-01" purity="5.8495420217514038e-01" nType="-99"/>
          <Node pos="r" depth="2" NCoef="0" IVar="-1" Cut="0.0000000000000000e+00" cType="1" res="4.7198653919622302e-04" rms="4.3549710512161255e-01" purity="4.8344439268112183e-01" nType="-99"/>
        </Node>
        <Node pos="r" depth="1" NCoef="0" IVar="-1" Cut="0.0000000000000000e+00" cType="1" res="-3.8401889614760876e-03" rms="4.2094910144805908e-01" purity="3.2954472303390503e-01" nType="-99"/>
      </Node>
    </BinaryTree>
    <BinaryTree type="DecisionTree" boostWeight="1.0000000000000000e+00" itree="471">
      <Node pos="s" depth="0" NCoef="0" IVar="2" Cut="-1.9434324502944946e+00" cType="1" res="-3.3927231561392546e-04" rms="4.3230327963829041e-01" purity="5.0007343292236328e-01" nType="0">
        <Node pos="l" depth="1" NCoef="0" IVar="-1" Cut="0.0000000000000000e+00" cType="1" res="-3.0799480155110359e-03" rms="4.1663357615470886e-01" purity="4.9671623110771179e-01" nType="-99"/>
        <Node pos="r" depth="1" NCoef="0" IVar="2" Cut="-1.4234122037887573e+00" cType="1" res="1.4904624549672008e-04" rms="4.3301266431808472e-01" purity="5.0022971630096436e-01" nType="0">
          <Node pos="l" depth="2" NCoef="0" IVar="-1" Cut="0.0000000000000000e+00" cType="1" res="2.9348724056035280e-03" rms="4.1663116216659546e-01" purity="5.1187360286712646e-01" nType="-99"/>
          <Node pos="r" depth="2" NCoef="0" IVar="-1" Cut="0.0000000000000000e+00" cType="1" res="-8.1201163993682712e-05" rms="4.3370446562767029e-01" purity="4.9972388148307800e-01" nType="-99"/>
        </Node>
      </Node>
    </BinaryTree>
    <BinaryTree type="DecisionTree" boostWeight="1.0000000000000000e+00" itree="472">
      <Node pos="s" depth="0" NCoef="0" IVar="10" Cut="4.1523811340332031e+01" cType="1" res="-7.3423550929874182e-05" rms="4.3283936381340027e-01" purity="4.9882975220680237e-01" nType="0">
        <Node pos="l" depth="1" NCoef="0" IVar="10" Cut="3.8571429252624512e+00" cType="1" res="-1.2282438110560179e-03" rms="4.3393737077713013e-01" purity="5.0511968135833740e-01" nType="0">
          <Node pos="l" depth="2" NCoef="0" IVar="-1" Cut="0.0000000000000000e+00" cType="1" res="-3.6191209219396114e-03" rms="4.7041895985603333e-01" purity="4.4208487868309021e-01" nType="-99"/>
          <Node pos="r" depth="2" NCoef="0" IVar="-1" Cut="0.0000000000000000e+00" cType="1" res="1.0953957826131955e-04" rms="4.2959281802177429e-01" purity="5.1223701238632202e-01" nType="-99"/>
        </Node>
        <Node pos="r" depth="1" NCoef="0" IVar="0" Cut="1.0167694091796875e+00" cType="1" res="8.6050322279334068e-03" rms="4.2439648509025574e-01" purity="4.5156139135360718e-01" nType="0">
          <Node pos="l" depth="2" NCoef="0" IVar="-1" Cut="0.0000000000000000e+00" cType="1" res="6.4014890231192112e-03" rms="4.5059752464294434e-01" purity="5.8326852321624756e-01" nType="-99"/>
          <Node pos="r" depth="2" NCoef="0" IVar="-1" Cut="0.0000000000000000e+00" cType="1" res="-8.9905988425016403e-03" rms="3.6375147104263306e-01" purity="1.8765188753604889e-01" nType="-99"/>
        </Node>
      </Node>
    </BinaryTree>
    <BinaryTree type="DecisionTree" boostWeight="1.0000000000000000e+00" itree="473">
      <Node pos="s" depth="0" NCoef="0" IVar="0" Cut="1.1412489414215088e+00" cType="1" res="9.1207615332677960e-04" rms="4.3220838904380798e-01" purity="5.0141191482543945e-01" nType="0">
        <Node pos="l" depth="1" NCoef="0" IVar="10" Cut="2.7142856597900391e+01" cType="1" res="-7.7694567153230309e-04" rms="4.3844324350357056e-01" purity="5.8016598224639893e-01" nType="0">
          <Node pos="l" depth="2" NCoef="0" IVar="-1" Cut="0.0000000000000000e+00" cType="1" res="-1.0004971409216523e-03" rms="4.4035324454307556e-01" purity="5.8986818790435791e-01" nType="-99"/>
          <Node pos="r" depth="2" NCoef="0" IVar="-1" Cut="0.0000000000000000e+00" cType="1" res="1.6361252637580037e-03" rms="4.3399861454963684e-01" purity="5.5816537141799927e-01" nType="-99"/>
        </Node>
        <Node pos="r" depth="1" NCoef="0" IVar="10" Cut="2.4714284896850586e+01" cType="1" res="5.0399224273860455e-03" rms="4.1654950380325317e-01" purity="3.0894243717193604e-01" nType="0">
          <Node pos="l" depth="2" NCoef="0" IVar="-1" Cut="0.0000000000000000e+00" cType="1" res="3.2952148467302322e-03" rms="4.3289294838905334e-01" purity="3.4537780284881592e-01" nType="-99"/>
          <Node pos="r" depth="2" NCoef="0" IVar="-1" Cut="0.0000000000000000e+00" cType="1" res="-1.1317329481244087e-02" rms="3.3122819662094116e-01" purity="1.4521642029285431e-01" nType="-99"/>
        </Node>
      </Node>
    </BinaryTree>
    <BinaryTree type="DecisionTree" boostWeight="1.0000000000000000e+00" itree="474">
      <Node pos="s" depth="0" NCoef="0" IVar="9" Cut="-2.3809523880481720e-01" cType="1" res="4.6281021786853671e-04" rms="4.3260368704795837e-01" purity="4.9941778182983398e-01" nType="0">
        <Node pos="l" depth="1" NCoef="0" IVar="10" Cut="9.5714282989501953e+00" cType="1" res="4.9346294254064560e-03" rms="4.3428120017051697e-01" purity="4.8339211940765381e-01" nType="0">
          <Node pos="l" depth="2" NCoef="0" IVar="-1" Cut="0.0000000000000000e+00" cType="1" res="-3.7912270636297762e-04" rms="4.5919147133827209e-01" purity="4.9992665648460388e-01" nType="-99"/>
          <Node pos="r" depth="2" NCoef="0" IVar="-1" Cut="0.0000000000000000e+00" cType="1" res="2.8115063905715942e-03" rms="4.1452807188034058e-01" purity="4.7097760438919067e-01" nType="-99"/>
        </Node>
        <Node pos="r" depth="1" NCoef="0" IVar="5" Cut="1.5786278247833252e+00" cType="1" res="-1.1825136607512832e-03" rms="4.3197315931320190e-01" purity="5.0531417131423950e-01" nType="0">
          <Node pos="l" depth="2" NCoef="0" IVar="-1" Cut="0.0000000000000000e+00" cType="1" res="-9.2502770712599158e-04" rms="4.3608778715133667e-01" purity="5.1189607381820679e-01" nType="-99"/>
          <Node pos="r" depth="2" NCoef="0" IVar="-1" Cut="0.0000000000000000e+00" cType="1" res="7.4200861854478717e-04" rms="4.2515742778778076e-01" purity="4.9459394812583923e-01" nType="-99"/>
        </Node>
      </Node>
    </BinaryTree>
    <BinaryTree type="DecisionTree" boostWeight="1.0000000000000000e+00" itree="475">
      <Node pos="s" depth="0" NCoef="0" IVar="9" Cut="-7.1428573131561279e-01" cType="1" res="1.4348428230732679e-03" rms="4.3251925706863403e-01" purity="5.0101870298385620e-01" nType="0">
        <Node pos="l" depth="1" NCoef="0" IVar="-1" Cut="0.0000000000000000e+00" cType="1" res="3.1830449588596821e-03" rms="4.4386973977088928e-01" purity="4.0103393793106079e-01" nType="-99"/>
        <Node pos="r" depth="1" NCoef="0" IVar="9" Cut="-5.5093872547149658e-01" cType="1" res="8.9115690207108855e-04" rms="4.3194147944450378e-01" purity="5.0597602128982544e-01" nType="0">
          <Node pos="l" depth="2" NCoef="0" IVar="-1" Cut="0.0000000000000000e+00" cType="1" res="-2.5965734384953976e-03" rms="4.3652716279029846e-01" purity="4.6151089668273926e-01" nType="-99"/>
          <Node pos="r" depth="2" NCoef="0" IVar="-1" Cut="0.0000000000000000e+00" cType="1" res="3.8859815686009824e-04" rms="4.3168640136718750e-01" purity="5.0836205482482910e-01" nType="-99"/>
        </Node>
      </Node>
    </BinaryTree>
    <BinaryTree type="DecisionTree" boostWeight="1.0000000000000000e+00" itree="476">
      <Node pos="s" depth="0" NCoef="0" IVar="10" Cut="5.2285713195800781e+01" cType="1" res="8.2030642079189420e-04" rms="4.3254184722900391e-01" purity="5.0071865320205688e-01" nType="0">
        <Node pos="l" depth="1" NCoef="0" IVar="5" Cut="2.5093851089477539e+00" cType="1" res="2.6121086557395756e-04" rms="4.3289890885353088e-01" purity="5.0750243663787842e-01" nType="0">
          <Node pos="l" depth="2" NCoef="0" IVar="-1" Cut="0.0000000000000000e+00" cType="1" res="4.0407927008345723e-04" rms="4.3464192748069763e-01" purity="5.0723600387573242e-01" nType="-99"/>
          <Node pos="r" depth="2" NCoef="0" IVar="-1" Cut="0.0000000000000000e+00" cType="1" res="-3.6043198779225349e-03" rms="4.1452628374099731e-01" purity="5.1021283864974976e-01" nType="-99"/>
        </Node>
        <Node pos="r" depth="1" NCoef="0" IVar="-1" Cut="0.0000000000000000e+00" cType="1" res="2.5801404844969511e-03" rms="4.2678231000900269e-01" purity="3.9387729763984680e-01" nType="-99"/>
      </Node>
    </BinaryTree>
    <BinaryTree type="DecisionTree" boostWeight="1.0000000000000000e+00" itree="477">
      <Node pos="s" depth="0" NCoef="0" IVar="10" Cut="3.3238094329833984e+01" cType="1" res="-7.6881330460309982e-04" rms="4.3272924423217773e-01" purity="4.9985247850418091e-01" nType="0">
        <Node pos="l" depth="1" NCoef="0" IVar="10" Cut="3.4761905670166016e+00" cType="1" res="7.8922655666247010e-04" rms="4.3534809350967407e-01" purity="5.0753718614578247e-01" nType="0">
          <Node pos="l" depth="2" NCoef="0" IVar="-1" Cut="0.0000000000000000e+00" cType="1" res="-3.8418460171669722e-03" rms="4.7190827131271362e-01" purity="4.4127377867698669e-01" nType="-99"/>
          <Node pos="r" depth="2" NCoef="0" IVar="-1" Cut="0.0000000000000000e+00" cType="1" res="7.6860183617100120e-04" rms="4.3070903420448303e-01" purity="5.1548105478286743e-01" nType="-99"/>
        </Node>
        <Node pos="r" depth="1" NCoef="0" IVar="4" Cut="8.2683241367340088e-01" cType="1" res="-7.5722378678619862e-03" rms="4.2103528976440430e-01" purity="4.6629598736763000e-01" nType="0">
          <Node pos="l" depth="2" NCoef="0" IVar="-1" Cut="0.0000000000000000e+00" cType="1" res="2.2226646542549133e-03" rms="4.0957170724868774e-01" purity="3.6715081334114075e-01" nType="-99"/>
          <Node pos="r" depth="2" NCoef="0" IVar="-1" Cut="0.0000000000000000e+00" cType="1" res="-7.3934444226324558e-03" rms="4.3501761555671692e-01" purity="5.9865647554397583e-01" nType="-99"/>
        </Node>
      </Node>
    </BinaryTree>
    <BinaryTree type="DecisionTree" boostWeight="1.0000000000000000e+00" itree="478">
      <Node pos="s" depth="0" NCoef="0" IVar="3" Cut="4.7619048506021500e-02" cType="1" res="-2.4217112513724715e-04" rms="4.3250858783721924e-01" purity="4.9877160787582397e-01" nType="0">
        <Node pos="l" depth="1" NCoef="0" IVar="3" Cut="-4.5125001668930054e-01" cType="1" res="1.9534297753125429e-03" rms="4.3152809143066406e-01" purity="5.0059014558792114e-01" nType="0">
          <Node pos="l" depth="2" NCoef="0" IVar="-1" Cut="0.0000000000000000e+00" cType="1" res="-1.1302843922749162e-03" rms="4.4499155879020691e-01" purity="5.0388050079345703e-01" nType="-99"/>
          <Node pos="r" depth="2" NCoef="0" IVar="-1" Cut="0.0000000000000000e+00" cType="1" res="1.1437130160629749e-03" rms="4.2664703726768494e-01" purity="4.9942779541015625e-01" nType="-99"/>
        </Node>
        <Node pos="r" depth="1" NCoef="0" IVar="10" Cut="2.7142856597900391e+01" cType="1" res="-2.9752757400274277e-03" rms="4.3371048569679260e-01" purity="4.9650782346725464e-01" nType="0">
          <Node pos="l" depth="2" NCoef="0" IVar="-1" Cut="0.0000000000000000e+00" cType="1" res="-2.1425836894195527e-04" rms="4.3870881199836731e-01" purity="5.0237232446670532e-01" nType="-99"/>
          <Node pos="r" depth="2" NCoef="0" IVar="-1" Cut="0.0000000000000000e+00" cType="1" res="-2.6962785050272942e-03" rms="4.1749212145805359e-01" purity="4.7802296280860901e-01" nType="-99"/>
        </Node>
      </Node>
    </BinaryTree>
    <BinaryTree type="DecisionTree" boostWeight="1.0000000000000000e+00" itree="479">
      <Node pos="s" depth="0" NCoef="0" IVar="1" Cut="4.8906760215759277e+00" cType="1" res="4.1729312215466052e-05" rms="4.3272030353546143e-01" purity="4.9991342425346375e-01" nType="0">
        <Node pos="l" depth="1" NCoef="0" IVar="4" Cut="8.6452656984329224e-01" cType="1" res="-1.5755778877064586e-03" rms="4.3751239776611328e-01" purity="5.0018233060836792e-01" nType="0">
          <Node pos="l" depth="2" NCoef="0" IVar="-1" Cut="0.0000000000000000e+00" cType="1" res="-1.2801324483007193e-03" rms="4.3782636523246765e-01" purity="3.7530919909477234e-01" nType="-99"/>
          <Node pos="r" depth="2" NCoef="0" IVar="-1" Cut="0.0000000000000000e+00" cType="1" res="8.8076619431376457e-04" rms="4.3700045347213745e-01" purity="6.8467974662780762e-01" nType="-99"/>
        </Node>
        <Node pos="r" depth="1" NCoef="0" IVar="0" Cut="8.4323984384536743e-01" cType="1" res="4.5587993226945400e-03" rms="4.1901296377182007e-01" purity="4.9916228652000427e-01" nType="0">
          <Node pos="l" depth="2" NCoef="0" IVar="-1" Cut="0.0000000000000000e+00" cType="1" res="4.9641295336186886e-03" rms="4.1007015109062195e-01" purity="7.0627427101135254e-01" nType="-99"/>
          <Node pos="r" depth="2" NCoef="0" IVar="-1" Cut="0.0000000000000000e+00" cType="1" res="-3.8514431798830628e-04" rms="4.2299401760101318e-01" purity="4.0241116285324097e-01" nType="-99"/>
        </Node>
      </Node>
    </BinaryTree>
    <BinaryTree type="DecisionTree" boostWeight="1.0000000000000000e+00" itree="480">
      <Node pos="s" depth="0" NCoef="0" IVar="0" Cut="6.0784310102462769e-01" cType="1" res="4.2968240450136364e-04" rms="4.3224078416824341e-01" purity="5.0208008289337158e-01" nType="0">
        <Node pos="l" depth="1" NCoef="0" IVar="4" Cut="8.6791479587554932e-01" cType="1" res="1.2370153330266476e-02" rms="4.3314000964164734e-01" purity="6.8661582469940186e-01" nType="0">
          <Node pos="l" depth="2" NCoef="0" IVar="-1" Cut="0.0000000000000000e+00" cType="1" res="5.8326665312051773e-03" rms="4.6343711018562317e-01" purity="5.9458118677139282e-01" nType="-99"/>
          <Node pos="r" depth="2" NCoef="0" IVar="-1" Cut="0.0000000000000000e+00" cType="1" res="7.2470621671527624e-04" rms="4.0588399767875671e-01" purity="7.6336467266082764e-01" nType="-99"/>
        </Node>
        <Node pos="r" depth="1" NCoef="0" IVar="4" Cut="7.3675209283828735e-01" cType="1" res="-6.4646959071978927e-04" rms="4.3214344978332520e-01" purity="4.8544847965240479e-01" nType="0">
          <Node pos="l" depth="2" NCoef="0" IVar="-1" Cut="0.0000000000000000e+00" cType="1" res="-1.2198156910017133e-03" rms="4.1762533783912659e-01" purity="2.9737946391105652e-01" nType="-99"/>
          <Node pos="r" depth="2" NCoef="0" IVar="-1" Cut="0.0000000000000000e+00" cType="1" res="5.3829199168831110e-04" rms="4.4293197989463806e-01" purity="6.2964266538619995e-01" nType="-99"/>
        </Node>
      </Node>
    </BinaryTree>
    <BinaryTree type="DecisionTree" boostWeight="1.0000000000000000e+00" itree="481">
      <Node pos="s" depth="0" NCoef="0" IVar="3" Cut="-5.2380955219268799e-01" cType="1" res="-1.3416308211162686e-03" rms="4.3228012323379517e-01" purity="4.9795353412628174e-01" nType="0">
        <Node pos="l" depth="1" NCoef="0" IVar="10" Cut="5.2380952835083008e+00" cType="1" res="5.4163639433681965e-03" rms="4.4675901532173157e-01" purity="5.1389712095260620e-01" nType="0">
          <Node pos="l" depth="2" NCoef="0" IVar="-1" Cut="0.0000000000000000e+00" cType="1" res="4.9498495645821095e-03" rms="4.5850741863250732e-01" purity="5.1015162467956543e-01" nType="-99"/>
          <Node pos="r" depth="2" NCoef="0" IVar="-1" Cut="0.0000000000000000e+00" cType="1" res="-1.7732228152453899e-03" rms="4.3707329034805298e-01" purity="5.1679205894470215e-01" nType="-99"/>
        </Node>
        <Node pos="r" depth="1" NCoef="0" IVar="3" Cut="-8.8418193161487579e-02" cType="1" res="-2.2192667238414288e-03" rms="4.3035626411437988e-01" purity="4.9588301777839661e-01" nType="0">
          <Node pos="l" depth="2" NCoef="0" IVar="-1" Cut="0.0000000000000000e+00" cType="1" res="-1.3958915369585156e-03" rms="4.2925608158111572e-01" purity="4.9358460307121277e-01" nType="-99"/>
          <Node pos="r" depth="2" NCoef="0" IVar="-1" Cut="0.0000000000000000e+00" cType="1" res="-1.8550394452176988e-04" rms="4.3090975284576416e-01" purity="4.9705812335014343e-01" nType="-99"/>
        </Node>
      </Node>
    </BinaryTree>
    <BinaryTree type="DecisionTree" boostWeight="1.0000000000000000e+00" itree="482">
      <Node pos="s" depth="0" NCoef="0" IVar="2" Cut="1.0116786956787109e+00" cType="1" res="-1.6163731925189495e-03" rms="4.3172261118888855e-01" purity="4.9870580434799194e-01" nType="0">
        <Node pos="l" depth="1" NCoef="0" IVar="0" Cut="1.2725206613540649e+00" cType="1" res="-1.8958885630127043e-04" rms="4.3284267187118530e-01" purity="4.9968773126602173e-01" nType="0">
          <Node pos="l" depth="2" NCoef="0" IVar="-1" Cut="0.0000000000000000e+00" cType="1" res="2.5126870605163276e-04" rms="4.3923890590667725e-01" purity="5.5364918708801270e-01" nType="-99"/>
          <Node pos="r" depth="2" NCoef="0" IVar="-1" Cut="0.0000000000000000e+00" cType="1" res="-1.3881953200325370e-03" rms="4.0603765845298767e-01" purity="2.8242436051368713e-01" nType="-99"/>
        </Node>
        <Node pos="r" depth="1" NCoef="0" IVar="7" Cut="2.8427503108978271e+00" cType="1" res="-9.7810719162225723e-03" rms="4.2516440153121948e-01" purity="4.9308675527572632e-01" nType="0">
          <Node pos="l" depth="2" NCoef="0" IVar="-1" Cut="0.0000000000000000e+00" cType="1" res="-5.0060516223311424e-03" rms="4.2701864242553711e-01" purity="3.7319630384445190e-01" nType="-99"/>
          <Node pos="r" depth="2" NCoef="0" IVar="-1" Cut="0.0000000000000000e+00" cType="1" res="-1.4460070524364710e-03" rms="4.2415758967399597e-01" purity="5.5326586961746216e-01" nType="-99"/>
        </Node>
      </Node>
    </BinaryTree>
    <BinaryTree type="DecisionTree" boostWeight="1.0000000000000000e+00" itree="483">
      <Node pos="s" depth="0" NCoef="0" IVar="6" Cut="-6.7142858505249023e+00" cType="1" res="-1.5717910137027502e-03" rms="4.3224743008613586e-01" purity="4.9839156866073608e-01" nType="0">
        <Node pos="l" depth="1" NCoef="0" IVar="-1" Cut="0.0000000000000000e+00" cType="1" res="-5.0939205102622509e-03" rms="4.1393050551414490e-01" purity="4.2031091451644897e-01" nType="-99"/>
        <Node pos="r" depth="1" NCoef="0" IVar="10" Cut="4.3904762268066406e+01" cType="1" res="-8.9038693113252521e-04" rms="4.3296897411346436e-01" purity="5.0159585475921631e-01" nType="0">
          <Node pos="l" depth="2" NCoef="0" IVar="-1" Cut="0.0000000000000000e+00" cType="1" res="2.1471225863933796e-06" rms="4.3418917059898376e-01" purity="5.0909483432769775e-01" nType="-99"/>
          <Node pos="r" depth="2" NCoef="0" IVar="-1" Cut="0.0000000000000000e+00" cType="1" res="-2.5421823374927044e-03" rms="4.2103093862533569e-01" purity="4.2991918325424194e-01" nType="-99"/>
        </Node>
      </Node>
    </BinaryTree>
    <BinaryTree type="DecisionTree" boostWeight="1.0000000000000000e+00" itree="484">
      <Node pos="s" depth="0" NCoef="0" IVar="8" Cut="1.7648040056228638e+00" cType="1" res="1.0569437290541828e-04" rms="4.3155646324157715e-01" purity="4.9903303384780884e-01" nType="0">
        <Node pos="l" depth="1" NCoef="0" IVar="10" Cut="4.9428569793701172e+01" cType="1" res="-4.1268757195211947e-04" rms="4.3296232819557190e-01" purity="4.8776590824127197e-01" nType="0">
          <Node pos="l" depth="2" NCoef="0" IVar="-1" Cut="0.0000000000000000e+00" cType="1" res="-3.0056230025365949e-04" rms="4.3370392918586731e-01" purity="4.9459481239318848e-01" nType="-99"/>
          <Node pos="r" depth="2" NCoef="0" IVar="-1" Cut="0.0000000000000000e+00" cType="1" res="2.5184911210089922e-03" rms="4.2289328575134277e-01" purity="3.9728221297264099e-01" nType="-99"/>
        </Node>
        <Node pos="r" depth="1" NCoef="0" IVar="-1" Cut="0.0000000000000000e+00" cType="1" res="3.1033554114401340e-03" rms="4.0216201543807983e-01" purity="7.2516489028930664e-01" nType="-99"/>
      </Node>
    </BinaryTree>
    <BinaryTree type="DecisionTree" boostWeight="1.0000000000000000e+00" itree="485">
      <Node pos="s" depth="0" NCoef="0" IVar="8" Cut="7.9905796051025391e-01" cType="1" res="2.2093413281254470e-04" rms="4.3245247006416321e-01" purity="5.0026690959930420e-01" nType="0">
        <Node pos="l" depth="1" NCoef="0" IVar="9" Cut="7.1428573131561279e-01" cType="1" res="2.1869214251637459e-03" rms="4.3449175357818604e-01" purity="4.7839349508285522e-01" nType="0">
          <Node pos="l" depth="2" NCoef="0" IVar="-1" Cut="0.0000000000000000e+00" cType="1" res="8.2954223034903407e-04" rms="4.3416929244995117e-01" purity="4.8606473207473755e-01" nType="-99"/>
          <Node pos="r" depth="2" NCoef="0" IVar="-1" Cut="0.0000000000000000e+00" cType="1" res="-4.3002092279493809e-03" rms="4.4021204113960266e-01" purity="3.3104747533798218e-01" nType="-99"/>
        </Node>
        <Node pos="r" depth="1" NCoef="0" IVar="9" Cut="1.4778198301792145e-01" cType="1" res="-7.8657055273652077e-03" rms="4.2386528849601746e-01" purity="5.9023827314376831e-01" nType="0">
          <Node pos="l" depth="2" NCoef="0" IVar="-1" Cut="0.0000000000000000e+00" cType="1" res="-3.9043761789798737e-03" rms="4.1876429319381714e-01" purity="5.2163946628570557e-01" nType="-99"/>
          <Node pos="r" depth="2" NCoef="0" IVar="-1" Cut="0.0000000000000000e+00" cType="1" res="-5.0415081204846501e-04" rms="4.2865440249443054e-01" purity="6.5657967329025269e-01" nType="-99"/>
        </Node>
      </Node>
    </BinaryTree>
    <BinaryTree type="DecisionTree" boostWeight="1.0000000000000000e+00" itree="486">
      <Node pos="s" depth="0" NCoef="0" IVar="10" Cut="1.7142856597900391e+01" cType="1" res="1.4858110807836056e-03" rms="4.3265756964683533e-01" purity="5.0134140253067017e-01" nType="0">
        <Node pos="l" depth="1" NCoef="0" IVar="0" Cut="1.2770150899887085e+00" cType="1" res="-6.1626138631254435e-04" rms="4.4605264067649841e-01" purity="5.0701713562011719e-01" nType="0">
          <Node pos="l" depth="2" NCoef="0" IVar="-1" Cut="0.0000000000000000e+00" cType="1" res="-1.3014012947678566e-03" rms="4.5081144571304321e-01" purity="5.6908994913101196e-01" nType="-99"/>
          <Node pos="r" depth="2" NCoef="0" IVar="-1" Cut="0.0000000000000000e+00" cType="1" res="3.2068681903183460e-03" rms="4.3226090073585510e-01" purity="3.3411976695060730e-01" nType="-99"/>
        </Node>
        <Node pos="r" depth="1" NCoef="0" IVar="0" Cut="7.1054434776306152e-01" cType="1" res="4.0990314446389675e-03" rms="4.1538867354393005e-01" purity="4.9428555369377136e-01" nType="0">
          <Node pos="l" depth="2" NCoef="0" IVar="-1" Cut="0.0000000000000000e+00" cType="1" res="1.0387379676103592e-02" rms="3.8159772753715515e-01" purity="7.4738252162933350e-01" nType="-99"/>
          <Node pos="r" depth="2" NCoef="0" IVar="-1" Cut="0.0000000000000000e+00" cType="1" res="2.5007149088196456e-04" rms="4.1876998543739319e-01" purity="4.6679410338401794e-01" nType="-99"/>
        </Node>
      </Node>
    </BinaryTree>
    <BinaryTree type="DecisionTree" boostWeight="1.0000000000000000e+00" itree="487">
      <Node pos="s" depth="0" NCoef="0" IVar="2" Cut="8.7501966953277588e-01" cType="1" res="-1.7688714433461428e-04" rms="4.3189832568168640e-01" purity="4.9857568740844727e-01" nType="0">
        <Node pos="l" depth="1" NCoef="0" IVar="3" Cut="4.2857143282890320e-01" cType="1" res="-1.5533008845523000e-03" rms="4.3298715353012085e-01" purity="4.9701902270317078e-01" nType="0">
          <Node pos="l" depth="2" NCoef="0" IVar="-1" Cut="0.0000000000000000e+00" cType="1" res="-6.7870202474296093e-04" rms="4.3028581142425537e-01" purity="4.9562713503837585e-01" nType="-99"/>
          <Node pos="r" depth="2" NCoef="0" IVar="-1" Cut="0.0000000000000000e+00" cType="1" res="1.3971752487123013e-03" rms="4.5198330283164978e-01" purity="5.0708872079849243e-01" nType="-99"/>
        </Node>
        <Node pos="r" depth="1" NCoef="0" IVar="10" Cut="3.7142856597900391e+01" cType="1" res="6.1329239979386330e-03" rms="4.2681452631950378e-01" purity="5.0571191310882568e-01" nType="0">
          <Node pos="l" depth="2" NCoef="0" IVar="-1" Cut="0.0000000000000000e+00" cType="1" res="3.3263984369114041e-04" rms="4.2797923088073730e-01" purity="5.0908982753753662e-01" nType="-99"/>
          <Node pos="r" depth="2" NCoef="0" IVar="-1" Cut="0.0000000000000000e+00" cType="1" res="6.8274922668933868e-03" rms="4.2173293232917786e-01" purity="4.9262210726737976e-01" nType="-99"/>
        </Node>
      </Node>
    </BinaryTree>
    <BinaryTree type="DecisionTree" boostWeight="1.0000000000000000e+00" itree="488">
      <Node pos="s" depth="0" NCoef="0" IVar="6" Cut="-5.1904764175415039e+00" cType="1" res="5.7777145411819220e-04" rms="4.3298217654228210e-01" purity="4.9992638826370239e-01" nType="0">
        <Node pos="l" depth="1" NCoef="0" IVar="-1" Cut="0.0000000000000000e+00" cType="1" res="-2.6402820367366076e-03" rms="4.1821596026420593e-01" purity="4.3580883741378784e-01" nType="-99"/>
        <Node pos="r" depth="1" NCoef="0" IVar="2" Cut="3.3819022774696350e-01" cType="1" res="1.2112385593354702e-03" rms="4.3389412760734558e-01" purity="5.0399345159530640e-01" nType="0">
          <Node pos="l" depth="2" NCoef="0" IVar="-1" Cut="0.0000000000000000e+00" cType="1" res="7.9823605483397841e-04" rms="4.3517729640007019e-01" purity="5.0353115797042847e-01" nType="-99"/>
          <Node pos="r" depth="2" NCoef="0" IVar="-1" Cut="0.0000000000000000e+00" cType="1" res="-6.1110581737011671e-04" rms="4.3140360713005066e-01" purity="5.0487899780273438e-01" nType="-99"/>
        </Node>
      </Node>
    </BinaryTree>
    <BinaryTree type="DecisionTree" boostWeight="1.0000000000000000e+00" itree="489">
      <Node pos="s" depth="0" NCoef="0" IVar="5" Cut="2.0674693584442139e+00" cType="1" res="2.5431890389882028e-04" rms="4.3260163068771362e-01" purity="5.0045216083526611e-01" nType="0">
        <Node pos="l" depth="1" NCoef="0" IVar="4" Cut="7.7880120277404785e-01" cType="1" res="1.5498276334255934e-03" rms="4.3513005971908569e-01" purity="5.0513499975204468e-01" nType="0">
          <Node pos="l" depth="2" NCoef="0" IVar="-1" Cut="0.0000000000000000e+00" cType="1" res="-3.8571574259549379e-04" rms="4.2997425794601440e-01" purity="3.3418068289756775e-01" nType="-99"/>
          <Node pos="r" depth="2" NCoef="0" IVar="-1" Cut="0.0000000000000000e+00" cType="1" res="1.0801333701238036e-03" rms="4.3972918391227722e-01" purity="6.5993833541870117e-01" nType="-99"/>
        </Node>
        <Node pos="r" depth="1" NCoef="0" IVar="5" Cut="2.4944937229156494e+00" cType="1" res="-5.1503013819456100e-03" rms="4.2184719443321228e-01" purity="4.8091641068458557e-01" nType="0">
          <Node pos="l" depth="2" NCoef="0" IVar="-1" Cut="0.0000000000000000e+00" cType="1" res="-3.0153971165418625e-03" rms="4.2287755012512207e-01" purity="4.6561071276664734e-01" nType="-99"/>
          <Node pos="r" depth="2" NCoef="0" IVar="-1" Cut="0.0000000000000000e+00" cType="1" res="-2.6567647000774741e-04" rms="4.2104697227478027e-01" purity="4.9204379320144653e-01" nType="-99"/>
        </Node>
      </Node>
    </BinaryTree>
    <BinaryTree type="DecisionTree" boostWeight="1.0000000000000000e+00" itree="490">
      <Node pos="s" depth="0" NCoef="0" IVar="2" Cut="-1.2926723957061768e+00" cType="1" res="-1.5613797586411238e-03" rms="4.3325859308242798e-01" purity="4.9849605560302734e-01" nType="0">
        <Node pos="l" depth="1" NCoef="0" IVar="8" Cut="3.1446471810340881e-01" cType="1" res="-1.3272470794618130e-02" rms="4.2179399728775024e-01" purity="4.9237203598022461e-01" nType="0">
          <Node pos="l" depth="2" NCoef="0" IVar="-1" Cut="0.0000000000000000e+00" cType="1" res="-5.0317221321165562e-03" rms="4.2487919330596924e-01" purity="4.6861216425895691e-01" nType="-99"/>
          <Node pos="r" depth="2" NCoef="0" IVar="-1" Cut="0.0000000000000000e+00" cType="1" res="-1.5238578198477626e-03" rms="4.1676667332649231e-01" purity="5.2981710433959961e-01" nType="-99"/>
        </Node>
        <Node pos="r" depth="1" NCoef="0" IVar="4" Cut="6.9544064998626709e-01" cType="1" res="-2.6450314908288419e-04" rms="4.3449017405509949e-01" purity="4.9917417764663696e-01" nType="0">
          <Node pos="l" depth="2" NCoef="0" IVar="-1" Cut="0.0000000000000000e+00" cType="1" res="1.2695597251877189e-03" rms="4.1778153181076050e-01" purity="2.9109612107276917e-01" nType="-99"/>
          <Node pos="r" depth="2" NCoef="0" IVar="-1" Cut="0.0000000000000000e+00" cType="1" res="-7.6792621985077858e-04" rms="4.4423115253448486e-01" purity="6.2455379962921143e-01" nType="-99"/>
        </Node>
      </Node>
    </BinaryTree>
    <BinaryTree type="DecisionTree" boostWeight="1.0000000000000000e+00" itree="491">
      <Node pos="s" depth="0" NCoef="0" IVar="9" Cut="4.7619048506021500e-02" cType="1" res="7.2790490230545402e-04" rms="4.3327277898788452e-01" purity="5.0072461366653442e-01" nType="0">
        <Node pos="l" depth="1" NCoef="0" IVar="9" Cut="-7.5057005882263184e-01" cType="1" res="-1.6889050602912903e-03" rms="4.3307229876518250e-01" purity="4.9729147553443909e-01" nType="0">
          <Node pos="l" depth="2" NCoef="0" IVar="-1" Cut="0.0000000000000000e+00" cType="1" res="-4.8631336539983749e-03" rms="4.4387289881706238e-01" purity="3.6639976501464844e-01" nType="-99"/>
          <Node pos="r" depth="2" NCoef="0" IVar="-1" Cut="0.0000000000000000e+00" cType="1" res="-8.6255859059747308e-05" rms="4.3219068646430969e-01" purity="5.0747776031494141e-01" nType="-99"/>
        </Node>
        <Node pos="r" depth="1" NCoef="0" IVar="8" Cut="-5.3478252887725830e-01" cType="1" res="3.6499926354736090e-03" rms="4.3349704146385193e-01" purity="5.0487548112869263e-01" nType="0">
          <Node pos="l" depth="2" NCoef="0" IVar="-1" Cut="0.0000000000000000e+00" cType="1" res="-1.3533389428630471e-03" rms="4.2078635096549988e-01" purity="4.5659589767456055e-01" nType="-99"/>
          <Node pos="r" depth="2" NCoef="0" IVar="-1" Cut="0.0000000000000000e+00" cType="1" res="1.4225136255845428e-03" rms="4.3613865971565247e-01" purity="5.1517242193222046e-01" nType="-99"/>
        </Node>
      </Node>
    </BinaryTree>
    <BinaryTree type="DecisionTree" boostWeight="1.0000000000000000e+00" itree="492">
      <Node pos="s" depth="0" NCoef="0" IVar="10" Cut="4.8571430206298828e+01" cType="1" res="-2.7175646391697228e-04" rms="4.3179935216903687e-01" purity="4.9983370304107666e-01" nType="0">
        <Node pos="l" depth="1" NCoef="0" IVar="4" Cut="7.7534961700439453e-01" cType="1" res="-1.3400908792391419e-03" rms="4.3236649036407471e-01" purity="5.0613152980804443e-01" nType="0">
          <Node pos="l" depth="2" NCoef="0" IVar="-1" Cut="0.0000000000000000e+00" cType="1" res="-1.4263329794630408e-03" rms="4.2541396617889404e-01" purity="3.3011600375175476e-01" nType="-99"/>
          <Node pos="r" depth="2" NCoef="0" IVar="-1" Cut="0.0000000000000000e+00" cType="1" res="5.6657037930563092e-04" rms="4.3856373429298401e-01" purity="6.6621112823486328e-01" nType="-99"/>
        </Node>
        <Node pos="r" depth="1" NCoef="0" IVar="4" Cut="7.9374873638153076e-01" cType="1" res="1.2755192816257477e-02" rms="4.2460668087005615e-01" purity="4.2304047942161560e-01" nType="0">
          <Node pos="l" depth="2" NCoef="0" IVar="-1" Cut="0.0000000000000000e+00" cType="1" res="8.0760605633258820e-03" rms="4.1423931717872620e-01" purity="3.3803364634513855e-01" nType="-99"/>
          <Node pos="r" depth="2" NCoef="0" IVar="-1" Cut="0.0000000000000000e+00" cType="1" res="-6.1756110517308116e-04" rms="4.3451735377311707e-01" purity="5.1075267791748047e-01" nType="-99"/>
        </Node>
      </Node>
    </BinaryTree>
    <BinaryTree type="DecisionTree" boostWeight="1.0000000000000000e+00" itree="493">
      <Node pos="s" depth="0" NCoef="0" IVar="6" Cut="-1.4285714924335480e-01" cType="1" res="1.3668219326063991e-03" rms="4.3219369649887085e-01" purity="5.0083702802658081e-01" nType="0">
        <Node pos="l" depth="1" NCoef="0" IVar="7" Cut="2.2850849628448486e+00" cType="1" res="-2.8603768441826105e-03" rms="4.3094578385353088e-01" purity="4.9525499343872070e-01" nType="0">
          <Node pos="l" depth="2" NCoef="0" IVar="-1" Cut="0.0000000000000000e+00" cType="1" res="-3.2458286732435226e-03" rms="4.4755208492279053e-01" purity="4.1808381676673889e-01" nType="-99"/>
          <Node pos="r" depth="2" NCoef="0" IVar="-1" Cut="0.0000000000000000e+00" cType="1" res="6.8680226104333997e-04" rms="4.2185452580451965e-01" purity="5.3582608699798584e-01" nType="-99"/>
        </Node>
        <Node pos="r" depth="1" NCoef="0" IVar="10" Cut="2.5428571701049805e+01" cType="1" res="4.3320865370333195e-03" rms="4.3304231762886047e-01" purity="5.0475275516510010e-01" nType="0">
          <Node pos="l" depth="2" NCoef="0" IVar="-1" Cut="0.0000000000000000e+00" cType="1" res="1.9508716650307178e-03" rms="4.3895184993743896e-01" purity="5.1138472557067871e-01" nType="-99"/>
          <Node pos="r" depth="2" NCoef="0" IVar="-1" Cut="0.0000000000000000e+00" cType="1" res="-1.1201358865946531e-03" rms="4.1726994514465332e-01" purity="4.8761653900146484e-01" nType="-99"/>
        </Node>
      </Node>
    </BinaryTree>
    <BinaryTree type="DecisionTree" boostWeight="1.0000000000000000e+00" itree="494">
      <Node pos="s" depth="0" NCoef="0" IVar="9" Cut="5.2380955219268799e-01" cType="1" res="1.2622661888599396e-03" rms="4.3170431256294250e-01" purity="5.0130158662796021e-01" nType="0">
        <Node pos="l" depth="1" NCoef="0" IVar="4" Cut="9.0490841865539551e-01" cType="1" res="3.8619129918515682e-04" rms="4.3088510632514954e-01" purity="5.0716775655746460e-01" nType="0">
          <Node pos="l" depth="2" NCoef="0" IVar="-1" Cut="0.0000000000000000e+00" cType="1" res="-3.1346236937679350e-04" rms="4.3425962328910828e-01" purity="4.1719403862953186e-01" nType="-99"/>
          <Node pos="r" depth="2" NCoef="0" IVar="-1" Cut="0.0000000000000000e+00" cType="1" res="1.1720893671736121e-03" rms="4.2251381278038025e-01" purity="7.2668653726577759e-01" nType="-99"/>
        </Node>
        <Node pos="r" depth="1" NCoef="0" IVar="8" Cut="5.5884456634521484e-01" cType="1" res="8.5628703236579895e-03" rms="4.3840342760086060e-01" purity="4.5241665840148926e-01" nType="0">
          <Node pos="l" depth="2" NCoef="0" IVar="-1" Cut="0.0000000000000000e+00" cType="1" res="3.3727588015608490e-04" rms="4.3859165906906128e-01" purity="3.5927066206932068e-01" nType="-99"/>
          <Node pos="r" depth="2" NCoef="0" IVar="-1" Cut="0.0000000000000000e+00" cType="1" res="5.6387595832347870e-03" rms="4.3772903084754944e-01" purity="6.2616008520126343e-01" nType="-99"/>
        </Node>
      </Node>
    </BinaryTree>
    <BinaryTree type="DecisionTree" boostWeight="1.0000000000000000e+00" itree="495">
      <Node pos="s" depth="0" NCoef="0" IVar="8" Cut="-6.3515365123748779e-01" cType="1" res="1.3888294342905283e-03" rms="4.3166580796241760e-01" purity="5.0126636028289795e-01" nType="0">
        <Node pos="l" depth="1" NCoef="0" IVar="7" Cut="3.5450255870819092e+00" cType="1" res="6.3397432677447796e-03" rms="4.2678320407867432e-01" purity="5.7958459854125977e-01" nType="0">
          <Node pos="l" depth="2" NCoef="0" IVar="-1" Cut="0.0000000000000000e+00" cType="1" res="4.7217961400747299e-03" rms="4.4002512097358704e-01" purity="5.4127401113510132e-01" nType="-99"/>
          <Node pos="r" depth="2" NCoef="0" IVar="-1" Cut="0.0000000000000000e+00" cType="1" res="-1.2645611423067749e-04" rms="4.1890648007392883e-01" purity="6.0139328241348267e-01" nType="-99"/>
        </Node>
        <Node pos="r" depth="1" NCoef="0" IVar="4" Cut="7.3728287220001221e-01" cType="1" res="-1.5513339894823730e-04" rms="4.3316563963890076e-01" purity="4.7684249281883240e-01" nType="0">
          <Node pos="l" depth="2" NCoef="0" IVar="-1" Cut="0.0000000000000000e+00" cType="1" res="-1.0880614863708615e-03" rms="4.2036741971969604e-01" purity="2.9935696721076965e-01" nType="-99"/>
          <Node pos="r" depth="2" NCoef="0" IVar="-1" Cut="0.0000000000000000e+00" cType="1" res="7.5247377390041947e-04" rms="4.4375616312026978e-01" purity="6.2809377908706665e-01" nType="-99"/>
        </Node>
      </Node>
    </BinaryTree>
    <BinaryTree type="DecisionTree" boostWeight="1.0000000000000000e+00" itree="496">
      <Node pos="s" depth="0" NCoef="0" IVar="10" Cut="1.8761905670166016e+01" cType="1" res="-2.0222808234393597e-03" rms="4.3228644132614136e-01" purity="4.9855357408523560e-01" nType="0">
        <Node pos="l" depth="1" NCoef="0" IVar="4" Cut="4.0750601887702942e-01" cType="1" res="-4.4302423484623432e-03" rms="4.4454434514045715e-01" purity="5.0286495685577393e-01" nType="0">
          <Node pos="l" depth="2" NCoef="0" IVar="-1" Cut="0.0000000000000000e+00" cType="1" res="6.6988146863877773e-03" rms="3.3784258365631104e-01" purity="1.3717417418956757e-01" nType="-99"/>
          <Node pos="r" depth="2" NCoef="0" IVar="-1" Cut="0.0000000000000000e+00" cType="1" res="-1.4981896383687854e-03" rms="4.5334261655807495e-01" purity="5.3762638568878174e-01" nType="-99"/>
        </Node>
        <Node pos="r" depth="1" NCoef="0" IVar="0" Cut="1.0088285207748413e+00" cType="1" res="1.2853817315772176e-03" rms="4.1483569145202637e-01" purity="4.9263122677803040e-01" nType="0">
          <Node pos="l" depth="2" NCoef="0" IVar="-1" Cut="0.0000000000000000e+00" cType="1" res="2.7367684524506330e-03" rms="4.2539367079734802e-01" purity="6.2599837779998779e-01" nType="-99"/>
          <Node pos="r" depth="2" NCoef="0" IVar="-1" Cut="0.0000000000000000e+00" cType="1" res="-4.1225454770028591e-03" rms="3.9613115787506104e-01" purity="2.6986378431320190e-01" nType="-99"/>
        </Node>
      </Node>
    </BinaryTree>
    <BinaryTree type="DecisionTree" boostWeight="1.0000000000000000e+00" itree="497">
      <Node pos="s" depth="0" NCoef="0" IVar="10" Cut="6.0666667938232422e+01" cType="1" res="-1.2813992798328400e-03" rms="4.3285953998565674e-01" purity="4.9835115671157837e-01" nType="0">
        <Node pos="l" depth="1" NCoef="0" IVar="8" Cut="-1.5308376550674438e+00" cType="1" res="-5.2845181198790669e-04" rms="4.3345960974693298e-01" purity="5.0472176074981689e-01" nType="0">
          <Node pos="l" depth="2" NCoef="0" IVar="-1" Cut="0.0000000000000000e+00" cType="1" res="-3.2307410147041082e-03" rms="4.1906318068504333e-01" purity="6.8505978584289551e-01" nType="-99"/>
          <Node pos="r" depth="2" NCoef="0" IVar="-1" Cut="0.0000000000000000e+00" cType="1" res="5.7884197303792462e-05" rms="4.3444997072219849e-01" purity="4.9196732044219971e-01" nType="-99"/>
        </Node>
        <Node pos="r" depth="1" NCoef="0" IVar="-1" Cut="0.0000000000000000e+00" cType="1" res="-5.7720267213881016e-03" rms="4.1605347394943237e-01" purity="3.2863643765449524e-01" nType="-99"/>
      </Node>
    </BinaryTree>
    <BinaryTree type="DecisionTree" boostWeight="1.0000000000000000e+00" itree="498">
      <Node pos="s" depth="0" NCoef="0" IVar="6" Cut="4.5238094329833984e+00" cType="1" res="2.0111793128307909e-04" rms="4.3239665031433105e-01" purity="5.0044554471969604e-01" nType="0">
        <Node pos="l" depth="1" NCoef="0" IVar="6" Cut="5.7142859697341919e-01" cType="1" res="-8.2174199633300304e-04" rms="4.3349134922027588e-01" purity="5.0411546230316162e-01" nType="0">
          <Node pos="l" depth="2" NCoef="0" IVar="-1" Cut="0.0000000000000000e+00" cType="1" res="4.1927702841348946e-04" rms="4.3179491162300110e-01" purity="5.0595527887344360e-01" nType="-99"/>
          <Node pos="r" depth="2" NCoef="0" IVar="-1" Cut="0.0000000000000000e+00" cType="1" res="-1.2427533511072397e-03" rms="4.3619763851165771e-01" purity="5.0113451480865479e-01" nType="-99"/>
        </Node>
        <Node pos="r" depth="1" NCoef="0" IVar="4" Cut="7.7339512109756470e-01" cType="1" res="8.4846857935190201e-03" rms="4.2333605885505676e-01" purity="4.7072529792785645e-01" nType="0">
          <Node pos="l" depth="2" NCoef="0" IVar="-1" Cut="0.0000000000000000e+00" cType="1" res="4.1687544435262680e-03" rms="4.1260644793510437e-01" purity="3.2238033413887024e-01" nType="-99"/>
          <Node pos="r" depth="2" NCoef="0" IVar="-1" Cut="0.0000000000000000e+00" cType="1" res="5.4415734484791756e-04" rms="4.3500694632530212e-01" purity="6.3768512010574341e-01" nType="-99"/>
        </Node>
      </Node>
    </BinaryTree>
    <BinaryTree type="DecisionTree" boostWeight="1.0000000000000000e+00" itree="499">
      <Node pos="s" depth="0" NCoef="0" IVar="10" Cut="5.2285713195800781e+01" cType="1" res="-1.0191553883487359e-04" rms="4.3092706799507141e-01" purity="4.9983111023902893e-01" nType="0">
        <Node pos="l" depth="1" NCoef="0" IVar="4" Cut="7.3676145076751709e-01" cType="1" res="-8.2659936742857099e-04" rms="4.3129569292068481e-01" purity="5.0619918107986450e-01" nType="0">
          <Node pos="l" depth="2" NCoef="0" IVar="-1" Cut="0.0000000000000000e+00" cType="1" res="-1.3820079620927572e-03" rms="4.1971525549888611e-01" purity="3.0683502554893494e-01" nType="-99"/>
          <Node pos="r" depth="2" NCoef="0" IVar="-1" Cut="0.0000000000000000e+00" cType="1" res="5.6884367950260639e-04" rms="4.3968030810356140e-01" purity="6.5437787771224976e-01" nType="-99"/>
        </Node>
        <Node pos="r" depth="1" NCoef="0" IVar="-1" Cut="0.0000000000000000e+00" cType="1" res="3.0273059383034706e-03" rms="4.2491781711578369e-01" purity="3.9955940842628479e-01" nType="-99"/>
      </Node>
    </BinaryTree>
    <BinaryTree type="DecisionTree" boostWeight="1.0000000000000000e+00" itree="500">
      <Node pos="s" depth="0" NCoef="0" IVar="5" Cut="3.4059128761291504e+00" cType="1" res="1.8109985394403338e-03" rms="4.3130403757095337e-01" purity="5.0135326385498047e-01" nType="0">
        <Node pos="l" depth="1" NCoef="0" IVar="7" Cut="9.5761880874633789e+00" cType="1" res="9.5417076954618096e-04" rms="4.3199938535690308e-01" purity="4.9872395396232605e-01" nType="0">
          <Node pos="l" depth="2" NCoef="0" IVar="-1" Cut="0.0000000000000000e+00" cType="1" res="4.4796298607252538e-04" rms="4.3303710222244263e-01" purity="4.9083819985389709e-01" nType="-99"/>
          <Node pos="r" depth="2" NCoef="0" IVar="-1" Cut="0.0000000000000000e+00" cType="1" res="-4.8641217872500420e-03" rms="4.0697720646858215e-01" purity="6.8040359020233154e-01" nType="-99"/>
        </Node>
        <Node pos="r" depth="1" NCoef="0" IVar="-1" Cut="0.0000000000000000e+00" cType="1" res="5.9852730482816696e-03" rms="4.1421240568161011e-01" purity="5.6281709671020508e-01" nType="-99"/>
      </Node>
    </BinaryTree>
    <BinaryTree type="DecisionTree" boostWeight="1.0000000000000000e+00" itree="501">
      <Node pos="s" depth="0" NCoef="0" IVar="10" Cut="4.7428569793701172e+01" cType="1" res="3.2490666490048170e-04" rms="4.3377676606178284e-01" purity="5.0009435415267944e-01" nType="0">
        <Node pos="l" depth="1" NCoef="0" IVar="10" Cut="1.7000000000000000e+01" cType="1" res="-6.5582175739109516e-04" rms="4.3435379862785339e-01" purity="5.0642615556716919e-01" nType="0">
          <Node pos="l" depth="2" NCoef="0" IVar="-1" Cut="0.0000000000000000e+00" cType="1" res="-6.8302935687825084e-04" rms="4.4895184040069580e-01" purity="5.0512045621871948e-01" nType="-99"/>
          <Node pos="r" depth="2" NCoef="0" IVar="-1" Cut="0.0000000000000000e+00" cType="1" res="6.2219332903623581e-04" rms="4.1354301571846008e-01" purity="5.0821149349212646e-01" nType="-99"/>
        </Node>
        <Node pos="r" depth="1" NCoef="0" IVar="0" Cut="9.2580443620681763e-01" cType="1" res="1.1303617618978024e-02" rms="4.2711049318313599e-01" purity="4.2921322584152222e-01" nType="0">
          <Node pos="l" depth="2" NCoef="0" IVar="-1" Cut="0.0000000000000000e+00" cType="1" res="8.1551419571042061e-03" rms="4.5414409041404724e-01" purity="6.1604803800582886e-01" nType="-99"/>
          <Node pos="r" depth="2" NCoef="0" IVar="-1" Cut="0.0000000000000000e+00" cType="1" res="-2.7591367252171040e-03" rms="4.0014755725860596e-01" purity="2.6127916574478149e-01" nType="-99"/>
        </Node>
      </Node>
    </BinaryTree>
    <BinaryTree type="DecisionTree" boostWeight="1.0000000000000000e+00" itree="502">
      <Node pos="s" depth="0" NCoef="0" IVar="8" Cut="9.3525332212448120e-01" cType="1" res="-6.1394536169245839e-04" rms="4.3259879946708679e-01" purity="4.9887508153915405e-01" nType="0">
        <Node pos="l" depth="1" NCoef="0" IVar="3" Cut="8.0952382087707520e-01" cType="1" res="9.0244872262701392e-04" rms="4.3463745713233948e-01" purity="4.7794491052627563e-01" nType="0">
          <Node pos="l" depth="2" NCoef="0" IVar="-1" Cut="0.0000000000000000e+00" cType="1" res="4.6502906479872763e-04" rms="4.3333941698074341e-01" purity="4.7894796729087830e-01" nType="-99"/>
          <Node pos="r" depth="2" NCoef="0" IVar="-1" Cut="0.0000000000000000e+00" cType="1" res="-3.9418204687535763e-03" rms="4.6009644865989685e-01" purity="4.5737347006797791e-01" nType="-99"/>
        </Node>
        <Node pos="r" depth="1" NCoef="0" IVar="4" Cut="7.3893535137176514e-01" cType="1" res="-8.4959650412201881e-03" rms="4.2175558209419250e-01" purity="6.0766768455505371e-01" nType="0">
          <Node pos="l" depth="2" NCoef="0" IVar="-1" Cut="0.0000000000000000e+00" cType="1" res="-6.7458497360348701e-03" rms="3.9884132146835327e-01" purity="3.2469531893730164e-01" nType="-99"/>
          <Node pos="r" depth="2" NCoef="0" IVar="-1" Cut="0.0000000000000000e+00" cType="1" res="-1.1171394726261497e-03" rms="4.2835414409637451e-01" purity="6.9334924221038818e-01" nType="-99"/>
        </Node>
      </Node>
    </BinaryTree>
    <BinaryTree type="DecisionTree" boostWeight="1.0000000000000000e+00" itree="503">
      <Node pos="s" depth="0" NCoef="0" IVar="3" Cut="-7.1428573131561279e-01" cType="1" res="-3.9955574902705848e-04" rms="4.3143045902252197e-01" purity="4.9917003512382507e-01" nType="0">
        <Node pos="l" depth="1" NCoef="0" IVar="-1" Cut="0.0000000000000000e+00" cType="1" res="-2.6551089249551296e-03" rms="4.5638677477836609e-01" purity="4.8355057835578918e-01" nType="-99"/>
        <Node pos="r" depth="1" NCoef="0" IVar="4" Cut="8.2281810045242310e-01" cType="1" res="2.9492794419638813e-04" rms="4.2974215745925903e-01" purity="5.0018942356109619e-01" nType="0">
          <Node pos="l" depth="2" NCoef="0" IVar="-1" Cut="0.0000000000000000e+00" cType="1" res="-6.2004750361666083e-04" rms="4.2764055728912354e-01" purity="3.5623866319656372e-01" nType="-99"/>
          <Node pos="r" depth="2" NCoef="0" IVar="-1" Cut="0.0000000000000000e+00" cType="1" res="9.1154885012656450e-04" rms="4.3228733539581299e-01" purity="6.7694061994552612e-01" nType="-99"/>
        </Node>
      </Node>
    </BinaryTree>
    <BinaryTree type="DecisionTree" boostWeight="1.0000000000000000e+00" itree="504">
      <Node pos="s" depth="0" NCoef="0" IVar="9" Cut="-5.2380955219268799e-01" cType="1" res="-1.7258207080885768e-03" rms="4.3294546008110046e-01" purity="4.9787902832031250e-01" nType="0">
        <Node pos="l" depth="1" NCoef="0" IVar="4" Cut="8.6595904827117920e-01" cType="1" res="5.8186626993119717e-03" rms="4.3803602457046509e-01" purity="4.4064137339591980e-01" nType="0">
          <Node pos="l" depth="2" NCoef="0" IVar="-1" Cut="0.0000000000000000e+00" cType="1" res="3.7369667552411556e-03" rms="4.2656961083412170e-01" purity="3.3456182479858398e-01" nType="-99"/>
          <Node pos="r" depth="2" NCoef="0" IVar="-1" Cut="0.0000000000000000e+00" cType="1" res="-1.4247944345697761e-03" rms="4.5482799410820007e-01" purity="6.0353314876556396e-01" nType="-99"/>
        </Node>
        <Node pos="r" depth="1" NCoef="0" IVar="6" Cut="3.9523808956146240e+00" cType="1" res="-2.6086317375302315e-03" rms="4.3233725428581238e-01" purity="5.0457662343978882e-01" nType="0">
          <Node pos="l" depth="2" NCoef="0" IVar="-1" Cut="0.0000000000000000e+00" cType="1" res="-9.7289541736245155e-04" rms="4.3388667702674866e-01" purity="5.0943249464035034e-01" nType="-99"/>
          <Node pos="r" depth="2" NCoef="0" IVar="-1" Cut="0.0000000000000000e+00" cType="1" res="7.4097677133977413e-04" rms="4.2464664578437805e-01" purity="4.8085477948188782e-01" nType="-99"/>
        </Node>
      </Node>
    </BinaryTree>
    <BinaryTree type="DecisionTree" boostWeight="1.0000000000000000e+00" itree="505">
      <Node pos="s" depth="0" NCoef="0" IVar="5" Cut="3.3654155731201172e+00" cType="1" res="-7.5070641469210386e-04" rms="4.3177884817123413e-01" purity="4.9830403923988342e-01" nType="0">
        <Node pos="l" depth="1" NCoef="0" IVar="7" Cut="7.6403403282165527e+00" cType="1" res="-1.1471770267235115e-04" rms="4.3224632740020752e-01" purity="4.9738162755966187e-01" nType="0">
          <Node pos="l" depth="2" NCoef="0" IVar="-1" Cut="0.0000000000000000e+00" cType="1" res="1.3409685925580561e-04" rms="4.3421041965484619e-01" purity="4.8226064443588257e-01" nType="-99"/>
          <Node pos="r" depth="2" NCoef="0" IVar="-1" Cut="0.0000000000000000e+00" cType="1" res="-2.0115056540817022e-03" rms="4.1003960371017456e-01" purity="6.6311806440353394e-01" nType="-99"/>
        </Node>
        <Node pos="r" depth="1" NCoef="0" IVar="-1" Cut="0.0000000000000000e+00" cType="1" res="-4.2265644297003746e-03" rms="4.2070084810256958e-01" purity="5.1936930418014526e-01" nType="-99"/>
      </Node>
    </BinaryTree>
    <BinaryTree type="DecisionTree" boostWeight="1.0000000000000000e+00" itree="506">
      <Node pos="s" depth="0" NCoef="0" IVar="3" Cut="4.2857143282890320e-01" cType="1" res="-1.8587340309750289e-04" rms="4.3187907338142395e-01" purity="4.9901542067527771e-01" nType="0">
        <Node pos="l" depth="1" NCoef="0" IVar="2" Cut="-1.3764443397521973e+00" cType="1" res="-1.5044340398162603e-03" rms="4.2963224649429321e-01" purity="4.9644818902015686e-01" nType="0">
          <Node pos="l" depth="2" NCoef="0" IVar="-1" Cut="0.0000000000000000e+00" cType="1" res="2.2544746752828360e-03" rms="4.1819894313812256e-01" purity="5.0971353054046631e-01" nType="-99"/>
          <Node pos="r" depth="2" NCoef="0" IVar="-1" Cut="0.0000000000000000e+00" cType="1" res="-6.9981173146516085e-04" rms="4.3094718456268311e-01" purity="4.9488291144371033e-01" nType="-99"/>
        </Node>
        <Node pos="r" depth="1" NCoef="0" IVar="0" Cut="9.2037606239318848e-01" cType="1" res="7.1746194735169411e-03" rms="4.4414064288139343e-01" purity="5.1334655284881592e-01" nType="0">
          <Node pos="l" depth="2" NCoef="0" IVar="-1" Cut="0.0000000000000000e+00" cType="1" res="-6.9294852437451482e-04" rms="4.4353353977203369e-01" purity="6.4004677534103394e-01" nType="-99"/>
          <Node pos="r" depth="2" NCoef="0" IVar="-1" Cut="0.0000000000000000e+00" cType="1" res="3.5551688633859158e-03" rms="4.4444701075553894e-01" purity="4.2014053463935852e-01" nType="-99"/>
        </Node>
      </Node>
    </BinaryTree>
    <BinaryTree type="DecisionTree" boostWeight="1.0000000000000000e+00" itree="507">
      <Node pos="s" depth="0" NCoef="0" IVar="4" Cut="8.1809222698211670e-01" cType="1" res="-8.4164721192792058e-04" rms="4.3345892429351807e-01" purity="4.9857541918754578e-01" nType="0">
        <Node pos="l" depth="1" NCoef="0" IVar="7" Cut="1.4326692819595337e+00" cType="1" res="2.1293489262461662e-03" rms="4.2989569902420044e-01" purity="3.5771664977073669e-01" nType="0">
          <Node pos="l" depth="2" NCoef="0" IVar="-1" Cut="0.0000000000000000e+00" cType="1" res="4.8106419853866100e-03" rms="4.5418608188629150e-01" purity="3.4235256910324097e-01" nType="-99"/>
          <Node pos="r" depth="2" NCoef="0" IVar="-1" Cut="0.0000000000000000e+00" cType="1" res="-9.0372159320395440e-05" rms="4.2622348666191101e-01" purity="3.5993152856826782e-01" nType="-99"/>
        </Node>
        <Node pos="r" depth="1" NCoef="0" IVar="4" Cut="9.7271323204040527e-01" cType="1" res="-4.2925425805151463e-03" rms="4.3753597140312195e-01" purity="6.6218680143356323e-01" nType="0">
          <Node pos="l" depth="2" NCoef="0" IVar="-1" Cut="0.0000000000000000e+00" cType="1" res="-2.5174594484269619e-03" rms="4.4196534156799316e-01" purity="6.4434593915939331e-01" nType="-99"/>
          <Node pos="r" depth="2" NCoef="0" IVar="-1" Cut="0.0000000000000000e+00" cType="1" res="5.7864985428750515e-03" rms="4.1544657945632935e-01" purity="7.4483549594879150e-01" nType="-99"/>
        </Node>
      </Node>
    </BinaryTree>
    <BinaryTree type="DecisionTree" boostWeight="1.0000000000000000e+00" itree="508">
      <Node pos="s" depth="0" NCoef="0" IVar="4" Cut="5.3209215402603149e-01" cType="1" res="1.3359244912862778e-03" rms="4.3195253610610962e-01" purity="5.0148683786392212e-01" nType="0">
        <Node pos="l" depth="1" NCoef="0" IVar="8" Cut="-5.3283923864364624e-01" cType="1" res="-4.1313418187201023e-03" rms="3.6594963073730469e-01" purity="1.7810021340847015e-01" nType="0">
          <Node pos="l" depth="2" NCoef="0" IVar="-1" Cut="0.0000000000000000e+00" cType="1" res="-1.2529636733233929e-02" rms="3.2154008746147156e-01" purity="1.2770670652389526e-01" nType="-99"/>
          <Node pos="r" depth="2" NCoef="0" IVar="-1" Cut="0.0000000000000000e+00" cType="1" res="7.8386731911450624e-04" rms="3.7565603852272034e-01" purity="1.9032204151153564e-01" nType="-99"/>
        </Node>
        <Node pos="r" depth="1" NCoef="0" IVar="4" Cut="9.6720296144485474e-01" cType="1" res="2.8599591460078955e-03" rms="4.4861200451850891e-01" purity="5.9163284301757812e-01" nType="0">
          <Node pos="l" depth="2" NCoef="0" IVar="-1" Cut="0.0000000000000000e+00" cType="1" res="9.5883777248673141e-05" rms="4.5400020480155945e-01" purity="5.6669044494628906e-01" nType="-99"/>
          <Node pos="r" depth="2" NCoef="0" IVar="-1" Cut="0.0000000000000000e+00" cType="1" res="5.0461525097489357e-03" rms="4.1295251250267029e-01" purity="7.4778318405151367e-01" nType="-99"/>
        </Node>
      </Node>
    </BinaryTree>
    <BinaryTree type="DecisionTree" boostWeight="1.0000000000000000e+00" itree="509">
      <Node pos="s" depth="0" NCoef="0" IVar="10" Cut="5.2285713195800781e+01" cType="1" res="-9.7737309988588095e-04" rms="4.3226322531700134e-01" purity="4.9759447574615479e-01" nType="0">
        <Node pos="l" depth="1" NCoef="0" IVar="2" Cut="1.4668254852294922e+00" cType="1" res="-1.7108635511249304e-03" rms="4.3253096938133240e-01" purity="5.0380736589431763e-01" nType="0">
          <Node pos="l" depth="2" NCoef="0" IVar="-1" Cut="0.0000000000000000e+00" cType="1" res="-2.3069579037837684e-04" rms="4.3366181850433350e-01" purity="5.0423675775527954e-01" nType="-99"/>
          <Node pos="r" depth="2" NCoef="0" IVar="-1" Cut="0.0000000000000000e+00" cType="1" res="-3.1867485959082842e-03" rms="4.1901457309722900e-01" purity="4.9880692362785339e-01" nType="-99"/>
        </Node>
        <Node pos="r" depth="1" NCoef="0" IVar="-1" Cut="0.0000000000000000e+00" cType="1" res="2.8147064149379730e-03" rms="4.2787835001945496e-01" purity="4.0017387270927429e-01" nType="-99"/>
      </Node>
    </BinaryTree>
    <BinaryTree type="DecisionTree" boostWeight="1.0000000000000000e+00" itree="510">
      <Node pos="s" depth="0" NCoef="0" IVar="9" Cut="-4.2857143282890320e-01" cType="1" res="2.7928157942369580e-04" rms="4.3176528811454773e-01" purity="5.0060909986495972e-01" nType="0">
        <Node pos="l" depth="1" NCoef="0" IVar="4" Cut="9.0598374605178833e-01" cType="1" res="-5.9916330501437187e-03" rms="4.3827053904533386e-01" purity="4.4653987884521484e-01" nType="0">
          <Node pos="l" depth="2" NCoef="0" IVar="-1" Cut="0.0000000000000000e+00" cType="1" res="6.1469932552427053e-04" rms="4.3193379044532776e-01" purity="3.5959228873252869e-01" nType="-99"/>
          <Node pos="r" depth="2" NCoef="0" IVar="-1" Cut="0.0000000000000000e+00" cType="1" res="-5.7823453098535538e-03" rms="4.5077764987945557e-01" purity="6.2887704372406006e-01" nType="-99"/>
        </Node>
        <Node pos="r" depth="1" NCoef="0" IVar="2" Cut="-7.1933484077453613e-01" cType="1" res="1.3572011375799775e-03" rms="4.3062800168991089e-01" purity="5.0990313291549683e-01" nType="0">
          <Node pos="l" depth="2" NCoef="0" IVar="-1" Cut="0.0000000000000000e+00" cType="1" res="-1.1387430131435394e-03" rms="4.2395827174186707e-01" purity="5.0682204961776733e-01" nType="-99"/>
          <Node pos="r" depth="2" NCoef="0" IVar="-1" Cut="0.0000000000000000e+00" cType="1" res="7.5401930371299386e-04" rms="4.3240582942962646e-01" purity="5.1073825359344482e-01" nType="-99"/>
        </Node>
      </Node>
    </BinaryTree>
    <BinaryTree type="DecisionTree" boostWeight="1.0000000000000000e+00" itree="511">
      <Node pos="s" depth="0" NCoef="0" IVar="8" Cut="-6.3463844358921051e-02" cType="1" res="1.3369676889851689e-03" rms="4.3157592415809631e-01" purity="5.0180989503860474e-01" nType="0">
        <Node pos="l" depth="1" NCoef="0" IVar="4" Cut="6.1502486467361450e-01" cType="1" res="4.4398903846740723e-03" rms="4.3018618226051331e-01" purity="5.1302957534790039e-01" nType="0">
          <Node pos="l" depth="2" NCoef="0" IVar="-1" Cut="0.0000000000000000e+00" cType="1" res="-6.3385453540831804e-04" rms="3.9475628733634949e-01" purity="2.3308281600475311e-01" nType="-99"/>
          <Node pos="r" depth="2" NCoef="0" IVar="-1" Cut="0.0000000000000000e+00" cType="1" res="1.7786670941859484e-03" rms="4.4401746988296509e-01" purity="6.2907552719116211e-01" nType="-99"/>
        </Node>
        <Node pos="r" depth="1" NCoef="0" IVar="0" Cut="6.4201694726943970e-01" cType="1" res="-1.2160413898527622e-03" rms="4.3269932270050049e-01" purity="4.9257874488830566e-01" nType="0">
          <Node pos="l" depth="2" NCoef="0" IVar="-1" Cut="0.0000000000000000e+00" cType="1" res="2.6585257146507502e-03" rms="4.3131321668624878e-01" purity="6.7829263210296631e-01" nType="-99"/>
          <Node pos="r" depth="2" NCoef="0" IVar="-1" Cut="0.0000000000000000e+00" cType="1" res="-6.6749838879331946e-04" rms="4.3284419178962708e-01" purity="4.7056809067726135e-01" nType="-99"/>
        </Node>
      </Node>
    </BinaryTree>
    <BinaryTree type="DecisionTree" boostWeight="1.0000000000000000e+00" itree="512">
      <Node pos="s" depth="0" NCoef="0" IVar="6" Cut="-2.8571429252624512e+00" cType="1" res="7.8272144310176373e-04" rms="4.3217733502388000e-01" purity="4.9949690699577332e-01" nType="0">
        <Node pos="l" depth="1" NCoef="0" IVar="2" Cut="1.0202735662460327e+00" cType="1" res="5.9908251278102398e-03" rms="4.2361530661582947e-01" purity="4.8616853356361389e-01" nType="0">
          <Node pos="l" depth="2" NCoef="0" IVar="-1" Cut="0.0000000000000000e+00" cType="1" res="6.3417397905141115e-04" rms="4.2477819323539734e-01" purity="4.8251584172248840e-01" nType="-99"/>
          <Node pos="r" depth="2" NCoef="0" IVar="-1" Cut="0.0000000000000000e+00" cType="1" res="6.1690751463174820e-03" rms="4.1802108287811279e-01" purity="5.0240433216094971e-01" nType="-99"/>
        </Node>
        <Node pos="r" depth="1" NCoef="0" IVar="3" Cut="-3.3333334326744080e-01" cType="1" res="-5.6734017562121153e-04" rms="4.3435907363891602e-01" purity="5.0295192003250122e-01" nType="0">
          <Node pos="l" depth="2" NCoef="0" IVar="-1" Cut="0.0000000000000000e+00" cType="1" res="1.3978009810671210e-03" rms="4.4295695424079895e-01" purity="5.1594972610473633e-01" nType="-99"/>
          <Node pos="r" depth="2" NCoef="0" IVar="-1" Cut="0.0000000000000000e+00" cType="1" res="-6.1232427833601832e-04" rms="4.3183776736259460e-01" purity="4.9921211600303650e-01" nType="-99"/>
        </Node>
      </Node>
    </BinaryTree>
    <BinaryTree type="DecisionTree" boostWeight="1.0000000000000000e+00" itree="513">
      <Node pos="s" depth="0" NCoef="0" IVar="3" Cut="-7.1428573131561279e-01" cType="1" res="-6.6361116478219628e-04" rms="4.3223038315773010e-01" purity="4.9868810176849365e-01" nType="0">
        <Node pos="l" depth="1" NCoef="0" IVar="-1" Cut="0.0000000000000000e+00" cType="1" res="1.9265253795310855e-03" rms="4.6083289384841919e-01" purity="5.0404369831085205e-01" nType="-99"/>
        <Node pos="r" depth="1" NCoef="0" IVar="9" Cut="5.2380955219268799e-01" cType="1" res="-1.2294304324313998e-03" rms="4.3028622865676880e-01" purity="4.9833765625953674e-01" nType="0">
          <Node pos="l" depth="2" NCoef="0" IVar="-1" Cut="0.0000000000000000e+00" cType="1" res="-1.3559221406467259e-04" rms="4.2987859249114990e-01" purity="5.0473052263259888e-01" nType="-99"/>
          <Node pos="r" depth="2" NCoef="0" IVar="-1" Cut="0.0000000000000000e+00" cType="1" res="-2.0551641937345266e-03" rms="4.3392512202262878e-01" purity="4.4013088941574097e-01" nType="-99"/>
        </Node>
      </Node>
    </BinaryTree>
    <BinaryTree type="DecisionTree" boostWeight="1.0000000000000000e+00" itree="514">
      <Node pos="s" depth="0" NCoef="0" IVar="8" Cut="-6.5994396805763245e-02" cType="1" res="2.5829335208982229e-04" rms="4.3173056840896606e-01" purity="4.9995160102844238e-01" nType="0">
        <Node pos="l" depth="1" NCoef="0" IVar="9" Cut="3.3333334326744080e-01" cType="1" res="4.7043948434293270e-03" rms="4.3090012669563293e-01" purity="5.1168388128280640e-01" nType="0">
          <Node pos="l" depth="2" NCoef="0" IVar="-1" Cut="0.0000000000000000e+00" cType="1" res="1.6349117504432797e-03" rms="4.3365997076034546e-01" purity="5.3530722856521606e-01" nType="-99"/>
          <Node pos="r" depth="2" NCoef="0" IVar="-1" Cut="0.0000000000000000e+00" cType="1" res="-1.8750287126749754e-03" rms="4.0985575318336487e-01" purity="3.3789014816284180e-01" nType="-99"/>
        </Node>
        <Node pos="r" depth="1" NCoef="0" IVar="5" Cut="1.0018527507781982e+00" cType="1" res="-3.3684922382235527e-03" rms="4.3237295746803284e-01" purity="4.9038138985633850e-01" nType="0">
          <Node pos="l" depth="2" NCoef="0" IVar="-1" Cut="0.0000000000000000e+00" cType="1" res="6.5933266887441278e-04" rms="4.4505169987678528e-01" purity="5.0274270772933960e-01" nType="-99"/>
          <Node pos="r" depth="2" NCoef="0" IVar="-1" Cut="0.0000000000000000e+00" cType="1" res="-2.1384262945502996e-03" rms="4.2273363471031189e-01" purity="4.8127377033233643e-01" nType="-99"/>
        </Node>
      </Node>
    </BinaryTree>
    <BinaryTree type="DecisionTree" boostWeight="1.0000000000000000e+00" itree="515">
      <Node pos="s" depth="0" NCoef="0" IVar="4" Cut="8.6081582307815552e-01" cType="1" res="-9.8231411539018154e-04" rms="4.3197861313819885e-01" purity="4.9777457118034363e-01" nType="0">
        <Node pos="l" depth="1" NCoef="0" IVar="10" Cut="2.5714284896850586e+01" cType="1" res="1.3504393864423037e-03" rms="4.3184795975685120e-01" purity="3.8044667243957520e-01" nType="0">
          <Node pos="l" depth="2" NCoef="0" IVar="-1" Cut="0.0000000000000000e+00" cType="1" res="-4.8402848187834024e-04" rms="4.3916350603103638e-01" purity="3.7765213847160339e-01" nType="-99"/>
          <Node pos="r" depth="2" NCoef="0" IVar="-1" Cut="0.0000000000000000e+00" cType="1" res="2.4178498424589634e-03" rms="4.1482225060462952e-01" purity="3.8673549890518188e-01" nType="-99"/>
        </Node>
        <Node pos="r" depth="1" NCoef="0" IVar="4" Cut="9.7678017616271973e-01" cType="1" res="-4.6408874914050102e-03" rms="4.3215802311897278e-01" purity="6.8178570270538330e-01" nType="0">
          <Node pos="l" depth="2" NCoef="0" IVar="-1" Cut="0.0000000000000000e+00" cType="1" res="-2.6302488986402750e-03" rms="4.3441882729530334e-01" purity="6.7062699794769287e-01" nType="-99"/>
          <Node pos="r" depth="2" NCoef="0" IVar="-1" Cut="0.0000000000000000e+00" cType="1" res="6.3954386860132217e-03" rms="4.1866695880889893e-01" purity="7.4164450168609619e-01" nType="-99"/>
        </Node>
      </Node>
    </BinaryTree>
    <BinaryTree type="DecisionTree" boostWeight="1.0000000000000000e+00" itree="516">
      <Node pos="s" depth="0" NCoef="0" IVar="8" Cut="-1.5100405216217041e+00" cType="1" res="-4.8415607307106256e-04" rms="4.3332546949386597e-01" purity="4.9941802024841309e-01" nType="0">
        <Node pos="l" depth="1" NCoef="0" IVar="-1" Cut="0.0000000000000000e+00" cType="1" res="-4.1123046539723873e-03" rms="4.1987168788909912e-01" purity="6.6776359081268311e-01" nType="-99"/>
        <Node pos="r" depth="1" NCoef="0" IVar="10" Cut="9.6666669845581055e+00" cType="1" res="5.5287673603743315e-04" rms="4.3429830670356750e-01" purity="4.8681282997131348e-01" nType="0">
          <Node pos="l" depth="2" NCoef="0" IVar="-1" Cut="0.0000000000000000e+00" cType="1" res="-1.0464349761605263e-03" rms="4.5677134394645691e-01" purity="5.1420825719833374e-01" nType="-99"/>
          <Node pos="r" depth="2" NCoef="0" IVar="-1" Cut="0.0000000000000000e+00" cType="1" res="8.4621732821688056e-04" rms="4.2230880260467529e-01" purity="4.7278791666030884e-01" nType="-99"/>
        </Node>
      </Node>
    </BinaryTree>
    <BinaryTree type="DecisionTree" boostWeight="1.0000000000000000e+00" itree="517">
      <Node pos="s" depth="0" NCoef="0" IVar="4" Cut="9.4623249769210815e-01" cType="1" res="1.2465052714105695e-04" rms="4.3239042162895203e-01" purity="5.0010585784912109e-01" nType="0">
        <Node pos="l" depth="1" NCoef="0" IVar="8" Cut="1.1485334634780884e+00" cType="1" res="1.5542884357273579e-03" rms="4.3455091118812561e-01" purity="4.4975671172142029e-01" nType="0">
          <Node pos="l" depth="2" NCoef="0" IVar="-1" Cut="0.0000000000000000e+00" cType="1" res="1.3615307580039371e-05" rms="4.3602225184440613e-01" purity="4.2526596784591675e-01" nType="-99"/>
          <Node pos="r" depth="2" NCoef="0" IVar="-1" Cut="0.0000000000000000e+00" cType="1" res="3.1390185467898846e-03" rms="4.2425832152366638e-01" purity="6.1647152900695801e-01" nType="-99"/>
        </Node>
        <Node pos="r" depth="1" NCoef="0" IVar="4" Cut="9.5844060182571411e-01" cType="1" res="-6.3768224790692329e-03" rms="4.2236486077308655e-01" purity="7.2907561063766479e-01" nType="0">
          <Node pos="l" depth="2" NCoef="0" IVar="-1" Cut="0.0000000000000000e+00" cType="1" res="-9.6966437995433807e-03" rms="4.2835769057273865e-01" purity="7.0724564790725708e-01" nType="-99"/>
          <Node pos="r" depth="2" NCoef="0" IVar="-1" Cut="0.0000000000000000e+00" cType="1" res="3.4490029793232679e-04" rms="4.2038762569427490e-01" purity="7.3505753278732300e-01" nType="-99"/>
        </Node>
      </Node>
    </BinaryTree>
    <BinaryTree type="DecisionTree" boostWeight="1.0000000000000000e+00" itree="518">
      <Node pos="s" depth="0" NCoef="0" IVar="3" Cut="-7.1428573131561279e-01" cType="1" res="7.8172329813241959e-04" rms="4.3214979767799377e-01" purity="5.0092881917953491e-01" nType="0">
        <Node pos="l" depth="1" NCoef="0" IVar="-1" Cut="0.0000000000000000e+00" cType="1" res="3.1572405714541674e-03" rms="4.5739060640335083e-01" purity="5.0696998834609985e-01" nType="-99"/>
        <Node pos="r" depth="1" NCoef="0" IVar="1" Cut="1.2481152534484863e+01" cType="1" res="-2.2300362616078928e-05" rms="4.3043562769889832e-01" purity="5.0053375959396362e-01" nType="0">
          <Node pos="l" depth="2" NCoef="0" IVar="-1" Cut="0.0000000000000000e+00" cType="1" res="1.5341480320785195e-04" rms="4.3094936013221741e-01" purity="5.0106406211853027e-01" nType="-99"/>
          <Node pos="r" depth="2" NCoef="0" IVar="-1" Cut="0.0000000000000000e+00" cType="1" res="-3.7311161868274212e-03" rms="4.1855147480964661e-01" purity="4.8866859078407288e-01" nType="-99"/>
        </Node>
      </Node>
    </BinaryTree>
    <BinaryTree type="DecisionTree" boostWeight="1.0000000000000000e+00" itree="519">
      <Node pos="s" depth="0" NCoef="0" IVar="4" Cut="6.1495625972747803e-01" cType="1" res="-3.9498342084698379e-04" rms="4.3229416012763977e-01" purity="4.9949395656585693e-01" nType="0">
        <Node pos="l" depth="1" NCoef="0" IVar="7" Cut="1.3924108743667603e+00" cType="1" res="4.1906824335455894e-03" rms="4.0011456608772278e-01" purity="2.3957283794879913e-01" nType="0">
          <Node pos="l" depth="2" NCoef="0" IVar="-1" Cut="0.0000000000000000e+00" cType="1" res="9.1428821906447411e-03" rms="4.5376542210578918e-01" purity="3.2655203342437744e-01" nType="-99"/>
          <Node pos="r" depth="2" NCoef="0" IVar="-1" Cut="0.0000000000000000e+00" cType="1" res="-5.2357347158249468e-05" rms="3.9178225398063660e-01" purity="2.2733661532402039e-01" nType="-99"/>
        </Node>
        <Node pos="r" depth="1" NCoef="0" IVar="10" Cut="5.5666667938232422e+01" cType="1" res="-2.3313430137932301e-03" rms="4.4517031311988831e-01" purity="6.0924917459487915e-01" nType="0">
          <Node pos="l" depth="2" NCoef="0" IVar="-1" Cut="0.0000000000000000e+00" cType="1" res="-1.5527897630818188e-04" rms="4.4578558206558228e-01" purity="6.2010020017623901e-01" nType="-99"/>
          <Node pos="r" depth="2" NCoef="0" IVar="-1" Cut="0.0000000000000000e+00" cType="1" res="-8.3846980705857277e-03" rms="4.3221771717071533e-01" purity="4.0563327074050903e-01" nType="-99"/>
        </Node>
      </Node>
    </BinaryTree>
    <BinaryTree type="DecisionTree" boostWeight="1.0000000000000000e+00" itree="520">
      <Node pos="s" depth="0" NCoef="0" IVar="3" Cut="4.7619048506021500e-02" cType="1" res="-1.7337234748993069e-04" rms="4.3266576528549194e-01" purity="5.0024926662445068e-01" nType="0">
        <Node pos="l" depth="1" NCoef="0" IVar="3" Cut="-2.2727635223418474e-03" cType="1" res="-2.6637045666575432e-03" rms="4.3192866444587708e-01" purity="4.9612993001937866e-01" nType="0">
          <Node pos="l" depth="2" NCoef="0" IVar="-1" Cut="0.0000000000000000e+00" cType="1" res="-3.4595062606967986e-04" rms="4.3225052952766418e-01" purity="4.9864989519119263e-01" nType="-99"/>
          <Node pos="r" depth="2" NCoef="0" IVar="-1" Cut="0.0000000000000000e+00" cType="1" res="-4.2449329048395157e-03" rms="4.2861938476562500e-01" purity="4.7201222181320190e-01" nType="-99"/>
        </Node>
        <Node pos="r" depth="1" NCoef="0" IVar="2" Cut="6.3246220350265503e-01" cType="1" res="2.8980947099626064e-03" rms="4.3355345726013184e-01" purity="5.0532990694046021e-01" nType="0">
          <Node pos="l" depth="2" NCoef="0" IVar="-1" Cut="0.0000000000000000e+00" cType="1" res="1.8049764912575483e-03" rms="4.3863499164581299e-01" purity="5.0764232873916626e-01" nType="-99"/>
          <Node pos="r" depth="2" NCoef="0" IVar="-1" Cut="0.0000000000000000e+00" cType="1" res="-8.5241353372111917e-04" rms="4.2578092217445374e-01" purity="5.0187712907791138e-01" nType="-99"/>
        </Node>
      </Node>
    </BinaryTree>
    <BinaryTree type="DecisionTree" boostWeight="1.0000000000000000e+00" itree="521">
      <Node pos="s" depth="0" NCoef="0" IVar="5" Cut="1.4981892108917236e+00" cType="1" res="-4.3765420559793711e-04" rms="4.3235865235328674e-01" purity="4.9919798970222473e-01" nType="0">
        <Node pos="l" depth="1" NCoef="0" IVar="6" Cut="4.4761905670166016e+00" cType="1" res="-2.5980374775826931e-03" rms="4.3849378824234009e-01" purity="5.0505292415618896e-01" nType="0">
          <Node pos="l" depth="2" NCoef="0" IVar="-1" Cut="0.0000000000000000e+00" cType="1" res="-3.9389493758790195e-04" rms="4.4002771377563477e-01" purity="5.0884938240051270e-01" nType="-99"/>
          <Node pos="r" depth="2" NCoef="0" IVar="-1" Cut="0.0000000000000000e+00" cType="1" res="-4.4255945831537247e-03" rms="4.1844174265861511e-01" purity="4.5718958973884583e-01" nType="-99"/>
        </Node>
        <Node pos="r" depth="1" NCoef="0" IVar="4" Cut="4.0112602710723877e-01" cType="1" res="3.0011283233761787e-03" rms="4.2238646745681763e-01" purity="4.8987859487533569e-01" nType="0">
          <Node pos="l" depth="2" NCoef="0" IVar="-1" Cut="0.0000000000000000e+00" cType="1" res="-8.6927739903330803e-03" rms="2.6265406608581543e-01" purity="7.6294012367725372e-02" nType="-99"/>
          <Node pos="r" depth="2" NCoef="0" IVar="-1" Cut="0.0000000000000000e+00" cType="1" res="1.2970714597031474e-03" rms="4.3763831257820129e-01" purity="5.3960114717483521e-01" nType="-99"/>
        </Node>
      </Node>
    </BinaryTree>
    <BinaryTree type="DecisionTree" boostWeight="1.0000000000000000e+00" itree="522">
      <Node pos="s" depth="0" NCoef="0" IVar="3" Cut="-1.4285714924335480e-01" cType="1" res="7.2724120400380343e-05" rms="4.3206816911697388e-01" purity="4.9977853894233704e-01" nType="0">
        <Node pos="l" depth="1" NCoef="0" IVar="4" Cut="8.2431793212890625e-01" cType="1" res="3.0751314479857683e-03" rms="4.3439483642578125e-01" purity="5.0776171684265137e-01" nType="0">
          <Node pos="l" depth="2" NCoef="0" IVar="-1" Cut="0.0000000000000000e+00" cType="1" res="-7.7515222073998302e-05" rms="4.3230921030044556e-01" purity="3.6242461204528809e-01" nType="-99"/>
          <Node pos="r" depth="2" NCoef="0" IVar="-1" Cut="0.0000000000000000e+00" cType="1" res="1.7919192323461175e-03" rms="4.3675124645233154e-01" purity="6.7506587505340576e-01" nType="-99"/>
        </Node>
        <Node pos="r" depth="1" NCoef="0" IVar="10" Cut="1.0380952835083008e+01" cType="1" res="-1.6392170218750834e-03" rms="4.3072652816772461e-01" purity="4.9522656202316284e-01" nType="0">
          <Node pos="l" depth="2" NCoef="0" IVar="-1" Cut="0.0000000000000000e+00" cType="1" res="-1.4923162525519729e-03" rms="4.5487615466117859e-01" purity="5.1616102457046509e-01" nType="-99"/>
          <Node pos="r" depth="2" NCoef="0" IVar="-1" Cut="0.0000000000000000e+00" cType="1" res="1.3874148135073483e-04" rms="4.1881781816482544e-01" purity="4.8533758521080017e-01" nType="-99"/>
        </Node>
      </Node>
    </BinaryTree>
    <BinaryTree type="DecisionTree" boostWeight="1.0000000000000000e+00" itree="523">
      <Node pos="s" depth="0" NCoef="0" IVar="9" Cut="-7.1428573131561279e-01" cType="1" res="-1.2511984677985311e-03" rms="4.3194299936294556e-01" purity="4.9813142418861389e-01" nType="0">
        <Node pos="l" depth="1" NCoef="0" IVar="-1" Cut="0.0000000000000000e+00" cType="1" res="3.4451102837920189e-03" rms="4.4536355137825012e-01" purity="4.0065598487854004e-01" nType="-99"/>
        <Node pos="r" depth="1" NCoef="0" IVar="6" Cut="0.0000000000000000e+00" cType="1" res="-1.9943686202168465e-03" rms="4.3124023079872131e-01" purity="5.0305849313735962e-01" nType="0">
          <Node pos="l" depth="2" NCoef="0" IVar="-1" Cut="0.0000000000000000e+00" cType="1" res="-1.2443113373592496e-03" rms="4.3190351128578186e-01" purity="4.9858725070953369e-01" nType="-99"/>
          <Node pos="r" depth="2" NCoef="0" IVar="-1" Cut="0.0000000000000000e+00" cType="1" res="-2.8303531507845037e-05" rms="4.3076443672180176e-01" purity="5.0619441270828247e-01" nType="-99"/>
        </Node>
      </Node>
    </BinaryTree>
    <BinaryTree type="DecisionTree" boostWeight="1.0000000000000000e+00" itree="524">
      <Node pos="s" depth="0" NCoef="0" IVar="0" Cut="5.8463472127914429e-01" cType="1" res="1.2860859278589487e-03" rms="4.3210461735725403e-01" purity="5.0081914663314819e-01" nType="0">
        <Node pos="l" depth="1" NCoef="0" IVar="-1" Cut="0.0000000000000000e+00" cType="1" res="-2.1130095701664686e-03" rms="4.3982252478599548e-01" purity="6.6816401481628418e-01" nType="-99"/>
        <Node pos="r" depth="1" NCoef="0" IVar="4" Cut="8.2124108076095581e-01" cType="1" res="1.9867194350808859e-03" rms="4.3150162696838379e-01" purity="4.8804154992103577e-01" nType="0">
          <Node pos="l" depth="2" NCoef="0" IVar="-1" Cut="0.0000000000000000e+00" cType="1" res="-1.7704968922771513e-04" rms="4.2706239223480225e-01" purity="3.4717348217964172e-01" nType="-99"/>
          <Node pos="r" depth="2" NCoef="0" IVar="-1" Cut="0.0000000000000000e+00" cType="1" res="1.3431538827717304e-03" rms="4.3689265847206116e-01" purity="6.6178107261657715e-01" nType="-99"/>
        </Node>
      </Node>
    </BinaryTree>
    <BinaryTree type="DecisionTree" boostWeight="1.0000000000000000e+00" itree="525">
      <Node pos="s" depth="0" NCoef="0" IVar="5" Cut="7.8229570388793945e-01" cType="1" res="4.0093620191328228e-04" rms="4.3137446045875549e-01" purity="4.9933141469955444e-01" nType="0">
        <Node pos="l" depth="1" NCoef="0" IVar="4" Cut="4.9110719561576843e-01" cType="1" res="-5.3742225281894207e-03" rms="4.4866374135017395e-01" purity="5.0195747613906860e-01" nType="0">
          <Node pos="l" depth="2" NCoef="0" IVar="-1" Cut="0.0000000000000000e+00" cType="1" res="5.6663439609110355e-03" rms="3.8351216912269592e-01" purity="1.9002215564250946e-01" nType="-99"/>
          <Node pos="r" depth="2" NCoef="0" IVar="-1" Cut="0.0000000000000000e+00" cType="1" res="-1.9851154647767544e-03" rms="4.5722475647926331e-01" purity="5.4699486494064331e-01" nType="-99"/>
        </Node>
        <Node pos="r" depth="1" NCoef="0" IVar="4" Cut="4.7593471407890320e-01" cType="1" res="2.9087839648127556e-03" rms="4.2362245917320251e-01" purity="4.9819105863571167e-01" nType="0">
          <Node pos="l" depth="2" NCoef="0" IVar="-1" Cut="0.0000000000000000e+00" cType="1" res="-3.7087777163833380e-03" rms="3.2501149177551270e-01" purity="1.2768097221851349e-01" nType="-99"/>
          <Node pos="r" depth="2" NCoef="0" IVar="-1" Cut="0.0000000000000000e+00" cType="1" res="1.3710909988731146e-03" rms="4.4323670864105225e-01" purity="5.8370304107666016e-01" nType="-99"/>
        </Node>
      </Node>
    </BinaryTree>
    <BinaryTree type="DecisionTree" boostWeight="1.0000000000000000e+00" itree="526">
      <Node pos="s" depth="0" NCoef="0" IVar="8" Cut="-4.0452942252159119e-01" cType="1" res="9.6417509485036135e-04" rms="4.3221205472946167e-01" purity="5.0132542848587036e-01" nType="0">
        <Node pos="l" depth="1" NCoef="0" IVar="7" Cut="3.2452373504638672e+00" cType="1" res="5.4496205411851406e-03" rms="4.3102219700813293e-01" purity="5.4815429449081421e-01" nType="0">
          <Node pos="l" depth="2" NCoef="0" IVar="-1" Cut="0.0000000000000000e+00" cType="1" res="3.3981264568865299e-03" rms="4.4620761275291443e-01" purity="4.9680712819099426e-01" nType="-99"/>
          <Node pos="r" depth="2" NCoef="0" IVar="-1" Cut="0.0000000000000000e+00" cType="1" res="-2.0855588445556350e-05" rms="4.1994282603263855e-01" purity="5.8421057462692261e-01" nType="-99"/>
        </Node>
        <Node pos="r" depth="1" NCoef="0" IVar="7" Cut="3.7232375144958496e+00" cType="1" res="-1.1474107159301639e-03" rms="4.3275499343872070e-01" purity="4.7928008437156677e-01" nType="0">
          <Node pos="l" depth="2" NCoef="0" IVar="-1" Cut="0.0000000000000000e+00" cType="1" res="-9.1618654550984502e-04" rms="4.3912422657012939e-01" purity="4.3086442351341248e-01" nType="-99"/>
          <Node pos="r" depth="2" NCoef="0" IVar="-1" Cut="0.0000000000000000e+00" cType="1" res="1.0923749068751931e-03" rms="4.1885039210319519e-01" purity="5.8218055963516235e-01" nType="-99"/>
        </Node>
      </Node>
    </BinaryTree>
    <BinaryTree type="DecisionTree" boostWeight="1.0000000000000000e+00" itree="527">
      <Node pos="s" depth="0" NCoef="0" IVar="9" Cut="4.7619048506021500e-02" cType="1" res="-8.0279169196728617e-05" rms="4.3183863162994385e-01" purity="4.9947637319564819e-01" nType="0">
        <Node pos="l" depth="1" NCoef="0" IVar="6" Cut="-3.8571429252624512e+00" cType="1" res="-2.1285924594849348e-03" rms="4.3152233958244324e-01" purity="4.9620136618614197e-01" nType="0">
          <Node pos="l" depth="2" NCoef="0" IVar="-1" Cut="0.0000000000000000e+00" cType="1" res="-3.9416127838194370e-03" rms="4.2114114761352539e-01" purity="4.5293432474136353e-01" nType="-99"/>
          <Node pos="r" depth="2" NCoef="0" IVar="-1" Cut="0.0000000000000000e+00" cType="1" res="-4.0657614590600133e-05" rms="4.3314835429191589e-01" purity="5.0321030616760254e-01" nType="-99"/>
        </Node>
        <Node pos="r" depth="1" NCoef="0" IVar="6" Cut="-2.6190476417541504e+00" cType="1" res="2.3912498727440834e-03" rms="4.3220707774162292e-01" purity="5.0342798233032227e-01" nType="0">
          <Node pos="l" depth="2" NCoef="0" IVar="-1" Cut="0.0000000000000000e+00" cType="1" res="2.7591390535235405e-03" rms="4.2402791976928711e-01" purity="4.9276444315910339e-01" nType="-99"/>
          <Node pos="r" depth="2" NCoef="0" IVar="-1" Cut="0.0000000000000000e+00" cType="1" res="1.1804490350186825e-04" rms="4.3422031402587891e-01" purity="5.0611257553100586e-01" nType="-99"/>
        </Node>
      </Node>
    </BinaryTree>
    <BinaryTree type="DecisionTree" boostWeight="1.0000000000000000e+00" itree="528">
      <Node pos="s" depth="0" NCoef="0" IVar="9" Cut="7.1428573131561279e-01" cType="1" res="4.1528226574882865e-05" rms="4.3250977993011475e-01" purity="4.9959295988082886e-01" nType="0">
        <Node pos="l" depth="1" NCoef="0" IVar="0" Cut="1.5124591588973999e+00" cType="1" res="-6.4139958703890443e-04" rms="4.3149617314338684e-01" purity="5.0397545099258423e-01" nType="0">
          <Node pos="l" depth="2" NCoef="0" IVar="-1" Cut="0.0000000000000000e+00" cType="1" res="2.0581770513672382e-04" rms="4.3444126844406128e-01" purity="5.2666866779327393e-01" nType="-99"/>
          <Node pos="r" depth="2" NCoef="0" IVar="-1" Cut="0.0000000000000000e+00" cType="1" res="-4.6464637853205204e-03" rms="3.9759001135826111e-01" purity="2.5617846846580505e-01" nType="-99"/>
        </Node>
        <Node pos="r" depth="1" NCoef="0" IVar="-1" Cut="0.0000000000000000e+00" cType="1" res="3.4886938519775867e-03" rms="4.5208254456520081e-01" purity="4.1197046637535095e-01" nType="-99"/>
      </Node>
    </BinaryTree>
    <BinaryTree type="DecisionTree" boostWeight="1.0000000000000000e+00" itree="529">
      <Node pos="s" depth="0" NCoef="0" IVar="9" Cut="3.3333334326744080e-01" cType="1" res="-5.7904364075511694e-04" rms="4.3228048086166382e-01" purity="4.9977955222129822e-01" nType="0">
        <Node pos="l" depth="1" NCoef="0" IVar="9" Cut="2.6983186602592468e-01" cType="1" res="1.1067357845604420e-03" rms="4.3208545446395874e-01" purity="5.0741899013519287e-01" nType="0">
          <Node pos="l" depth="2" NCoef="0" IVar="-1" Cut="0.0000000000000000e+00" cType="1" res="9.7741234640125185e-05" rms="4.3218031525611877e-01" purity="5.0610280036926270e-01" nType="-99"/>
          <Node pos="r" depth="2" NCoef="0" IVar="-1" Cut="0.0000000000000000e+00" cType="1" res="3.6323519889265299e-03" rms="4.3029013276100159e-01" purity="5.2964133024215698e-01" nType="-99"/>
        </Node>
        <Node pos="r" depth="1" NCoef="0" IVar="8" Cut="4.9978065490722656e-01" cType="1" res="-7.1925241500139236e-03" rms="4.3298140168190002e-01" purity="4.6980932354927063e-01" nType="0">
          <Node pos="l" depth="2" NCoef="0" IVar="-1" Cut="0.0000000000000000e+00" cType="1" res="-4.0672807954251766e-03" rms="4.2807629704475403e-01" purity="3.6431178450584412e-01" nType="-99"/>
          <Node pos="r" depth="2" NCoef="0" IVar="-1" Cut="0.0000000000000000e+00" cType="1" res="1.0650893673300743e-03" rms="4.3946781754493713e-01" purity="6.1661291122436523e-01" nType="-99"/>
        </Node>
      </Node>
    </BinaryTree>
    <BinaryTree type="DecisionTree" boostWeight="1.0000000000000000e+00" itree="530">
      <Node pos="s" depth="0" NCoef="0" IVar="2" Cut="1.9987003803253174e+00" cType="1" res="5.1034770876867697e-05" rms="4.3240264058113098e-01" purity="5.0056344270706177e-01" nType="0">
        <Node pos="l" depth="1" NCoef="0" IVar="9" Cut="2.3809523880481720e-01" cType="1" res="-5.8330438332632184e-04" rms="4.3317013978958130e-01" purity="4.9967280030250549e-01" nType="0">
          <Node pos="l" depth="2" NCoef="0" IVar="-1" Cut="0.0000000000000000e+00" cType="1" res="2.6056720525957644e-04" rms="4.3259075284004211e-01" purity="5.0505965948104858e-01" nType="-99"/>
          <Node pos="r" depth="2" NCoef="0" IVar="-1" Cut="0.0000000000000000e+00" cType="1" res="-1.2424496235325933e-03" rms="4.3466123938560486e-01" purity="4.8552411794662476e-01" nType="-99"/>
        </Node>
        <Node pos="r" depth="1" NCoef="0" IVar="-1" Cut="0.0000000000000000e+00" cType="1" res="3.8211389910429716e-03" rms="4.1529327630996704e-01" purity="5.1974630355834961e-01" nType="-99"/>
      </Node>
    </BinaryTree>
    <BinaryTree type="DecisionTree" boostWeight="1.0000000000000000e+00" itree="531">
      <Node pos="s" depth="0" NCoef="0" IVar="3" Cut="3.3333334326744080e-01" cType="1" res="8.2039252447430044e-05" rms="4.3222200870513916e-01" purity="4.9970275163650513e-01" nType="0">
        <Node pos="l" depth="1" NCoef="0" IVar="5" Cut="2.2208766937255859e+00" cType="1" res="-1.4630428049713373e-03" rms="4.3012660741806030e-01" purity="4.9650666117668152e-01" nType="0">
          <Node pos="l" depth="2" NCoef="0" IVar="-1" Cut="0.0000000000000000e+00" cType="1" res="-7.5309106614440680e-04" rms="4.3162572383880615e-01" purity="4.9658900499343872e-01" nType="-99"/>
          <Node pos="r" depth="2" NCoef="0" IVar="-1" Cut="0.0000000000000000e+00" cType="1" res="1.3427316443994641e-03" rms="4.2312800884246826e-01" purity="4.9612915515899658e-01" nType="-99"/>
        </Node>
        <Node pos="r" depth="1" NCoef="0" IVar="3" Cut="8.4127205610275269e-01" cType="1" res="6.0802050866186619e-03" rms="4.4021064043045044e-01" purity="5.1211005449295044e-01" nType="0">
          <Node pos="l" depth="2" NCoef="0" IVar="-1" Cut="0.0000000000000000e+00" cType="1" res="2.3398562334477901e-03" rms="4.3574270606040955e-01" purity="5.2064824104309082e-01" nType="-99"/>
          <Node pos="r" depth="2" NCoef="0" IVar="-1" Cut="0.0000000000000000e+00" cType="1" res="-1.6558639472350478e-03" rms="4.5966494083404541e-01" purity="4.7346147894859314e-01" nType="-99"/>
        </Node>
      </Node>
    </BinaryTree>
    <BinaryTree type="DecisionTree" boostWeight="1.0000000000000000e+00" itree="532">
      <Node pos="s" depth="0" NCoef="0" IVar="8" Cut="9.8574316501617432e-01" cType="1" res="-5.9059104387415573e-05" rms="4.3277716636657715e-01" purity="5.0043284893035889e-01" nType="0">
        <Node pos="l" depth="1" NCoef="0" IVar="7" Cut="2.8278248310089111e+00" cType="1" res="1.2104687048122287e-03" rms="4.3482401967048645e-01" purity="4.7997695207595825e-01" nType="0">
          <Node pos="l" depth="2" NCoef="0" IVar="-1" Cut="0.0000000000000000e+00" cType="1" res="-3.4754216903820634e-04" rms="4.4306504726409912e-01" purity="4.3107354640960693e-01" nType="-99"/>
          <Node pos="r" depth="2" NCoef="0" IVar="-1" Cut="0.0000000000000000e+00" cType="1" res="1.1950148036703467e-03" rms="4.2449697852134705e-01" purity="5.3983998298645020e-01" nType="-99"/>
        </Node>
        <Node pos="r" depth="1" NCoef="0" IVar="10" Cut="1.9142856597900391e+01" cType="1" res="-7.1518109180033207e-03" rms="4.2108830809593201e-01" purity="6.1471849679946899e-01" nType="0">
          <Node pos="l" depth="2" NCoef="0" IVar="-1" Cut="0.0000000000000000e+00" cType="1" res="8.8837352814152837e-04" rms="4.2571386694908142e-01" purity="6.5073919296264648e-01" nType="-99"/>
          <Node pos="r" depth="2" NCoef="0" IVar="-1" Cut="0.0000000000000000e+00" cType="1" res="-4.5966766774654388e-03" rms="4.1678288578987122e-01" purity="5.8317410945892334e-01" nType="-99"/>
        </Node>
      </Node>
    </BinaryTree>
    <BinaryTree type="DecisionTree" boostWeight="1.0000000000000000e+00" itree="533">
      <Node pos="s" depth="0" NCoef="0" IVar="7" Cut="5.0380940437316895e+00" cType="1" res="-4.3512074626050889e-04" rms="4.3183553218841553e-01" purity="4.9976822733879089e-01" nType="0">
        <Node pos="l" depth="1" NCoef="0" IVar="10" Cut="4.2857143402099609e+01" cType="1" res="1.7643565079197288e-03" rms="4.3583184480667114e-01" purity="4.6587860584259033e-01" nType="0">
          <Node pos="l" depth="2" NCoef="0" IVar="-1" Cut="0.0000000000000000e+00" cType="1" res="1.8343825649935752e-04" rms="4.3678849935531616e-01" purity="4.7128468751907349e-01" nType="-99"/>
          <Node pos="r" depth="2" NCoef="0" IVar="-1" Cut="0.0000000000000000e+00" cType="1" res="6.0641118325293064e-03" rms="4.1772031784057617e-01" purity="3.6825564503669739e-01" nType="-99"/>
        </Node>
        <Node pos="r" depth="1" NCoef="0" IVar="10" Cut="2.4190475463867188e+01" cType="1" res="-7.6612611301243305e-03" rms="4.1835612058639526e-01" purity="6.1110872030258179e-01" nType="0">
          <Node pos="l" depth="2" NCoef="0" IVar="-1" Cut="0.0000000000000000e+00" cType="1" res="9.9873100407421589e-04" rms="4.1300040483474731e-01" purity="6.9853675365447998e-01" nType="-99"/>
          <Node pos="r" depth="2" NCoef="0" IVar="-1" Cut="0.0000000000000000e+00" cType="1" res="-3.6071222275495529e-03" rms="4.2088174819946289e-01" purity="5.6769043207168579e-01" nType="-99"/>
        </Node>
      </Node>
    </BinaryTree>
    <BinaryTree type="DecisionTree" boostWeight="1.0000000000000000e+00" itree="534">
      <Node pos="s" depth="0" NCoef="0" IVar="6" Cut="6.4285712242126465e+00" cType="1" res="2.8277339879423380e-04" rms="4.3265554308891296e-01" purity="4.9977698922157288e-01" nType="0">
        <Node pos="l" depth="1" NCoef="0" IVar="5" Cut="2.8378047943115234e+00" cType="1" res="9.8929682280868292e-04" rms="4.3340522050857544e-01" purity="5.0334870815277100e-01" nType="0">
          <Node pos="l" depth="2" NCoef="0" IVar="-1" Cut="0.0000000000000000e+00" cType="1" res="4.2094220407307148e-04" rms="4.3424886465072632e-01" purity="5.0280940532684326e-01" nType="-99"/>
          <Node pos="r" depth="2" NCoef="0" IVar="-1" Cut="0.0000000000000000e+00" cType="1" res="-2.0393445156514645e-03" rms="4.2161706089973450e-01" purity="5.1071929931640625e-01" nType="-99"/>
        </Node>
        <Node pos="r" depth="1" NCoef="0" IVar="-1" Cut="0.0000000000000000e+00" cType="1" res="-3.7470294628292322e-03" rms="4.1775470972061157e-01" purity="4.3113481998443604e-01" nType="-99"/>
      </Node>
    </BinaryTree>
    <BinaryTree type="DecisionTree" boostWeight="1.0000000000000000e+00" itree="535">
      <Node pos="s" depth="0" NCoef="0" IVar="2" Cut="1.8657157421112061e+00" cType="1" res="2.3438478820025921e-03" rms="4.3222445249557495e-01" purity="5.0296640396118164e-01" nType="0">
        <Node pos="l" depth="1" NCoef="0" IVar="8" Cut="-1.8309350311756134e-01" cType="1" res="3.0527289491146803e-03" rms="4.3328523635864258e-01" purity="5.0381910800933838e-01" nType="0">
          <Node pos="l" depth="2" NCoef="0" IVar="-1" Cut="0.0000000000000000e+00" cType="1" res="1.7496672226116061e-03" rms="4.3266063928604126e-01" purity="5.2517819404602051e-01" nType="-99"/>
          <Node pos="r" depth="2" NCoef="0" IVar="-1" Cut="0.0000000000000000e+00" cType="1" res="1.8150177493225783e-04" rms="4.3368843197822571e-01" purity="4.8946690559387207e-01" nType="-99"/>
        </Node>
        <Node pos="r" depth="1" NCoef="0" IVar="-1" Cut="0.0000000000000000e+00" cType="1" res="-2.9812175780534744e-03" rms="4.1208857297897339e-01" purity="4.8734310269355774e-01" nType="-99"/>
      </Node>
    </BinaryTree>
    <BinaryTree type="DecisionTree" boostWeight="1.0000000000000000e+00" itree="536">
      <Node pos="s" depth="0" NCoef="0" IVar="0" Cut="1.8005030155181885e+00" cType="1" res="1.3505300739780068e-03" rms="4.3208110332489014e-01" purity="5.0109159946441650e-01" nType="0">
        <Node pos="l" depth="1" NCoef="0" IVar="0" Cut="1.4596551656723022e+00" cType="1" res="6.4193352591246367e-04" rms="4.3311056494712830e-01" purity="5.1210051774978638e-01" nType="0">
          <Node pos="l" depth="2" NCoef="0" IVar="-1" Cut="0.0000000000000000e+00" cType="1" res="4.4631550554186106e-04" rms="4.3516913056373596e-01" purity="5.2890801429748535e-01" nType="-99"/>
          <Node pos="r" depth="2" NCoef="0" IVar="-1" Cut="0.0000000000000000e+00" cType="1" res="-4.0940688923001289e-03" rms="4.0259501338005066e-01" purity="2.7456822991371155e-01" nType="-99"/>
        </Node>
        <Node pos="r" depth="1" NCoef="0" IVar="-1" Cut="0.0000000000000000e+00" cType="1" res="4.9474816769361496e-03" rms="4.0880993008613586e-01" purity="2.6228034496307373e-01" nType="-99"/>
      </Node>
    </BinaryTree>
    <BinaryTree type="DecisionTree" boostWeight="1.0000000000000000e+00" itree="537">
      <Node pos="s" depth="0" NCoef="0" IVar="6" Cut="-8.0952382087707520e-01" cType="1" res="-3.0740455258637667e-03" rms="4.3244227766990662e-01" purity="4.9856147170066833e-01" nType="0">
        <Node pos="l" depth="1" NCoef="0" IVar="10" Cut="1.8761905670166016e+01" cType="1" res="-7.6000504195690155e-03" rms="4.3191623687744141e-01" purity="4.9362921714782715e-01" nType="0">
          <Node pos="l" depth="2" NCoef="0" IVar="-1" Cut="0.0000000000000000e+00" cType="1" res="-3.2608914189040661e-03" rms="4.4431829452514648e-01" purity="4.9262982606887817e-01" nType="-99"/>
          <Node pos="r" depth="2" NCoef="0" IVar="-1" Cut="0.0000000000000000e+00" cType="1" res="-2.6472736499272287e-04" rms="4.1550263762474060e-01" purity="4.9490112066268921e-01" nType="-99"/>
        </Node>
        <Node pos="r" depth="1" NCoef="0" IVar="0" Cut="5.9580975770950317e-01" cType="1" res="1.0117849160451442e-04" rms="4.3278270959854126e-01" purity="5.0202167034149170e-01" nType="0">
          <Node pos="l" depth="2" NCoef="0" IVar="-1" Cut="0.0000000000000000e+00" cType="1" res="2.9329287353903055e-03" rms="4.3380752205848694e-01" purity="6.7927610874176025e-01" nType="-99"/>
          <Node pos="r" depth="2" NCoef="0" IVar="-1" Cut="0.0000000000000000e+00" cType="1" res="-2.1222040231805295e-04" rms="4.3268561363220215e-01" purity="4.8739799857139587e-01" nType="-99"/>
        </Node>
      </Node>
    </BinaryTree>
    <BinaryTree type="DecisionTree" boostWeight="1.0000000000000000e+00" itree="538">
      <Node pos="s" depth="0" NCoef="0" IVar="6" Cut="6.0000000000000000e+00" cType="1" res="-8.3110615378245711e-04" rms="4.3196597695350647e-01" purity="4.9896311759948730e-01" nType="0">
        <Node pos="l" depth="1" NCoef="0" IVar="3" Cut="7.1428573131561279e-01" cType="1" res="-2.6739638997241855e-04" rms="4.3285450339317322e-01" purity="5.0282311439514160e-01" nType="0">
          <Node pos="l" depth="2" NCoef="0" IVar="-1" Cut="0.0000000000000000e+00" cType="1" res="1.5912033268250525e-04" rms="4.3121758103370667e-01" purity="5.0413739681243896e-01" nType="-99"/>
          <Node pos="r" depth="2" NCoef="0" IVar="-1" Cut="0.0000000000000000e+00" cType="1" res="-3.2047752756625414e-03" rms="4.5688334107398987e-01" purity="4.8278582096099854e-01" nType="-99"/>
        </Node>
        <Node pos="r" depth="1" NCoef="0" IVar="4" Cut="7.4089926481246948e-01" cType="1" res="-7.7525004744529724e-03" rms="4.2084187269210815e-01" purity="4.5156824588775635e-01" nType="0">
          <Node pos="l" depth="2" NCoef="0" IVar="-1" Cut="0.0000000000000000e+00" cType="1" res="-4.3318499810993671e-03" rms="3.9941331744194031e-01" purity="2.8081977367401123e-01" nType="-99"/>
          <Node pos="r" depth="2" NCoef="0" IVar="-1" Cut="0.0000000000000000e+00" cType="1" res="-3.4219303051941097e-04" rms="4.4056367874145508e-01" purity="6.1741262674331665e-01" nType="-99"/>
        </Node>
      </Node>
    </BinaryTree>
    <BinaryTree type="DecisionTree" boostWeight="1.0000000000000000e+00" itree="539">
      <Node pos="s" depth="0" NCoef="0" IVar="3" Cut="1.4285714924335480e-01" cType="1" res="1.1845913249999285e-03" rms="4.3209415674209595e-01" purity="5.0117141008377075e-01" nType="0">
        <Node pos="l" depth="1" NCoef="0" IVar="9" Cut="-3.3333334326744080e-01" cType="1" res="-1.6832139226607978e-04" rms="4.2996278405189514e-01" purity="4.9864780902862549e-01" nType="0">
          <Node pos="l" depth="2" NCoef="0" IVar="-1" Cut="0.0000000000000000e+00" cType="1" res="1.7726196674630046e-03" rms="4.3262252211570740e-01" purity="4.7575399279594421e-01" nType="-99"/>
          <Node pos="r" depth="2" NCoef="0" IVar="-1" Cut="0.0000000000000000e+00" cType="1" res="-4.7848993563093245e-04" rms="4.2931178212165833e-01" purity="5.0409239530563354e-01" nType="-99"/>
        </Node>
        <Node pos="r" depth="1" NCoef="0" IVar="9" Cut="-4.2857143282890320e-01" cType="1" res="3.6423946730792522e-03" rms="4.3592879176139832e-01" purity="5.0575596094131470e-01" nType="0">
          <Node pos="l" depth="2" NCoef="0" IVar="-1" Cut="0.0000000000000000e+00" cType="1" res="-2.1544233895838261e-03" rms="4.3915483355522156e-01" purity="4.4735231995582581e-01" nType="-99"/>
          <Node pos="r" depth="2" NCoef="0" IVar="-1" Cut="0.0000000000000000e+00" cType="1" res="1.5747379511594772e-03" rms="4.3525204062461853e-01" purity="5.1724821329116821e-01" nType="-99"/>
        </Node>
      </Node>
    </BinaryTree>
    <BinaryTree type="DecisionTree" boostWeight="1.0000000000000000e+00" itree="540">
      <Node pos="s" depth="0" NCoef="0" IVar="5" Cut="9.4048100709915161e-01" cType="1" res="-5.2676035556942225e-04" rms="4.3178465962409973e-01" purity="5.0017708539962769e-01" nType="0">
        <Node pos="l" depth="1" NCoef="0" IVar="4" Cut="7.7872693538665771e-01" cType="1" res="-4.3327794410288334e-03" rms="4.4476351141929626e-01" purity="5.0364452600479126e-01" nType="0">
          <Node pos="l" depth="2" NCoef="0" IVar="-1" Cut="0.0000000000000000e+00" cType="1" res="-3.3385555725544691e-03" rms="4.3919050693511963e-01" purity="3.2734337449073792e-01" nType="-99"/>
          <Node pos="r" depth="2" NCoef="0" IVar="-1" Cut="0.0000000000000000e+00" cType="1" res="5.0531938904896379e-04" rms="4.4877231121063232e-01" purity="6.3526695966720581e-01" nType="-99"/>
        </Node>
        <Node pos="r" depth="1" NCoef="0" IVar="4" Cut="8.1741464138031006e-01" cType="1" res="1.6771868104115129e-03" rms="4.2407181859016418e-01" purity="4.9816924333572388e-01" nType="0">
          <Node pos="l" depth="2" NCoef="0" IVar="-1" Cut="0.0000000000000000e+00" cType="1" res="1.7346796812489629e-03" rms="4.2064201831817627e-01" purity="3.6169722676277161e-01" nType="-99"/>
          <Node pos="r" depth="2" NCoef="0" IVar="-1" Cut="0.0000000000000000e+00" cType="1" res="-1.1912762420251966e-03" rms="4.2848932743072510e-01" purity="6.7863410711288452e-01" nType="-99"/>
        </Node>
      </Node>
    </BinaryTree>
    <BinaryTree type="DecisionTree" boostWeight="1.0000000000000000e+00" itree="541">
      <Node pos="s" depth="0" NCoef="0" IVar="3" Cut="4.2857143282890320e-01" cType="1" res="-1.1573592200875282e-03" rms="4.3208166956901550e-01" purity="4.9900710582733154e-01" nType="0">
        <Node pos="l" depth="1" NCoef="0" IVar="3" Cut="3.6053186655044556e-01" cType="1" res="1.2693433382082731e-04" rms="4.2943677306175232e-01" purity="4.9891451001167297e-01" nType="0">
          <Node pos="l" depth="2" NCoef="0" IVar="-1" Cut="0.0000000000000000e+00" cType="1" res="-1.1413625907152891e-04" rms="4.2944926023483276e-01" purity="4.9793934822082520e-01" nType="-99"/>
          <Node pos="r" depth="2" NCoef="0" IVar="-1" Cut="0.0000000000000000e+00" cType="1" res="3.3039993140846491e-03" rms="4.2897868156433105e-01" purity="5.2044200897216797e-01" nType="-99"/>
        </Node>
        <Node pos="r" depth="1" NCoef="0" IVar="0" Cut="9.4739949703216553e-01" cType="1" res="-8.3224503323435783e-03" rms="4.4648241996765137e-01" purity="4.9952369928359985e-01" nType="0">
          <Node pos="l" depth="2" NCoef="0" IVar="-1" Cut="0.0000000000000000e+00" cType="1" res="-4.8135607503354549e-03" rms="4.5041933655738831e-01" purity="6.1519503593444824e-01" nType="-99"/>
          <Node pos="r" depth="2" NCoef="0" IVar="-1" Cut="0.0000000000000000e+00" cType="1" res="1.0813063272507861e-04" rms="4.4295483827590942e-01" purity="4.0224543213844299e-01" nType="-99"/>
        </Node>
      </Node>
    </BinaryTree>
    <BinaryTree type="DecisionTree" boostWeight="1.0000000000000000e+00" itree="542">
      <Node pos="s" depth="0" NCoef="0" IVar="0" Cut="1.1429647207260132e+00" cType="1" res="2.3309185635298491e-03" rms="4.3121418356895447e-01" purity="5.0253027677536011e-01" nType="0">
        <Node pos="l" depth="1" NCoef="0" IVar="10" Cut="1.0380952835083008e+01" cType="1" res="9.9079179562977515e-06" rms="4.3707063794136047e-01" purity="5.8099126815795898e-01" nType="0">
          <Node pos="l" depth="2" NCoef="0" IVar="-1" Cut="0.0000000000000000e+00" cType="1" res="-2.3574107326567173e-03" rms="4.5578393340110779e-01" purity="6.0643851757049561e-01" nType="-99"/>
          <Node pos="r" depth="2" NCoef="0" IVar="-1" Cut="0.0000000000000000e+00" cType="1" res="1.0891448473557830e-03" rms="4.2883637547492981e-01" purity="5.7021725177764893e-01" nType="-99"/>
        </Node>
        <Node pos="r" depth="1" NCoef="0" IVar="10" Cut="2.4571428298950195e+01" cType="1" res="8.0466698855161667e-03" rms="4.1638588905334473e-01" purity="3.0931121110916138e-01" nType="0">
          <Node pos="l" depth="2" NCoef="0" IVar="-1" Cut="0.0000000000000000e+00" cType="1" res="4.1026100516319275e-03" rms="4.3314212560653687e-01" purity="3.4617370367050171e-01" nType="-99"/>
          <Node pos="r" depth="2" NCoef="0" IVar="-1" Cut="0.0000000000000000e+00" cType="1" res="-1.0422501713037491e-02" rms="3.2812237739562988e-01" purity="1.4286814630031586e-01" nType="-99"/>
        </Node>
      </Node>
    </BinaryTree>
    <BinaryTree type="DecisionTree" boostWeight="1.0000000000000000e+00" itree="543">
      <Node pos="s" depth="0" NCoef="0" IVar="2" Cut="1.4410803318023682e+00" cType="1" res="1.0593727929517627e-03" rms="4.3199124932289124e-01" purity="5.0148934125900269e-01" nType="0">
        <Node pos="l" depth="1" NCoef="0" IVar="3" Cut="-7.1428573131561279e-01" cType="1" res="2.0681510213762522e-03" rms="4.3320375680923462e-01" purity="5.0284796953201294e-01" nType="0">
          <Node pos="l" depth="2" NCoef="0" IVar="-1" Cut="0.0000000000000000e+00" cType="1" res="2.6034354232251644e-03" rms="4.5400291681289673e-01" purity="5.0911939144134521e-01" nType="-99"/>
          <Node pos="r" depth="2" NCoef="0" IVar="-1" Cut="0.0000000000000000e+00" cType="1" res="3.8207790930755436e-04" rms="4.3165892362594604e-01" purity="5.0239598751068115e-01" nType="-99"/>
        </Node>
        <Node pos="r" depth="1" NCoef="0" IVar="10" Cut="2.1428571701049805e+01" cType="1" res="-9.7175166010856628e-03" rms="4.1866725683212280e-01" purity="4.8697462677955627e-01" nType="0">
          <Node pos="l" depth="2" NCoef="0" IVar="-1" Cut="0.0000000000000000e+00" cType="1" res="-4.7802710905671120e-03" rms="4.2877817153930664e-01" purity="4.7769418358802795e-01" nType="-99"/>
          <Node pos="r" depth="2" NCoef="0" IVar="-1" Cut="0.0000000000000000e+00" cType="1" res="-9.6842454513534904e-04" rms="4.1047310829162598e-01" purity="4.9423584342002869e-01" nType="-99"/>
        </Node>
      </Node>
    </BinaryTree>
    <BinaryTree type="DecisionTree" boostWeight="1.0000000000000000e+00" itree="544">
      <Node pos="s" depth="0" NCoef="0" IVar="6" Cut="6.6666668653488159e-01" cType="1" res="9.5226371195167303e-04" rms="4.3213772773742676e-01" purity="5.0174182653427124e-01" nType="0">
        <Node pos="l" depth="1" NCoef="0" IVar="2" Cut="1.2756654024124146e+00" cType="1" res="3.5881639923900366e-03" rms="4.3181052803993225e-01" purity="5.0723916292190552e-01" nType="0">
          <Node pos="l" depth="2" NCoef="0" IVar="-1" Cut="0.0000000000000000e+00" cType="1" res="5.8230938157066703e-04" rms="4.3303072452545166e-01" purity="5.0584846735000610e-01" nType="-99"/>
          <Node pos="r" depth="2" NCoef="0" IVar="-1" Cut="0.0000000000000000e+00" cType="1" res="4.1111111640930176e-03" rms="4.2138659954071045e-01" purity="5.1877045631408691e-01" nType="-99"/>
        </Node>
        <Node pos="r" depth="1" NCoef="0" IVar="3" Cut="-5.2380955219268799e-01" cType="1" res="-2.2434983402490616e-03" rms="4.3251255154609680e-01" purity="4.9507686495780945e-01" nType="0">
          <Node pos="l" depth="2" NCoef="0" IVar="-1" Cut="0.0000000000000000e+00" cType="1" res="-4.0438701398670673e-03" rms="4.4601926207542419e-01" purity="4.9189841747283936e-01" nType="-99"/>
          <Node pos="r" depth="2" NCoef="0" IVar="-1" Cut="0.0000000000000000e+00" cType="1" res="-1.5962694305926561e-04" rms="4.3085798621177673e-01" purity="4.9545270204544067e-01" nType="-99"/>
        </Node>
      </Node>
    </BinaryTree>
    <BinaryTree type="DecisionTree" boostWeight="1.0000000000000000e+00" itree="545">
      <Node pos="s" depth="0" NCoef="0" IVar="4" Cut="6.9543188810348511e-01" cType="1" res="6.5352732781320810e-04" rms="4.3322518467903137e-01" purity="5.0005930662155151e-01" nType="0">
        <Node pos="l" depth="1" NCoef="0" IVar="7" Cut="1.3924108743667603e+00" cType="1" res="4.6604997478425503e-03" rms="4.1623306274414062e-01" purity="2.9259270429611206e-01" nType="0">
          <Node pos="l" depth="2" NCoef="0" IVar="-1" Cut="0.0000000000000000e+00" cType="1" res="6.9257309660315514e-03" rms="4.5911931991577148e-01" purity="3.5348108410835266e-01" nType="-99"/>
          <Node pos="r" depth="2" NCoef="0" IVar="-1" Cut="0.0000000000000000e+00" cType="1" res="3.6564376205205917e-04" rms="4.0937742590904236e-01" purity="2.8355988860130310e-01" nType="-99"/>
        </Node>
        <Node pos="r" depth="1" NCoef="0" IVar="4" Cut="9.7500789165496826e-01" cType="1" res="-1.8177537713199854e-03" rms="4.4336241483688354e-01" purity="6.2801331281661987e-01" nType="0">
          <Node pos="l" depth="2" NCoef="0" IVar="-1" Cut="0.0000000000000000e+00" cType="1" res="-1.0538226924836636e-03" rms="4.4655820727348328e-01" purity="6.1332690715789795e-01" nType="-99"/>
          <Node pos="r" depth="2" NCoef="0" IVar="-1" Cut="0.0000000000000000e+00" cType="1" res="4.5982990413904190e-03" rms="4.1722679138183594e-01" purity="7.4211490154266357e-01" nType="-99"/>
        </Node>
      </Node>
    </BinaryTree>
    <BinaryTree type="DecisionTree" boostWeight="1.0000000000000000e+00" itree="546">
      <Node pos="s" depth="0" NCoef="0" IVar="8" Cut="1.3708847761154175e+00" cType="1" res="-1.7526388401165605e-03" rms="4.3228870630264282e-01" purity="4.9686315655708313e-01" nType="0">
        <Node pos="l" depth="1" NCoef="0" IVar="7" Cut="6.4509458541870117e+00" cType="1" res="-8.6380145512521267e-04" rms="4.3360140919685364e-01" purity="4.8165950179100037e-01" nType="0">
          <Node pos="l" depth="2" NCoef="0" IVar="-1" Cut="0.0000000000000000e+00" cType="1" res="-4.8682233318686485e-04" rms="4.3577823042869568e-01" purity="4.6432751417160034e-01" nType="-99"/>
          <Node pos="r" depth="2" NCoef="0" IVar="-1" Cut="0.0000000000000000e+00" cType="1" res="2.1777688525617123e-03" rms="4.1405540704727173e-01" purity="6.3262450695037842e-01" nType="-99"/>
        </Node>
        <Node pos="r" depth="1" NCoef="0" IVar="9" Cut="1.4347319304943085e-01" cType="1" res="-1.1097332462668419e-02" rms="4.1812425851821899e-01" purity="6.5670526027679443e-01" nType="0">
          <Node pos="l" depth="2" NCoef="0" IVar="-1" Cut="0.0000000000000000e+00" cType="1" res="-6.6022258251905441e-03" rms="4.2453062534332275e-01" purity="5.8560168743133545e-01" nType="-99"/>
          <Node pos="r" depth="2" NCoef="0" IVar="-1" Cut="0.0000000000000000e+00" cType="1" res="1.3201667752582580e-04" rms="4.1196146607398987e-01" purity="7.2036957740783691e-01" nType="-99"/>
        </Node>
      </Node>
    </BinaryTree>
    <BinaryTree type="DecisionTree" boostWeight="1.0000000000000000e+00" itree="547">
      <Node pos="s" depth="0" NCoef="0" IVar="3" Cut="-1.4285714924335480e-01" cType="1" res="-3.0873963260091841e-04" rms="4.3132647871971130e-01" purity="4.9974223971366882e-01" nType="0">
        <Node pos="l" depth="1" NCoef="0" IVar="2" Cut="-1.8771166801452637e+00" cType="1" res="4.5535848475992680e-03" rms="4.3382680416107178e-01" purity="5.1015162467956543e-01" nType="0">
          <Node pos="l" depth="2" NCoef="0" IVar="-1" Cut="0.0000000000000000e+00" cType="1" res="-3.1502780038863420e-03" rms="4.1713574528694153e-01" purity="4.9692025780677795e-01" nType="-99"/>
          <Node pos="r" depth="2" NCoef="0" IVar="-1" Cut="0.0000000000000000e+00" cType="1" res="1.6685588052496314e-03" rms="4.3569537997245789e-01" purity="5.1169538497924805e-01" nType="-99"/>
        </Node>
        <Node pos="r" depth="1" NCoef="0" IVar="7" Cut="5.9760222434997559e+00" cType="1" res="-3.0533950775861740e-03" rms="4.2988443374633789e-01" purity="4.9386647343635559e-01" nType="0">
          <Node pos="l" depth="2" NCoef="0" IVar="-1" Cut="0.0000000000000000e+00" cType="1" res="-1.1823783861473203e-03" rms="4.3351724743843079e-01" purity="4.6374297142028809e-01" nType="-99"/>
          <Node pos="r" depth="2" NCoef="0" IVar="-1" Cut="0.0000000000000000e+00" cType="1" res="9.4479654217138886e-04" rms="4.1312083601951599e-01" purity="6.2910139560699463e-01" nType="-99"/>
        </Node>
      </Node>
    </BinaryTree>
    <BinaryTree type="DecisionTree" boostWeight="1.0000000000000000e+00" itree="548">
      <Node pos="s" depth="0" NCoef="0" IVar="9" Cut="5.2380955219268799e-01" cType="1" res="-1.1399104259908199e-03" rms="4.3209281563758850e-01" purity="4.9794840812683105e-01" nType="0">
        <Node pos="l" depth="1" NCoef="0" IVar="8" Cut="7.7204406261444092e-02" cType="1" res="-2.2485542576760054e-03" rms="4.3079090118408203e-01" purity="5.0310617685317993e-01" nType="0">
          <Node pos="l" depth="2" NCoef="0" IVar="-1" Cut="0.0000000000000000e+00" cType="1" res="-1.0797480354085565e-03" rms="4.3393844366073608e-01" purity="5.0131970643997192e-01" nType="-99"/>
          <Node pos="r" depth="2" NCoef="0" IVar="-1" Cut="0.0000000000000000e+00" cType="1" res="6.2129780417308211e-05" rms="4.2659053206443787e-01" purity="5.0546294450759888e-01" nType="-99"/>
        </Node>
        <Node pos="r" depth="1" NCoef="0" IVar="4" Cut="8.6079883575439453e-01" cType="1" res="8.1397518515586853e-03" rms="4.4273111224174500e-01" purity="4.5477610826492310e-01" nType="0">
          <Node pos="l" depth="2" NCoef="0" IVar="-1" Cut="0.0000000000000000e+00" cType="1" res="4.5935790985822678e-03" rms="4.3600481748580933e-01" purity="3.4394463896751404e-01" nType="-99"/>
          <Node pos="r" depth="2" NCoef="0" IVar="-1" Cut="0.0000000000000000e+00" cType="1" res="-1.0772842215374112e-03" rms="4.5207774639129639e-01" purity="6.1662101745605469e-01" nType="-99"/>
        </Node>
      </Node>
    </BinaryTree>
    <BinaryTree type="DecisionTree" boostWeight="1.0000000000000000e+00" itree="549">
      <Node pos="s" depth="0" NCoef="0" IVar="3" Cut="-7.1428573131561279e-01" cType="1" res="2.9806894599460065e-04" rms="4.3237486481666565e-01" purity="4.9963793158531189e-01" nType="0">
        <Node pos="l" depth="1" NCoef="0" IVar="-1" Cut="0.0000000000000000e+00" cType="1" res="3.5021959338337183e-03" rms="4.5844590663909912e-01" purity="5.0978851318359375e-01" nType="-99"/>
        <Node pos="r" depth="1" NCoef="0" IVar="5" Cut="2.0955798625946045e+00" cType="1" res="-6.2525656539946795e-04" rms="4.3061622977256775e-01" purity="4.9898070096969604e-01" nType="0">
          <Node pos="l" depth="2" NCoef="0" IVar="-1" Cut="0.0000000000000000e+00" cType="1" res="-5.4608797654509544e-04" rms="4.3238213658332825e-01" purity="5.0037509202957153e-01" nType="-99"/>
          <Node pos="r" depth="2" NCoef="0" IVar="-1" Cut="0.0000000000000000e+00" cType="1" res="1.4678792795166373e-03" rms="4.2326107621192932e-01" purity="4.9327400326728821e-01" nType="-99"/>
        </Node>
      </Node>
    </BinaryTree>
    <BinaryTree type="DecisionTree" boostWeight="1.0000000000000000e+00" itree="550">
      <Node pos="s" depth="0" NCoef="0" IVar="3" Cut="-7.1428573131561279e-01" cType="1" res="1.3856735313311219e-03" rms="4.3197709321975708e-01" purity="5.0145471096038818e-01" nType="0">
        <Node pos="l" depth="1" NCoef="0" IVar="-1" Cut="0.0000000000000000e+00" cType="1" res="-2.2999367211014032e-03" rms="4.5424121618270874e-01" purity="4.8898029327392578e-01" nType="-99"/>
        <Node pos="r" depth="1" NCoef="0" IVar="5" Cut="1.6358685493469238e-01" cType="1" res="2.0979822147637606e-03" rms="4.3047642707824707e-01" purity="5.0226777791976929e-01" nType="0">
          <Node pos="l" depth="2" NCoef="0" IVar="-1" Cut="0.0000000000000000e+00" cType="1" res="-9.5975579461082816e-04" rms="4.5245128870010376e-01" purity="4.9546515941619873e-01" nType="-99"/>
          <Node pos="r" depth="2" NCoef="0" IVar="-1" Cut="0.0000000000000000e+00" cType="1" res="7.4299291009083390e-04" rms="4.2804709076881409e-01" purity="5.0299739837646484e-01" nType="-99"/>
        </Node>
      </Node>
    </BinaryTree>
    <BinaryTree type="DecisionTree" boostWeight="1.0000000000000000e+00" itree="551">
      <Node pos="s" depth="0" NCoef="0" IVar="0" Cut="1.8038128614425659e+00" cType="1" res="-3.7248843000270426e-04" rms="4.3130123615264893e-01" purity="4.9907863140106201e-01" nType="0">
        <Node pos="l" depth="1" NCoef="0" IVar="3" Cut="6.1904764175415039e-01" cType="1" res="4.9100856995210052e-04" rms="4.3316000699996948e-01" purity="5.1137429475784302e-01" nType="0">
          <Node pos="l" depth="2" NCoef="0" IVar="-1" Cut="0.0000000000000000e+00" cType="1" res="-1.5716563211753964e-04" rms="4.3065437674522400e-01" purity="5.0884205102920532e-01" nType="-99"/>
          <Node pos="r" depth="2" NCoef="0" IVar="-1" Cut="0.0000000000000000e+00" cType="1" res="3.2914073672145605e-03" rms="4.6276140213012695e-01" purity="5.4262727499008179e-01" nType="-99"/>
        </Node>
        <Node pos="r" depth="1" NCoef="0" IVar="-1" Cut="0.0000000000000000e+00" cType="1" res="-5.8051152154803276e-03" rms="3.8712319731712341e-01" purity="2.2535939514636993e-01" nType="-99"/>
      </Node>
    </BinaryTree>
    <BinaryTree type="DecisionTree" boostWeight="1.0000000000000000e+00" itree="552">
      <Node pos="s" depth="0" NCoef="0" IVar="3" Cut="-1.4285714924335480e-01" cType="1" res="-6.1403430299833417e-04" rms="4.3196573853492737e-01" purity="4.9854138493537903e-01" nType="0">
        <Node pos="l" depth="1" NCoef="0" IVar="10" Cut="2.2428571701049805e+01" cType="1" res="3.2526489812880754e-03" rms="4.3482252955436707e-01" purity="5.0811100006103516e-01" nType="0">
          <Node pos="l" depth="2" NCoef="0" IVar="-1" Cut="0.0000000000000000e+00" cType="1" res="5.5962495935091283e-06" rms="4.4182863831520081e-01" purity="5.0465029478073120e-01" nType="-99"/>
          <Node pos="r" depth="2" NCoef="0" IVar="-1" Cut="0.0000000000000000e+00" cType="1" res="3.2749115489423275e-03" rms="4.1606295108795166e-01" purity="5.1705074310302734e-01" nType="-99"/>
        </Node>
        <Node pos="r" depth="1" NCoef="0" IVar="3" Cut="-8.8428355753421783e-02" cType="1" res="-2.8208403382450342e-03" rms="4.3031126260757446e-01" purity="4.9307981133460999e-01" nType="0">
          <Node pos="l" depth="2" NCoef="0" IVar="-1" Cut="0.0000000000000000e+00" cType="1" res="-4.7256289981305599e-03" rms="4.2429271340370178e-01" purity="4.6870183944702148e-01" nType="-99"/>
          <Node pos="r" depth="2" NCoef="0" IVar="-1" Cut="0.0000000000000000e+00" cType="1" res="-4.0379649726673961e-04" rms="4.3082255125045776e-01" purity="4.9526369571685791e-01" nType="-99"/>
        </Node>
      </Node>
    </BinaryTree>
    <BinaryTree type="DecisionTree" boostWeight="1.0000000000000000e+00" itree="553">
      <Node pos="s" depth="0" NCoef="0" IVar="9" Cut="-7.1428573131561279e-01" cType="1" res="-6.2793231336399913e-04" rms="4.3220272660255432e-01" purity="4.9923217296600342e-01" nType="0">
        <Node pos="l" depth="1" NCoef="0" IVar="-1" Cut="0.0000000000000000e+00" cType="1" res="-3.1914138235151768e-03" rms="4.4072040915489197e-01" purity="3.7787839770317078e-01" nType="-99"/>
        <Node pos="r" depth="1" NCoef="0" IVar="9" Cut="-6.1182584613561630e-02" cType="1" res="-3.8480706280097365e-05" rms="4.3176573514938354e-01" purity="5.0527465343475342e-01" nType="0">
          <Node pos="l" depth="2" NCoef="0" IVar="-1" Cut="0.0000000000000000e+00" cType="1" res="-6.9549214094877243e-04" rms="4.3022897839546204e-01" purity="5.0335460901260376e-01" nType="-99"/>
          <Node pos="r" depth="2" NCoef="0" IVar="-1" Cut="0.0000000000000000e+00" cType="1" res="4.5476816012524068e-04" rms="4.3280068039894104e-01" purity="5.0658261775970459e-01" nType="-99"/>
        </Node>
      </Node>
    </BinaryTree>
    <BinaryTree type="DecisionTree" boostWeight="1.0000000000000000e+00" itree="554">
      <Node pos="s" depth="0" NCoef="0" IVar="8" Cut="1.4741249084472656e+00" cType="1" res="-1.3915202580392361e-03" rms="4.3293416500091553e-01" purity="4.9855235219001770e-01" nType="0">
        <Node pos="l" depth="1" NCoef="0" IVar="10" Cut="4.3904762268066406e+01" cType="1" res="-6.2416476430371404e-04" rms="4.3429020047187805e-01" purity="4.8544153571128845e-01" nType="0">
          <Node pos="l" depth="2" NCoef="0" IVar="-1" Cut="0.0000000000000000e+00" cType="1" res="-4.1118945227935910e-04" rms="4.3535190820693970e-01" purity="4.9189168214797974e-01" nType="-99"/>
          <Node pos="r" depth="2" NCoef="0" IVar="-1" Cut="0.0000000000000000e+00" cType="1" res="2.1679550409317017e-03" rms="4.2443439364433289e-01" purity="4.2688876390457153e-01" nType="-99"/>
        </Node>
        <Node pos="r" depth="1" NCoef="0" IVar="-1" Cut="0.0000000000000000e+00" cType="1" res="-3.1763873994350433e-03" rms="4.1533994674682617e-01" purity="6.6381978988647461e-01" nType="-99"/>
      </Node>
    </BinaryTree>
    <BinaryTree type="DecisionTree" boostWeight="1.0000000000000000e+00" itree="555">
      <Node pos="s" depth="0" NCoef="0" IVar="8" Cut="1.7248026132583618e+00" cType="1" res="4.5459999819286168e-04" rms="4.3185034394264221e-01" purity="4.9996170401573181e-01" nType="0">
        <Node pos="l" depth="1" NCoef="0" IVar="4" Cut="6.9808286428451538e-01" cType="1" res="-1.8037883273791522e-04" rms="4.3344151973724365e-01" purity="4.8876631259918213e-01" nType="0">
          <Node pos="l" depth="2" NCoef="0" IVar="-1" Cut="0.0000000000000000e+00" cType="1" res="6.9727364461869001e-04" rms="4.1515952348709106e-01" purity="2.9196339845657349e-01" nType="-99"/>
          <Node pos="r" depth="2" NCoef="0" IVar="-1" Cut="0.0000000000000000e+00" cType="1" res="-4.7482745139859617e-04" rms="4.4519865512847900e-01" purity="6.1990505456924438e-01" nType="-99"/>
        </Node>
        <Node pos="r" depth="1" NCoef="0" IVar="-1" Cut="0.0000000000000000e+00" cType="1" res="3.7334391381591558e-03" rms="3.9983776211738586e-01" purity="7.1517765522003174e-01" nType="-99"/>
      </Node>
    </BinaryTree>
    <BinaryTree type="DecisionTree" boostWeight="1.0000000000000000e+00" itree="556">
      <Node pos="s" depth="0" NCoef="0" IVar="6" Cut="-5.5714287757873535e+00" cType="1" res="6.1704480322077870e-04" rms="4.3226024508476257e-01" purity="5.0048846006393433e-01" nType="0">
        <Node pos="l" depth="1" NCoef="0" IVar="-1" Cut="0.0000000000000000e+00" cType="1" res="-2.9566255398094654e-03" rms="4.1548928618431091e-01" purity="4.3802601099014282e-01" nType="-99"/>
        <Node pos="r" depth="1" NCoef="0" IVar="2" Cut="-5.8040332794189453e-01" cType="1" res="1.3293836964294314e-03" rms="4.3330314755439758e-01" purity="5.0449120998382568e-01" nType="0">
          <Node pos="l" depth="2" NCoef="0" IVar="-1" Cut="0.0000000000000000e+00" cType="1" res="1.6484390944242477e-03" rms="4.2781150341033936e-01" purity="5.1283067464828491e-01" nType="-99"/>
          <Node pos="r" depth="2" NCoef="0" IVar="-1" Cut="0.0000000000000000e+00" cType="1" res="-6.1519880546256900e-05" rms="4.3507894873619080e-01" purity="5.0175434350967407e-01" nType="-99"/>
        </Node>
      </Node>
    </BinaryTree>
    <BinaryTree type="DecisionTree" boostWeight="1.0000000000000000e+00" itree="557">
      <Node pos="s" depth="0" NCoef="0" IVar="6" Cut="-6.8571429252624512e+00" cType="1" res="9.5242161478381604e-05" rms="4.3245106935501099e-01" purity="5.0111979246139526e-01" nType="0">
        <Node pos="l" depth="1" NCoef="0" IVar="-1" Cut="0.0000000000000000e+00" cType="1" res="-4.2271306738257408e-03" rms="4.1993549466133118e-01" purity="4.2359334230422974e-01" nType="-99"/>
        <Node pos="r" depth="1" NCoef="0" IVar="3" Cut="1.4285714924335480e-01" cType="1" res="7.0724193938076496e-04" rms="4.3293806910514832e-01" purity="5.0425255298614502e-01" nType="0">
          <Node pos="l" depth="2" NCoef="0" IVar="-1" Cut="0.0000000000000000e+00" cType="1" res="7.7977392356842756e-04" rms="4.3098273873329163e-01" purity="5.0509667396545410e-01" nType="-99"/>
          <Node pos="r" depth="2" NCoef="0" IVar="-1" Cut="0.0000000000000000e+00" cType="1" res="-8.6974754231050611e-04" rms="4.3644115328788757e-01" purity="5.0271821022033691e-01" nType="-99"/>
        </Node>
      </Node>
    </BinaryTree>
    <BinaryTree type="DecisionTree" boostWeight="1.0000000000000000e+00" itree="558">
      <Node pos="s" depth="0" NCoef="0" IVar="9" Cut="7.1428573131561279e-01" cType="1" res="-1.8490126822143793e-03" rms="4.3185919523239136e-01" purity="4.9832487106323242e-01" nType="0">
        <Node pos="l" depth="1" NCoef="0" IVar="3" Cut="8.0952382087707520e-01" cType="1" res="-1.2455981923267245e-03" rms="4.3124517798423767e-01" purity="5.0396269559860229e-01" nType="0">
          <Node pos="l" depth="2" NCoef="0" IVar="-1" Cut="0.0000000000000000e+00" cType="1" res="-5.4764869855716825e-04" rms="4.3023201823234558e-01" purity="5.0350725650787354e-01" nType="-99"/>
          <Node pos="r" depth="2" NCoef="0" IVar="-1" Cut="0.0000000000000000e+00" cType="1" res="4.5762271620333195e-03" rms="4.5575782656669617e-01" purity="5.1553702354431152e-01" nType="-99"/>
        </Node>
        <Node pos="r" depth="1" NCoef="0" IVar="-1" Cut="0.0000000000000000e+00" cType="1" res="-3.5854454617947340e-03" rms="4.4396013021469116e-01" purity="3.8390809297561646e-01" nType="-99"/>
      </Node>
    </BinaryTree>
    <BinaryTree type="DecisionTree" boostWeight="1.0000000000000000e+00" itree="559">
      <Node pos="s" depth="0" NCoef="0" IVar="4" Cut="8.6082708835601807e-01" cType="1" res="1.6973216552287340e-03" rms="4.3289533257484436e-01" purity="5.0103974342346191e-01" nType="0">
        <Node pos="l" depth="1" NCoef="0" IVar="10" Cut="5.2285713195800781e+01" cType="1" res="3.2629445195198059e-03" rms="4.3300977349281311e-01" purity="3.8477465510368347e-01" nType="0">
          <Node pos="l" depth="2" NCoef="0" IVar="-1" Cut="0.0000000000000000e+00" cType="1" res="5.6247576139867306e-04" rms="4.3402990698814392e-01" purity="3.8806688785552979e-01" nType="-99"/>
          <Node pos="r" depth="2" NCoef="0" IVar="-1" Cut="0.0000000000000000e+00" cType="1" res="5.7560885325074196e-03" rms="4.1718879342079163e-01" purity="3.3582526445388794e-01" nType="-99"/>
        </Node>
        <Node pos="r" depth="1" NCoef="0" IVar="0" Cut="1.0600664615631104e+00" cType="1" res="-7.6342356624081731e-04" rms="4.3270397186279297e-01" purity="6.8377780914306641e-01" nType="0">
          <Node pos="l" depth="2" NCoef="0" IVar="-1" Cut="0.0000000000000000e+00" cType="1" res="-2.5276234373450279e-03" rms="4.1959124803543091e-01" purity="7.4277806282043457e-01" nType="-99"/>
          <Node pos="r" depth="2" NCoef="0" IVar="-1" Cut="0.0000000000000000e+00" cType="1" res="4.3903044424951077e-03" rms="4.6402972936630249e-01" purity="5.3233033418655396e-01" nType="-99"/>
        </Node>
      </Node>
    </BinaryTree>
    <BinaryTree type="DecisionTree" boostWeight="1.0000000000000000e+00" itree="560">
      <Node pos="s" depth="0" NCoef="0" IVar="9" Cut="-1.4285714924335480e-01" cType="1" res="-3.9731786819174886e-04" rms="4.3169960379600525e-01" purity="4.9882096052169800e-01" nType="0">
        <Node pos="l" depth="1" NCoef="0" IVar="3" Cut="-3.3333334326744080e-01" cType="1" res="2.6706370990723372e-03" rms="4.3062260746955872e-01" purity="4.9054574966430664e-01" nType="0">
          <Node pos="l" depth="2" NCoef="0" IVar="-1" Cut="0.0000000000000000e+00" cType="1" res="-1.9652908667922020e-03" rms="4.3712714314460754e-01" purity="4.9038684368133545e-01" nType="-99"/>
          <Node pos="r" depth="2" NCoef="0" IVar="-1" Cut="0.0000000000000000e+00" cType="1" res="1.5159201575443149e-03" rms="4.2865782976150513e-01" purity="4.9059218168258667e-01" nType="-99"/>
        </Node>
        <Node pos="r" depth="1" NCoef="0" IVar="9" Cut="6.7346942424774170e-01" cType="1" res="-2.0643016323447227e-03" rms="4.3227452039718628e-01" purity="5.0331729650497437e-01" nType="0">
          <Node pos="l" depth="2" NCoef="0" IVar="-1" Cut="0.0000000000000000e+00" cType="1" res="-7.9406442819163203e-04" rms="4.3072548508644104e-01" purity="5.1176297664642334e-01" nType="-99"/>
          <Node pos="r" depth="2" NCoef="0" IVar="-1" Cut="0.0000000000000000e+00" cType="1" res="1.8655708990991116e-03" rms="4.4736221432685852e-01" purity="4.1886201500892639e-01" nType="-99"/>
        </Node>
      </Node>
    </BinaryTree>
    <BinaryTree type="DecisionTree" boostWeight="1.0000000000000000e+00" itree="561">
      <Node pos="s" depth="0" NCoef="0" IVar="3" Cut="-4.7619048506021500e-02" cType="1" res="-1.1823916574940085e-03" rms="4.3247997760772705e-01" purity="4.9815654754638672e-01" nType="0">
        <Node pos="l" depth="1" NCoef="0" IVar="0" Cut="1.0133831501007080e+00" cType="1" res="-4.6969414688646793e-03" rms="4.3428251147270203e-01" purity="4.9717685580253601e-01" nType="0">
          <Node pos="l" depth="2" NCoef="0" IVar="-1" Cut="0.0000000000000000e+00" cType="1" res="-2.5680072139948606e-03" rms="4.3850827217102051e-01" purity="6.0909545421600342e-01" nType="-99"/>
          <Node pos="r" depth="2" NCoef="0" IVar="-1" Cut="0.0000000000000000e+00" cType="1" res="4.9815885722637177e-04" rms="4.2863690853118896e-01" purity="3.5166549682617188e-01" nType="-99"/>
        </Node>
        <Node pos="r" depth="1" NCoef="0" IVar="6" Cut="5.3333334922790527e+00" cType="1" res="1.7391509609296918e-03" rms="4.3095403909683228e-01" purity="4.9897089600563049e-01" nType="0">
          <Node pos="l" depth="2" NCoef="0" IVar="-1" Cut="0.0000000000000000e+00" cType="1" res="7.2819861816242337e-04" rms="4.3173888325691223e-01" purity="5.0387650728225708e-01" nType="-99"/>
          <Node pos="r" depth="2" NCoef="0" IVar="-1" Cut="0.0000000000000000e+00" cType="1" res="-3.0213184654712677e-03" rms="4.2099067568778992e-01" purity="4.3871119618415833e-01" nType="-99"/>
        </Node>
      </Node>
    </BinaryTree>
    <BinaryTree type="DecisionTree" boostWeight="1.0000000000000000e+00" itree="562">
      <Node pos="s" depth="0" NCoef="0" IVar="0" Cut="1.7031230926513672e+00" cType="1" res="5.9416220756247640e-04" rms="4.3179416656494141e-01" purity="5.0006061792373657e-01" nType="0">
        <Node pos="l" depth="1" NCoef="0" IVar="0" Cut="1.3811646699905396e+00" cType="1" res="1.3319726567715406e-03" rms="4.3376451730728149e-01" purity="5.1494634151458740e-01" nType="0">
          <Node pos="l" depth="2" NCoef="0" IVar="-1" Cut="0.0000000000000000e+00" cType="1" res="6.3494109781458974e-04" rms="4.3658968806266785e-01" purity="5.3726375102996826e-01" nType="-99"/>
          <Node pos="r" depth="2" NCoef="0" IVar="-1" Cut="0.0000000000000000e+00" cType="1" res="-3.0591299291700125e-03" rms="4.0199962258338928e-01" purity="2.7539139986038208e-01" nType="-99"/>
        </Node>
        <Node pos="r" depth="1" NCoef="0" IVar="-1" Cut="0.0000000000000000e+00" cType="1" res="-3.5595125518739223e-03" rms="3.9586099982261658e-01" purity="2.4198785424232483e-01" nType="-99"/>
      </Node>
    </BinaryTree>
    <BinaryTree type="DecisionTree" boostWeight="1.0000000000000000e+00" itree="563">
      <Node pos="s" depth="0" NCoef="0" IVar="2" Cut="1.2351063489913940e+00" cType="1" res="-6.2596234783995897e-05" rms="4.3228080868721008e-01" purity="4.9992644786834717e-01" nType="0">
        <Node pos="l" depth="1" NCoef="0" IVar="3" Cut="3.3333334326744080e-01" cType="1" res="-1.0699835838750005e-03" rms="4.3377819657325745e-01" purity="4.9876967072486877e-01" nType="0">
          <Node pos="l" depth="2" NCoef="0" IVar="-1" Cut="0.0000000000000000e+00" cType="1" res="5.6518030760344118e-05" rms="4.3079546093940735e-01" purity="4.9844768643379211e-01" nType="-99"/>
          <Node pos="r" depth="2" NCoef="0" IVar="-1" Cut="0.0000000000000000e+00" cType="1" res="-1.7669658409431577e-03" rms="4.4742682576179504e-01" purity="5.0027686357498169e-01" nType="-99"/>
        </Node>
        <Node pos="r" depth="1" NCoef="0" IVar="3" Cut="2.3809523880481720e-01" cType="1" res="7.7386973425745964e-03" rms="4.2042261362075806e-01" purity="5.0888472795486450e-01" nType="0">
          <Node pos="l" depth="2" NCoef="0" IVar="-1" Cut="0.0000000000000000e+00" cType="1" res="-5.6127138668671250e-04" rms="4.2105832695960999e-01" purity="4.9020248651504517e-01" nType="-99"/>
          <Node pos="r" depth="2" NCoef="0" IVar="-1" Cut="0.0000000000000000e+00" cType="1" res="4.0595559403300285e-03" rms="4.1981142759323120e-01" purity="5.2258783578872681e-01" nType="-99"/>
        </Node>
      </Node>
    </BinaryTree>
    <BinaryTree type="DecisionTree" boostWeight="1.0000000000000000e+00" itree="564">
      <Node pos="s" depth="0" NCoef="0" IVar="4" Cut="4.8561495542526245e-01" cType="1" res="-3.7173545570112765e-04" rms="4.3198272585868835e-01" purity="4.9909502267837524e-01" nType="0">
        <Node pos="l" depth="1" NCoef="0" IVar="10" Cut="1.5904762268066406e+01" cType="1" res="3.9048586040735245e-03" rms="3.4885764122009277e-01" purity="1.5297798812389374e-01" nType="0">
          <Node pos="l" depth="2" NCoef="0" IVar="-1" Cut="0.0000000000000000e+00" cType="1" res="5.9410836547613144e-03" rms="3.8693404197692871e-01" purity="1.9420452415943146e-01" nType="-99"/>
          <Node pos="r" depth="2" NCoef="0" IVar="-1" Cut="0.0000000000000000e+00" cType="1" res="-2.3282889742404222e-03" rms="3.1951767206192017e-01" purity="1.2440174072980881e-01" nType="-99"/>
        </Node>
        <Node pos="r" depth="1" NCoef="0" IVar="4" Cut="9.6501666307449341e-01" cType="1" res="-1.2732158647850156e-03" rms="4.4753381609916687e-01" purity="5.7205444574356079e-01" nType="0">
          <Node pos="l" depth="2" NCoef="0" IVar="-1" Cut="0.0000000000000000e+00" cType="1" res="-7.9552456736564636e-04" rms="4.5289653539657593e-01" purity="5.4414129257202148e-01" nType="-99"/>
          <Node pos="r" depth="2" NCoef="0" IVar="-1" Cut="0.0000000000000000e+00" cType="1" res="3.1426791101694107e-03" rms="4.1268563270568848e-01" purity="7.4428391456604004e-01" nType="-99"/>
        </Node>
      </Node>
    </BinaryTree>
    <BinaryTree type="DecisionTree" boostWeight="1.0000000000000000e+00" itree="565">
      <Node pos="s" depth="0" NCoef="0" IVar="4" Cut="8.6537271738052368e-01" cType="1" res="-4.6108278911560774e-04" rms="4.3321758508682251e-01" purity="4.9862626194953918e-01" nType="0">
        <Node pos="l" depth="1" NCoef="0" IVar="9" Cut="6.1904764175415039e-01" cType="1" res="1.8913480453193188e-03" rms="4.3308314681053162e-01" purity="3.8574811816215515e-01" nType="0">
          <Node pos="l" depth="2" NCoef="0" IVar="-1" Cut="0.0000000000000000e+00" cType="1" res="-3.9268281398108229e-05" rms="4.3277865648269653e-01" purity="3.8932013511657715e-01" nType="-99"/>
          <Node pos="r" depth="2" NCoef="0" IVar="-1" Cut="0.0000000000000000e+00" cType="1" res="7.9392213374376297e-03" rms="4.3617632985115051e-01" purity="3.3886751532554626e-01" nType="-99"/>
        </Node>
        <Node pos="r" depth="1" NCoef="0" IVar="0" Cut="1.0426907539367676e+00" cType="1" res="-4.3120463378727436e-03" rms="4.3340998888015747e-01" purity="6.8340951204299927e-01" nType="0">
          <Node pos="l" depth="2" NCoef="0" IVar="-1" Cut="0.0000000000000000e+00" cType="1" res="-3.4445135388523340e-03" rms="4.1915822029113770e-01" purity="7.4439364671707153e-01" nType="-99"/>
          <Node pos="r" depth="2" NCoef="0" IVar="-1" Cut="0.0000000000000000e+00" cType="1" res="3.0385695863515139e-03" rms="4.6501377224922180e-01" purity="5.3856593370437622e-01" nType="-99"/>
        </Node>
      </Node>
    </BinaryTree>
    <BinaryTree type="DecisionTree" boostWeight="1.0000000000000000e+00" itree="566">
      <Node pos="s" depth="0" NCoef="0" IVar="7" Cut="9.5761880874633789e+00" cType="1" res="7.4967584805563092e-04" rms="4.3232116103172302e-01" purity="5.0025510787963867e-01" nType="0">
        <Node pos="l" depth="1" NCoef="0" IVar="5" Cut="3.0919933319091797e+00" cType="1" res="-1.9768295169342309e-04" rms="4.3376755714416504e-01" purity="4.8956605792045593e-01" nType="0">
          <Node pos="l" depth="2" NCoef="0" IVar="-1" Cut="0.0000000000000000e+00" cType="1" res="1.6388784570153803e-04" rms="4.3464550375938416e-01" purity="4.9017417430877686e-01" nType="-99"/>
          <Node pos="r" depth="2" NCoef="0" IVar="-1" Cut="0.0000000000000000e+00" cType="1" res="-4.5485170558094978e-03" rms="4.1567641496658325e-01" purity="4.7752967476844788e-01" nType="-99"/>
        </Node>
        <Node pos="r" depth="1" NCoef="0" IVar="-1" Cut="0.0000000000000000e+00" cType="1" res="5.6445421651005745e-03" rms="4.0226161479949951e-01" purity="7.1118390560150146e-01" nType="-99"/>
      </Node>
    </BinaryTree>
    <BinaryTree type="DecisionTree" boostWeight="1.0000000000000000e+00" itree="567">
      <Node pos="s" depth="0" NCoef="0" IVar="0" Cut="1.6383047103881836e+00" cType="1" res="-1.4487508451566100e-03" rms="4.3148386478424072e-01" purity="4.9760043621063232e-01" nType="0">
        <Node pos="l" depth="1" NCoef="0" IVar="3" Cut="-4.7619048506021500e-02" cType="1" res="-3.9094290696084499e-04" rms="4.3421632051467896e-01" purity="5.1552987098693848e-01" nType="0">
          <Node pos="l" depth="2" NCoef="0" IVar="-1" Cut="0.0000000000000000e+00" cType="1" res="-1.0827780934050679e-03" rms="4.3558153510093689e-01" purity="5.1364171504974365e-01" nType="-99"/>
          <Node pos="r" depth="2" NCoef="0" IVar="-1" Cut="0.0000000000000000e+00" cType="1" res="7.0900708669796586e-04" rms="4.3306103348731995e-01" purity="5.1708960533142090e-01" nType="-99"/>
        </Node>
        <Node pos="r" depth="1" NCoef="0" IVar="-1" Cut="0.0000000000000000e+00" cType="1" res="-4.8979376442730427e-03" rms="3.8967132568359375e-01" purity="2.3924101889133453e-01" nType="-99"/>
      </Node>
    </BinaryTree>
    <BinaryTree type="DecisionTree" boostWeight="1.0000000000000000e+00" itree="568">
      <Node pos="s" depth="0" NCoef="0" IVar="9" Cut="-3.3333334326744080e-01" cType="1" res="-6.2127888668328524e-04" rms="4.3185511231422424e-01" purity="4.9864152073860168e-01" nType="0">
        <Node pos="l" depth="1" NCoef="0" IVar="4" Cut="9.0505301952362061e-01" cType="1" res="-6.6123479045927525e-03" rms="4.3503022193908691e-01" purity="4.6054646372795105e-01" nType="0">
          <Node pos="l" depth="2" NCoef="0" IVar="-1" Cut="0.0000000000000000e+00" cType="1" res="-6.2150345183908939e-04" rms="4.3026220798492432e-01" purity="3.6933678388595581e-01" nType="-99"/>
          <Node pos="r" depth="2" NCoef="0" IVar="-1" Cut="0.0000000000000000e+00" cType="1" res="-4.0419017896056175e-03" rms="4.4499361515045166e-01" purity="6.5715456008911133e-01" nType="-99"/>
        </Node>
        <Node pos="r" depth="1" NCoef="0" IVar="3" Cut="-2.3809523880481720e-01" cType="1" res="8.7658682605251670e-04" rms="4.3104460835456848e-01" purity="5.0816589593887329e-01" nType="0">
          <Node pos="l" depth="2" NCoef="0" IVar="-1" Cut="0.0000000000000000e+00" cType="1" res="1.4657437568530440e-03" rms="4.3395280838012695e-01" purity="5.2315479516983032e-01" nType="-99"/>
          <Node pos="r" depth="2" NCoef="0" IVar="-1" Cut="0.0000000000000000e+00" cType="1" res="-2.3936649085953832e-04" rms="4.2993900179862976e-01" purity="5.0256317853927612e-01" nType="-99"/>
        </Node>
      </Node>
    </BinaryTree>
    <BinaryTree type="DecisionTree" boostWeight="1.0000000000000000e+00" itree="569">
      <Node pos="s" depth="0" NCoef="0" IVar="10" Cut="4.1523811340332031e+01" cType="1" res="-1.9653725030366331e-04" rms="4.3153792619705200e-01" purity="4.9952593445777893e-01" nType="0">
        <Node pos="l" depth="1" NCoef="0" IVar="10" Cut="3.8571429252624512e+00" cType="1" res="8.4316486027091742e-04" rms="4.3275633454322815e-01" purity="5.0745546817779541e-01" nType="0">
          <Node pos="l" depth="2" NCoef="0" IVar="-1" Cut="0.0000000000000000e+00" cType="1" res="-4.0043862536549568e-03" rms="4.7123920917510986e-01" purity="4.4099351763725281e-01" nType="-99"/>
          <Node pos="r" depth="2" NCoef="0" IVar="-1" Cut="0.0000000000000000e+00" cType="1" res="7.6594331767410040e-04" rms="4.2823114991188049e-01" purity="5.1482081413269043e-01" nType="-99"/>
        </Node>
        <Node pos="r" depth="1" NCoef="0" IVar="0" Cut="8.7764191627502441e-01" cType="1" res="-8.0385012552142143e-03" rms="4.2215225100517273e-01" purity="4.3971744179725647e-01" nType="0">
          <Node pos="l" depth="2" NCoef="0" IVar="-1" Cut="0.0000000000000000e+00" cType="1" res="4.5840432867407799e-03" rms="4.4015064835548401e-01" purity="6.6388756036758423e-01" nType="-99"/>
          <Node pos="r" depth="2" NCoef="0" IVar="-1" Cut="0.0000000000000000e+00" cType="1" res="-6.5446193329989910e-03" rms="4.1052943468093872e-01" purity="3.0905357003211975e-01" nType="-99"/>
        </Node>
      </Node>
    </BinaryTree>
    <BinaryTree type="DecisionTree" boostWeight="1.0000000000000000e+00" itree="570">
      <Node pos="s" depth="0" NCoef="0" IVar="3" Cut="8.0952382087707520e-01" cType="1" res="-2.6609259657561779e-04" rms="4.3230640888214111e-01" purity="4.9896645545959473e-01" nType="0">
        <Node pos="l" depth="1" NCoef="0" IVar="3" Cut="5.5090272426605225e-01" cType="1" res="-1.1726225493475795e-03" rms="4.3110445141792297e-01" purity="4.9861565232276917e-01" nType="0">
          <Node pos="l" depth="2" NCoef="0" IVar="-1" Cut="0.0000000000000000e+00" cType="1" res="-1.5753395564388484e-04" rms="4.3009093403816223e-01" purity="4.9839314818382263e-01" nType="-99"/>
          <Node pos="r" depth="2" NCoef="0" IVar="-1" Cut="0.0000000000000000e+00" cType="1" res="-2.4909425992518663e-03" rms="4.4586825370788574e-01" purity="5.0193750858306885e-01" nType="-99"/>
        </Node>
        <Node pos="r" depth="1" NCoef="0" IVar="-1" Cut="0.0000000000000000e+00" cType="1" res="4.7434731386601925e-03" rms="4.5793730020523071e-01" purity="5.0682514905929565e-01" nType="-99"/>
      </Node>
    </BinaryTree>
    <BinaryTree type="DecisionTree" boostWeight="1.0000000000000000e+00" itree="571">
      <Node pos="s" depth="0" NCoef="0" IVar="7" Cut="9.5761880874633789e+00" cType="1" res="-1.8898709095083177e-04" rms="4.3199729919433594e-01" purity="4.9948900938034058e-01" nType="0">
        <Node pos="l" depth="1" NCoef="0" IVar="2" Cut="-1.2443555593490601e+00" cType="1" res="-8.7670207722112536e-04" rms="4.3338757753372192e-01" purity="4.8922881484031677e-01" nType="0">
          <Node pos="l" depth="2" NCoef="0" IVar="-1" Cut="0.0000000000000000e+00" cType="1" res="-3.0832234770059586e-03" rms="4.2285481095314026e-01" purity="4.7698715329170227e-01" nType="-99"/>
          <Node pos="r" depth="2" NCoef="0" IVar="-1" Cut="0.0000000000000000e+00" cType="1" res="7.9858247772790492e-05" rms="4.3456465005874634e-01" purity="4.9063399434089661e-01" nType="-99"/>
        </Node>
        <Node pos="r" depth="1" NCoef="0" IVar="-1" Cut="0.0000000000000000e+00" cType="1" res="3.9461064152419567e-03" rms="4.0306675434112549e-01" purity="7.0383483171463013e-01" nType="-99"/>
      </Node>
    </BinaryTree>
    <BinaryTree type="DecisionTree" boostWeight="1.0000000000000000e+00" itree="572">
      <Node pos="s" depth="0" NCoef="0" IVar="3" Cut="8.0952382087707520e-01" cType="1" res="3.7018937291577458e-05" rms="4.3195739388465881e-01" purity="4.9874401092529297e-01" nType="0">
        <Node pos="l" depth="1" NCoef="0" IVar="4" Cut="8.1809222698211670e-01" cType="1" res="-4.2346667032688856e-04" rms="4.3087109923362732e-01" purity="4.9848619103431702e-01" nType="0">
          <Node pos="l" depth="2" NCoef="0" IVar="-1" Cut="0.0000000000000000e+00" cType="1" res="-5.7560770073905587e-04" rms="4.2771482467651367e-01" purity="3.5559362173080444e-01" nType="-99"/>
          <Node pos="r" depth="2" NCoef="0" IVar="-1" Cut="0.0000000000000000e+00" cType="1" res="4.2619748273864388e-04" rms="4.3463128805160522e-01" purity="6.7049986124038696e-01" nType="-99"/>
        </Node>
        <Node pos="r" depth="1" NCoef="0" IVar="-1" Cut="0.0000000000000000e+00" cType="1" res="2.4931421503424644e-03" rms="4.5590317249298096e-01" purity="5.0462442636489868e-01" nType="-99"/>
      </Node>
    </BinaryTree>
    <BinaryTree type="DecisionTree" boostWeight="1.0000000000000000e+00" itree="573">
      <Node pos="s" depth="0" NCoef="0" IVar="8" Cut="-3.5232210159301758e-01" cType="1" res="7.5422337977215648e-04" rms="4.3218418955802917e-01" purity="5.0029814243316650e-01" nType="0">
        <Node pos="l" depth="1" NCoef="0" IVar="10" Cut="1.0476190567016602e+01" cType="1" res="5.4482771083712578e-03" rms="4.3007278442382812e-01" purity="5.4012578725814819e-01" nType="0">
          <Node pos="l" depth="2" NCoef="0" IVar="-1" Cut="0.0000000000000000e+00" cType="1" res="4.0542087517678738e-03" rms="4.5449200272560120e-01" purity="5.8094841241836548e-01" nType="-99"/>
          <Node pos="r" depth="2" NCoef="0" IVar="-1" Cut="0.0000000000000000e+00" cType="1" res="1.7669904627837241e-04" rms="4.1894426941871643e-01" purity="5.2241414785385132e-01" nType="-99"/>
        </Node>
        <Node pos="r" depth="1" NCoef="0" IVar="10" Cut="9.1904764175415039e+00" cType="1" res="-1.6607461730018258e-03" rms="4.3324664235115051e-01" purity="4.7980785369873047e-01" nType="0">
          <Node pos="l" depth="2" NCoef="0" IVar="-1" Cut="0.0000000000000000e+00" cType="1" res="-1.6489932313561440e-03" rms="4.5460575819015503e-01" purity="4.9650752544403076e-01" nType="-99"/>
          <Node pos="r" depth="2" NCoef="0" IVar="-1" Cut="0.0000000000000000e+00" cType="1" res="3.1188139109872282e-04" rms="4.2138195037841797e-01" purity="4.7089815139770508e-01" nType="-99"/>
        </Node>
      </Node>
    </BinaryTree>
    <BinaryTree type="DecisionTree" boostWeight="1.0000000000000000e+00" itree="574">
      <Node pos="s" depth="0" NCoef="0" IVar="4" Cut="7.3261481523513794e-01" cType="1" res="-5.0609168829396367e-04" rms="4.3273153901100159e-01" purity="4.9957191944122314e-01" nType="0">
        <Node pos="l" depth="1" NCoef="0" IVar="7" Cut="4.9723472595214844e+00" cType="1" res="3.0182250775396824e-03" rms="4.2097216844558716e-01" purity="3.1197950243949890e-01" nType="0">
          <Node pos="l" depth="2" NCoef="0" IVar="-1" Cut="0.0000000000000000e+00" cType="1" res="1.5289692673832178e-03" rms="4.2355567216873169e-01" purity="3.1276646256446838e-01" nType="-99"/>
          <Node pos="r" depth="2" NCoef="0" IVar="-1" Cut="0.0000000000000000e+00" cType="1" res="-5.9870867989957333e-03" rms="3.9539450407028198e-01" purity="3.0465537309646606e-01" nType="-99"/>
        </Node>
        <Node pos="r" depth="1" NCoef="0" IVar="4" Cut="9.7673815488815308e-01" cType="1" res="-3.0768036376684904e-03" rms="4.4109365344047546e-01" purity="6.3640582561492920e-01" nType="0">
          <Node pos="l" depth="2" NCoef="0" IVar="-1" Cut="0.0000000000000000e+00" cType="1" res="-1.4747802633792162e-03" rms="4.4369301199913025e-01" purity="6.2434846162796021e-01" nType="-99"/>
          <Node pos="r" depth="2" NCoef="0" IVar="-1" Cut="0.0000000000000000e+00" cType="1" res="5.4760235361754894e-03" rms="4.1772627830505371e-01" purity="7.3836815357208252e-01" nType="-99"/>
        </Node>
      </Node>
    </BinaryTree>
    <BinaryTree type="DecisionTree" boostWeight="1.0000000000000000e+00" itree="575">
      <Node pos="s" depth="0" NCoef="0" IVar="6" Cut="2.5714285373687744e+00" cType="1" res="7.3377869557589293e-04" rms="4.3133097887039185e-01" purity="4.9955734610557556e-01" nType="0">
        <Node pos="l" depth="1" NCoef="0" IVar="10" Cut="9.9047622680664062e+00" cType="1" res="-7.7280023833736777e-04" rms="4.3333369493484497e-01" purity="5.0266557931900024e-01" nType="0">
          <Node pos="l" depth="2" NCoef="0" IVar="-1" Cut="0.0000000000000000e+00" cType="1" res="7.4771186336874962e-04" rms="4.5418044924736023e-01" purity="5.2408474683761597e-01" nType="-99"/>
          <Node pos="r" depth="2" NCoef="0" IVar="-1" Cut="0.0000000000000000e+00" cType="1" res="-8.4888201672583818e-04" rms="4.2053809762001038e-01" purity="4.9003338813781738e-01" nType="-99"/>
        </Node>
        <Node pos="r" depth="1" NCoef="0" IVar="3" Cut="2.3809523880481720e-01" cType="1" res="5.7097412645816803e-03" rms="4.2461121082305908e-01" purity="4.8929125070571899e-01" nType="0">
          <Node pos="l" depth="2" NCoef="0" IVar="-1" Cut="0.0000000000000000e+00" cType="1" res="4.2986019980162382e-04" rms="4.2220818996429443e-01" purity="4.8162949085235596e-01" nType="-99"/>
          <Node pos="r" depth="2" NCoef="0" IVar="-1" Cut="0.0000000000000000e+00" cType="1" res="5.1360819488763809e-03" rms="4.3214073777198792e-01" purity="5.1448971033096313e-01" nType="-99"/>
        </Node>
      </Node>
    </BinaryTree>
    <BinaryTree type="DecisionTree" boostWeight="1.0000000000000000e+00" itree="576">
      <Node pos="s" depth="0" NCoef="0" IVar="9" Cut="-6.1904764175415039e-01" cType="1" res="1.2066795025020838e-03" rms="4.3174552917480469e-01" purity="5.0027412176132202e-01" nType="0">
        <Node pos="l" depth="1" NCoef="0" IVar="9" Cut="-7.6419585943222046e-01" cType="1" res="1.1273359879851341e-02" rms="4.3813699483871460e-01" purity="4.2570766806602478e-01" nType="0">
          <Node pos="l" depth="2" NCoef="0" IVar="-1" Cut="0.0000000000000000e+00" cType="1" res="-7.0070085348561406e-04" rms="4.4351208209991455e-01" purity="3.7469151616096497e-01" nType="-99"/>
          <Node pos="r" depth="2" NCoef="0" IVar="-1" Cut="0.0000000000000000e+00" cType="1" res="6.6016344353556633e-03" rms="4.3231770396232605e-01" purity="4.7609049081802368e-01" nType="-99"/>
        </Node>
        <Node pos="r" depth="1" NCoef="0" IVar="4" Cut="5.6857895851135254e-01" cType="1" res="3.9984213071875274e-04" rms="4.3121898174285889e-01" purity="5.0625061988830566e-01" nType="0">
          <Node pos="l" depth="2" NCoef="0" IVar="-1" Cut="0.0000000000000000e+00" cType="1" res="-1.3528167037293315e-03" rms="3.8252726197242737e-01" purity="2.0231552422046661e-01" nType="-99"/>
          <Node pos="r" depth="2" NCoef="0" IVar="-1" Cut="0.0000000000000000e+00" cType="1" res="4.6208032290451229e-04" rms="4.4627594947814941e-01" purity="6.0766565799713135e-01" nType="-99"/>
        </Node>
      </Node>
    </BinaryTree>
    <BinaryTree type="DecisionTree" boostWeight="1.0000000000000000e+00" itree="577">
      <Node pos="s" depth="0" NCoef="0" IVar="3" Cut="-4.2857143282890320e-01" cType="1" res="3.5569933243095875e-04" rms="4.3210762739181519e-01" purity="5.0094312429428101e-01" nType="0">
        <Node pos="l" depth="1" NCoef="0" IVar="4" Cut="7.8553891181945801e-01" cType="1" res="-5.7028941810131073e-03" rms="4.4265782833099365e-01" purity="5.0276088714599609e-01" nType="0">
          <Node pos="l" depth="2" NCoef="0" IVar="-1" Cut="0.0000000000000000e+00" cType="1" res="-3.2030644360929728e-03" rms="4.3624576926231384e-01" purity="3.3505162596702576e-01" nType="-99"/>
          <Node pos="r" depth="2" NCoef="0" IVar="-1" Cut="0.0000000000000000e+00" cType="1" res="-8.8293127191718668e-05" rms="4.4769865274429321e-01" purity="6.3822573423385620e-01" nType="-99"/>
        </Node>
        <Node pos="r" depth="1" NCoef="0" IVar="10" Cut="5.6666667938232422e+01" cType="1" res="1.4794066082686186e-03" rms="4.3011301755905151e-01" purity="5.0060600042343140e-01" nType="0">
          <Node pos="l" depth="2" NCoef="0" IVar="-1" Cut="0.0000000000000000e+00" cType="1" res="5.6269200285896659e-04" rms="4.3044260144233704e-01" purity="5.0863695144653320e-01" nType="-99"/>
          <Node pos="r" depth="2" NCoef="0" IVar="-1" Cut="0.0000000000000000e+00" cType="1" res="-2.5424577761441469e-03" rms="4.2419853806495667e-01" purity="3.6111748218536377e-01" nType="-99"/>
        </Node>
      </Node>
    </BinaryTree>
    <BinaryTree type="DecisionTree" boostWeight="1.0000000000000000e+00" itree="578">
      <Node pos="s" depth="0" NCoef="0" IVar="2" Cut="1.2238794565200806e+00" cType="1" res="8.5801345994696021e-04" rms="4.3207085132598877e-01" purity="5.0086051225662231e-01" nType="0">
        <Node pos="l" depth="1" NCoef="0" IVar="10" Cut="5.2285713195800781e+01" cType="1" res="-8.1388039689045399e-05" rms="4.3357321619987488e-01" purity="4.9989855289459229e-01" nType="0">
          <Node pos="l" depth="2" NCoef="0" IVar="-1" Cut="0.0000000000000000e+00" cType="1" res="-1.9799479923676699e-04" rms="4.3392735719680786e-01" purity="5.0585556030273438e-01" nType="-99"/>
          <Node pos="r" depth="2" NCoef="0" IVar="-1" Cut="0.0000000000000000e+00" cType="1" res="3.1063954811543226e-03" rms="4.2723447084426880e-01" purity="3.9685690402984619e-01" nType="-99"/>
        </Node>
        <Node pos="r" depth="1" NCoef="0" IVar="0" Cut="1.0602934360504150e+00" cType="1" res="8.2025807350873947e-03" rms="4.2006716132164001e-01" purity="5.0838136672973633e-01" nType="0">
          <Node pos="l" depth="2" NCoef="0" IVar="-1" Cut="0.0000000000000000e+00" cType="1" res="3.5998797975480556e-03" rms="4.2942094802856445e-01" purity="6.1967611312866211e-01" nType="-99"/>
          <Node pos="r" depth="2" NCoef="0" IVar="-1" Cut="0.0000000000000000e+00" cType="1" res="-8.8251632405444980e-04" rms="3.9952030777931213e-01" purity="2.7509188652038574e-01" nType="-99"/>
        </Node>
      </Node>
    </BinaryTree>
    <BinaryTree type="DecisionTree" boostWeight="1.0000000000000000e+00" itree="579">
      <Node pos="s" depth="0" NCoef="0" IVar="10" Cut="2.7142856597900391e+01" cType="1" res="-1.0584648698568344e-03" rms="4.3141183257102966e-01" purity="4.9846976995468140e-01" nType="0">
        <Node pos="l" depth="1" NCoef="0" IVar="10" Cut="3.1904761791229248e+00" cType="1" res="4.9501971807330847e-04" rms="4.3668106198310852e-01" purity="5.0458043813705444e-01" nType="0">
          <Node pos="l" depth="2" NCoef="0" IVar="-1" Cut="0.0000000000000000e+00" cType="1" res="-4.2157303541898727e-03" rms="4.7087240219116211e-01" purity="4.4052684307098389e-01" nType="-99"/>
          <Node pos="r" depth="2" NCoef="0" IVar="-1" Cut="0.0000000000000000e+00" cType="1" res="7.9343147808685899e-04" rms="4.3185079097747803e-01" purity="5.1313042640686035e-01" nType="-99"/>
        </Node>
        <Node pos="r" depth="1" NCoef="0" IVar="0" Cut="8.3976656198501587e-01" cType="1" res="-5.4491828195750713e-03" rms="4.1612705588340759e-01" purity="4.8119869828224182e-01" nType="0">
          <Node pos="l" depth="2" NCoef="0" IVar="-1" Cut="0.0000000000000000e+00" cType="1" res="5.6634773500263691e-03" rms="4.1152396798133850e-01" purity="7.1362835168838501e-01" nType="-99"/>
          <Node pos="r" depth="2" NCoef="0" IVar="-1" Cut="0.0000000000000000e+00" cType="1" res="-4.3964004144072533e-03" rms="4.1755273938179016e-01" purity="3.8577011227607727e-01" nType="-99"/>
        </Node>
      </Node>
    </BinaryTree>
    <BinaryTree type="DecisionTree" boostWeight="1.0000000000000000e+00" itree="580">
      <Node pos="s" depth="0" NCoef="0" IVar="0" Cut="5.9454470872879028e-01" cType="1" res="-2.9761164914816618e-03" rms="4.3306800723075867e-01" purity="4.9708402156829834e-01" nType="0">
        <Node pos="l" depth="1" NCoef="0" IVar="-1" Cut="0.0000000000000000e+00" cType="1" res="-4.0728794410824776e-03" rms="4.4072005152702332e-01" purity="6.5955245494842529e-01" nType="-99"/>
        <Node pos="r" depth="1" NCoef="0" IVar="6" Cut="-6.7142858505249023e+00" cType="1" res="-1.9926798995584249e-03" rms="4.3243232369422913e-01" purity="4.8403114080429077e-01" nType="0">
          <Node pos="l" depth="2" NCoef="0" IVar="-1" Cut="0.0000000000000000e+00" cType="1" res="-4.2951991781592369e-03" rms="4.1393214464187622e-01" purity="4.1623345017433167e-01" nType="-99"/>
          <Node pos="r" depth="2" NCoef="0" IVar="-1" Cut="0.0000000000000000e+00" cType="1" res="-3.7554188747890294e-04" rms="4.3319904804229736e-01" purity="4.8693874478340149e-01" nType="-99"/>
        </Node>
      </Node>
    </BinaryTree>
    <BinaryTree type="DecisionTree" boostWeight="1.0000000000000000e+00" itree="581">
      <Node pos="s" depth="0" NCoef="0" IVar="5" Cut="2.0196056365966797e+00" cType="1" res="2.3060904350131750e-03" rms="4.3200805783271790e-01" purity="5.0014829635620117e-01" nType="0">
        <Node pos="l" depth="1" NCoef="0" IVar="8" Cut="6.3071739673614502e-01" cType="1" res="6.6607905318960547e-04" rms="4.3430006504058838e-01" purity="5.0151580572128296e-01" nType="0">
          <Node pos="l" depth="2" NCoef="0" IVar="-1" Cut="0.0000000000000000e+00" cType="1" res="-2.6493106270208955e-04" rms="4.3741458654403687e-01" purity="4.7615450620651245e-01" nType="-99"/>
          <Node pos="r" depth="2" NCoef="0" IVar="-1" Cut="0.0000000000000000e+00" cType="1" res="1.7417913768440485e-03" rms="4.2352962493896484e-01" purity="5.8742433786392212e-01" nType="-99"/>
        </Node>
        <Node pos="r" depth="1" NCoef="0" IVar="4" Cut="7.7738636732101440e-01" cType="1" res="8.6253220215439796e-03" rms="4.2300102114677429e-01" purity="4.9487909674644470e-01" nType="0">
          <Node pos="l" depth="2" NCoef="0" IVar="-1" Cut="0.0000000000000000e+00" cType="1" res="5.3658825345337391e-03" rms="4.1550466418266296e-01" purity="3.5153296589851379e-01" nType="-99"/>
          <Node pos="r" depth="2" NCoef="0" IVar="-1" Cut="0.0000000000000000e+00" cType="1" res="-3.7528292159549892e-04" rms="4.3020766973495483e-01" purity="6.3967186212539673e-01" nType="-99"/>
        </Node>
      </Node>
    </BinaryTree>
    <BinaryTree type="DecisionTree" boostWeight="1.0000000000000000e+00" itree="582">
      <Node pos="s" depth="0" NCoef="0" IVar="2" Cut="2.8652167320251465e-01" cType="1" res="1.3402294134721160e-03" rms="4.3175059556961060e-01" purity="5.0221693515777588e-01" nType="0">
        <Node pos="l" depth="1" NCoef="0" IVar="3" Cut="1.4285714924335480e-01" cType="1" res="3.7620652001351118e-03" rms="4.3312105536460876e-01" purity="5.0306975841522217e-01" nType="0">
          <Node pos="l" depth="2" NCoef="0" IVar="-1" Cut="0.0000000000000000e+00" cType="1" res="1.5339386882260442e-03" rms="4.3058523535728455e-01" purity="5.0449305772781372e-01" nType="-99"/>
          <Node pos="r" depth="2" NCoef="0" IVar="-1" Cut="0.0000000000000000e+00" cType="1" res="-8.0012489343062043e-04" rms="4.4159868359565735e-01" purity="4.9821063876152039e-01" nType="-99"/>
        </Node>
        <Node pos="r" depth="1" NCoef="0" IVar="4" Cut="6.5691095590591431e-01" cType="1" res="-2.8692444320768118e-03" rms="4.2932564020156860e-01" purity="5.0073462724685669e-01" nType="0">
          <Node pos="l" depth="2" NCoef="0" IVar="-1" Cut="0.0000000000000000e+00" cType="1" res="-2.6073427870869637e-03" rms="4.0150469541549683e-01" purity="2.5682905316352844e-01" nType="-99"/>
          <Node pos="r" depth="2" NCoef="0" IVar="-1" Cut="0.0000000000000000e+00" cType="1" res="5.7414283219259232e-05" rms="4.4337069988250732e-01" purity="6.3036364316940308e-01" nType="-99"/>
        </Node>
      </Node>
    </BinaryTree>
    <BinaryTree type="DecisionTree" boostWeight="1.0000000000000000e+00" itree="583">
      <Node pos="s" depth="0" NCoef="0" IVar="10" Cut="6.0666667938232422e+01" cType="1" res="1.0597768705338240e-03" rms="4.3223270773887634e-01" purity="5.0079715251922607e-01" nType="0">
        <Node pos="l" depth="1" NCoef="0" IVar="10" Cut="4.7619047164916992e+00" cType="1" res="1.6638954402878881e-03" rms="4.3262970447540283e-01" purity="5.0702565908432007e-01" nType="0">
          <Node pos="l" depth="2" NCoef="0" IVar="-1" Cut="0.0000000000000000e+00" cType="1" res="2.4257451295852661e-03" rms="4.6325761079788208e-01" purity="4.9242913722991943e-01" nType="-99"/>
          <Node pos="r" depth="2" NCoef="0" IVar="-1" Cut="0.0000000000000000e+00" cType="1" res="8.4393017459660769e-05" rms="4.2770531773567200e-01" purity="5.0927209854125977e-01" nType="-99"/>
        </Node>
        <Node pos="r" depth="1" NCoef="0" IVar="-1" Cut="0.0000000000000000e+00" cType="1" res="-4.1237017139792442e-03" rms="4.2110040783882141e-01" purity="3.3343085646629333e-01" nType="-99"/>
      </Node>
    </BinaryTree>
    <BinaryTree type="DecisionTree" boostWeight="1.0000000000000000e+00" itree="584">
      <Node pos="s" depth="0" NCoef="0" IVar="8" Cut="1.8201956748962402e+00" cType="1" res="9.2912151012569666e-04" rms="4.3260735273361206e-01" purity="5.0039535760879517e-01" nType="0">
        <Node pos="l" depth="1" NCoef="0" IVar="8" Cut="-1.1968939751386642e-01" cType="1" res="4.6601518988609314e-04" rms="4.3382129073143005e-01" purity="4.9035811424255371e-01" nType="0">
          <Node pos="l" depth="2" NCoef="0" IVar="-1" Cut="0.0000000000000000e+00" cType="1" res="8.5161457536742091e-04" rms="4.3272790312767029e-01" purity="5.1511591672897339e-01" nType="-99"/>
          <Node pos="r" depth="2" NCoef="0" IVar="-1" Cut="0.0000000000000000e+00" cType="1" res="-4.5759166823700070e-04" rms="4.3469706177711487e-01" purity="4.7019636631011963e-01" nType="-99"/>
        </Node>
        <Node pos="r" depth="1" NCoef="0" IVar="-1" Cut="0.0000000000000000e+00" cType="1" res="3.3555049449205399e-03" rms="4.0435063838958740e-01" purity="7.2501039505004883e-01" nType="-99"/>
      </Node>
    </BinaryTree>
    <BinaryTree type="DecisionTree" boostWeight="1.0000000000000000e+00" itree="585">
      <Node pos="s" depth="0" NCoef="0" IVar="5" Cut="6.8575191497802734e-01" cType="1" res="-4.1026383405551314e-04" rms="4.3250662088394165e-01" purity="4.9948936700820923e-01" nType="0">
        <Node pos="l" depth="1" NCoef="0" IVar="4" Cut="5.3847539424896240e-01" cType="1" res="-4.8330728895962238e-03" rms="4.5011255145072937e-01" purity="4.9921134114265442e-01" nType="0">
          <Node pos="l" depth="2" NCoef="0" IVar="-1" Cut="0.0000000000000000e+00" cType="1" res="3.4980759955942631e-03" rms="4.0284410119056702e-01" purity="2.2268807888031006e-01" nType="-99"/>
          <Node pos="r" depth="2" NCoef="0" IVar="-1" Cut="0.0000000000000000e+00" cType="1" res="-1.8424638547003269e-03" rms="4.5849779248237610e-01" purity="5.5185508728027344e-01" nType="-99"/>
        </Node>
        <Node pos="r" depth="1" NCoef="0" IVar="8" Cut="-6.3515365123748779e-01" cType="1" res="1.1901952093467116e-03" rms="4.2594507336616516e-01" purity="4.9959000945091248e-01" nType="0">
          <Node pos="l" depth="2" NCoef="0" IVar="-1" Cut="0.0000000000000000e+00" cType="1" res="-1.3455217704176903e-03" rms="4.2447024583816528e-01" purity="5.6438380479812622e-01" nType="-99"/>
          <Node pos="r" depth="2" NCoef="0" IVar="-1" Cut="0.0000000000000000e+00" cType="1" res="9.2922308249399066e-04" rms="4.2646476626396179e-01" purity="4.7574356198310852e-01" nType="-99"/>
        </Node>
      </Node>
    </BinaryTree>
    <BinaryTree type="DecisionTree" boostWeight="1.0000000000000000e+00" itree="586">
      <Node pos="s" depth="0" NCoef="0" IVar="8" Cut="1.3127985596656799e-01" cType="1" res="1.2413335498422384e-03" rms="4.3192479014396667e-01" purity="5.0101971626281738e-01" nType="0">
        <Node pos="l" depth="1" NCoef="0" IVar="5" Cut="1.8906113505363464e-01" cType="1" res="-1.9707526080310345e-03" rms="4.3344852328300476e-01" purity="4.8696190118789673e-01" nType="0">
          <Node pos="l" depth="2" NCoef="0" IVar="-1" Cut="0.0000000000000000e+00" cType="1" res="-2.4592888075858355e-03" rms="4.5677605271339417e-01" purity="4.6403327584266663e-01" nType="-99"/>
          <Node pos="r" depth="2" NCoef="0" IVar="-1" Cut="0.0000000000000000e+00" cType="1" res="-1.2005605094600469e-04" rms="4.2908236384391785e-01" purity="4.9110311269760132e-01" nType="-99"/>
        </Node>
        <Node pos="r" depth="1" NCoef="0" IVar="9" Cut="4.3145915865898132e-01" cType="1" res="5.5466447956860065e-03" rms="4.2983633279800415e-01" purity="5.1986211538314819e-01" nType="0">
          <Node pos="l" depth="2" NCoef="0" IVar="-1" Cut="0.0000000000000000e+00" cType="1" res="8.5002894047647715e-04" rms="4.2597538232803345e-01" purity="5.0782686471939087e-01" nType="-99"/>
          <Node pos="r" depth="2" NCoef="0" IVar="-1" Cut="0.0000000000000000e+00" cType="1" res="3.8886049296706915e-03" rms="4.4514122605323792e-01" purity="5.6907945871353149e-01" nType="-99"/>
        </Node>
      </Node>
    </BinaryTree>
    <BinaryTree type="DecisionTree" boostWeight="1.0000000000000000e+00" itree="587">
      <Node pos="s" depth="0" NCoef="0" IVar="3" Cut="4.7619048506021500e-02" cType="1" res="-8.2290836144238710e-04" rms="4.3261462450027466e-01" purity="4.9800547957420349e-01" nType="0">
        <Node pos="l" depth="1" NCoef="0" IVar="9" Cut="5.2380955219268799e-01" cType="1" res="-3.5724653862416744e-03" rms="4.3241104483604431e-01" purity="4.9307596683502197e-01" nType="0">
          <Node pos="l" depth="2" NCoef="0" IVar="-1" Cut="0.0000000000000000e+00" cType="1" res="-1.2525733327493072e-03" rms="4.3121656775474548e-01" purity="4.9790820479393005e-01" nType="-99"/>
          <Node pos="r" depth="2" NCoef="0" IVar="-1" Cut="0.0000000000000000e+00" cType="1" res="1.6323536401614547e-03" rms="4.4248577952384949e-01" purity="4.5127958059310913e-01" nType="-99"/>
        </Node>
        <Node pos="r" depth="1" NCoef="0" IVar="6" Cut="2.8095238208770752e+00" cType="1" res="2.5566038675606251e-03" rms="4.3284079432487488e-01" purity="5.0406438112258911e-01" nType="0">
          <Node pos="l" depth="2" NCoef="0" IVar="-1" Cut="0.0000000000000000e+00" cType="1" res="1.0856167500605807e-04" rms="4.3419781327247620e-01" purity="5.0666016340255737e-01" nType="-99"/>
          <Node pos="r" depth="2" NCoef="0" IVar="-1" Cut="0.0000000000000000e+00" cType="1" res="2.6694445405155420e-03" rms="4.2809572815895081e-01" purity="4.9520385265350342e-01" nType="-99"/>
        </Node>
      </Node>
    </BinaryTree>
    <BinaryTree type="DecisionTree" boostWeight="1.0000000000000000e+00" itree="588">
      <Node pos="s" depth="0" NCoef="0" IVar="5" Cut="1.5854575634002686e+00" cType="1" res="9.9139066878706217e-04" rms="4.3213707208633423e-01" purity="5.0173896551132202e-01" nType="0">
        <Node pos="l" depth="1" NCoef="0" IVar="4" Cut="7.7880120277404785e-01" cType="1" res="2.6660820003598928e-03" rms="4.3709331750869751e-01" purity="5.0978982448577881e-01" nType="0">
          <Node pos="l" depth="2" NCoef="0" IVar="-1" Cut="0.0000000000000000e+00" cType="1" res="-6.0149293858557940e-04" rms="4.3218410015106201e-01" purity="3.3479210734367371e-01" nType="-99"/>
          <Node pos="r" depth="2" NCoef="0" IVar="-1" Cut="0.0000000000000000e+00" cType="1" res="1.7419556388631463e-03" rms="4.4123163819313049e-01" purity="6.6043329238891602e-01" nType="-99"/>
        </Node>
        <Node pos="r" depth="1" NCoef="0" IVar="4" Cut="7.8173100948333740e-01" cType="1" res="-2.1420912817120552e-03" rms="4.2268964648246765e-01" purity="4.8667517304420471e-01" nType="0">
          <Node pos="l" depth="2" NCoef="0" IVar="-1" Cut="0.0000000000000000e+00" cType="1" res="8.1393681466579437e-04" rms="4.1460815072059631e-01" purity="3.3679324388504028e-01" nType="-99"/>
          <Node pos="r" depth="2" NCoef="0" IVar="-1" Cut="0.0000000000000000e+00" cType="1" res="-1.9613937474787235e-03" rms="4.3096485733985901e-01" purity="6.4433389902114868e-01" nType="-99"/>
        </Node>
      </Node>
    </BinaryTree>
    <BinaryTree type="DecisionTree" boostWeight="1.0000000000000000e+00" itree="589">
      <Node pos="s" depth="0" NCoef="0" IVar="3" Cut="8.0952382087707520e-01" cType="1" res="-1.6163239488378167e-03" rms="4.3192899227142334e-01" purity="4.9837404489517212e-01" nType="0">
        <Node pos="l" depth="1" NCoef="0" IVar="2" Cut="1.8184297084808350e+00" cType="1" res="-6.9907057331874967e-04" rms="4.3089413642883301e-01" purity="4.9978733062744141e-01" nType="0">
          <Node pos="l" depth="2" NCoef="0" IVar="-1" Cut="0.0000000000000000e+00" cType="1" res="9.0462053776718676e-06" rms="4.3170359730720520e-01" purity="5.0063794851303101e-01" nType="-99"/>
          <Node pos="r" depth="2" NCoef="0" IVar="-1" Cut="0.0000000000000000e+00" cType="1" res="-3.6390682216733694e-03" rms="4.1687259078025818e-01" purity="4.8550254106521606e-01" nType="-99"/>
        </Node>
        <Node pos="r" depth="1" NCoef="0" IVar="-1" Cut="0.0000000000000000e+00" cType="1" res="-5.4869563318789005e-03" rms="4.5499530434608459e-01" purity="4.6522775292396545e-01" nType="-99"/>
      </Node>
    </BinaryTree>
    <BinaryTree type="DecisionTree" boostWeight="1.0000000000000000e+00" itree="590">
      <Node pos="s" depth="0" NCoef="0" IVar="8" Cut="7.3393678665161133e-01" cType="1" res="9.2360284179449081e-04" rms="4.3194660544395447e-01" purity="4.9966675043106079e-01" nType="0">
        <Node pos="l" depth="1" NCoef="0" IVar="7" Cut="2.7690470218658447e+00" cType="1" res="2.2403437178581953e-03" rms="4.3428233265876770e-01" purity="4.7752323746681213e-01" nType="0">
          <Node pos="l" depth="2" NCoef="0" IVar="-1" Cut="0.0000000000000000e+00" cType="1" res="-8.6457883298862725e-05" rms="4.4367662072181702e-01" purity="4.2468559741973877e-01" nType="-99"/>
          <Node pos="r" depth="2" NCoef="0" IVar="-1" Cut="0.0000000000000000e+00" cType="1" res="1.4733962016180158e-03" rms="4.2255219817161560e-01" purity="5.4179644584655762e-01" nType="-99"/>
        </Node>
        <Node pos="r" depth="1" NCoef="0" IVar="6" Cut="1.5714285373687744e+00" cType="1" res="-3.9622071199119091e-03" rms="4.2313131690025330e-01" purity="5.8183085918426514e-01" nType="0">
          <Node pos="l" depth="2" NCoef="0" IVar="-1" Cut="0.0000000000000000e+00" cType="1" res="5.5170996347442269e-04" rms="4.2235627770423889e-01" purity="5.9381806850433350e-01" nType="-99"/>
          <Node pos="r" depth="2" NCoef="0" IVar="-1" Cut="0.0000000000000000e+00" cType="1" res="-4.1166646406054497e-03" rms="4.2433243989944458e-01" purity="5.5981355905532837e-01" nType="-99"/>
        </Node>
      </Node>
    </BinaryTree>
    <BinaryTree type="DecisionTree" boostWeight="1.0000000000000000e+00" itree="591">
      <Node pos="s" depth="0" NCoef="0" IVar="2" Cut="-1.1462346315383911e+00" cType="1" res="1.3006739027332515e-04" rms="4.3208092451095581e-01" purity="5.0085264444351196e-01" nType="0">
        <Node pos="l" depth="1" NCoef="0" IVar="0" Cut="9.2183929681777954e-01" cType="1" res="1.0633563622832298e-02" rms="4.2379751801490784e-01" purity="5.1417422294616699e-01" nType="0">
          <Node pos="l" depth="2" NCoef="0" IVar="-1" Cut="0.0000000000000000e+00" cType="1" res="1.8666643882170320e-04" rms="4.2270046472549438e-01" purity="6.6382294893264771e-01" nType="-99"/>
          <Node pos="r" depth="2" NCoef="0" IVar="-1" Cut="0.0000000000000000e+00" cType="1" res="5.2082743495702744e-03" rms="4.2454683780670166e-01" purity="3.8638684153556824e-01" nType="-99"/>
        </Node>
        <Node pos="r" depth="1" NCoef="0" IVar="10" Cut="5.2285713195800781e+01" cType="1" res="-1.3255568919703364e-03" rms="4.3319627642631531e-01" purity="4.9900647997856140e-01" nType="0">
          <Node pos="l" depth="2" NCoef="0" IVar="-1" Cut="0.0000000000000000e+00" cType="1" res="-1.5669901040382683e-04" rms="4.3396008014678955e-01" purity="5.0633013248443604e-01" nType="-99"/>
          <Node pos="r" depth="2" NCoef="0" IVar="-1" Cut="0.0000000000000000e+00" cType="1" res="-3.7548053078353405e-03" rms="4.1952395439147949e-01" purity="3.7196478247642517e-01" nType="-99"/>
        </Node>
      </Node>
    </BinaryTree>
    <BinaryTree type="DecisionTree" boostWeight="1.0000000000000000e+00" itree="592">
      <Node pos="s" depth="0" NCoef="0" IVar="7" Cut="2.7690470218658447e+00" cType="1" res="-1.4399819774553180e-03" rms="4.3211391568183899e-01" purity="4.9757048487663269e-01" nType="0">
        <Node pos="l" depth="1" NCoef="0" IVar="4" Cut="5.7340419292449951e-01" cType="1" res="-4.3072411790490150e-03" rms="4.4322884082794189e-01" purity="4.3078497052192688e-01" nType="0">
          <Node pos="l" depth="2" NCoef="0" IVar="-1" Cut="0.0000000000000000e+00" cType="1" res="1.1551764328032732e-03" rms="4.0150812268257141e-01" purity="2.2514507174491882e-01" nType="-99"/>
          <Node pos="r" depth="2" NCoef="0" IVar="-1" Cut="0.0000000000000000e+00" cType="1" res="-1.9402900943532586e-03" rms="4.6321862936019897e-01" purity="5.3680342435836792e-01" nType="-99"/>
        </Node>
        <Node pos="r" depth="1" NCoef="0" IVar="4" Cut="5.6890928745269775e-01" cType="1" res="1.0737521806731820e-03" rms="4.2211270332336426e-01" purity="5.5612146854400635e-01" nType="0">
          <Node pos="l" depth="2" NCoef="0" IVar="-1" Cut="0.0000000000000000e+00" cType="1" res="-4.4919177889823914e-03" rms="3.5334509611129761e-01" purity="1.7142476141452789e-01" nType="-99"/>
          <Node pos="r" depth="2" NCoef="0" IVar="-1" Cut="0.0000000000000000e+00" cType="1" res="1.0166056454181671e-03" rms="4.3596103787422180e-01" purity="6.4216512441635132e-01" nType="-99"/>
        </Node>
      </Node>
    </BinaryTree>
    <BinaryTree type="DecisionTree" boostWeight="1.0000000000000000e+00" itree="593">
      <Node pos="s" depth="0" NCoef="0" IVar="3" Cut="-7.1428573131561279e-01" cType="1" res="1.4250745298340917e-03" rms="4.3258312344551086e-01" purity="5.0093340873718262e-01" nType="0">
        <Node pos="l" depth="1" NCoef="0" IVar="-1" Cut="0.0000000000000000e+00" cType="1" res="2.8287826571613550e-03" rms="4.5865067839622498e-01" purity="5.0988644361495972e-01" nType="-99"/>
        <Node pos="r" depth="1" NCoef="0" IVar="4" Cut="8.2117331027984619e-01" cType="1" res="7.5242423918098211e-04" rms="4.3081498146057129e-01" purity="5.0034791231155396e-01" nType="0">
          <Node pos="l" depth="2" NCoef="0" IVar="-1" Cut="0.0000000000000000e+00" cType="1" res="7.3761178646236658e-04" rms="4.2751875519752502e-01" purity="3.6108827590942383e-01" nType="-99"/>
          <Node pos="r" depth="2" NCoef="0" IVar="-1" Cut="0.0000000000000000e+00" cType="1" res="-4.3834635289385915e-04" rms="4.3480521440505981e-01" purity="6.7088496685028076e-01" nType="-99"/>
        </Node>
      </Node>
    </BinaryTree>
    <BinaryTree type="DecisionTree" boostWeight="1.0000000000000000e+00" itree="594">
      <Node pos="s" depth="0" NCoef="0" IVar="9" Cut="-2.3809523880481720e-01" cType="1" res="-1.7834701575338840e-03" rms="4.3249908089637756e-01" purity="4.9792522192001343e-01" nType="0">
        <Node pos="l" depth="1" NCoef="0" IVar="3" Cut="-2.3809523880481720e-01" cType="1" res="-8.1955920904874802e-03" rms="4.3361192941665649e-01" purity="4.6970972418785095e-01" nType="0">
          <Node pos="l" depth="2" NCoef="0" IVar="-1" Cut="0.0000000000000000e+00" cType="1" res="-5.0156321376562119e-03" rms="4.3875995278358459e-01" purity="4.6570900082588196e-01" nType="-99"/>
          <Node pos="r" depth="2" NCoef="0" IVar="-1" Cut="0.0000000000000000e+00" cType="1" res="-8.9579302584752440e-04" rms="4.3126019835472107e-01" purity="4.7145265340805054e-01" nType="-99"/>
        </Node>
        <Node pos="r" depth="1" NCoef="0" IVar="5" Cut="9.0214723348617554e-01" cType="1" res="5.6327809579670429e-04" rms="4.3206727504730225e-01" purity="5.0825172662734985e-01" nType="0">
          <Node pos="l" depth="2" NCoef="0" IVar="-1" Cut="0.0000000000000000e+00" cType="1" res="1.4890211168676615e-03" rms="4.4319874048233032e-01" purity="5.2566075325012207e-01" nType="-99"/>
          <Node pos="r" depth="2" NCoef="0" IVar="-1" Cut="0.0000000000000000e+00" cType="1" res="-5.3929089335724711e-04" rms="4.2668095231056213e-01" purity="5.0002282857894897e-01" nType="-99"/>
        </Node>
      </Node>
    </BinaryTree>
    <BinaryTree type="DecisionTree" boostWeight="1.0000000000000000e+00" itree="595">
      <Node pos="s" depth="0" NCoef="0" IVar="9" Cut="-7.1428573131561279e-01" cType="1" res="-1.8044065218418837e-03" rms="4.3264600634574890e-01" purity="4.9723485112190247e-01" nType="0">
        <Node pos="l" depth="1" NCoef="0" IVar="-1" Cut="0.0000000000000000e+00" cType="1" res="2.4392341729253531e-03" rms="4.4666570425033569e-01" purity="3.9190474152565002e-01" nType="-99"/>
        <Node pos="r" depth="1" NCoef="0" IVar="9" Cut="2.6530760526657104e-01" cType="1" res="-2.3585858289152384e-03" rms="4.3193513154983521e-01" purity="5.0243026018142700e-01" nType="0">
          <Node pos="l" depth="2" NCoef="0" IVar="-1" Cut="0.0000000000000000e+00" cType="1" res="-1.0484090307727456e-03" rms="4.3115919828414917e-01" purity="5.0730627775192261e-01" nType="-99"/>
          <Node pos="r" depth="2" NCoef="0" IVar="-1" Cut="0.0000000000000000e+00" cType="1" res="5.2676623454317451e-04" rms="4.3401825428009033e-01" purity="4.8910832405090332e-01" nType="-99"/>
        </Node>
      </Node>
    </BinaryTree>
    <BinaryTree type="DecisionTree" boostWeight="1.0000000000000000e+00" itree="596">
      <Node pos="s" depth="0" NCoef="0" IVar="3" Cut="8.0952382087707520e-01" cType="1" res="-1.3015998993068933e-03" rms="4.3214282393455505e-01" purity="4.9816131591796875e-01" nType="0">
        <Node pos="l" depth="1" NCoef="0" IVar="3" Cut="-3.1067755818367004e-01" cType="1" res="-7.3477707337588072e-04" rms="4.3080878257751465e-01" purity="4.9928036332130432e-01" nType="0">
          <Node pos="l" depth="2" NCoef="0" IVar="-1" Cut="0.0000000000000000e+00" cType="1" res="-1.6571510350331664e-03" rms="4.3731036782264709e-01" purity="5.0349873304367065e-01" nType="-99"/>
          <Node pos="r" depth="2" NCoef="0" IVar="-1" Cut="0.0000000000000000e+00" cType="1" res="2.7289101853966713e-04" rms="4.2877995967864990e-01" purity="4.9798670411109924e-01" nType="-99"/>
        </Node>
        <Node pos="r" depth="1" NCoef="0" IVar="-1" Cut="0.0000000000000000e+00" cType="1" res="-3.4108508843928576e-03" rms="4.6171665191650391e-01" purity="4.7229132056236267e-01" nType="-99"/>
      </Node>
    </BinaryTree>
    <BinaryTree type="DecisionTree" boostWeight="1.0000000000000000e+00" itree="597">
      <Node pos="s" depth="0" NCoef="0" IVar="5" Cut="3.1276085376739502e+00" cType="1" res="2.2272013593465090e-03" rms="4.3238177895545959e-01" purity="5.0133442878723145e-01" nType="0">
        <Node pos="l" depth="1" NCoef="0" IVar="4" Cut="6.8990010023117065e-01" cType="1" res="1.5343783888965845e-03" rms="4.3339753150939941e-01" purity="4.9922522902488708e-01" nType="0">
          <Node pos="l" depth="2" NCoef="0" IVar="-1" Cut="0.0000000000000000e+00" cType="1" res="1.5361860860139132e-03" rms="4.1436001658439636e-01" purity="2.8984388709068298e-01" nType="-99"/>
          <Node pos="r" depth="2" NCoef="0" IVar="-1" Cut="0.0000000000000000e+00" cType="1" res="-1.8611819541547447e-04" rms="4.4452020525932312e-01" purity="6.2608706951141357e-01" nType="-99"/>
        </Node>
        <Node pos="r" depth="1" NCoef="0" IVar="-1" Cut="0.0000000000000000e+00" cType="1" res="4.0401737205684185e-03" rms="4.1365855932235718e-01" purity="5.3894031047821045e-01" nType="-99"/>
      </Node>
    </BinaryTree>
    <BinaryTree type="DecisionTree" boostWeight="1.0000000000000000e+00" itree="598">
      <Node pos="s" depth="0" NCoef="0" IVar="4" Cut="6.5340548753738403e-01" cType="1" res="3.2407863182015717e-04" rms="4.3312638998031616e-01" purity="5.0024664402008057e-01" nType="0">
        <Node pos="l" depth="1" NCoef="0" IVar="10" Cut="3.3619049072265625e+01" cType="1" res="3.4976589959114790e-03" rms="4.0875384211540222e-01" purity="2.6403960585594177e-01" nType="0">
          <Node pos="l" depth="2" NCoef="0" IVar="-1" Cut="0.0000000000000000e+00" cType="1" res="-3.0534600955434144e-04" rms="4.1178843379020691e-01" purity="2.6137831807136536e-01" nType="-99"/>
          <Node pos="r" depth="2" NCoef="0" IVar="-1" Cut="0.0000000000000000e+00" cType="1" res="7.6939314603805542e-03" rms="3.9438545703887939e-01" purity="2.7584415674209595e-01" nType="-99"/>
        </Node>
        <Node pos="r" depth="1" NCoef="0" IVar="10" Cut="4.7428569793701172e+01" cType="1" res="-1.2703594984486699e-03" rms="4.4485917687416077e-01" purity="6.1891943216323853e-01" nType="0">
          <Node pos="l" depth="2" NCoef="0" IVar="-1" Cut="0.0000000000000000e+00" cType="1" res="1.0315400140825659e-04" rms="4.4514793157577515e-01" purity="6.3144898414611816e-01" nType="-99"/>
          <Node pos="r" depth="2" NCoef="0" IVar="-1" Cut="0.0000000000000000e+00" cType="1" res="-4.9226926639676094e-03" rms="4.4120937585830688e-01" purity="4.7981628775596619e-01" nType="-99"/>
        </Node>
      </Node>
    </BinaryTree>
    <BinaryTree type="DecisionTree" boostWeight="1.0000000000000000e+00" itree="599">
      <Node pos="s" depth="0" NCoef="0" IVar="3" Cut="8.0952382087707520e-01" cType="1" res="9.8384404554963112e-04" rms="4.3244263529777527e-01" purity="5.0078016519546509e-01" nType="0">
        <Node pos="l" depth="1" NCoef="0" IVar="6" Cut="-6.8571429252624512e+00" cType="1" res="3.9347840356640518e-04" rms="4.3118759989738464e-01" purity="5.0082987546920776e-01" nType="0">
          <Node pos="l" depth="2" NCoef="0" IVar="-1" Cut="0.0000000000000000e+00" cType="1" res="3.7839035503566265e-03" rms="4.1876849532127380e-01" purity="4.4677153229713440e-01" nType="-99"/>
          <Node pos="r" depth="2" NCoef="0" IVar="-1" Cut="0.0000000000000000e+00" cType="1" res="-4.4902644731337205e-05" rms="4.3170407414436340e-01" purity="5.0315159559249878e-01" nType="-99"/>
        </Node>
        <Node pos="r" depth="1" NCoef="0" IVar="-1" Cut="0.0000000000000000e+00" cType="1" res="3.3955425024032593e-03" rms="4.5973241329193115e-01" purity="4.9965497851371765e-01" nType="-99"/>
      </Node>
    </BinaryTree>
    <BinaryTree type="DecisionTree" boostWeight="1.0000000000000000e+00" itree="600">
      <Node pos="s" depth="0" NCoef="0" IVar="9" Cut="-1.4285714924335480e-01" cType="1" res="-1.9912326242774725e-03" rms="4.3197166919708252e-01" purity="4.9793004989624023e-01" nType="0">
        <Node pos="l" depth="1" NCoef="0" IVar="2" Cut="-8.2850456237792969e-01" cType="1" res="2.0670255180448294e-03" rms="4.3230926990509033e-01" purity="4.9319767951965332e-01" nType="0">
          <Node pos="l" depth="2" NCoef="0" IVar="-1" Cut="0.0000000000000000e+00" cType="1" res="3.4008079674094915e-03" rms="4.2190319299697876e-01" purity="5.1080614328384399e-01" nType="-99"/>
          <Node pos="r" depth="2" NCoef="0" IVar="-1" Cut="0.0000000000000000e+00" cType="1" res="-2.5051111151697114e-05" rms="4.3442231416702271e-01" purity="4.8951616883277893e-01" nType="-99"/>
        </Node>
        <Node pos="r" depth="1" NCoef="0" IVar="4" Cut="7.7534961700439453e-01" cType="1" res="-4.1912090964615345e-03" rms="4.3177258968353271e-01" purity="5.0049549341201782e-01" nType="0">
          <Node pos="l" depth="2" NCoef="0" IVar="-1" Cut="0.0000000000000000e+00" cType="1" res="-2.0067926961928606e-03" rms="4.2543679475784302e-01" purity="3.3124011754989624e-01" nType="-99"/>
          <Node pos="r" depth="2" NCoef="0" IVar="-1" Cut="0.0000000000000000e+00" cType="1" res="-3.4843961475417018e-04" rms="4.3737098574638367e-01" purity="6.5266501903533936e-01" nType="-99"/>
        </Node>
      </Node>
    </BinaryTree>
    <BinaryTree type="DecisionTree" boostWeight="1.0000000000000000e+00" itree="601">
      <Node pos="s" depth="0" NCoef="0" IVar="0" Cut="1.0959808826446533e+00" cType="1" res="2.1436864044517279e-03" rms="4.3347319960594177e-01" purity="5.0015103816986084e-01" nType="0">
        <Node pos="l" depth="1" NCoef="0" IVar="10" Cut="1.0380952835083008e+01" cType="1" res="-9.8038488067686558e-04" rms="4.3937239050865173e-01" purity="5.8956962823867798e-01" nType="0">
          <Node pos="l" depth="2" NCoef="0" IVar="-1" Cut="0.0000000000000000e+00" cType="1" res="-2.6330058462917805e-03" rms="4.5693528652191162e-01" purity="6.0852932929992676e-01" nType="-99"/>
          <Node pos="r" depth="2" NCoef="0" IVar="-1" Cut="0.0000000000000000e+00" cType="1" res="8.4468768909573555e-04" rms="4.3161758780479431e-01" purity="5.8150422573089600e-01" nType="-99"/>
        </Node>
        <Node pos="r" depth="1" NCoef="0" IVar="4" Cut="7.3255985975265503e-01" cType="1" res="8.2876654341816902e-03" rms="4.2156320810317993e-01" purity="3.2429525256156921e-01" nType="0">
          <Node pos="l" depth="2" NCoef="0" IVar="-1" Cut="0.0000000000000000e+00" cType="1" res="-1.7198671121150255e-03" rms="3.8023871183395386e-01" purity="1.9491967558860779e-01" nType="-99"/>
          <Node pos="r" depth="2" NCoef="0" IVar="-1" Cut="0.0000000000000000e+00" cType="1" res="5.0949868746101856e-03" rms="4.6124061942100525e-01" purity="4.6259102225303650e-01" nType="-99"/>
        </Node>
      </Node>
    </BinaryTree>
    <BinaryTree type="DecisionTree" boostWeight="1.0000000000000000e+00" itree="602">
      <Node pos="s" depth="0" NCoef="0" IVar="2" Cut="1.9079899787902832e+00" cType="1" res="1.2266311387065798e-04" rms="4.3181210756301880e-01" purity="5.0062698125839233e-01" nType="0">
        <Node pos="l" depth="1" NCoef="0" IVar="5" Cut="2.1332952976226807e+00" cType="1" res="-5.4113817168399692e-04" rms="4.3244734406471252e-01" purity="5.0012785196304321e-01" nType="0">
          <Node pos="l" depth="2" NCoef="0" IVar="-1" Cut="0.0000000000000000e+00" cType="1" res="-4.5176249113865197e-04" rms="4.3449252843856812e-01" purity="5.0049060583114624e-01" nType="-99"/>
          <Node pos="r" depth="2" NCoef="0" IVar="-1" Cut="0.0000000000000000e+00" cType="1" res="1.4341961359605193e-03" rms="4.2239764332771301e-01" purity="4.9837851524353027e-01" nType="-99"/>
        </Node>
        <Node pos="r" depth="1" NCoef="0" IVar="-1" Cut="0.0000000000000000e+00" cType="1" res="3.6100102588534355e-03" rms="4.1911056637763977e-01" purity="5.1029372215270996e-01" nType="-99"/>
      </Node>
    </BinaryTree>
    <BinaryTree type="DecisionTree" boostWeight="1.0000000000000000e+00" itree="603">
      <Node pos="s" depth="0" NCoef="0" IVar="5" Cut="3.2548889517784119e-01" cType="1" res="-7.2003844252321869e-05" rms="4.3260565400123596e-01" purity="4.9943056702613831e-01" nType="0">
        <Node pos="l" depth="1" NCoef="0" IVar="10" Cut="3.9047617912292480e+00" cType="1" res="5.1039857789874077e-03" rms="4.5323148369789124e-01" purity="5.0146776437759399e-01" nType="0">
          <Node pos="l" depth="2" NCoef="0" IVar="-1" Cut="0.0000000000000000e+00" cType="1" res="-8.6731911869719625e-04" rms="4.6751815080642700e-01" purity="4.4320884346961975e-01" nType="-99"/>
          <Node pos="r" depth="2" NCoef="0" IVar="-1" Cut="0.0000000000000000e+00" cType="1" res="2.9887852724641562e-03" rms="4.4143557548522949e-01" purity="5.4771137237548828e-01" nType="-99"/>
        </Node>
        <Node pos="r" depth="1" NCoef="0" IVar="0" Cut="1.5042477846145630e+00" cType="1" res="-9.9351140670478344e-04" rms="4.2882296442985535e-01" purity="4.9906781315803528e-01" nType="0">
          <Node pos="l" depth="2" NCoef="0" IVar="-1" Cut="0.0000000000000000e+00" cType="1" res="-5.9828897065017372e-05" rms="4.3186017870903015e-01" purity="5.1851266622543335e-01" nType="-99"/>
          <Node pos="r" depth="2" NCoef="0" IVar="-1" Cut="0.0000000000000000e+00" cType="1" res="-3.8677847478538752e-03" rms="3.8235259056091309e-01" purity="2.1964114904403687e-01" nType="-99"/>
        </Node>
      </Node>
    </BinaryTree>
    <BinaryTree type="DecisionTree" boostWeight="1.0000000000000000e+00" itree="604">
      <Node pos="s" depth="0" NCoef="0" IVar="4" Cut="8.1809222698211670e-01" cType="1" res="1.0961188236251473e-03" rms="4.3126565217971802e-01" purity="5.0065147876739502e-01" nType="0">
        <Node pos="l" depth="1" NCoef="0" IVar="7" Cut="1.3944694995880127e+00" cType="1" res="-2.2198550868779421e-03" rms="4.2813825607299805e-01" purity="3.5472720861434937e-01" nType="0">
          <Node pos="l" depth="2" NCoef="0" IVar="-1" Cut="0.0000000000000000e+00" cType="1" res="4.9250801093876362e-03" rms="4.5459493994712830e-01" purity="3.4466019272804260e-01" nType="-99"/>
          <Node pos="r" depth="2" NCoef="0" IVar="-1" Cut="0.0000000000000000e+00" cType="1" res="-1.3813850237056613e-03" rms="4.2448946833610535e-01" purity="3.5603773593902588e-01" nType="-99"/>
        </Node>
        <Node pos="r" depth="1" NCoef="0" IVar="0" Cut="1.1313009262084961e+00" cType="1" res="4.9403086304664612e-03" rms="4.3483141064643860e-01" purity="6.6982054710388184e-01" nType="0">
          <Node pos="l" depth="2" NCoef="0" IVar="-1" Cut="0.0000000000000000e+00" cType="1" res="-9.9373035482130945e-05" rms="4.2535701394081116e-01" purity="7.2506105899810791e-01" nType="-99"/>
          <Node pos="r" depth="2" NCoef="0" IVar="-1" Cut="0.0000000000000000e+00" cType="1" res="5.0282380543649197e-03" rms="4.6448218822479248e-01" purity="4.8633965849876404e-01" nType="-99"/>
        </Node>
      </Node>
    </BinaryTree>
    <BinaryTree type="DecisionTree" boostWeight="1.0000000000000000e+00" itree="605">
      <Node pos="s" depth="0" NCoef="0" IVar="0" Cut="5.4904830455780029e-01" cType="1" res="2.1134631242603064e-03" rms="4.3192985653877258e-01" purity="5.0210356712341309e-01" nType="0">
        <Node pos="l" depth="1" NCoef="0" IVar="-1" Cut="0.0000000000000000e+00" cType="1" res="3.7464653141796589e-03" rms="4.3921020627021790e-01" purity="6.8134772777557373e-01" nType="-99"/>
        <Node pos="r" depth="1" NCoef="0" IVar="4" Cut="6.1155909299850464e-01" cType="1" res="1.3961717486381531e-03" rms="4.3149045109748840e-01" purity="4.9164491891860962e-01" nType="0">
          <Node pos="l" depth="2" NCoef="0" IVar="-1" Cut="0.0000000000000000e+00" cType="1" res="-7.8759220195934176e-04" rms="3.9373648166656494e-01" purity="2.2697576880455017e-01" nType="-99"/>
          <Node pos="r" depth="2" NCoef="0" IVar="-1" Cut="0.0000000000000000e+00" cType="1" res="7.4724957812577486e-04" rms="4.4657838344573975e-01" purity="6.0426652431488037e-01" nType="-99"/>
        </Node>
      </Node>
    </BinaryTree>
    <BinaryTree type="DecisionTree" boostWeight="1.0000000000000000e+00" itree="606">
      <Node pos="s" depth="0" NCoef="0" IVar="0" Cut="5.9616494178771973e-01" cType="1" res="-3.3659601467661560e-04" rms="4.3187746405601501e-01" purity="4.9963402748107910e-01" nType="0">
        <Node pos="l" depth="1" NCoef="0" IVar="-1" Cut="0.0000000000000000e+00" cType="1" res="-3.1682949047535658e-03" rms="4.4009512662887573e-01" purity="6.6288799047470093e-01" nType="-99"/>
        <Node pos="r" depth="1" NCoef="0" IVar="3" Cut="7.1428573131561279e-01" cType="1" res="6.0197146376594901e-04" rms="4.3118536472320557e-01" purity="4.8629105091094971e-01" nType="0">
          <Node pos="l" depth="2" NCoef="0" IVar="-1" Cut="0.0000000000000000e+00" cType="1" res="-4.6104254579404369e-05" rms="4.2974931001663208e-01" purity="4.8643592000007629e-01" nType="-99"/>
          <Node pos="r" depth="2" NCoef="0" IVar="-1" Cut="0.0000000000000000e+00" cType="1" res="3.4367262851446867e-03" rms="4.5567733049392700e-01" purity="4.8372328281402588e-01" nType="-99"/>
        </Node>
      </Node>
    </BinaryTree>
    <BinaryTree type="DecisionTree" boostWeight="1.0000000000000000e+00" itree="607">
      <Node pos="s" depth="0" NCoef="0" IVar="7" Cut="2.8278248310089111e+00" cType="1" res="-1.7949653556570411e-03" rms="4.3193259835243225e-01" purity="4.9853020906448364e-01" nType="0">
        <Node pos="l" depth="1" NCoef="0" IVar="10" Cut="1.7428571701049805e+01" cType="1" res="-5.7860417291522026e-03" rms="4.4220104813575745e-01" purity="4.2971873283386230e-01" nType="0">
          <Node pos="l" depth="2" NCoef="0" IVar="-1" Cut="0.0000000000000000e+00" cType="1" res="-2.1300658117979765e-03" rms="4.4944432377815247e-01" purity="4.5456585288047791e-01" nType="-99"/>
          <Node pos="r" depth="2" NCoef="0" IVar="-1" Cut="0.0000000000000000e+00" cType="1" res="2.5194727350026369e-03" rms="4.0485027432441711e-01" purity="3.0892315506935120e-01" nType="-99"/>
        </Node>
        <Node pos="r" depth="1" NCoef="0" IVar="8" Cut="7.7945840358734131e-01" cType="1" res="1.8443221924826503e-03" rms="4.2231884598731995e-01" purity="5.6127637624740601e-01" nType="0">
          <Node pos="l" depth="2" NCoef="0" IVar="-1" Cut="0.0000000000000000e+00" cType="1" res="1.3373303227126598e-03" rms="4.2294082045555115e-01" purity="5.4525178670883179e-01" nType="-99"/>
          <Node pos="r" depth="2" NCoef="0" IVar="-1" Cut="0.0000000000000000e+00" cType="1" res="-1.3162974501028657e-03" rms="4.2091140151023865e-01" purity="5.9554564952850342e-01" nType="-99"/>
        </Node>
      </Node>
    </BinaryTree>
    <BinaryTree type="DecisionTree" boostWeight="1.0000000000000000e+00" itree="608">
      <Node pos="s" depth="0" NCoef="0" IVar="0" Cut="6.0784310102462769e-01" cType="1" res="1.4822267694398761e-03" rms="4.3155395984649658e-01" purity="5.0013971328735352e-01" nType="0">
        <Node pos="l" depth="1" NCoef="0" IVar="4" Cut="8.6773997545242310e-01" cType="1" res="1.1541354469954967e-02" rms="4.3280881643295288e-01" purity="6.8218505382537842e-01" nType="0">
          <Node pos="l" depth="2" NCoef="0" IVar="-1" Cut="0.0000000000000000e+00" cType="1" res="6.1165322549641132e-03" rms="4.5957756042480469e-01" purity="5.9124708175659180e-01" nType="-99"/>
          <Node pos="r" depth="2" NCoef="0" IVar="-1" Cut="0.0000000000000000e+00" cType="1" res="-1.7028328147716820e-04" rms="4.0788498520851135e-01" purity="7.6074510812759399e-01" nType="-99"/>
        </Node>
        <Node pos="r" depth="1" NCoef="0" IVar="4" Cut="6.5703272819519043e-01" cType="1" res="5.9752719243988395e-04" rms="4.3143218755722046e-01" purity="4.8412886261940002e-01" nType="0">
          <Node pos="l" depth="2" NCoef="0" IVar="-1" Cut="0.0000000000000000e+00" cType="1" res="-1.0223519057035446e-03" rms="4.0260964632034302e-01" purity="2.5125017762184143e-01" nType="-99"/>
          <Node pos="r" depth="2" NCoef="0" IVar="-1" Cut="0.0000000000000000e+00" cType="1" res="6.7309592850506306e-04" rms="4.4618719816207886e-01" purity="6.0970014333724976e-01" nType="-99"/>
        </Node>
      </Node>
    </BinaryTree>
    <BinaryTree type="DecisionTree" boostWeight="1.0000000000000000e+00" itree="609">
      <Node pos="s" depth="0" NCoef="0" IVar="8" Cut="1.4138630591332912e-02" cType="1" res="-4.5164390030549839e-05" rms="4.3146708607673645e-01" purity="5.0104349851608276e-01" nType="0">
        <Node pos="l" depth="1" NCoef="0" IVar="3" Cut="6.1904764175415039e-01" cType="1" res="-2.3802299983799458e-03" rms="4.3211463093757629e-01" purity="4.9371433258056641e-01" nType="0">
          <Node pos="l" depth="2" NCoef="0" IVar="-1" Cut="0.0000000000000000e+00" cType="1" res="-3.1163895619101822e-04" rms="4.2958766222000122e-01" purity="4.9585697054862976e-01" nType="-99"/>
          <Node pos="r" depth="2" NCoef="0" IVar="-1" Cut="0.0000000000000000e+00" cType="1" res="-3.4430150408297777e-03" rms="4.5626202225685120e-01" purity="4.7245043516159058e-01" nType="-99"/>
        </Node>
        <Node pos="r" depth="1" NCoef="0" IVar="3" Cut="2.3809523880481720e-01" cType="1" res="2.5320467539131641e-03" rms="4.3073657155036926e-01" purity="5.0913262367248535e-01" nType="0">
          <Node pos="l" depth="2" NCoef="0" IVar="-1" Cut="0.0000000000000000e+00" cType="1" res="1.0433287825435400e-03" rms="4.2827054858207703e-01" purity="5.0853186845779419e-01" nType="-99"/>
          <Node pos="r" depth="2" NCoef="0" IVar="-1" Cut="0.0000000000000000e+00" cType="1" res="-3.2736055436544120e-04" rms="4.3751937150955200e-01" purity="5.1080834865570068e-01" nType="-99"/>
        </Node>
      </Node>
    </BinaryTree>
    <BinaryTree type="DecisionTree" boostWeight="1.0000000000000000e+00" itree="610">
      <Node pos="s" depth="0" NCoef="0" IVar="9" Cut="-2.3809523880481720e-01" cType="1" res="5.8670900762081146e-04" rms="4.3212223052978516e-01" purity="5.0088798999786377e-01" nType="0">
        <Node pos="l" depth="1" NCoef="0" IVar="8" Cut="-1.0478770732879639e+00" cType="1" res="6.1015211977064610e-03" rms="4.3302434682846069e-01" purity="4.8805817961692810e-01" nType="0">
          <Node pos="l" depth="2" NCoef="0" IVar="-1" Cut="0.0000000000000000e+00" cType="1" res="4.4979392550885677e-03" rms="4.1197907924652100e-01" purity="7.0440208911895752e-01" nType="-99"/>
          <Node pos="r" depth="2" NCoef="0" IVar="-1" Cut="0.0000000000000000e+00" cType="1" res="9.4374269247055054e-04" rms="4.3813806772232056e-01" purity="4.3349325656890869e-01" nType="-99"/>
        </Node>
        <Node pos="r" depth="1" NCoef="0" IVar="3" Cut="-7.1428573131561279e-01" cType="1" res="-1.4486892614513636e-03" rms="4.3177101016044617e-01" purity="5.0562316179275513e-01" nType="0">
          <Node pos="l" depth="2" NCoef="0" IVar="-1" Cut="0.0000000000000000e+00" cType="1" res="-3.1625556293874979e-03" rms="4.5464625954627991e-01" purity="4.9540209770202637e-01" nType="-99"/>
          <Node pos="r" depth="2" NCoef="0" IVar="-1" Cut="0.0000000000000000e+00" cType="1" res="-2.1060786093585193e-04" rms="4.3043211102485657e-01" purity="5.0620108842849731e-01" nType="-99"/>
        </Node>
      </Node>
    </BinaryTree>
    <BinaryTree type="DecisionTree" boostWeight="1.0000000000000000e+00" itree="611">
      <Node pos="s" depth="0" NCoef="0" IVar="3" Cut="-4.2857143282890320e-01" cType="1" res="1.1802450753748417e-03" rms="4.3214061856269836e-01" purity="5.0062721967697144e-01" nType="0">
        <Node pos="l" depth="1" NCoef="0" IVar="5" Cut="7.7942287921905518e-01" cType="1" res="-5.4379827342927456e-03" rms="4.4462779164314270e-01" purity="5.0081497430801392e-01" nType="0">
          <Node pos="l" depth="2" NCoef="0" IVar="-1" Cut="0.0000000000000000e+00" cType="1" res="-2.7391971088945866e-03" rms="4.5600748062133789e-01" purity="4.8774293065071106e-01" nType="-99"/>
          <Node pos="r" depth="2" NCoef="0" IVar="-1" Cut="0.0000000000000000e+00" cType="1" res="1.2681588123086840e-04" rms="4.3285319209098816e-01" purity="5.1390373706817627e-01" nType="-99"/>
        </Node>
        <Node pos="r" depth="1" NCoef="0" IVar="1" Cut="9.2813520431518555e+00" cType="1" res="2.4113436229526997e-03" rms="4.2976653575897217e-01" purity="5.0059223175048828e-01" nType="0">
          <Node pos="l" depth="2" NCoef="0" IVar="-1" Cut="0.0000000000000000e+00" cType="1" res="4.6098689199425280e-04" rms="4.3069627881050110e-01" purity="5.0041776895523071e-01" nType="-99"/>
          <Node pos="r" depth="2" NCoef="0" IVar="-1" Cut="0.0000000000000000e+00" cType="1" res="2.6875378098338842e-03" rms="4.1978272795677185e-01" purity="5.0242990255355835e-01" nType="-99"/>
        </Node>
      </Node>
    </BinaryTree>
    <BinaryTree type="DecisionTree" boostWeight="1.0000000000000000e+00" itree="612">
      <Node pos="s" depth="0" NCoef="0" IVar="7" Cut="5.1556496620178223e+00" cType="1" res="-4.5018453965894878e-04" rms="4.3165832757949829e-01" purity="5.0043249130249023e-01" nType="0">
        <Node pos="l" depth="1" NCoef="0" IVar="8" Cut="-1.0614545345306396e+00" cType="1" res="-1.9777317065745592e-03" rms="4.3665459752082825e-01" purity="4.6309509873390198e-01" nType="0">
          <Node pos="l" depth="2" NCoef="0" IVar="-1" Cut="0.0000000000000000e+00" cType="1" res="3.6434854846447706e-03" rms="4.3137308955192566e-01" purity="6.0667300224304199e-01" nType="-99"/>
          <Node pos="r" depth="2" NCoef="0" IVar="-1" Cut="0.0000000000000000e+00" cType="1" res="-8.4229995263740420e-04" rms="4.3705210089683533e-01" purity="4.5155009627342224e-01" nType="-99"/>
        </Node>
        <Node pos="r" depth="1" NCoef="0" IVar="4" Cut="7.3881399631500244e-01" cType="1" res="4.7645363956689835e-03" rms="4.1410577297210693e-01" purity="6.2789434194564819e-01" nType="0">
          <Node pos="l" depth="2" NCoef="0" IVar="-1" Cut="0.0000000000000000e+00" cType="1" res="-3.5663647577166557e-03" rms="3.9329746365547180e-01" purity="3.1861308217048645e-01" nType="-99"/>
          <Node pos="r" depth="2" NCoef="0" IVar="-1" Cut="0.0000000000000000e+00" cType="1" res="2.2088277619332075e-03" rms="4.1798111796379089e-01" purity="6.8843877315521240e-01" nType="-99"/>
        </Node>
      </Node>
    </BinaryTree>
    <BinaryTree type="DecisionTree" boostWeight="1.0000000000000000e+00" itree="613">
      <Node pos="s" depth="0" NCoef="0" IVar="8" Cut="2.6181587576866150e-01" cType="1" res="-4.0888978401198983e-04" rms="4.3289846181869507e-01" purity="4.9863651394844055e-01" nType="0">
        <Node pos="l" depth="1" NCoef="0" IVar="3" Cut="-2.3809523880481720e-01" cType="1" res="2.3673311807215214e-03" rms="4.3424719572067261e-01" purity="4.8544082045555115e-01" nType="0">
          <Node pos="l" depth="2" NCoef="0" IVar="-1" Cut="0.0000000000000000e+00" cType="1" res="2.2580409422516823e-03" rms="4.3933457136154175e-01" purity="4.9986708164215088e-01" nType="-99"/>
          <Node pos="r" depth="2" NCoef="0" IVar="-1" Cut="0.0000000000000000e+00" cType="1" res="-6.0211037634871900e-05" rms="4.3214553594589233e-01" purity="4.7960624098777771e-01" nType="-99"/>
        </Node>
        <Node pos="r" depth="1" NCoef="0" IVar="5" Cut="8.6001348495483398e-01" cType="1" res="-5.0561334937810898e-03" rms="4.3059125542640686e-01" purity="5.2072548866271973e-01" nType="0">
          <Node pos="l" depth="2" NCoef="0" IVar="-1" Cut="0.0000000000000000e+00" cType="1" res="6.3927314477041364e-04" rms="4.4677755236625671e-01" purity="5.4440987110137939e-01" nType="-99"/>
          <Node pos="r" depth="2" NCoef="0" IVar="-1" Cut="0.0000000000000000e+00" cType="1" res="-2.2367774508893490e-03" rms="4.2388567328453064e-01" purity="5.1122355461120605e-01" nType="-99"/>
        </Node>
      </Node>
    </BinaryTree>
    <BinaryTree type="DecisionTree" boostWeight="1.0000000000000000e+00" itree="614">
      <Node pos="s" depth="0" NCoef="0" IVar="2" Cut="-1.2316094636917114e+00" cType="1" res="-7.5171882053837180e-04" rms="4.3191757798194885e-01" purity="4.9914732575416565e-01" nType="0">
        <Node pos="l" depth="1" NCoef="0" IVar="4" Cut="8.1876480579376221e-01" cType="1" res="-9.1527840122580528e-03" rms="4.1854226589202881e-01" purity="4.9311980605125427e-01" nType="0">
          <Node pos="l" depth="2" NCoef="0" IVar="-1" Cut="0.0000000000000000e+00" cType="1" res="-4.9081826582551003e-03" rms="4.1622972488403320e-01" purity="3.5222113132476807e-01" nType="-99"/>
          <Node pos="r" depth="2" NCoef="0" IVar="-1" Cut="0.0000000000000000e+00" cType="1" res="8.7405700469389558e-04" rms="4.2152476310729980e-01" purity="6.9475913047790527e-01" nType="-99"/>
        </Node>
        <Node pos="r" depth="1" NCoef="0" IVar="3" Cut="-5.2380955219268799e-01" cType="1" res="2.6110900216735899e-04" rms="4.3349120020866394e-01" purity="4.9987402558326721e-01" nType="0">
          <Node pos="l" depth="2" NCoef="0" IVar="-1" Cut="0.0000000000000000e+00" cType="1" res="2.1225132513791323e-03" rms="4.5187774300575256e-01" purity="5.0827246904373169e-01" nType="-99"/>
          <Node pos="r" depth="2" NCoef="0" IVar="-1" Cut="0.0000000000000000e+00" cType="1" res="-1.8771037866827101e-04" rms="4.3131700158119202e-01" purity="4.9890857934951782e-01" nType="-99"/>
        </Node>
      </Node>
    </BinaryTree>
    <BinaryTree type="DecisionTree" boostWeight="1.0000000000000000e+00" itree="615">
      <Node pos="s" depth="0" NCoef="0" IVar="3" Cut="-8.0952382087707520e-01" cType="1" res="1.2271372834220529e-03" rms="4.3152427673339844e-01" purity="5.0054973363876343e-01" nType="0">
        <Node pos="l" depth="1" NCoef="0" IVar="-1" Cut="0.0000000000000000e+00" cType="1" res="-3.3899161498993635e-03" rms="4.6158260107040405e-01" purity="4.7029176354408264e-01" nType="-99"/>
        <Node pos="r" depth="1" NCoef="0" IVar="9" Cut="1.4285714924335480e-01" cType="1" res="1.9233131315559149e-03" rms="4.3010914325714111e-01" purity="5.0191134214401245e-01" nType="0">
          <Node pos="l" depth="2" NCoef="0" IVar="-1" Cut="0.0000000000000000e+00" cType="1" res="-9.5218303613364697e-05" rms="4.2994412779808044e-01" purity="5.0061547756195068e-01" nType="-99"/>
          <Node pos="r" depth="2" NCoef="0" IVar="-1" Cut="0.0000000000000000e+00" cType="1" res="1.6275771195068955e-03" rms="4.3037909269332886e-01" purity="5.0427746772766113e-01" nType="-99"/>
        </Node>
      </Node>
    </BinaryTree>
    <BinaryTree type="DecisionTree" boostWeight="1.0000000000000000e+00" itree="616">
      <Node pos="s" depth="0" NCoef="0" IVar="9" Cut="-7.1428573131561279e-01" cType="1" res="-2.0176899852231145e-04" rms="4.3247678875923157e-01" purity="5.0098037719726562e-01" nType="0">
        <Node pos="l" depth="1" NCoef="0" IVar="-1" Cut="0.0000000000000000e+00" cType="1" res="3.9784018881618977e-03" rms="4.4165205955505371e-01" purity="3.9860251545906067e-01" nType="-99"/>
        <Node pos="r" depth="1" NCoef="0" IVar="5" Cut="3.5245451331138611e-01" cType="1" res="-9.9346553906798363e-04" rms="4.3199026584625244e-01" purity="5.0618344545364380e-01" nType="0">
          <Node pos="l" depth="2" NCoef="0" IVar="-1" Cut="0.0000000000000000e+00" cType="1" res="1.6592016909271479e-03" rms="4.5362359285354614e-01" purity="5.2142554521560669e-01" nType="-99"/>
          <Node pos="r" depth="2" NCoef="0" IVar="-1" Cut="0.0000000000000000e+00" cType="1" res="-6.1789032770320773e-04" rms="4.2832928895950317e-01" purity="5.0368726253509521e-01" nType="-99"/>
        </Node>
      </Node>
    </BinaryTree>
    <BinaryTree type="DecisionTree" boostWeight="1.0000000000000000e+00" itree="617">
      <Node pos="s" depth="0" NCoef="0" IVar="7" Cut="2.4958834648132324e+00" cType="1" res="-9.2260941164568067e-04" rms="4.3261760473251343e-01" purity="4.9899831414222717e-01" nType="0">
        <Node pos="l" depth="1" NCoef="0" IVar="8" Cut="5.4251819849014282e-01" cType="1" res="2.7878470718860626e-03" rms="4.4576320052146912e-01" purity="4.3683862686157227e-01" nType="0">
          <Node pos="l" depth="2" NCoef="0" IVar="-1" Cut="0.0000000000000000e+00" cType="1" res="-6.4332934562116861e-04" rms="4.4445928931236267e-01" purity="4.1901409626007080e-01" nType="-99"/>
          <Node pos="r" depth="2" NCoef="0" IVar="-1" Cut="0.0000000000000000e+00" cType="1" res="8.8213095441460609e-03" rms="4.5237660408020020e-01" purity="5.4784137010574341e-01" nType="-99"/>
        </Node>
        <Node pos="r" depth="1" NCoef="0" IVar="7" Cut="1.0099351882934570e+01" cType="1" res="-3.5249872598797083e-03" rms="4.2313477396965027e-01" purity="5.4259485006332397e-01" nType="0">
          <Node pos="l" depth="2" NCoef="0" IVar="-1" Cut="0.0000000000000000e+00" cType="1" res="-1.3258137041702867e-03" rms="4.2460945248603821e-01" purity="5.3018826246261597e-01" nType="-99"/>
          <Node pos="r" depth="2" NCoef="0" IVar="-1" Cut="0.0000000000000000e+00" cType="1" res="4.2718714103102684e-03" rms="4.0175238251686096e-01" purity="7.1417003870010376e-01" nType="-99"/>
        </Node>
      </Node>
    </BinaryTree>
    <BinaryTree type="DecisionTree" boostWeight="1.0000000000000000e+00" itree="618">
      <Node pos="s" depth="0" NCoef="0" IVar="4" Cut="8.1809222698211670e-01" cType="1" res="-6.1710993759334087e-04" rms="4.3264582753181458e-01" purity="4.9981832504272461e-01" nType="0">
        <Node pos="l" depth="1" NCoef="0" IVar="10" Cut="3.5523811340332031e+01" cType="1" res="2.4871416389942169e-03" rms="4.2838919162750244e-01" purity="3.6008590459823608e-01" nType="0">
          <Node pos="l" depth="2" NCoef="0" IVar="-1" Cut="0.0000000000000000e+00" cType="1" res="1.1407028978283051e-05" rms="4.3192994594573975e-01" purity="3.5826823115348816e-01" nType="-99"/>
          <Node pos="r" depth="2" NCoef="0" IVar="-1" Cut="0.0000000000000000e+00" cType="1" res="4.1234442032873631e-03" rms="4.1055771708488464e-01" purity="3.6891099810600281e-01" nType="-99"/>
        </Node>
        <Node pos="r" depth="1" NCoef="0" IVar="4" Cut="9.7271114587783813e-01" cType="1" res="-4.2415121570229530e-03" rms="4.3753546476364136e-01" purity="6.6296452283859253e-01" nType="0">
          <Node pos="l" depth="2" NCoef="0" IVar="-1" Cut="0.0000000000000000e+00" cType="1" res="-2.1502668969333172e-03" rms="4.4189217686653137e-01" purity="6.4561533927917480e-01" nType="-99"/>
          <Node pos="r" depth="2" NCoef="0" IVar="-1" Cut="0.0000000000000000e+00" cType="1" res="4.0004495531320572e-03" rms="4.1663852334022522e-01" purity="7.4183493852615356e-01" nType="-99"/>
        </Node>
      </Node>
    </BinaryTree>
    <BinaryTree type="DecisionTree" boostWeight="1.0000000000000000e+00" itree="619">
      <Node pos="s" depth="0" NCoef="0" IVar="3" Cut="-7.1428573131561279e-01" cType="1" res="-3.0134146800264716e-04" rms="4.3155235052108765e-01" purity="4.9807688593864441e-01" nType="0">
        <Node pos="l" depth="1" NCoef="0" IVar="-1" Cut="0.0000000000000000e+00" cType="1" res="2.6036333292722702e-03" rms="4.5649707317352295e-01" purity="5.0168931484222412e-01" nType="-99"/>
        <Node pos="r" depth="1" NCoef="0" IVar="2" Cut="-1.1855874061584473e+00" cType="1" res="-1.0041855275630951e-03" rms="4.2990532517433167e-01" purity="4.9784684181213379e-01" nType="0">
          <Node pos="l" depth="2" NCoef="0" IVar="-1" Cut="0.0000000000000000e+00" cType="1" res="1.8863565055653453e-03" rms="4.1862499713897705e-01" purity="5.0704348087310791e-01" nType="-99"/>
          <Node pos="r" depth="2" NCoef="0" IVar="-1" Cut="0.0000000000000000e+00" cType="1" res="-5.3161592222750187e-04" rms="4.3132716417312622e-01" purity="4.9666184186935425e-01" nType="-99"/>
        </Node>
      </Node>
    </BinaryTree>
    <BinaryTree type="DecisionTree" boostWeight="1.0000000000000000e+00" itree="620">
      <Node pos="s" depth="0" NCoef="0" IVar="9" Cut="-4.2857143282890320e-01" cType="1" res="-1.2542108306661248e-03" rms="4.3173414468765259e-01" purity="4.9986031651496887e-01" nType="0">
        <Node pos="l" depth="1" NCoef="0" IVar="4" Cut="5.6960797309875488e-01" cType="1" res="-6.7348247393965721e-03" rms="4.3544653058052063e-01" purity="4.4805827736854553e-01" nType="0">
          <Node pos="l" depth="2" NCoef="0" IVar="-1" Cut="0.0000000000000000e+00" cType="1" res="2.0833897870033979e-03" rms="3.7961608171463013e-01" purity="1.9962917268276215e-01" nType="-99"/>
          <Node pos="r" depth="2" NCoef="0" IVar="-1" Cut="0.0000000000000000e+00" cType="1" res="-2.8529453556984663e-03" rms="4.5635622739791870e-01" purity="5.5037420988082886e-01" nType="-99"/>
        </Node>
        <Node pos="r" depth="1" NCoef="0" IVar="4" Cut="9.4696003198623657e-01" cType="1" res="-3.1764159211888909e-04" rms="4.3108955025672913e-01" purity="5.0871264934539795e-01" nType="0">
          <Node pos="l" depth="2" NCoef="0" IVar="-1" Cut="0.0000000000000000e+00" cType="1" res="-4.3630064465105534e-04" rms="4.3555188179016113e-01" purity="4.5802104473114014e-01" nType="-99"/>
          <Node pos="r" depth="2" NCoef="0" IVar="-1" Cut="0.0000000000000000e+00" cType="1" res="1.8550833920016885e-03" rms="4.0819621086120605e-01" purity="7.5986057519912720e-01" nType="-99"/>
        </Node>
      </Node>
    </BinaryTree>
    <BinaryTree type="DecisionTree" boostWeight="1.0000000000000000e+00" itree="621">
      <Node pos="s" depth="0" NCoef="0" IVar="5" Cut="3.7357339262962341e-01" cType="1" res="-9.9215877708047628e-04" rms="4.3225499987602234e-01" purity="4.9930235743522644e-01" nType="0">
        <Node pos="l" depth="1" NCoef="0" IVar="5" Cut="1.9853660464286804e-01" cType="1" res="4.3779704719781876e-03" rms="4.5336586236953735e-01" purity="5.0674533843994141e-01" nType="0">
          <Node pos="l" depth="2" NCoef="0" IVar="-1" Cut="0.0000000000000000e+00" cType="1" res="1.2788033927790821e-04" rms="4.5537111163139343e-01" purity="4.9593603610992432e-01" nType="-99"/>
          <Node pos="r" depth="2" NCoef="0" IVar="-1" Cut="0.0000000000000000e+00" cType="1" res="4.1700704023241997e-03" rms="4.4659382104873657e-01" purity="5.4170024394989014e-01" nType="-99"/>
        </Node>
        <Node pos="r" depth="1" NCoef="0" IVar="4" Cut="7.7897381782531738e-01" cType="1" res="-2.0293458364903927e-03" rms="4.2804992198944092e-01" purity="4.9786478281021118e-01" nType="0">
          <Node pos="l" depth="2" NCoef="0" IVar="-1" Cut="0.0000000000000000e+00" cType="1" res="1.6216980293393135e-04" rms="4.2182740569114685e-01" purity="3.3431899547576904e-01" nType="-99"/>
          <Node pos="r" depth="2" NCoef="0" IVar="-1" Cut="0.0000000000000000e+00" cType="1" res="-1.2336659710854292e-03" rms="4.3429261445999146e-01" purity="6.6478240489959717e-01" nType="-99"/>
        </Node>
      </Node>
    </BinaryTree>
    <BinaryTree type="DecisionTree" boostWeight="1.0000000000000000e+00" itree="622">
      <Node pos="s" depth="0" NCoef="0" IVar="8" Cut="-8.0978870391845703e-01" cType="1" res="-6.1957987782079726e-05" rms="4.3250492215156555e-01" purity="4.9995985627174377e-01" nType="0">
        <Node pos="l" depth="1" NCoef="0" IVar="7" Cut="3.4275910854339600e+00" cType="1" res="-7.6901162974536419e-03" rms="4.2601123452186584e-01" purity="5.8926188945770264e-01" nType="0">
          <Node pos="l" depth="2" NCoef="0" IVar="-1" Cut="0.0000000000000000e+00" cType="1" res="4.0150578133761883e-03" rms="4.4552442431449890e-01" purity="5.7347786426544189e-01" nType="-99"/>
          <Node pos="r" depth="2" NCoef="0" IVar="-1" Cut="0.0000000000000000e+00" cType="1" res="-4.5414878986775875e-03" rms="4.1843688488006592e-01" purity="5.9494888782501221e-01" nType="-99"/>
        </Node>
        <Node pos="r" depth="1" NCoef="0" IVar="7" Cut="4.4917669296264648e+00" cType="1" res="1.7374502494931221e-03" rms="4.3400299549102783e-01" purity="4.7889435291290283e-01" nType="0">
          <Node pos="l" depth="2" NCoef="0" IVar="-1" Cut="0.0000000000000000e+00" cType="1" res="6.8177010689396411e-05" rms="4.3799945712089539e-01" purity="4.4514405727386475e-01" nType="-99"/>
          <Node pos="r" depth="2" NCoef="0" IVar="-1" Cut="0.0000000000000000e+00" cType="1" res="1.8950669327750802e-03" rms="4.1962632536888123e-01" purity="5.9741491079330444e-01" nType="-99"/>
        </Node>
      </Node>
    </BinaryTree>
    <BinaryTree type="DecisionTree" boostWeight="1.0000000000000000e+00" itree="623">
      <Node pos="s" depth="0" NCoef="0" IVar="6" Cut="-1.0952380895614624e+00" cType="1" res="-3.3279036870226264e-04" rms="4.3259921669960022e-01" purity="4.9977403879165649e-01" nType="0">
        <Node pos="l" depth="1" NCoef="0" IVar="10" Cut="1.0380952835083008e+01" cType="1" res="-4.3015303090214729e-03" rms="4.2767390608787537e-01" purity="4.8788672685623169e-01" nType="0">
          <Node pos="l" depth="2" NCoef="0" IVar="-1" Cut="0.0000000000000000e+00" cType="1" res="-3.9434265345335007e-03" rms="4.4914746284484863e-01" purity="5.0148743391036987e-01" nType="-99"/>
          <Node pos="r" depth="2" NCoef="0" IVar="-1" Cut="0.0000000000000000e+00" cType="1" res="6.1087615904398263e-05" rms="4.1908565163612366e-01" purity="4.8268702626228333e-01" nType="-99"/>
        </Node>
        <Node pos="r" depth="1" NCoef="0" IVar="9" Cut="4.7619048506021500e-02" cType="1" res="1.3759356224909425e-03" rms="4.3469145894050598e-01" purity="5.0489211082458496e-01" nType="0">
          <Node pos="l" depth="2" NCoef="0" IVar="-1" Cut="0.0000000000000000e+00" cType="1" res="1.1574433883652091e-03" rms="4.3460407853126526e-01" purity="5.0652855634689331e-01" nType="-99"/>
          <Node pos="r" depth="2" NCoef="0" IVar="-1" Cut="0.0000000000000000e+00" cType="1" res="-6.0399877838790417e-04" rms="4.3476897478103638e-01" purity="5.0291043519973755e-01" nType="-99"/>
        </Node>
      </Node>
    </BinaryTree>
    <BinaryTree type="DecisionTree" boostWeight="1.0000000000000000e+00" itree="624">
      <Node pos="s" depth="0" NCoef="0" IVar="4" Cut="8.6288058757781982e-01" cType="1" res="1.1144885793328285e-03" rms="4.3135917186737061e-01" purity="5.0106602907180786e-01" nType="0">
        <Node pos="l" depth="1" NCoef="0" IVar="10" Cut="1.8761905670166016e+01" cType="1" res="-1.2945383787155151e-03" rms="4.3222200870513916e-01" purity="3.8110607862472534e-01" nType="0">
          <Node pos="l" depth="2" NCoef="0" IVar="-1" Cut="0.0000000000000000e+00" cType="1" res="-1.6765361651778221e-03" rms="4.4629967212677002e-01" purity="3.7870746850967407e-01" nType="-99"/>
          <Node pos="r" depth="2" NCoef="0" IVar="-1" Cut="0.0000000000000000e+00" cType="1" res="1.4650007942691445e-03" rms="4.1447064280509949e-01" purity="3.8400617241859436e-01" nType="-99"/>
        </Node>
        <Node pos="r" depth="1" NCoef="0" IVar="0" Cut="1.0968500375747681e+00" cType="1" res="4.9367984756827354e-03" rms="4.2995885014533997e-01" purity="6.9140177965164185e-01" nType="0">
          <Node pos="l" depth="2" NCoef="0" IVar="-1" Cut="0.0000000000000000e+00" cType="1" res="-1.2294724001549184e-04" rms="4.1802054643630981e-01" purity="7.4346107244491577e-01" nType="-99"/>
          <Node pos="r" depth="2" NCoef="0" IVar="-1" Cut="0.0000000000000000e+00" cType="1" res="4.8378012143075466e-03" rms="4.6543174982070923e-01" purity="5.2609926462173462e-01" nType="-99"/>
        </Node>
      </Node>
    </BinaryTree>
    <BinaryTree type="DecisionTree" boostWeight="1.0000000000000000e+00" itree="625">
      <Node pos="s" depth="0" NCoef="0" IVar="2" Cut="-1.6877174377441406e+00" cType="1" res="-1.1901626130566001e-03" rms="4.3148198723793030e-01" purity="4.9963277578353882e-01" nType="0">
        <Node pos="l" depth="1" NCoef="0" IVar="-1" Cut="0.0000000000000000e+00" cType="1" res="-3.1800370197743177e-03" rms="4.2163783311843872e-01" purity="4.9533036351203918e-01" nType="-99"/>
        <Node pos="r" depth="1" NCoef="0" IVar="1" Cut="4.3589663505554199e+00" cType="1" res="-5.2675569895654917e-04" rms="4.3211075663566589e-01" purity="4.9991458654403687e-01" nType="0">
          <Node pos="l" depth="2" NCoef="0" IVar="-1" Cut="0.0000000000000000e+00" cType="1" res="-5.9514725580811501e-04" rms="4.3800991773605347e-01" purity="5.0039011240005493e-01" nType="-99"/>
          <Node pos="r" depth="2" NCoef="0" IVar="-1" Cut="0.0000000000000000e+00" cType="1" res="1.1757633183151484e-03" rms="4.1595509648323059e-01" purity="4.9864804744720459e-01" nType="-99"/>
        </Node>
      </Node>
    </BinaryTree>
    <BinaryTree type="DecisionTree" boostWeight="1.0000000000000000e+00" itree="626">
      <Node pos="s" depth="0" NCoef="0" IVar="3" Cut="4.7619048506021500e-02" cType="1" res="-1.9352350500412285e-04" rms="4.3268090486526489e-01" purity="4.9945870041847229e-01" nType="0">
        <Node pos="l" depth="1" NCoef="0" IVar="4" Cut="8.6544907093048096e-01" cType="1" res="-2.6953304186463356e-03" rms="4.3218410015106201e-01" purity="4.9495610594749451e-01" nType="0">
          <Node pos="l" depth="2" NCoef="0" IVar="-1" Cut="0.0000000000000000e+00" cType="1" res="2.4718536224099807e-05" rms="4.3075358867645264e-01" purity="3.8116475939750671e-01" nType="-99"/>
          <Node pos="r" depth="2" NCoef="0" IVar="-1" Cut="0.0000000000000000e+00" cType="1" res="-1.9175276393070817e-03" rms="4.3447238206863403e-01" purity="6.8084394931793213e-01" nType="-99"/>
        </Node>
        <Node pos="r" depth="1" NCoef="0" IVar="4" Cut="6.6005378961563110e-01" cType="1" res="2.8888816013932228e-03" rms="4.3327233195304871e-01" purity="5.0500625371932983e-01" nType="0">
          <Node pos="l" depth="2" NCoef="0" IVar="-1" Cut="0.0000000000000000e+00" cType="1" res="1.9658722449094057e-03" rms="4.1212126612663269e-01" purity="2.7393177151679993e-01" nType="-99"/>
          <Node pos="r" depth="2" NCoef="0" IVar="-1" Cut="0.0000000000000000e+00" cType="1" res="2.4049649073276669e-04" rms="4.4373455643653870e-01" purity="6.2372052669525146e-01" nType="-99"/>
        </Node>
      </Node>
    </BinaryTree>
    <BinaryTree type="DecisionTree" boostWeight="1.0000000000000000e+00" itree="627">
      <Node pos="s" depth="0" NCoef="0" IVar="6" Cut="2.8571429848670959e-01" cType="1" res="-9.8945391073357314e-05" rms="4.3179342150688171e-01" purity="4.9843668937683105e-01" nType="0">
        <Node pos="l" depth="1" NCoef="0" IVar="5" Cut="2.1972270011901855e+00" cType="1" res="3.8836370222270489e-03" rms="4.3217831850051880e-01" purity="5.0499063730239868e-01" nType="0">
          <Node pos="l" depth="2" NCoef="0" IVar="-1" Cut="0.0000000000000000e+00" cType="1" res="1.5111921820789576e-03" rms="4.3383815884590149e-01" purity="5.0807332992553711e-01" nType="-99"/>
          <Node pos="r" depth="2" NCoef="0" IVar="-1" Cut="0.0000000000000000e+00" cType="1" res="-1.8244279781356454e-03" rms="4.2280003428459167e-01" purity="4.8807239532470703e-01" nType="-99"/>
        </Node>
        <Node pos="r" depth="1" NCoef="0" IVar="4" Cut="9.4779664278030396e-01" cType="1" res="-4.9461689777672291e-03" rms="4.3127492070198059e-01" purity="4.9045988917350769e-01" nType="0">
          <Node pos="l" depth="2" NCoef="0" IVar="-1" Cut="0.0000000000000000e+00" cType="1" res="-6.4141192706301808e-04" rms="4.3319216370582581e-01" purity="4.4495448470115662e-01" nType="-99"/>
          <Node pos="r" depth="2" NCoef="0" IVar="-1" Cut="0.0000000000000000e+00" cType="1" res="-5.2241366356611252e-03" rms="4.2079341411590576e-01" purity="7.2998446226119995e-01" nType="-99"/>
        </Node>
      </Node>
    </BinaryTree>
    <BinaryTree type="DecisionTree" boostWeight="1.0000000000000000e+00" itree="628">
      <Node pos="s" depth="0" NCoef="0" IVar="3" Cut="7.1428573131561279e-01" cType="1" res="-6.9717195583507419e-04" rms="4.3207943439483643e-01" purity="4.9827688932418823e-01" nType="0">
        <Node pos="l" depth="1" NCoef="0" IVar="2" Cut="6.4811813831329346e-01" cType="1" res="9.4819464720785618e-05" rms="4.3052625656127930e-01" purity="4.9930170178413391e-01" nType="0">
          <Node pos="l" depth="2" NCoef="0" IVar="-1" Cut="0.0000000000000000e+00" cType="1" res="3.9404589915648103e-04" rms="4.3275344371795654e-01" purity="4.9922391772270203e-01" nType="-99"/>
          <Node pos="r" depth="2" NCoef="0" IVar="-1" Cut="0.0000000000000000e+00" cType="1" res="-1.2517424765974283e-03" rms="4.2290940880775452e-01" purity="4.9956363439559937e-01" nType="-99"/>
        </Node>
        <Node pos="r" depth="1" NCoef="0" IVar="-1" Cut="0.0000000000000000e+00" cType="1" res="-3.2143851276487112e-03" rms="4.5613986253738403e-01" purity="4.8179727792739868e-01" nType="-99"/>
      </Node>
    </BinaryTree>
    <BinaryTree type="DecisionTree" boostWeight="1.0000000000000000e+00" itree="629">
      <Node pos="s" depth="0" NCoef="0" IVar="8" Cut="-1.2336394786834717e+00" cType="1" res="9.9720992147922516e-04" rms="4.3207588791847229e-01" purity="5.0173038244247437e-01" nType="0">
        <Node pos="l" depth="1" NCoef="0" IVar="0" Cut="9.2295575141906738e-01" cType="1" res="9.2787193134427071e-03" rms="4.1477379202842712e-01" purity="6.5757781267166138e-01" nType="0">
          <Node pos="l" depth="2" NCoef="0" IVar="-1" Cut="0.0000000000000000e+00" cType="1" res="4.2206278885714710e-04" rms="3.9683955907821655e-01" purity="7.6349127292633057e-01" nType="-99"/>
          <Node pos="r" depth="2" NCoef="0" IVar="-1" Cut="0.0000000000000000e+00" cType="1" res="4.8118848353624344e-03" rms="4.3617665767669678e-01" purity="5.2374702692031860e-01" nType="-99"/>
        </Node>
        <Node pos="r" depth="1" NCoef="0" IVar="9" Cut="-6.1904764175415039e-01" cType="1" res="2.6462810183147667e-06" rms="4.3409675359725952e-01" purity="4.8301398754119873e-01" nType="0">
          <Node pos="l" depth="2" NCoef="0" IVar="-1" Cut="0.0000000000000000e+00" cType="1" res="-3.1910170800983906e-03" rms="4.4247600436210632e-01" purity="3.6907762289047241e-01" nType="-99"/>
          <Node pos="r" depth="2" NCoef="0" IVar="-1" Cut="0.0000000000000000e+00" cType="1" res="2.6223840541206300e-04" rms="4.3339991569519043e-01" purity="4.9218514561653137e-01" nType="-99"/>
        </Node>
      </Node>
    </BinaryTree>
    <BinaryTree type="DecisionTree" boostWeight="1.0000000000000000e+00" itree="630">
      <Node pos="s" depth="0" NCoef="0" IVar="0" Cut="6.4674788713455200e-01" cType="1" res="1.5033495146781206e-03" rms="4.3157869577407837e-01" purity="5.0162786245346069e-01" nType="0">
        <Node pos="l" depth="1" NCoef="0" IVar="4" Cut="9.0784341096878052e-01" cType="1" res="-6.0594966635107994e-03" rms="4.3604487180709839e-01" purity="6.7320656776428223e-01" nType="0">
          <Node pos="l" depth="2" NCoef="0" IVar="-1" Cut="0.0000000000000000e+00" cType="1" res="1.4248420484364033e-03" rms="4.5595958828926086e-01" purity="6.0271275043487549e-01" nType="-99"/>
          <Node pos="r" depth="2" NCoef="0" IVar="-1" Cut="0.0000000000000000e+00" cType="1" res="-5.8630951680243015e-03" rms="4.1230213642120361e-01" purity="7.5184172391891479e-01" nType="-99"/>
        </Node>
        <Node pos="r" depth="1" NCoef="0" IVar="4" Cut="6.9535315036773682e-01" cType="1" res="2.3953348863869905e-03" rms="4.3104013800621033e-01" purity="4.8139125108718872e-01" nType="0">
          <Node pos="l" depth="2" NCoef="0" IVar="-1" Cut="0.0000000000000000e+00" cType="1" res="-4.4447675463743508e-04" rms="4.0923041105270386e-01" purity="2.7262008190155029e-01" nType="-99"/>
          <Node pos="r" depth="2" NCoef="0" IVar="-1" Cut="0.0000000000000000e+00" cType="1" res="1.2121658073738217e-03" rms="4.4455340504646301e-01" purity="6.1636757850646973e-01" nType="-99"/>
        </Node>
      </Node>
    </BinaryTree>
    <BinaryTree type="DecisionTree" boostWeight="1.0000000000000000e+00" itree="631">
      <Node pos="s" depth="0" NCoef="0" IVar="3" Cut="7.1428573131561279e-01" cType="1" res="-9.7099767299368978e-04" rms="4.3240562081336975e-01" purity="4.9897867441177368e-01" nType="0">
        <Node pos="l" depth="1" NCoef="0" IVar="2" Cut="-1.2316094636917114e+00" cType="1" res="-1.7512921476736665e-03" rms="4.3080240488052368e-01" purity="4.9880829453468323e-01" nType="0">
          <Node pos="l" depth="2" NCoef="0" IVar="-1" Cut="0.0000000000000000e+00" cType="1" res="1.4470154419541359e-03" rms="4.2527219653129578e-01" purity="5.0866878032684326e-01" nType="-99"/>
          <Node pos="r" depth="2" NCoef="0" IVar="-1" Cut="0.0000000000000000e+00" cType="1" res="-7.0183334173634648e-04" rms="4.3150296807289124e-01" purity="4.9753525853157043e-01" nType="-99"/>
        </Node>
        <Node pos="r" depth="1" NCoef="0" IVar="-1" Cut="0.0000000000000000e+00" cType="1" res="2.7821522671729326e-03" rms="4.5732897520065308e-01" purity="5.0172984600067139e-01" nType="-99"/>
      </Node>
    </BinaryTree>
    <BinaryTree type="DecisionTree" boostWeight="1.0000000000000000e+00" itree="632">
      <Node pos="s" depth="0" NCoef="0" IVar="9" Cut="4.7619048506021500e-02" cType="1" res="8.2171481335535645e-04" rms="4.3111860752105713e-01" purity="5.0142413377761841e-01" nType="0">
        <Node pos="l" depth="1" NCoef="0" IVar="0" Cut="1.0187206268310547e+00" cType="1" res="3.4396545961499214e-03" rms="4.3071675300598145e-01" purity="5.0270044803619385e-01" nType="0">
          <Node pos="l" depth="2" NCoef="0" IVar="-1" Cut="0.0000000000000000e+00" cType="1" res="1.6878165770322084e-03" rms="4.3473947048187256e-01" purity="6.2028306722640991e-01" nType="-99"/>
          <Node pos="r" depth="2" NCoef="0" IVar="-1" Cut="0.0000000000000000e+00" cType="1" res="-1.8925685435533524e-04" rms="4.2509654164314270e-01" purity="3.4125748276710510e-01" nType="-99"/>
        </Node>
        <Node pos="r" depth="1" NCoef="0" IVar="3" Cut="-1.4285714924335480e-01" cType="1" res="-2.3551420308649540e-03" rms="4.3158441781997681e-01" purity="4.9987524747848511e-01" nType="0">
          <Node pos="l" depth="2" NCoef="0" IVar="-1" Cut="0.0000000000000000e+00" cType="1" res="8.4522727411240339e-04" rms="4.3571084737777710e-01" purity="5.1134771108627319e-01" nType="-99"/>
          <Node pos="r" depth="2" NCoef="0" IVar="-1" Cut="0.0000000000000000e+00" cType="1" res="-1.4979084953665733e-03" rms="4.2912372946739197e-01" purity="4.9317821860313416e-01" nType="-99"/>
        </Node>
      </Node>
    </BinaryTree>
    <BinaryTree type="DecisionTree" boostWeight="1.0000000000000000e+00" itree="633">
      <Node pos="s" depth="0" NCoef="0" IVar="9" Cut="6.1904764175415039e-01" cType="1" res="-1.0965183610096574e-03" rms="4.3104776740074158e-01" purity="4.9799510836601257e-01" nType="0">
        <Node pos="l" depth="1" NCoef="0" IVar="4" Cut="6.1063486337661743e-01" cType="1" res="-4.3693216866813600e-04" rms="4.2996895313262939e-01" purity="5.0414037704467773e-01" nType="0">
          <Node pos="l" depth="2" NCoef="0" IVar="-1" Cut="0.0000000000000000e+00" cType="1" res="-1.9198079826310277e-03" rms="3.9304536581039429e-01" purity="2.2805830836296082e-01" nType="-99"/>
          <Node pos="r" depth="2" NCoef="0" IVar="-1" Cut="0.0000000000000000e+00" cType="1" res="4.6742855920456350e-04" rms="4.4422861933708191e-01" purity="6.1755931377410889e-01" nType="-99"/>
        </Node>
        <Node pos="r" depth="1" NCoef="0" IVar="4" Cut="7.7535355091094971e-01" cType="1" res="-9.4378776848316193e-03" rms="4.4438028335571289e-01" purity="4.2027959227561951e-01" nType="0">
          <Node pos="l" depth="2" NCoef="0" IVar="-1" Cut="0.0000000000000000e+00" cType="1" res="4.3363994336687028e-04" rms="4.2328062653541565e-01" purity="2.8518104553222656e-01" nType="-99"/>
          <Node pos="r" depth="2" NCoef="0" IVar="-1" Cut="0.0000000000000000e+00" cType="1" res="-4.6293926425278187e-03" rms="4.6353381872177124e-01" purity="5.5027943849563599e-01" nType="-99"/>
        </Node>
      </Node>
    </BinaryTree>
    <BinaryTree type="DecisionTree" boostWeight="1.0000000000000000e+00" itree="634">
      <Node pos="s" depth="0" NCoef="0" IVar="9" Cut="-7.1428573131561279e-01" cType="1" res="9.0703842943185009e-06" rms="4.3265059590339661e-01" purity="4.9912908673286438e-01" nType="0">
        <Node pos="l" depth="1" NCoef="0" IVar="-1" Cut="0.0000000000000000e+00" cType="1" res="3.0012642964720726e-03" rms="4.4546890258789062e-01" purity="3.9595195651054382e-01" nType="-99"/>
        <Node pos="r" depth="1" NCoef="0" IVar="8" Cut="-9.1737622022628784e-01" cType="1" res="-5.6663638679310679e-04" rms="4.3199813365936279e-01" purity="5.0423562526702881e-01" nType="0">
          <Node pos="l" depth="2" NCoef="0" IVar="-1" Cut="0.0000000000000000e+00" cType="1" res="-2.1843269933015108e-03" rms="4.2485642433166504e-01" purity="6.0195183753967285e-01" nType="-99"/>
          <Node pos="r" depth="2" NCoef="0" IVar="-1" Cut="0.0000000000000000e+00" cType="1" res="2.3553121718578041e-04" rms="4.3339791893959045e-01" purity="4.8468789458274841e-01" nType="-99"/>
        </Node>
      </Node>
    </BinaryTree>
    <BinaryTree type="DecisionTree" boostWeight="1.0000000000000000e+00" itree="635">
      <Node pos="s" depth="0" NCoef="0" IVar="1" Cut="1.0423699378967285e+01" cType="1" res="1.5571552794426680e-03" rms="4.3191850185394287e-01" purity="5.0059318542480469e-01" nType="0">
        <Node pos="l" depth="1" NCoef="0" IVar="1" Cut="1.4450033903121948e+00" cType="1" res="2.1378856617957354e-03" rms="4.3292853236198425e-01" purity="5.0133430957794189e-01" nType="0">
          <Node pos="l" depth="2" NCoef="0" IVar="-1" Cut="0.0000000000000000e+00" cType="1" res="-9.7883515991270542e-04" rms="4.6096798777580261e-01" purity="4.8434403538703918e-01" nType="-99"/>
          <Node pos="r" depth="2" NCoef="0" IVar="-1" Cut="0.0000000000000000e+00" cType="1" res="8.6264824494719505e-04" rms="4.2800182104110718e-01" purity="5.0420427322387695e-01" nType="-99"/>
        </Node>
        <Node pos="r" depth="1" NCoef="0" IVar="-1" Cut="0.0000000000000000e+00" cType="1" res="-2.0820242352783680e-03" rms="4.1594696044921875e-01" purity="4.8917549848556519e-01" nType="-99"/>
      </Node>
    </BinaryTree>
    <BinaryTree type="DecisionTree" boostWeight="1.0000000000000000e+00" itree="636">
      <Node pos="s" depth="0" NCoef="0" IVar="5" Cut="1.5840190649032593e+00" cType="1" res="-7.9368031583726406e-04" rms="4.3285179138183594e-01" purity="4.9853837490081787e-01" nType="0">
        <Node pos="l" depth="1" NCoef="0" IVar="4" Cut="4.0716597437858582e-01" cType="1" res="7.7938020695000887e-04" rms="4.3787273764610291e-01" purity="5.0617200136184692e-01" nType="0">
          <Node pos="l" depth="2" NCoef="0" IVar="-1" Cut="0.0000000000000000e+00" cType="1" res="5.9390887618064880e-03" rms="3.2381474971771240e-01" purity="1.2553837895393372e-01" nType="-99"/>
          <Node pos="r" depth="2" NCoef="0" IVar="-1" Cut="0.0000000000000000e+00" cType="1" res="-8.2476966781541705e-05" rms="4.4793799519538879e-01" purity="5.4529374837875366e-01" nType="-99"/>
        </Node>
        <Node pos="r" depth="1" NCoef="0" IVar="2" Cut="-1.2026003599166870e+00" cType="1" res="-3.7316461093723774e-03" rms="4.2329916357994080e-01" purity="4.8428121209144592e-01" nType="0">
          <Node pos="l" depth="2" NCoef="0" IVar="-1" Cut="0.0000000000000000e+00" cType="1" res="2.4613223504275084e-03" rms="4.2114534974098206e-01" purity="5.0629824399948120e-01" nType="-99"/>
          <Node pos="r" depth="2" NCoef="0" IVar="-1" Cut="0.0000000000000000e+00" cType="1" res="-1.6298469854518771e-03" rms="4.2363557219505310e-01" purity="4.8044362664222717e-01" nType="-99"/>
        </Node>
      </Node>
    </BinaryTree>
    <BinaryTree type="DecisionTree" boostWeight="1.0000000000000000e+00" itree="637">
      <Node pos="s" depth="0" NCoef="0" IVar="9" Cut="-7.1428573131561279e-01" cType="1" res="-5.5275444174185395e-04" rms="4.3142637610435486e-01" purity="5.0022310018539429e-01" nType="0">
        <Node pos="l" depth="1" NCoef="0" IVar="-1" Cut="0.0000000000000000e+00" cType="1" res="-3.6740361247211695e-03" rms="4.3963819742202759e-01" purity="3.7219190597534180e-01" nType="-99"/>
        <Node pos="r" depth="1" NCoef="0" IVar="4" Cut="5.7716906070709229e-01" cType="1" res="1.2028969649691135e-04" rms="4.3101009726524353e-01" purity="5.0647515058517456e-01" nType="0">
          <Node pos="l" depth="2" NCoef="0" IVar="-1" Cut="0.0000000000000000e+00" cType="1" res="-1.8631170969456434e-03" rms="3.8450571894645691e-01" purity="2.0670881867408752e-01" nType="-99"/>
          <Node pos="r" depth="2" NCoef="0" IVar="-1" Cut="0.0000000000000000e+00" cType="1" res="5.2226718980818987e-04" rms="4.4601801037788391e-01" purity="6.1063414812088013e-01" nType="-99"/>
        </Node>
      </Node>
    </BinaryTree>
    <BinaryTree type="DecisionTree" boostWeight="1.0000000000000000e+00" itree="638">
      <Node pos="s" depth="0" NCoef="0" IVar="0" Cut="5.9616494178771973e-01" cType="1" res="1.5259310603141785e-03" rms="4.3201440572738647e-01" purity="5.0116515159606934e-01" nType="0">
        <Node pos="l" depth="1" NCoef="0" IVar="-1" Cut="0.0000000000000000e+00" cType="1" res="-2.0682911854237318e-03" rms="4.4186940789222717e-01" purity="6.6445952653884888e-01" nType="-99"/>
        <Node pos="r" depth="1" NCoef="0" IVar="2" Cut="-5.9678232669830322e-01" cType="1" res="2.2884311620146036e-03" rms="4.3118822574615479e-01" purity="4.8778814077377319e-01" nType="0">
          <Node pos="l" depth="2" NCoef="0" IVar="-1" Cut="0.0000000000000000e+00" cType="1" res="-7.5455749174579978e-04" rms="4.2656204104423523e-01" purity="4.9033561348915100e-01" nType="-99"/>
          <Node pos="r" depth="2" NCoef="0" IVar="-1" Cut="0.0000000000000000e+00" cType="1" res="1.0393015109002590e-03" rms="4.3268069624900818e-01" purity="4.8695322871208191e-01" nType="-99"/>
        </Node>
      </Node>
    </BinaryTree>
    <BinaryTree type="DecisionTree" boostWeight="1.0000000000000000e+00" itree="639">
      <Node pos="s" depth="0" NCoef="0" IVar="3" Cut="-3.3333334326744080e-01" cType="1" res="-7.9150154488161206e-04" rms="4.3234401941299438e-01" purity="4.9922117590904236e-01" nType="0">
        <Node pos="l" depth="1" NCoef="0" IVar="6" Cut="1.3809523582458496e+00" cType="1" res="6.3664121553301811e-03" rms="4.3907344341278076e-01" purity="5.1385760307312012e-01" nType="0">
          <Node pos="l" depth="2" NCoef="0" IVar="-1" Cut="0.0000000000000000e+00" cType="1" res="2.9306411743164062e-03" rms="4.4118764996528625e-01" purity="5.2366662025451660e-01" nType="-99"/>
          <Node pos="r" depth="2" NCoef="0" IVar="-1" Cut="0.0000000000000000e+00" cType="1" res="-1.5147606609389186e-03" rms="4.3380287289619446e-01" purity="4.9071386456489563e-01" nType="-99"/>
        </Node>
        <Node pos="r" depth="1" NCoef="0" IVar="3" Cut="-2.6983323693275452e-01" cType="1" res="-2.7087039779871702e-03" rms="4.3050351738929749e-01" purity="4.9530091881752014e-01" nType="0">
          <Node pos="l" depth="2" NCoef="0" IVar="-1" Cut="0.0000000000000000e+00" cType="1" res="-5.8760223910212517e-03" rms="4.3877407908439636e-01" purity="4.8469388484954834e-01" nType="-99"/>
          <Node pos="r" depth="2" NCoef="0" IVar="-1" Cut="0.0000000000000000e+00" cType="1" res="-4.2554418905638158e-04" rms="4.2999079823493958e-01" purity="4.9591851234436035e-01" nType="-99"/>
        </Node>
      </Node>
    </BinaryTree>
    <BinaryTree type="DecisionTree" boostWeight="1.0000000000000000e+00" itree="640">
      <Node pos="s" depth="0" NCoef="0" IVar="9" Cut="7.1428573131561279e-01" cType="1" res="-1.8943611939903349e-04" rms="4.3105134367942810e-01" purity="4.9937951564788818e-01" nType="0">
        <Node pos="l" depth="1" NCoef="0" IVar="0" Cut="5.4904830455780029e-01" cType="1" res="-1.0894945589825511e-03" rms="4.2997682094573975e-01" purity="5.0371861457824707e-01" nType="0">
          <Node pos="l" depth="2" NCoef="0" IVar="-1" Cut="0.0000000000000000e+00" cType="1" res="3.5163694992661476e-03" rms="4.3609556555747986e-01" purity="6.8984240293502808e-01" nType="-99"/>
          <Node pos="r" depth="2" NCoef="0" IVar="-1" Cut="0.0000000000000000e+00" cType="1" res="-4.9963576020672917e-04" rms="4.2962318658828735e-01" purity="4.9346306920051575e-01" nType="-99"/>
        </Node>
        <Node pos="r" depth="1" NCoef="0" IVar="-1" Cut="0.0000000000000000e+00" cType="1" res="4.4091311283409595e-03" rms="4.5113694667816162e-01" purity="4.1475924849510193e-01" nType="-99"/>
      </Node>
    </BinaryTree>
    <BinaryTree type="DecisionTree" boostWeight="1.0000000000000000e+00" itree="641">
      <Node pos="s" depth="0" NCoef="0" IVar="9" Cut="-7.1428573131561279e-01" cType="1" res="2.1840159315615892e-03" rms="4.3174189329147339e-01" purity="5.0167763233184814e-01" nType="0">
        <Node pos="l" depth="1" NCoef="0" IVar="-1" Cut="0.0000000000000000e+00" cType="1" res="5.4171830415725708e-03" rms="4.4362711906433105e-01" purity="4.0926346182823181e-01" nType="-99"/>
        <Node pos="r" depth="1" NCoef="0" IVar="9" Cut="7.5510472059249878e-01" cType="1" res="1.2203111546114087e-03" rms="4.3110543489456177e-01" purity="5.0638556480407715e-01" nType="0">
          <Node pos="l" depth="2" NCoef="0" IVar="-1" Cut="0.0000000000000000e+00" cType="1" res="5.6161708198487759e-04" rms="4.3061196804046631e-01" purity="5.1198881864547729e-01" nType="-99"/>
          <Node pos="r" depth="2" NCoef="0" IVar="-1" Cut="0.0000000000000000e+00" cType="1" res="-5.2198385819792747e-03" rms="4.4240790605545044e-01" purity="3.6975985765457153e-01" nType="-99"/>
        </Node>
      </Node>
    </BinaryTree>
    <BinaryTree type="DecisionTree" boostWeight="1.0000000000000000e+00" itree="642">
      <Node pos="s" depth="0" NCoef="0" IVar="5" Cut="2.0196056365966797e+00" cType="1" res="2.9916642233729362e-04" rms="4.3160259723663330e-01" purity="4.9925747513771057e-01" nType="0">
        <Node pos="l" depth="1" NCoef="0" IVar="8" Cut="-1.0210903882980347e+00" cType="1" res="-1.0330487275496125e-03" rms="4.3421137332916260e-01" purity="5.0147944688796997e-01" nType="0">
          <Node pos="l" depth="2" NCoef="0" IVar="-1" Cut="0.0000000000000000e+00" cType="1" res="-2.7866528835147619e-03" rms="4.2223688960075378e-01" purity="6.2364655733108521e-01" nType="-99"/>
          <Node pos="r" depth="2" NCoef="0" IVar="-1" Cut="0.0000000000000000e+00" cType="1" res="8.2886886957567185e-05" rms="4.3597441911697388e-01" purity="4.8303765058517456e-01" nType="-99"/>
        </Node>
        <Node pos="r" depth="1" NCoef="0" IVar="10" Cut="2.4190475463867188e+01" cType="1" res="5.4195602424442768e-03" rms="4.2138615250587463e-01" purity="4.9071723222732544e-01" nType="0">
          <Node pos="l" depth="2" NCoef="0" IVar="-1" Cut="0.0000000000000000e+00" cType="1" res="5.0967088900506496e-03" rms="4.2921835184097290e-01" purity="5.0818771123886108e-01" nType="-99"/>
          <Node pos="r" depth="2" NCoef="0" IVar="-1" Cut="0.0000000000000000e+00" cType="1" res="-5.8373837964609265e-04" rms="4.1663172841072083e-01" purity="4.8067519068717957e-01" nType="-99"/>
        </Node>
      </Node>
    </BinaryTree>
    <BinaryTree type="DecisionTree" boostWeight="1.0000000000000000e+00" itree="643">
      <Node pos="s" depth="0" NCoef="0" IVar="2" Cut="1.0116786956787109e+00" cType="1" res="-1.4883425319567323e-04" rms="4.3180853128433228e-01" purity="4.9905046820640564e-01" nType="0">
        <Node pos="l" depth="1" NCoef="0" IVar="1" Cut="3.6628737449645996e+00" cType="1" res="-1.3036180753260851e-03" rms="4.3291506171226501e-01" purity="4.9760237336158752e-01" nType="0">
          <Node pos="l" depth="2" NCoef="0" IVar="-1" Cut="0.0000000000000000e+00" cType="1" res="-8.2499714335426688e-04" rms="4.4024136662483215e-01" purity="5.0009614229202271e-01" nType="-99"/>
          <Node pos="r" depth="2" NCoef="0" IVar="-1" Cut="0.0000000000000000e+00" cType="1" res="7.0744397817179561e-04" rms="4.1787999868392944e-01" purity="4.9262434244155884e-01" nType="-99"/>
        </Node>
        <Node pos="r" depth="1" NCoef="0" IVar="0" Cut="1.0811634063720703e+00" cType="1" res="6.4394501969218254e-03" rms="4.2538067698478699e-01" purity="5.0731199979782104e-01" nType="0">
          <Node pos="l" depth="2" NCoef="0" IVar="-1" Cut="0.0000000000000000e+00" cType="1" res="2.9598074033856392e-03" rms="4.3379658460617065e-01" purity="6.0819697380065918e-01" nType="-99"/>
          <Node pos="r" depth="2" NCoef="0" IVar="-1" Cut="0.0000000000000000e+00" cType="1" res="-1.3013269053772092e-03" rms="4.0519791841506958e-01" purity="2.7576568722724915e-01" nType="-99"/>
        </Node>
      </Node>
    </BinaryTree>
    <BinaryTree type="DecisionTree" boostWeight="1.0000000000000000e+00" itree="644">
      <Node pos="s" depth="0" NCoef="0" IVar="0" Cut="1.2725206613540649e+00" cType="1" res="2.3568239994347095e-03" rms="4.3068471550941467e-01" purity="5.0216662883758545e-01" nType="0">
        <Node pos="l" depth="1" NCoef="0" IVar="9" Cut="5.2380955219268799e-01" cType="1" res="3.8812565617263317e-03" rms="4.3672716617584229e-01" purity="5.5522376298904419e-01" nType="0">
          <Node pos="l" depth="2" NCoef="0" IVar="-1" Cut="0.0000000000000000e+00" cType="1" res="1.3339113211259246e-03" rms="4.3586739897727966e-01" purity="5.6080567836761475e-01" nType="-99"/>
          <Node pos="r" depth="2" NCoef="0" IVar="-1" Cut="0.0000000000000000e+00" cType="1" res="-2.1066498011350632e-03" rms="4.4485771656036377e-01" purity="5.0067174434661865e-01" nType="-99"/>
        </Node>
        <Node pos="r" depth="1" NCoef="0" IVar="1" Cut="2.6271870136260986e+00" cType="1" res="-4.1573070921003819e-03" rms="4.0378215909004211e-01" purity="2.7544540166854858e-01" nType="0">
          <Node pos="l" depth="2" NCoef="0" IVar="-1" Cut="0.0000000000000000e+00" cType="1" res="1.4670405071228743e-03" rms="4.3398600816726685e-01" purity="3.3984065055847168e-01" nType="-99"/>
          <Node pos="r" depth="2" NCoef="0" IVar="-1" Cut="0.0000000000000000e+00" cType="1" res="-6.7198816686868668e-03" rms="3.5477140545845032e-01" purity="1.8171881139278412e-01" nType="-99"/>
        </Node>
      </Node>
    </BinaryTree>
    <BinaryTree type="DecisionTree" boostWeight="1.0000000000000000e+00" itree="645">
      <Node pos="s" depth="0" NCoef="0" IVar="10" Cut="9.7619047164916992e+00" cType="1" res="-6.7743996623903513e-04" rms="4.3193146586418152e-01" purity="4.9992486834526062e-01" nType="0">
        <Node pos="l" depth="1" NCoef="0" IVar="4" Cut="7.4487787485122681e-01" cType="1" res="3.9182445034384727e-03" rms="4.5622858405113220e-01" purity="5.2672195434570312e-01" nType="0">
          <Node pos="l" depth="2" NCoef="0" IVar="-1" Cut="0.0000000000000000e+00" cType="1" res="-2.4930678773671389e-03" rms="4.5504444837570190e-01" purity="3.3854466676712036e-01" nType="-99"/>
          <Node pos="r" depth="2" NCoef="0" IVar="-1" Cut="0.0000000000000000e+00" cType="1" res="2.6885112747550011e-03" rms="4.5667582750320435e-01" purity="6.2541854381561279e-01" nType="-99"/>
        </Node>
        <Node pos="r" depth="1" NCoef="0" IVar="0" Cut="1.4388810396194458e+00" cType="1" res="-2.8550177812576294e-03" rms="4.1991057991981506e-01" purity="4.8722761869430542e-01" nType="0">
          <Node pos="l" depth="2" NCoef="0" IVar="-1" Cut="0.0000000000000000e+00" cType="1" res="-3.6743321106769145e-04" rms="4.2486983537673950e-01" purity="5.0752502679824829e-01" nType="-99"/>
          <Node pos="r" depth="2" NCoef="0" IVar="-1" Cut="0.0000000000000000e+00" cType="1" res="-1.2135788798332214e-02" rms="3.1986904144287109e-01" purity="1.3223059475421906e-01" nType="-99"/>
        </Node>
      </Node>
    </BinaryTree>
    <BinaryTree type="DecisionTree" boostWeight="1.0000000000000000e+00" itree="646">
      <Node pos="s" depth="0" NCoef="0" IVar="0" Cut="6.4201694726943970e-01" cType="1" res="-5.9478770708665252e-04" rms="4.3150788545608521e-01" purity="5.0033479928970337e-01" nType="0">
        <Node pos="l" depth="1" NCoef="0" IVar="4" Cut="8.3464163541793823e-01" cType="1" res="7.2923586703836918e-03" rms="4.2994865775108337e-01" purity="6.8538808822631836e-01" nType="0">
          <Node pos="l" depth="2" NCoef="0" IVar="-1" Cut="0.0000000000000000e+00" cType="1" res="3.7550893612205982e-03" rms="4.6448320150375366e-01" purity="5.6819051504135132e-01" nType="-99"/>
          <Node pos="r" depth="2" NCoef="0" IVar="-1" Cut="0.0000000000000000e+00" cType="1" res="3.1344470335170627e-04" rms="4.0233013033866882e-01" purity="7.7225309610366821e-01" nType="-99"/>
        </Node>
        <Node pos="r" depth="1" NCoef="0" IVar="5" Cut="9.7233957052230835e-01" cType="1" res="-1.4855489134788513e-03" rms="4.3167456984519958e-01" purity="4.7943520545959473e-01" nType="0">
          <Node pos="l" depth="2" NCoef="0" IVar="-1" Cut="0.0000000000000000e+00" cType="1" res="-1.3771572848781943e-03" rms="4.4366630911827087e-01" purity="4.7420960664749146e-01" nType="-99"/>
          <Node pos="r" depth="2" NCoef="0" IVar="-1" Cut="0.0000000000000000e+00" cType="1" res="2.1462964650709182e-04" rms="4.2472150921821594e-01" purity="4.8239243030548096e-01" nType="-99"/>
        </Node>
      </Node>
    </BinaryTree>
    <BinaryTree type="DecisionTree" boostWeight="1.0000000000000000e+00" itree="647">
      <Node pos="s" depth="0" NCoef="0" IVar="7" Cut="8.4835338592529297e+00" cType="1" res="3.6334275500848889e-04" rms="4.3170925974845886e-01" purity="5.0093877315521240e-01" nType="0">
        <Node pos="l" depth="1" NCoef="0" IVar="7" Cut="1.6403831243515015e+00" cType="1" res="-4.2396807111799717e-04" rms="4.3356961011886597e-01" purity="4.8723810911178589e-01" nType="0">
          <Node pos="l" depth="2" NCoef="0" IVar="-1" Cut="0.0000000000000000e+00" cType="1" res="1.2794348876923323e-03" rms="4.5855745673179626e-01" purity="4.5132568478584290e-01" nType="-99"/>
          <Node pos="r" depth="2" NCoef="0" IVar="-1" Cut="0.0000000000000000e+00" cType="1" res="-5.6681077694520354e-04" rms="4.2611467838287354e-01" purity="4.9754270911216736e-01" nType="-99"/>
        </Node>
        <Node pos="r" depth="1" NCoef="0" IVar="-1" Cut="0.0000000000000000e+00" cType="1" res="3.1812253873795271e-03" rms="4.0554291009902954e-01" purity="6.8636232614517212e-01" nType="-99"/>
      </Node>
    </BinaryTree>
    <BinaryTree type="DecisionTree" boostWeight="1.0000000000000000e+00" itree="648">
      <Node pos="s" depth="0" NCoef="0" IVar="0" Cut="1.1397097110748291e+00" cType="1" res="-1.3250545598566532e-03" rms="4.3200248479843140e-01" purity="4.9837353825569153e-01" nType="0">
        <Node pos="l" depth="1" NCoef="0" IVar="3" Cut="6.1904764175415039e-01" cType="1" res="-3.1579590868204832e-03" rms="4.3843767046928406e-01" purity="5.7761430740356445e-01" nType="0">
          <Node pos="l" depth="2" NCoef="0" IVar="-1" Cut="0.0000000000000000e+00" cType="1" res="-4.9943168414756656e-04" rms="4.3685775995254517e-01" purity="5.7774424552917480e-01" nType="-99"/>
          <Node pos="r" depth="2" NCoef="0" IVar="-1" Cut="0.0000000000000000e+00" cType="1" res="-4.8282491043210030e-03" rms="4.5903599262237549e-01" purity="5.7584887742996216e-01" nType="-99"/>
        </Node>
        <Node pos="r" depth="1" NCoef="0" IVar="10" Cut="2.9428571701049805e+01" cType="1" res="3.1351163052022457e-03" rms="4.1589373350143433e-01" purity="3.0554977059364319e-01" nType="0">
          <Node pos="l" depth="2" NCoef="0" IVar="-1" Cut="0.0000000000000000e+00" cType="1" res="2.2314181551337242e-03" rms="4.2854005098342896e-01" purity="3.3257251977920532e-01" nType="-99"/>
          <Node pos="r" depth="2" NCoef="0" IVar="-1" Cut="0.0000000000000000e+00" cType="1" res="-1.2712214142084122e-02" rms="3.1896173954010010e-01" purity="1.2866546213626862e-01" nType="-99"/>
        </Node>
      </Node>
    </BinaryTree>
    <BinaryTree type="DecisionTree" boostWeight="1.0000000000000000e+00" itree="649">
      <Node pos="s" depth="0" NCoef="0" IVar="10" Cut="2.7142856597900391e+01" cType="1" res="8.4825180238112807e-05" rms="4.3151754140853882e-01" purity="4.9943339824676514e-01" nType="0">
        <Node pos="l" depth="1" NCoef="0" IVar="10" Cut="3.1904761791229248e+00" cType="1" res="1.8262453377246857e-03" rms="4.3630519509315491e-01" purity="5.0612848997116089e-01" nType="0">
          <Node pos="l" depth="2" NCoef="0" IVar="-1" Cut="0.0000000000000000e+00" cType="1" res="-2.1116395946592093e-03" rms="4.7072327136993408e-01" purity="4.4758957624435425e-01" nType="-99"/>
          <Node pos="r" depth="2" NCoef="0" IVar="-1" Cut="0.0000000000000000e+00" cType="1" res="8.8498077820986509e-04" rms="4.3134468793869019e-01" purity="5.1416373252868652e-01" nType="-99"/>
        </Node>
        <Node pos="r" depth="1" NCoef="0" IVar="0" Cut="1.0681359767913818e+00" cType="1" res="-4.8829950392246246e-03" rms="4.1751810908317566e-01" purity="4.8033404350280762e-01" nType="0">
          <Node pos="l" depth="2" NCoef="0" IVar="-1" Cut="0.0000000000000000e+00" cType="1" res="5.9998000506311655e-04" rms="4.3591791391372681e-01" purity="5.8187222480773926e-01" nType="-99"/>
          <Node pos="r" depth="2" NCoef="0" IVar="-1" Cut="0.0000000000000000e+00" cType="1" res="-8.9916540309786797e-03" rms="3.5840037465095520e-01" purity="1.8746545910835266e-01" nType="-99"/>
        </Node>
      </Node>
    </BinaryTree>
    <BinaryTree type="DecisionTree" boostWeight="1.0000000000000000e+00" itree="650">
      <Node pos="s" depth="0" NCoef="0" IVar="3" Cut="-8.0952382087707520e-01" cType="1" res="6.6919525852426887e-04" rms="4.3213939666748047e-01" purity="5.0087338685989380e-01" nType="0">
        <Node pos="l" depth="1" NCoef="0" IVar="-1" Cut="0.0000000000000000e+00" cType="1" res="-4.5047528110444546e-03" rms="4.5557990670204163e-01" purity="4.7191807627677917e-01" nType="-99"/>
        <Node pos="r" depth="1" NCoef="0" IVar="4" Cut="6.4717167615890503e-01" cType="1" res="1.5630564885213971e-03" rms="4.3101868033409119e-01" purity="5.0219398736953735e-01" nType="0">
          <Node pos="l" depth="2" NCoef="0" IVar="-1" Cut="0.0000000000000000e+00" cType="1" res="2.0588124170899391e-03" rms="4.0756538510322571e-01" purity="2.6178428530693054e-01" nType="-99"/>
          <Node pos="r" depth="2" NCoef="0" IVar="-1" Cut="0.0000000000000000e+00" cType="1" res="-2.6007124688476324e-04" rms="4.4227334856987000e-01" purity="6.2258338928222656e-01" nType="-99"/>
        </Node>
      </Node>
    </BinaryTree>
    <BinaryTree type="DecisionTree" boostWeight="1.0000000000000000e+00" itree="651">
      <Node pos="s" depth="0" NCoef="0" IVar="9" Cut="-6.1904764175415039e-01" cType="1" res="-5.3719617426395416e-04" rms="4.3137106299400330e-01" purity="4.9857744574546814e-01" nType="0">
        <Node pos="l" depth="1" NCoef="0" IVar="9" Cut="-7.6419073343276978e-01" cType="1" res="-1.0299910791218281e-02" rms="4.3691703677177429e-01" purity="4.0279734134674072e-01" nType="0">
          <Node pos="l" depth="2" NCoef="0" IVar="-1" Cut="0.0000000000000000e+00" cType="1" res="-3.3928423654288054e-03" rms="4.4331681728363037e-01" purity="3.6337620019912720e-01" nType="-99"/>
          <Node pos="r" depth="2" NCoef="0" IVar="-1" Cut="0.0000000000000000e+00" cType="1" res="-1.9355749245733023e-03" rms="4.3050062656402588e-01" purity="4.4162324070930481e-01" nType="-99"/>
        </Node>
        <Node pos="r" depth="1" NCoef="0" IVar="1" Cut="3.7678723335266113e+00" cType="1" res="2.2050054394640028e-04" rms="4.3092840909957886e-01" purity="5.0601106882095337e-01" nType="0">
          <Node pos="l" depth="2" NCoef="0" IVar="-1" Cut="0.0000000000000000e+00" cType="1" res="6.4118474256247282e-04" rms="4.3888881802558899e-01" purity="5.1489353179931641e-01" nType="-99"/>
          <Node pos="r" depth="2" NCoef="0" IVar="-1" Cut="0.0000000000000000e+00" cType="1" res="-8.3389354404062033e-04" rms="4.1944181919097900e-01" purity="4.9350312352180481e-01" nType="-99"/>
        </Node>
      </Node>
    </BinaryTree>
    <BinaryTree type="DecisionTree" boostWeight="1.0000000000000000e+00" itree="652">
      <Node pos="s" depth="0" NCoef="0" IVar="2" Cut="1.0005257129669189e+00" cType="1" res="3.3264537341892719e-04" rms="4.3219545483589172e-01" purity="5.0043195486068726e-01" nType="0">
        <Node pos="l" depth="1" NCoef="0" IVar="0" Cut="5.5235773324966431e-01" cType="1" res="1.6598299844190478e-03" rms="4.3336161971092224e-01" purity="5.0134199857711792e-01" nType="0">
          <Node pos="l" depth="2" NCoef="0" IVar="-1" Cut="0.0000000000000000e+00" cType="1" res="3.1563364900648594e-03" rms="4.4360604882240295e-01" purity="6.7171716690063477e-01" nType="-99"/>
          <Node pos="r" depth="2" NCoef="0" IVar="-1" Cut="0.0000000000000000e+00" cType="1" res="2.6119168614968657e-04" rms="4.3269896507263184e-01" purity="4.9060171842575073e-01" nType="-99"/>
        </Node>
        <Node pos="r" depth="1" NCoef="0" IVar="3" Cut="4.4164684414863586e-01" cType="1" res="-7.1535152383148670e-03" rms="4.2548009753227234e-01" purity="4.9529850482940674e-01" nType="0">
          <Node pos="l" depth="2" NCoef="0" IVar="-1" Cut="0.0000000000000000e+00" cType="1" res="-3.4250381868332624e-03" rms="4.2069613933563232e-01" purity="4.8669984936714172e-01" nType="-99"/>
          <Node pos="r" depth="2" NCoef="0" IVar="-1" Cut="0.0000000000000000e+00" cType="1" res="1.6411734977737069e-03" rms="4.3727207183837891e-01" purity="5.1743239164352417e-01" nType="-99"/>
        </Node>
      </Node>
    </BinaryTree>
    <BinaryTree type="DecisionTree" boostWeight="1.0000000000000000e+00" itree="653">
      <Node pos="s" depth="0" NCoef="0" IVar="5" Cut="7.4296873807907104e-01" cType="1" res="-3.2324847416020930e-04" rms="4.3176665902137756e-01" purity="4.9898844957351685e-01" nType="0">
        <Node pos="l" depth="1" NCoef="0" IVar="0" Cut="1.1762064695358276e+00" cType="1" res="-5.0228545442223549e-03" rms="4.4944101572036743e-01" purity="4.9905660748481750e-01" nType="0">
          <Node pos="l" depth="2" NCoef="0" IVar="-1" Cut="0.0000000000000000e+00" cType="1" res="-2.3486861027777195e-03" rms="4.5337671041488647e-01" purity="5.8214068412780762e-01" nType="-99"/>
          <Node pos="r" depth="2" NCoef="0" IVar="-1" Cut="0.0000000000000000e+00" cType="1" res="6.8924808874726295e-04" rms="4.4256243109703064e-01" purity="3.5783088207244873e-01" nType="-99"/>
        </Node>
        <Node pos="r" depth="1" NCoef="0" IVar="4" Cut="4.3323200941085815e-01" cType="1" res="1.5630450798198581e-03" rms="4.2445111274719238e-01" purity="4.9896112084388733e-01" nType="0">
          <Node pos="l" depth="2" NCoef="0" IVar="-1" Cut="0.0000000000000000e+00" cType="1" res="-4.0779840201139450e-03" rms="2.9899618029594421e-01" purity="1.0336270183324814e-01" nType="-99"/>
          <Node pos="r" depth="2" NCoef="0" IVar="-1" Cut="0.0000000000000000e+00" cType="1" res="7.8708416549488902e-04" rms="4.4183364510536194e-01" purity="5.6466883420944214e-01" nType="-99"/>
        </Node>
      </Node>
    </BinaryTree>
    <BinaryTree type="DecisionTree" boostWeight="1.0000000000000000e+00" itree="654">
      <Node pos="s" depth="0" NCoef="0" IVar="2" Cut="-1.7345371842384338e-01" cType="1" res="-1.2042110320180655e-03" rms="4.3221163749694824e-01" purity="4.9820268154144287e-01" nType="0">
        <Node pos="l" depth="1" NCoef="0" IVar="4" Cut="5.2641665935516357e-01" cType="1" res="-5.7976413518190384e-03" rms="4.2962157726287842e-01" purity="4.9738666415214539e-01" nType="0">
          <Node pos="l" depth="2" NCoef="0" IVar="-1" Cut="0.0000000000000000e+00" cType="1" res="-5.1607885397970676e-03" rms="3.5528337955474854e-01" purity="1.6303743422031403e-01" nType="-99"/>
          <Node pos="r" depth="2" NCoef="0" IVar="-1" Cut="0.0000000000000000e+00" cType="1" res="-8.7306369096040726e-04" rms="4.4849160313606262e-01" purity="5.9247046709060669e-01" nType="-99"/>
        </Node>
        <Node pos="r" depth="1" NCoef="0" IVar="9" Cut="6.1904764175415039e-01" cType="1" res="1.9035973818972707e-03" rms="4.3392768502235413e-01" purity="4.9875482916831970e-01" nType="0">
          <Node pos="l" depth="2" NCoef="0" IVar="-1" Cut="0.0000000000000000e+00" cType="1" res="7.8999763354659081e-04" rms="4.3338295817375183e-01" purity="5.0667136907577515e-01" nType="-99"/>
          <Node pos="r" depth="2" NCoef="0" IVar="-1" Cut="0.0000000000000000e+00" cType="1" res="-2.6911417953670025e-03" rms="4.3991458415985107e-01" purity="4.0827557444572449e-01" nType="-99"/>
        </Node>
      </Node>
    </BinaryTree>
    <BinaryTree type="DecisionTree" boostWeight="1.0000000000000000e+00" itree="655">
      <Node pos="s" depth="0" NCoef="0" IVar="9" Cut="4.7619048506021500e-02" cType="1" res="2.8702679555863142e-03" rms="4.3067479133605957e-01" purity="5.0208723545074463e-01" nType="0">
        <Node pos="l" depth="1" NCoef="0" IVar="1" Cut="9.2813520431518555e+00" cType="1" res="5.3058159537613392e-03" rms="4.3058618903160095e-01" purity="5.0351041555404663e-01" nType="0">
          <Node pos="l" depth="2" NCoef="0" IVar="-1" Cut="0.0000000000000000e+00" cType="1" res="1.7122610006481409e-03" rms="4.3212604522705078e-01" purity="5.0519722700119019e-01" nType="-99"/>
          <Node pos="r" depth="2" NCoef="0" IVar="-1" Cut="0.0000000000000000e+00" cType="1" res="-2.3244402837008238e-03" rms="4.1225457191467285e-01" purity="4.8414221405982971e-01" nType="-99"/>
        </Node>
        <Node pos="r" depth="1" NCoef="0" IVar="6" Cut="-4.2380952835083008e+00" cType="1" res="-1.0161287355003878e-04" rms="4.3076419830322266e-01" purity="5.0035065412521362e-01" nType="0">
          <Node pos="l" depth="2" NCoef="0" IVar="-1" Cut="0.0000000000000000e+00" cType="1" res="3.8888403214514256e-03" rms="4.1586983203887939e-01" purity="4.6998852491378784e-01" nType="-99"/>
          <Node pos="r" depth="2" NCoef="0" IVar="-1" Cut="0.0000000000000000e+00" cType="1" res="-3.8460677023977041e-04" rms="4.3216180801391602e-01" purity="5.0330430269241333e-01" nType="-99"/>
        </Node>
      </Node>
    </BinaryTree>
    <BinaryTree type="DecisionTree" boostWeight="1.0000000000000000e+00" itree="656">
      <Node pos="s" depth="0" NCoef="0" IVar="5" Cut="1.3917468786239624e+00" cType="1" res="1.0928622214123607e-03" rms="4.3129232525825500e-01" purity="5.0267642736434937e-01" nType="0">
        <Node pos="l" depth="1" NCoef="0" IVar="8" Cut="-8.6072629690170288e-01" cType="1" res="3.1608922872692347e-03" rms="4.3760508298873901e-01" purity="5.1258194446563721e-01" nType="0">
          <Node pos="l" depth="2" NCoef="0" IVar="-1" Cut="0.0000000000000000e+00" cType="1" res="4.4580535031855106e-03" rms="4.2191484570503235e-01" purity="6.4134347438812256e-01" nType="-99"/>
          <Node pos="r" depth="2" NCoef="0" IVar="-1" Cut="0.0000000000000000e+00" cType="1" res="2.0682565809693187e-04" rms="4.4031521677970886e-01" purity="4.8951810598373413e-01" nType="-99"/>
        </Node>
        <Node pos="r" depth="1" NCoef="0" IVar="9" Cut="-3.2358399033546448e-01" cType="1" res="-1.6797118587419391e-03" rms="4.2266511917114258e-01" purity="4.8939627408981323e-01" nType="0">
          <Node pos="l" depth="2" NCoef="0" IVar="-1" Cut="0.0000000000000000e+00" cType="1" res="-4.1774674318730831e-03" rms="4.1396969556808472e-01" purity="4.3962979316711426e-01" nType="-99"/>
          <Node pos="r" depth="2" NCoef="0" IVar="-1" Cut="0.0000000000000000e+00" cType="1" res="1.4082631969358772e-04" rms="4.2409625649452209e-01" purity="4.9791142344474792e-01" nType="-99"/>
        </Node>
      </Node>
    </BinaryTree>
    <BinaryTree type="DecisionTree" boostWeight="1.0000000000000000e+00" itree="657">
      <Node pos="s" depth="0" NCoef="0" IVar="8" Cut="-1.4417042732238770e+00" cType="1" res="-1.1354528833180666e-03" rms="4.3234810233116150e-01" purity="4.9854451417922974e-01" nType="0">
        <Node pos="l" depth="1" NCoef="0" IVar="9" Cut="-1.4382411539554596e-01" cType="1" res="8.0270515754818916e-03" rms="4.1240081191062927e-01" purity="6.7722910642623901e-01" nType="0">
          <Node pos="l" depth="2" NCoef="0" IVar="-1" Cut="0.0000000000000000e+00" cType="1" res="1.9565839320421219e-03" rms="4.1048461198806763e-01" purity="7.2532004117965698e-01" nType="-99"/>
          <Node pos="r" depth="2" NCoef="0" IVar="-1" Cut="0.0000000000000000e+00" cType="1" res="2.6518376544117928e-03" rms="4.1445100307464600e-01" purity="6.2539380788803101e-01" nType="-99"/>
        </Node>
        <Node pos="r" depth="1" NCoef="0" IVar="4" Cut="4.9027946591377258e-01" cType="1" res="-1.9097456242889166e-03" rms="4.3398290872573853e-01" purity="4.8344448208808899e-01" nType="0">
          <Node pos="l" depth="2" NCoef="0" IVar="-1" Cut="0.0000000000000000e+00" cType="1" res="1.4117413666099310e-03" rms="3.4984371066093445e-01" purity="1.5418758988380432e-01" nType="-99"/>
          <Node pos="r" depth="2" NCoef="0" IVar="-1" Cut="0.0000000000000000e+00" cType="1" res="-7.6637341408059001e-04" rms="4.5136639475822449e-01" purity="5.6032180786132812e-01" nType="-99"/>
        </Node>
      </Node>
    </BinaryTree>
    <BinaryTree type="DecisionTree" boostWeight="1.0000000000000000e+00" itree="658">
      <Node pos="s" depth="0" NCoef="0" IVar="4" Cut="4.8562058806419373e-01" cType="1" res="8.3750332123599946e-05" rms="4.3247878551483154e-01" purity="4.9992483854293823e-01" nType="0">
        <Node pos="l" depth="1" NCoef="0" IVar="7" Cut="2.3653385639190674e+00" cType="1" res="4.5731519348919392e-03" rms="3.4942001104354858e-01" purity="1.5294785797595978e-01" nType="0">
          <Node pos="l" depth="2" NCoef="0" IVar="-1" Cut="0.0000000000000000e+00" cType="1" res="5.0014536827802658e-03" rms="3.8587605953216553e-01" purity="1.9206964969635010e-01" nType="-99"/>
          <Node pos="r" depth="2" NCoef="0" IVar="-1" Cut="0.0000000000000000e+00" cType="1" res="-2.0588105544447899e-03" rms="3.1184476613998413e-01" purity="1.1691468209028244e-01" nType="-99"/>
        </Node>
        <Node pos="r" depth="1" NCoef="0" IVar="4" Cut="9.6502935886383057e-01" cType="1" res="-8.5628032684326172e-04" rms="4.4791880249977112e-01" purity="5.7257795333862305e-01" nType="0">
          <Node pos="l" depth="2" NCoef="0" IVar="-1" Cut="0.0000000000000000e+00" cType="1" res="-7.4994371971115470e-04" rms="4.5333841443061829e-01" purity="5.4443967342376709e-01" nType="-99"/>
          <Node pos="r" depth="2" NCoef="0" IVar="-1" Cut="0.0000000000000000e+00" cType="1" res="3.5929328296333551e-03" rms="4.1293263435363770e-01" purity="7.4481141567230225e-01" nType="-99"/>
        </Node>
      </Node>
    </BinaryTree>
    <BinaryTree type="DecisionTree" boostWeight="1.0000000000000000e+00" itree="659">
      <Node pos="s" depth="0" NCoef="0" IVar="0" Cut="1.7578681707382202e+00" cType="1" res="6.8537850165739655e-04" rms="4.3153563141822815e-01" purity="5.0210356712341309e-01" nType="0">
        <Node pos="l" depth="1" NCoef="0" IVar="4" Cut="3.9086073637008667e-01" cType="1" res="6.4912135712802410e-05" rms="4.3291813135147095e-01" purity="5.1435309648513794e-01" nType="0">
          <Node pos="l" depth="2" NCoef="0" IVar="-1" Cut="0.0000000000000000e+00" cType="1" res="5.4503954015672207e-03" rms="3.0429825186729431e-01" purity="1.0811435431241989e-01" nType="-99"/>
          <Node pos="r" depth="2" NCoef="0" IVar="-1" Cut="0.0000000000000000e+00" cType="1" res="-1.9625431741587818e-04" rms="4.4269973039627075e-01" purity="5.5108445882797241e-01" nType="-99"/>
        </Node>
        <Node pos="r" depth="1" NCoef="0" IVar="-1" Cut="0.0000000000000000e+00" cType="1" res="3.8608913309872150e-03" rms="4.0304929018020630e-01" purity="2.6004600524902344e-01" nType="-99"/>
      </Node>
    </BinaryTree>
    <BinaryTree type="DecisionTree" boostWeight="1.0000000000000000e+00" itree="660">
      <Node pos="s" depth="0" NCoef="0" IVar="7" Cut="7.3071408271789551e+00" cType="1" res="-1.0485536186024547e-03" rms="4.3097731471061707e-01" purity="5.0052893161773682e-01" nType="0">
        <Node pos="l" depth="1" NCoef="0" IVar="9" Cut="-3.3333334326744080e-01" cType="1" res="-2.3601313587278128e-03" rms="4.3327897787094116e-01" purity="4.8040607571601868e-01" nType="0">
          <Node pos="l" depth="2" NCoef="0" IVar="-1" Cut="0.0000000000000000e+00" cType="1" res="-2.0524987485259771e-03" rms="4.3531659245491028e-01" purity="4.5228376984596252e-01" nType="-99"/>
          <Node pos="r" depth="2" NCoef="0" IVar="-1" Cut="0.0000000000000000e+00" cType="1" res="-2.2770871873944998e-04" rms="4.3271175026893616e-01" purity="4.8804497718811035e-01" nType="-99"/>
        </Node>
        <Node pos="r" depth="1" NCoef="0" IVar="0" Cut="9.1651463508605957e-01" cType="1" res="9.9911140277981758e-03" rms="4.1092756390571594e-01" purity="6.6990441083908081e-01" nType="0">
          <Node pos="l" depth="2" NCoef="0" IVar="-1" Cut="0.0000000000000000e+00" cType="1" res="-2.0359038899186999e-05" rms="3.9149987697601318e-01" purity="7.7252173423767090e-01" nType="-99"/>
          <Node pos="r" depth="2" NCoef="0" IVar="-1" Cut="0.0000000000000000e+00" cType="1" res="6.0492469929158688e-03" rms="4.3630453944206238e-01" purity="5.2613985538482666e-01" nType="-99"/>
        </Node>
      </Node>
    </BinaryTree>
    <BinaryTree type="DecisionTree" boostWeight="1.0000000000000000e+00" itree="661">
      <Node pos="s" depth="0" NCoef="0" IVar="3" Cut="-4.2857143282890320e-01" cType="1" res="-4.9458589637652040e-04" rms="4.3147510290145874e-01" purity="5.0016099214553833e-01" nType="0">
        <Node pos="l" depth="1" NCoef="0" IVar="7" Cut="3.3566040992736816e+00" cType="1" res="6.9425981491804123e-03" rms="4.4108757376670837e-01" purity="5.1757007837295532e-01" nType="0">
          <Node pos="l" depth="2" NCoef="0" IVar="-1" Cut="0.0000000000000000e+00" cType="1" res="9.4238010933622718e-04" rms="4.4935971498489380e-01" purity="4.7511619329452515e-01" nType="-99"/>
          <Node pos="r" depth="2" NCoef="0" IVar="-1" Cut="0.0000000000000000e+00" cType="1" res="4.7151842154562473e-03" rms="4.1341072320938110e-01" purity="6.5312564373016357e-01" nType="-99"/>
        </Node>
        <Node pos="r" depth="1" NCoef="0" IVar="0" Cut="1.5672972202301025e+00" cType="1" res="-1.8910211510956287e-03" rms="4.2963185906410217e-01" purity="4.9689212441444397e-01" nType="0">
          <Node pos="l" depth="2" NCoef="0" IVar="-1" Cut="0.0000000000000000e+00" cType="1" res="-3.3155587152577937e-04" rms="4.3227431178092957e-01" purity="5.1543390750885010e-01" nType="-99"/>
          <Node pos="r" depth="2" NCoef="0" IVar="-1" Cut="0.0000000000000000e+00" cType="1" res="-3.2853931188583374e-03" rms="3.9078313112258911e-01" purity="2.3811605572700500e-01" nType="-99"/>
        </Node>
      </Node>
    </BinaryTree>
    <BinaryTree type="DecisionTree" boostWeight="1.0000000000000000e+00" itree="662">
      <Node pos="s" depth="0" NCoef="0" IVar="4" Cut="7.8117686510086060e-01" cType="1" res="2.1125101484358311e-03" rms="4.3236008286476135e-01" purity="5.0250548124313354e-01" nType="0">
        <Node pos="l" depth="1" NCoef="0" IVar="10" Cut="1.8761905670166016e+01" cType="1" res="4.9247397109866142e-03" rms="4.2604047060012817e-01" purity="3.4007385373115540e-01" nType="0">
          <Node pos="l" depth="2" NCoef="0" IVar="-1" Cut="0.0000000000000000e+00" cType="1" res="-1.2158920435467735e-04" rms="4.4128838181495667e-01" purity="3.3993777632713318e-01" nType="-99"/>
          <Node pos="r" depth="2" NCoef="0" IVar="-1" Cut="0.0000000000000000e+00" cType="1" res="3.4206917043775320e-03" rms="4.0649160742759705e-01" purity="3.4024053812026978e-01" nType="-99"/>
        </Node>
        <Node pos="r" depth="1" NCoef="0" IVar="4" Cut="9.7907215356826782e-01" cType="1" res="-4.9499457236379385e-04" rms="4.3812209367752075e-01" purity="6.5311241149902344e-01" nType="0">
          <Node pos="l" depth="2" NCoef="0" IVar="-1" Cut="0.0000000000000000e+00" cType="1" res="-9.2736480291932821e-04" rms="4.3965911865234375e-01" purity="6.4454656839370728e-01" nType="-99"/>
          <Node pos="r" depth="2" NCoef="0" IVar="-1" Cut="0.0000000000000000e+00" cType="1" res="7.6325191184878349e-03" rms="4.2196875810623169e-01" purity="7.3507237434387207e-01" nType="-99"/>
        </Node>
      </Node>
    </BinaryTree>
    <BinaryTree type="DecisionTree" boostWeight="1.0000000000000000e+00" itree="663">
      <Node pos="s" depth="0" NCoef="0" IVar="9" Cut="1.4285714924335480e-01" cType="1" res="3.6016342346556485e-04" rms="4.3137055635452271e-01" purity="5.0079923868179321e-01" nType="0">
        <Node pos="l" depth="1" NCoef="0" IVar="8" Cut="8.7689512968063354e-01" cType="1" res="3.0624791979789734e-03" rms="4.3096336722373962e-01" purity="5.0532019138336182e-01" nType="0">
          <Node pos="l" depth="2" NCoef="0" IVar="-1" Cut="0.0000000000000000e+00" cType="1" res="1.1877934448421001e-03" rms="4.3262788653373718e-01" purity="5.0049716234207153e-01" nType="-99"/>
          <Node pos="r" depth="2" NCoef="0" IVar="-1" Cut="0.0000000000000000e+00" cType="1" res="-1.7794410232454538e-03" rms="4.1976812481880188e-01" purity="5.3692710399627686e-01" nType="-99"/>
        </Node>
        <Node pos="r" depth="1" NCoef="0" IVar="8" Cut="-7.1712350845336914e-01" cType="1" res="-4.5192339457571507e-03" rms="4.3206205964088440e-01" purity="4.9263605475425720e-01" nType="0">
          <Node pos="l" depth="2" NCoef="0" IVar="-1" Cut="0.0000000000000000e+00" cType="1" res="-6.5964753739535809e-03" rms="4.1825565695762634e-01" purity="4.2723324894905090e-01" nType="-99"/>
          <Node pos="r" depth="2" NCoef="0" IVar="-1" Cut="0.0000000000000000e+00" cType="1" res="-5.6749128270894289e-04" rms="4.3375778198242188e-01" purity="5.0108587741851807e-01" nType="-99"/>
        </Node>
      </Node>
    </BinaryTree>
    <BinaryTree type="DecisionTree" boostWeight="1.0000000000000000e+00" itree="664">
      <Node pos="s" depth="0" NCoef="0" IVar="1" Cut="1.0887255668640137e+01" cType="1" res="-1.2729531154036522e-03" rms="4.3099969625473022e-01" purity="4.9954837560653687e-01" nType="0">
        <Node pos="l" depth="1" NCoef="0" IVar="3" Cut="3.3333334326744080e-01" cType="1" res="-4.3654427281580865e-04" rms="4.3199998140335083e-01" purity="5.0062733888626099e-01" nType="0">
          <Node pos="l" depth="2" NCoef="0" IVar="-1" Cut="0.0000000000000000e+00" cType="1" res="-5.7895091595128179e-04" rms="4.2940098047256470e-01" purity="4.9733921885490417e-01" nType="-99"/>
          <Node pos="r" depth="2" NCoef="0" IVar="-1" Cut="0.0000000000000000e+00" cType="1" res="1.5988451195880771e-03" rms="4.4186186790466309e-01" purity="5.1336765289306641e-01" nType="-99"/>
        </Node>
        <Node pos="r" depth="1" NCoef="0" IVar="-1" Cut="0.0000000000000000e+00" cType="1" res="-4.3788575567305088e-03" rms="4.1340747475624084e-01" purity="4.8124679923057556e-01" nType="-99"/>
      </Node>
    </BinaryTree>
    <BinaryTree type="DecisionTree" boostWeight="1.0000000000000000e+00" itree="665">
      <Node pos="s" depth="0" NCoef="0" IVar="2" Cut="8.2254934310913086e-01" cType="1" res="-1.3829406816512346e-04" rms="4.3161809444427490e-01" purity="5.0045287609100342e-01" nType="0">
        <Node pos="l" depth="1" NCoef="0" IVar="6" Cut="-2.8571429252624512e+00" cType="1" res="-1.5184704679995775e-03" rms="4.3313154578208923e-01" purity="4.9856036901473999e-01" nType="0">
          <Node pos="l" depth="2" NCoef="0" IVar="-1" Cut="0.0000000000000000e+00" cType="1" res="-1.6639459645375609e-03" rms="4.2627221345901489e-01" purity="4.7395867109298706e-01" nType="-99"/>
          <Node pos="r" depth="2" NCoef="0" IVar="-1" Cut="0.0000000000000000e+00" cType="1" res="-1.0514066525502130e-04" rms="4.3477475643157959e-01" purity="5.0453889369964600e-01" nType="-99"/>
        </Node>
        <Node pos="r" depth="1" NCoef="0" IVar="4" Cut="8.6331367492675781e-01" cType="1" res="5.7280813343822956e-03" rms="4.2507523298263550e-01" purity="5.0849705934524536e-01" nType="0">
          <Node pos="l" depth="2" NCoef="0" IVar="-1" Cut="0.0000000000000000e+00" cType="1" res="3.8691298686899245e-04" rms="4.3023112416267395e-01" purity="4.0157797932624817e-01" nType="-99"/>
          <Node pos="r" depth="2" NCoef="0" IVar="-1" Cut="0.0000000000000000e+00" cType="1" res="4.1111907921731472e-03" rms="4.1401189565658569e-01" purity="7.3072624206542969e-01" nType="-99"/>
        </Node>
      </Node>
    </BinaryTree>
    <BinaryTree type="DecisionTree" boostWeight="1.0000000000000000e+00" itree="666">
      <Node pos="s" depth="0" NCoef="0" IVar="2" Cut="1.4880583286285400e+00" cType="1" res="-2.3949965834617615e-03" rms="4.3165174126625061e-01" purity="4.9768182635307312e-01" nType="0">
        <Node pos="l" depth="1" NCoef="0" IVar="7" Cut="2.8278248310089111e+00" cType="1" res="-1.7047477886080742e-03" rms="4.3294814229011536e-01" purity="4.9902594089508057e-01" nType="0">
          <Node pos="l" depth="2" NCoef="0" IVar="-1" Cut="0.0000000000000000e+00" cType="1" res="-9.7287015523761511e-04" rms="4.4310501217842102e-01" purity="4.3501162528991699e-01" nType="-99"/>
          <Node pos="r" depth="2" NCoef="0" IVar="-1" Cut="0.0000000000000000e+00" cType="1" res="1.1396873742341995e-04" rms="4.2270022630691528e-01" purity="5.6204473972320557e-01" nType="-99"/>
        </Node>
        <Node pos="r" depth="1" NCoef="0" IVar="9" Cut="-4.5572679489850998e-02" cType="1" res="-1.0261001065373421e-02" rms="4.1651251912117004e-01" purity="4.8236402869224548e-01" nType="0">
          <Node pos="l" depth="2" NCoef="0" IVar="-1" Cut="0.0000000000000000e+00" cType="1" res="-5.2876896224915981e-03" rms="4.1570094227790833e-01" purity="4.6855205297470093e-01" nType="-99"/>
          <Node pos="r" depth="2" NCoef="0" IVar="-1" Cut="0.0000000000000000e+00" cType="1" res="-8.9826789917424321e-04" rms="4.1703513264656067e-01" purity="4.9353557825088501e-01" nType="-99"/>
        </Node>
      </Node>
    </BinaryTree>
    <BinaryTree type="DecisionTree" boostWeight="1.0000000000000000e+00" itree="667">
      <Node pos="s" depth="0" NCoef="0" IVar="9" Cut="1.4285714924335480e-01" cType="1" res="4.3341226410120726e-04" rms="4.3219175934791565e-01" purity="5.0038051605224609e-01" nType="0">
        <Node pos="l" depth="1" NCoef="0" IVar="3" Cut="1.4285714924335480e-01" cType="1" res="-1.0780445300042629e-03" rms="4.3157863616943359e-01" purity="5.0091016292572021e-01" nType="0">
          <Node pos="l" depth="2" NCoef="0" IVar="-1" Cut="0.0000000000000000e+00" cType="1" res="4.5766361290588975e-04" rms="4.2982521653175354e-01" purity="5.0167465209960938e-01" nType="-99"/>
          <Node pos="r" depth="2" NCoef="0" IVar="-1" Cut="0.0000000000000000e+00" cType="1" res="-1.6511088469997048e-03" rms="4.3479886651039124e-01" purity="4.9947670102119446e-01" nType="-99"/>
        </Node>
        <Node pos="r" depth="1" NCoef="0" IVar="0" Cut="1.0514420270919800e+00" cType="1" res="3.1384734902530909e-03" rms="4.3327376246452332e-01" purity="4.9943256378173828e-01" nType="0">
          <Node pos="l" depth="2" NCoef="0" IVar="-1" Cut="0.0000000000000000e+00" cType="1" res="-3.2097395160235465e-04" rms="4.3554529547691345e-01" purity="6.0124117136001587e-01" nType="-99"/>
          <Node pos="r" depth="2" NCoef="0" IVar="-1" Cut="0.0000000000000000e+00" cType="1" res="2.6212313678115606e-03" rms="4.2973810434341431e-01" purity="3.4573745727539062e-01" nType="-99"/>
        </Node>
      </Node>
    </BinaryTree>
    <BinaryTree type="DecisionTree" boostWeight="1.0000000000000000e+00" itree="668">
      <Node pos="s" depth="0" NCoef="0" IVar="6" Cut="-3.9047617912292480e+00" cType="1" res="-5.3239968838170171e-04" rms="4.3073278665542603e-01" purity="4.9975308775901794e-01" nType="0">
        <Node pos="l" depth="1" NCoef="0" IVar="5" Cut="1.5592914819717407e+00" cType="1" res="-8.6236074566841125e-03" rms="4.1944450139999390e-01" purity="4.6005335450172424e-01" nType="0">
          <Node pos="l" depth="2" NCoef="0" IVar="-1" Cut="0.0000000000000000e+00" cType="1" res="-4.0622013621032238e-03" rms="4.2167681455612183e-01" purity="4.6174746751785278e-01" nType="-99"/>
          <Node pos="r" depth="2" NCoef="0" IVar="-1" Cut="0.0000000000000000e+00" cType="1" res="-6.4600497717037797e-04" rms="4.1709604859352112e-01" purity="4.5835259556770325e-01" nType="-99"/>
        </Node>
        <Node pos="r" depth="1" NCoef="0" IVar="3" Cut="-6.1904764175415039e-01" cType="1" res="7.4500218033790588e-04" rms="4.3247416615486145e-01" purity="5.0602066516876221e-01" nType="0">
          <Node pos="l" depth="2" NCoef="0" IVar="-1" Cut="0.0000000000000000e+00" cType="1" res="-2.8975743334740400e-03" rms="4.5388421416282654e-01" purity="4.9160173535346985e-01" nType="-99"/>
          <Node pos="r" depth="2" NCoef="0" IVar="-1" Cut="0.0000000000000000e+00" cType="1" res="5.2907189819961786e-04" rms="4.3026590347290039e-01" purity="5.0745517015457153e-01" nType="-99"/>
        </Node>
      </Node>
    </BinaryTree>
    <BinaryTree type="DecisionTree" boostWeight="1.0000000000000000e+00" itree="669">
      <Node pos="s" depth="0" NCoef="0" IVar="4" Cut="9.0488296747207642e-01" cType="1" res="-8.9900789316743612e-04" rms="4.3221226334571838e-01" purity="4.9855613708496094e-01" nType="0">
        <Node pos="l" depth="1" NCoef="0" IVar="10" Cut="9.9047622680664062e+00" cType="1" res="9.1518694534897804e-04" rms="4.3399572372436523e-01" purity="4.1231912374496460e-01" nType="0">
          <Node pos="l" depth="2" NCoef="0" IVar="-1" Cut="0.0000000000000000e+00" cType="1" res="-1.1727955425158143e-03" rms="4.6136304736137390e-01" purity="4.1068089008331299e-01" nType="-99"/>
          <Node pos="r" depth="2" NCoef="0" IVar="-1" Cut="0.0000000000000000e+00" cType="1" res="8.0107484245672822e-04" rms="4.2406237125396729e-01" purity="4.1288796067237854e-01" nType="-99"/>
        </Node>
        <Node pos="r" depth="1" NCoef="0" IVar="4" Cut="9.6894180774688721e-01" cType="1" res="-5.2834381349384785e-03" rms="4.2783969640731812e-01" purity="7.0696824789047241e-01" nType="0">
          <Node pos="l" depth="2" NCoef="0" IVar="-1" Cut="0.0000000000000000e+00" cType="1" res="-3.1920587643980980e-03" rms="4.3381366133689880e-01" purity="6.8986874818801880e-01" nType="-99"/>
          <Node pos="r" depth="2" NCoef="0" IVar="-1" Cut="0.0000000000000000e+00" cType="1" res="2.2106256801635027e-03" rms="4.1539934277534485e-01" purity="7.4094378948211670e-01" nType="-99"/>
        </Node>
      </Node>
    </BinaryTree>
    <BinaryTree type="DecisionTree" boostWeight="1.0000000000000000e+00" itree="670">
      <Node pos="s" depth="0" NCoef="0" IVar="6" Cut="-4.5714287757873535e+00" cType="1" res="-4.7767127398401499e-04" rms="4.3169724941253662e-01" purity="4.9907568097114563e-01" nType="0">
        <Node pos="l" depth="1" NCoef="0" IVar="9" Cut="-4.4450361281633377e-02" cType="1" res="9.5645822584629059e-03" rms="4.1688537597656250e-01" purity="4.7100496292114258e-01" nType="0">
          <Node pos="l" depth="2" NCoef="0" IVar="-1" Cut="0.0000000000000000e+00" cType="1" res="4.6577621251344681e-03" rms="4.1616064310073853e-01" purity="4.6652382612228394e-01" nType="-99"/>
          <Node pos="r" depth="2" NCoef="0" IVar="-1" Cut="0.0000000000000000e+00" cType="1" res="1.1685156496241689e-03" rms="4.1736817359924316e-01" purity="4.7448313236236572e-01" nType="-99"/>
        </Node>
        <Node pos="r" depth="1" NCoef="0" IVar="3" Cut="-4.7619048506021500e-02" cType="1" res="-1.5044733881950378e-03" rms="4.3317008018493652e-01" purity="5.0194591283798218e-01" nType="0">
          <Node pos="l" depth="2" NCoef="0" IVar="-1" Cut="0.0000000000000000e+00" cType="1" res="3.6946308682672679e-04" rms="4.3519756197929382e-01" purity="5.0585836172103882e-01" nType="-99"/>
          <Node pos="r" depth="2" NCoef="0" IVar="-1" Cut="0.0000000000000000e+00" cType="1" res="-1.0493764420971274e-03" rms="4.3143129348754883e-01" purity="4.9863442778587341e-01" nType="-99"/>
        </Node>
      </Node>
    </BinaryTree>
    <BinaryTree type="DecisionTree" boostWeight="1.0000000000000000e+00" itree="671">
      <Node pos="s" depth="0" NCoef="0" IVar="8" Cut="1.3708847761154175e+00" cType="1" res="-8.8461325503885746e-05" rms="4.3149051070213318e-01" purity="5.0062519311904907e-01" nType="0">
        <Node pos="l" depth="1" NCoef="0" IVar="4" Cut="5.6174033880233765e-01" cType="1" res="6.4651941647753119e-04" rms="4.3338248133659363e-01" purity="4.8523461818695068e-01" nType="0">
          <Node pos="l" depth="2" NCoef="0" IVar="-1" Cut="0.0000000000000000e+00" cType="1" res="1.9449469400569797e-03" rms="3.8391074538230896e-01" purity="2.0691888034343719e-01" nType="-99"/>
          <Node pos="r" depth="2" NCoef="0" IVar="-1" Cut="0.0000000000000000e+00" cType="1" res="-2.8148287674412131e-04" rms="4.4974544644355774e-01" purity="5.8478868007659912e-01" nType="-99"/>
        </Node>
        <Node pos="r" depth="1" NCoef="0" IVar="9" Cut="1.2590235471725464e-01" cType="1" res="-7.8144744038581848e-03" rms="4.1099622845649719e-01" purity="6.6240888833999634e-01" nType="0">
          <Node pos="l" depth="2" NCoef="0" IVar="-1" Cut="0.0000000000000000e+00" cType="1" res="-4.0733553469181061e-03" rms="4.1574066877365112e-01" purity="5.9456050395965576e-01" nType="-99"/>
          <Node pos="r" depth="2" NCoef="0" IVar="-1" Cut="0.0000000000000000e+00" cType="1" res="-6.7333097103983164e-04" rms="4.0705090761184692e-01" purity="7.1704477071762085e-01" nType="-99"/>
        </Node>
      </Node>
    </BinaryTree>
    <BinaryTree type="DecisionTree" boostWeight="1.0000000000000000e+00" itree="672">
      <Node pos="s" depth="0" NCoef="0" IVar="3" Cut="7.1428573131561279e-01" cType="1" res="1.1353538138791919e-03" rms="4.3157520890235901e-01" purity="5.0021356344223022e-01" nType="0">
        <Node pos="l" depth="1" NCoef="0" IVar="9" Cut="6.1904764175415039e-01" cType="1" res="3.7602495285682380e-04" rms="4.3000993132591248e-01" purity="4.9992805719375610e-01" nType="0">
          <Node pos="l" depth="2" NCoef="0" IVar="-1" Cut="0.0000000000000000e+00" cType="1" res="3.3225148217752576e-04" rms="4.2954909801483154e-01" purity="5.0621461868286133e-01" nType="-99"/>
          <Node pos="r" depth="2" NCoef="0" IVar="-1" Cut="0.0000000000000000e+00" cType="1" res="-3.0482648871839046e-03" rms="4.3622002005577087e-01" purity="4.1205525398254395e-01" nType="-99"/>
        </Node>
        <Node pos="r" depth="1" NCoef="0" IVar="-1" Cut="0.0000000000000000e+00" cType="1" res="3.2220229040831327e-03" rms="4.5607551932334900e-01" purity="5.0485175848007202e-01" nType="-99"/>
      </Node>
    </BinaryTree>
    <BinaryTree type="DecisionTree" boostWeight="1.0000000000000000e+00" itree="673">
      <Node pos="s" depth="0" NCoef="0" IVar="3" Cut="-5.2380955219268799e-01" cType="1" res="9.0688187628984451e-04" rms="4.3132862448692322e-01" purity="5.0070494413375854e-01" nType="0">
        <Node pos="l" depth="1" NCoef="0" IVar="4" Cut="7.0294696092605591e-01" cType="1" res="-8.7735885754227638e-03" rms="4.4228205084800720e-01" purity="4.9850112199783325e-01" nType="0">
          <Node pos="l" depth="2" NCoef="0" IVar="-1" Cut="0.0000000000000000e+00" cType="1" res="-5.7316189631819725e-03" rms="4.2032286524772644e-01" purity="2.8519892692565918e-01" nType="-99"/>
          <Node pos="r" depth="2" NCoef="0" IVar="-1" Cut="0.0000000000000000e+00" cType="1" res="-6.3983094878494740e-04" rms="4.5249125361442566e-01" purity="6.0265284776687622e-01" nType="-99"/>
        </Node>
        <Node pos="r" depth="1" NCoef="0" IVar="3" Cut="-1.6097940504550934e-01" cType="1" res="2.1648951806128025e-03" rms="4.2986869812011719e-01" purity="5.0099140405654907e-01" nType="0">
          <Node pos="l" depth="2" NCoef="0" IVar="-1" Cut="0.0000000000000000e+00" cType="1" res="1.9160311203449965e-03" rms="4.2733937501907349e-01" purity="5.1321017742156982e-01" nType="-99"/>
          <Node pos="r" depth="2" NCoef="0" IVar="-1" Cut="0.0000000000000000e+00" cType="1" res="1.0687307076295838e-04" rms="4.3075260519981384e-01" purity="4.9663746356964111e-01" nType="-99"/>
        </Node>
      </Node>
    </BinaryTree>
    <BinaryTree type="DecisionTree" boostWeight="1.0000000000000000e+00" itree="674">
      <Node pos="s" depth="0" NCoef="0" IVar="9" Cut="-1.4285714924335480e-01" cType="1" res="6.6694233100861311e-04" rms="4.3162241578102112e-01" purity="5.0157552957534790e-01" nType="0">
        <Node pos="l" depth="1" NCoef="0" IVar="2" Cut="3.1979221105575562e-01" cType="1" res="-3.2007852569222450e-03" rms="4.3165075778961182e-01" purity="4.8785331845283508e-01" nType="0">
          <Node pos="l" depth="2" NCoef="0" IVar="-1" Cut="0.0000000000000000e+00" cType="1" res="-1.6955808969214559e-03" rms="4.3372520804405212e-01" purity="4.8420992493629456e-01" nType="-99"/>
          <Node pos="r" depth="2" NCoef="0" IVar="-1" Cut="0.0000000000000000e+00" cType="1" res="7.6410092879086733e-04" rms="4.2768800258636475e-01" purity="4.9465078115463257e-01" nType="-99"/>
        </Node>
        <Node pos="r" depth="1" NCoef="0" IVar="3" Cut="-6.1904764175415039e-01" cType="1" res="2.7549581136554480e-03" rms="4.3159273266792297e-01" purity="5.0898355245590210e-01" nType="0">
          <Node pos="l" depth="2" NCoef="0" IVar="-1" Cut="0.0000000000000000e+00" cType="1" res="3.1633533071726561e-03" rms="4.4990801811218262e-01" purity="5.2192556858062744e-01" nType="-99"/>
          <Node pos="r" depth="2" NCoef="0" IVar="-1" Cut="0.0000000000000000e+00" cType="1" res="5.1062909187749028e-04" rms="4.3002399802207947e-01" purity="5.0790745019912720e-01" nType="-99"/>
        </Node>
      </Node>
    </BinaryTree>
    <BinaryTree type="DecisionTree" boostWeight="1.0000000000000000e+00" itree="675">
      <Node pos="s" depth="0" NCoef="0" IVar="8" Cut="9.1691982746124268e-01" cType="1" res="1.1853295291075483e-04" rms="4.3159934878349304e-01" purity="5.0006854534149170e-01" nType="0">
        <Node pos="l" depth="1" NCoef="0" IVar="2" Cut="-1.2026003599166870e+00" cType="1" res="-1.2015637475997210e-03" rms="4.3356844782829285e-01" purity="4.7612586617469788e-01" nType="0">
          <Node pos="l" depth="2" NCoef="0" IVar="-1" Cut="0.0000000000000000e+00" cType="1" res="-2.1832988131791353e-03" rms="4.2089495062828064e-01" purity="4.6663621068000793e-01" nType="-99"/>
          <Node pos="r" depth="2" NCoef="0" IVar="-1" Cut="0.0000000000000000e+00" cType="1" res="-1.0349998774472624e-04" rms="4.3506273627281189e-01" purity="4.7726860642433167e-01" nType="-99"/>
        </Node>
        <Node pos="r" depth="1" NCoef="0" IVar="5" Cut="9.9213612079620361e-01" cType="1" res="6.7408555187284946e-03" rms="4.2152005434036255e-01" purity="6.2017762660980225e-01" nType="0">
          <Node pos="l" depth="2" NCoef="0" IVar="-1" Cut="0.0000000000000000e+00" cType="1" res="5.5831926874816418e-03" rms="4.2296171188354492e-01" purity="6.6098248958587646e-01" nType="-99"/>
          <Node pos="r" depth="2" NCoef="0" IVar="-1" Cut="0.0000000000000000e+00" cType="1" res="4.1765152127481997e-04" rms="4.2084550857543945e-01" purity="6.0444331169128418e-01" nType="-99"/>
        </Node>
      </Node>
    </BinaryTree>
    <BinaryTree type="DecisionTree" boostWeight="1.0000000000000000e+00" itree="676">
      <Node pos="s" depth="0" NCoef="0" IVar="9" Cut="-1.4285714924335480e-01" cType="1" res="-6.7278643837198615e-04" rms="4.3142122030258179e-01" purity="4.9989300966262817e-01" nType="0">
        <Node pos="l" depth="1" NCoef="0" IVar="6" Cut="-1.1428571939468384e+00" cType="1" res="2.1059482824057341e-03" rms="4.3149772286415100e-01" purity="4.9066752195358276e-01" nType="0">
          <Node pos="l" depth="2" NCoef="0" IVar="-1" Cut="0.0000000000000000e+00" cType="1" res="-1.3665426522493362e-03" rms="4.2750892043113708e-01" purity="4.7087058424949646e-01" nType="-99"/>
          <Node pos="r" depth="2" NCoef="0" IVar="-1" Cut="0.0000000000000000e+00" cType="1" res="1.3349060900509357e-03" rms="4.3309575319290161e-01" purity="4.9882349371910095e-01" nType="-99"/>
        </Node>
        <Node pos="r" depth="1" NCoef="0" IVar="9" Cut="2.0411338657140732e-02" cType="1" res="-2.1915598772466183e-03" rms="4.3137183785438538e-01" purity="5.0493544340133667e-01" nType="0">
          <Node pos="l" depth="2" NCoef="0" IVar="-1" Cut="0.0000000000000000e+00" cType="1" res="-2.0426446571946144e-03" rms="4.3230277299880981e-01" purity="5.0767529010772705e-01" nType="-99"/>
          <Node pos="r" depth="2" NCoef="0" IVar="-1" Cut="0.0000000000000000e+00" cType="1" res="-7.4282252171542495e-05" rms="4.3103277683258057e-01" purity="5.0398743152618408e-01" nType="-99"/>
        </Node>
      </Node>
    </BinaryTree>
    <BinaryTree type="DecisionTree" boostWeight="1.0000000000000000e+00" itree="677">
      <Node pos="s" depth="0" NCoef="0" IVar="10" Cut="6.0666667938232422e+01" cType="1" res="5.0610589823918417e-05" rms="4.3154129385948181e-01" purity="4.9883949756622314e-01" nType="0">
        <Node pos="l" depth="1" NCoef="0" IVar="7" Cut="8.5962839126586914e+00" cType="1" res="5.3545634727925062e-04" rms="4.3196374177932739e-01" purity="5.0509476661682129e-01" nType="0">
          <Node pos="l" depth="2" NCoef="0" IVar="-1" Cut="0.0000000000000000e+00" cType="1" res="-6.3967148889787495e-05" rms="4.3386712670326233e-01" purity="4.9074417352676392e-01" nType="-99"/>
          <Node pos="r" depth="2" NCoef="0" IVar="-1" Cut="0.0000000000000000e+00" cType="1" res="3.9174281992018223e-03" rms="4.0011677145957947e-01" purity="7.3441159725189209e-01" nType="-99"/>
        </Node>
        <Node pos="r" depth="1" NCoef="0" IVar="-1" Cut="0.0000000000000000e+00" cType="1" res="-3.5061275120824575e-03" rms="4.1996273398399353e-01" purity="3.3272281289100647e-01" nType="-99"/>
      </Node>
    </BinaryTree>
    <BinaryTree type="DecisionTree" boostWeight="1.0000000000000000e+00" itree="678">
      <Node pos="s" depth="0" NCoef="0" IVar="3" Cut="-7.1428573131561279e-01" cType="1" res="-1.2874464737251401e-03" rms="4.3224850296974182e-01" purity="4.9982920289039612e-01" nType="0">
        <Node pos="l" depth="1" NCoef="0" IVar="-1" Cut="0.0000000000000000e+00" cType="1" res="1.7475810600444674e-03" rms="4.5880770683288574e-01" purity="5.0621914863586426e-01" nType="-99"/>
        <Node pos="r" depth="1" NCoef="0" IVar="0" Cut="1.7600039243698120e+00" cType="1" res="-1.8406974850222468e-03" rms="4.3045952916145325e-01" purity="4.9941381812095642e-01" nType="0">
          <Node pos="l" depth="2" NCoef="0" IVar="-1" Cut="0.0000000000000000e+00" cType="1" res="-6.1365950386971235e-04" rms="4.3177217245101929e-01" purity="5.0993698835372925e-01" nType="-99"/>
          <Node pos="r" depth="2" NCoef="0" IVar="-1" Cut="0.0000000000000000e+00" cType="1" res="2.7780099771916866e-03" rms="3.9819106459617615e-01" purity="2.5198197364807129e-01" nType="-99"/>
        </Node>
      </Node>
    </BinaryTree>
    <BinaryTree type="DecisionTree" boostWeight="1.0000000000000000e+00" itree="679">
      <Node pos="s" depth="0" NCoef="0" IVar="7" Cut="9.4254255294799805e+00" cType="1" res="6.9818936754018068e-04" rms="4.3292203545570374e-01" purity="5.0117564201354980e-01" nType="0">
        <Node pos="l" depth="1" NCoef="0" IVar="9" Cut="-2.3809523880481720e-01" cType="1" res="1.4624198665842414e-03" rms="4.3381020426750183e-01" purity="4.9216842651367188e-01" nType="0">
          <Node pos="l" depth="2" NCoef="0" IVar="-1" Cut="0.0000000000000000e+00" cType="1" res="-7.9657201422378421e-04" rms="4.3485862016677856e-01" purity="4.6946457028388977e-01" nType="-99"/>
          <Node pos="r" depth="2" NCoef="0" IVar="-1" Cut="0.0000000000000000e+00" cType="1" res="8.3112902939319611e-04" rms="4.3340241909027100e-01" purity="5.0072401762008667e-01" nType="-99"/>
        </Node>
        <Node pos="r" depth="1" NCoef="0" IVar="-1" Cut="0.0000000000000000e+00" cType="1" res="-4.1123717091977596e-03" rms="4.1513106226921082e-01" purity="6.7503452301025391e-01" nType="-99"/>
      </Node>
    </BinaryTree>
    <BinaryTree type="DecisionTree" boostWeight="1.0000000000000000e+00" itree="680">
      <Node pos="s" depth="0" NCoef="0" IVar="3" Cut="6.1904764175415039e-01" cType="1" res="9.2710566241294146e-04" rms="4.3273016810417175e-01" purity="5.0077462196350098e-01" nType="0">
        <Node pos="l" depth="1" NCoef="0" IVar="8" Cut="-3.8608483970165253e-02" cType="1" res="3.3528351195855066e-05" rms="4.3107077479362488e-01" purity="4.9977391958236694e-01" nType="0">
          <Node pos="l" depth="2" NCoef="0" IVar="-1" Cut="0.0000000000000000e+00" cType="1" res="7.9176918370649219e-04" rms="4.3047282099723816e-01" purity="5.0856345891952515e-01" nType="-99"/>
          <Node pos="r" depth="2" NCoef="0" IVar="-1" Cut="0.0000000000000000e+00" cType="1" res="-6.7577860318124294e-04" rms="4.3158057332038879e-01" purity="4.9202945828437805e-01" nType="-99"/>
        </Node>
        <Node pos="r" depth="1" NCoef="0" IVar="3" Cut="8.0049091577529907e-01" cType="1" res="1.1137566529214382e-02" rms="4.5113259553909302e-01" purity="5.1220899820327759e-01" nType="0">
          <Node pos="l" depth="2" NCoef="0" IVar="-1" Cut="0.0000000000000000e+00" cType="1" res="4.9148355610668659e-03" rms="4.4718396663665771e-01" purity="5.3465485572814941e-01" nType="-99"/>
          <Node pos="r" depth="2" NCoef="0" IVar="-1" Cut="0.0000000000000000e+00" cType="1" res="8.5294025484472513e-04" rms="4.5449700951576233e-01" purity="4.9216237664222717e-01" nType="-99"/>
        </Node>
      </Node>
    </BinaryTree>
    <BinaryTree type="DecisionTree" boostWeight="1.0000000000000000e+00" itree="681">
      <Node pos="s" depth="0" NCoef="0" IVar="8" Cut="-1.8074760437011719e+00" cType="1" res="-8.2757440395653248e-05" rms="4.3078514933586121e-01" purity="5.0004452466964722e-01" nType="0">
        <Node pos="l" depth="1" NCoef="0" IVar="-1" Cut="0.0000000000000000e+00" cType="1" res="-3.8003120571374893e-03" rms="4.1463190317153931e-01" purity="7.0546919107437134e-01" nType="-99"/>
        <Node pos="r" depth="1" NCoef="0" IVar="4" Cut="4.4247093796730042e-01" cType="1" res="4.8262070049531758e-04" rms="4.3148478865623474e-01" purity="4.9085745215415955e-01" nType="0">
          <Node pos="l" depth="2" NCoef="0" IVar="-1" Cut="0.0000000000000000e+00" cType="1" res="-3.0482143629342318e-03" rms="3.1512066721916199e-01" purity="1.1879879981279373e-01" nType="-99"/>
          <Node pos="r" depth="2" NCoef="0" IVar="-1" Cut="0.0000000000000000e+00" cType="1" res="3.9055576780810952e-04" rms="4.4738030433654785e-01" purity="5.5072218179702759e-01" nType="-99"/>
        </Node>
      </Node>
    </BinaryTree>
    <BinaryTree type="DecisionTree" boostWeight="1.0000000000000000e+00" itree="682">
      <Node pos="s" depth="0" NCoef="0" IVar="10" Cut="1.0380952835083008e+01" cType="1" res="1.3171071259421296e-05" rms="4.2985552549362183e-01" purity="5.0106948614120483e-01" nType="0">
        <Node pos="l" depth="1" NCoef="0" IVar="10" Cut="3.1428570747375488e+00" cType="1" res="4.1169095784425735e-03" rms="4.5178335905075073e-01" purity="5.2617245912551880e-01" nType="0">
          <Node pos="l" depth="2" NCoef="0" IVar="-1" Cut="0.0000000000000000e+00" cType="1" res="-2.6600786950439215e-03" rms="4.7176262736320496e-01" purity="4.4491446018218994e-01" nType="-99"/>
          <Node pos="r" depth="2" NCoef="0" IVar="-1" Cut="0.0000000000000000e+00" cType="1" res="2.2945399396121502e-03" rms="4.4485709071159363e-01" purity="5.5304825305938721e-01" nType="-99"/>
        </Node>
        <Node pos="r" depth="1" NCoef="0" IVar="0" Cut="1.0286302566528320e+00" cType="1" res="-2.2565615363419056e-03" rms="4.1721543669700623e-01" purity="4.8718529939651489e-01" nType="0">
          <Node pos="l" depth="2" NCoef="0" IVar="-1" Cut="0.0000000000000000e+00" cType="1" res="8.2549423677846789e-04" rms="4.2676976323127747e-01" purity="6.0832357406616211e-01" nType="-99"/>
          <Node pos="r" depth="2" NCoef="0" IVar="-1" Cut="0.0000000000000000e+00" cType="1" res="-3.4349528141319752e-03" rms="3.9998850226402283e-01" purity="2.7770599722862244e-01" nType="-99"/>
        </Node>
      </Node>
    </BinaryTree>
    <BinaryTree type="DecisionTree" boostWeight="1.0000000000000000e+00" itree="683">
      <Node pos="s" depth="0" NCoef="0" IVar="9" Cut="-3.3333334326744080e-01" cType="1" res="9.4601133605465293e-04" rms="4.3143647909164429e-01" purity="5.0232100486755371e-01" nType="0">
        <Node pos="l" depth="1" NCoef="0" IVar="7" Cut="3.5305113792419434e+00" cType="1" res="6.5051112323999405e-03" rms="4.3380907177925110e-01" purity="4.7651854157447815e-01" nType="0">
          <Node pos="l" depth="2" NCoef="0" IVar="-1" Cut="0.0000000000000000e+00" cType="1" res="5.8525282656773925e-04" rms="4.4258075952529907e-01" purity="4.3205714225769043e-01" nType="-99"/>
          <Node pos="r" depth="2" NCoef="0" IVar="-1" Cut="0.0000000000000000e+00" cType="1" res="5.6094578467309475e-03" rms="4.0567237138748169e-01" purity="6.1186569929122925e-01" nType="-99"/>
        </Node>
        <Node pos="r" depth="1" NCoef="0" IVar="6" Cut="2.6666667461395264e+00" cType="1" res="-4.4211742351762950e-04" rms="4.3083077669143677e-01" purity="5.0876390933990479e-01" nType="0">
          <Node pos="l" depth="2" NCoef="0" IVar="-1" Cut="0.0000000000000000e+00" cType="1" res="4.0507668745703995e-04" rms="4.3253156542778015e-01" purity="5.1650673151016235e-01" nType="-99"/>
          <Node pos="r" depth="2" NCoef="0" IVar="-1" Cut="0.0000000000000000e+00" cType="1" res="-1.7718102317303419e-03" rms="4.2551633715629578e-01" purity="4.8502406477928162e-01" nType="-99"/>
        </Node>
      </Node>
    </BinaryTree>
    <BinaryTree type="DecisionTree" boostWeight="1.0000000000000000e+00" itree="684">
      <Node pos="s" depth="0" NCoef="0" IVar="5" Cut="3.4236428737640381e+00" cType="1" res="2.0098066306672990e-04" rms="4.3149223923683167e-01" purity="4.9970829486846924e-01" nType="0">
        <Node pos="l" depth="1" NCoef="0" IVar="4" Cut="6.9857090711593628e-01" cType="1" res="-3.4108292311429977e-04" rms="4.3216025829315186e-01" purity="4.9760043621063232e-01" nType="0">
          <Node pos="l" depth="2" NCoef="0" IVar="-1" Cut="0.0000000000000000e+00" cType="1" res="9.2416506959125400e-04" rms="4.1417014598846436e-01" purity="2.9219076037406921e-01" nType="-99"/>
          <Node pos="r" depth="2" NCoef="0" IVar="-1" Cut="0.0000000000000000e+00" cType="1" res="-6.4963259501382709e-04" rms="4.4317486882209778e-01" purity="6.2784928083419800e-01" nType="-99"/>
        </Node>
        <Node pos="r" depth="1" NCoef="0" IVar="-1" Cut="0.0000000000000000e+00" cType="1" res="3.7209112197160721e-03" rms="4.1464847326278687e-01" purity="5.5111551284790039e-01" nType="-99"/>
      </Node>
    </BinaryTree>
    <BinaryTree type="DecisionTree" boostWeight="1.0000000000000000e+00" itree="685">
      <Node pos="s" depth="0" NCoef="0" IVar="3" Cut="4.7619048506021500e-02" cType="1" res="2.7500926080392674e-05" rms="4.3239158391952515e-01" purity="5.0021892786026001e-01" nType="0">
        <Node pos="l" depth="1" NCoef="0" IVar="9" Cut="3.3333334326744080e-01" cType="1" res="-2.4757010396569967e-03" rms="4.3159785866737366e-01" purity="4.9699333310127258e-01" nType="0">
          <Node pos="l" depth="2" NCoef="0" IVar="-1" Cut="0.0000000000000000e+00" cType="1" res="-2.2645072021987289e-04" rms="4.3040832877159119e-01" purity="5.0396096706390381e-01" nType="-99"/>
          <Node pos="r" depth="2" NCoef="0" IVar="-1" Cut="0.0000000000000000e+00" cType="1" res="-2.3860912770032883e-03" rms="4.3627512454986572e-01" purity="4.6904963254928589e-01" nType="-99"/>
        </Node>
        <Node pos="r" depth="1" NCoef="0" IVar="9" Cut="1.4285714924335480e-01" cType="1" res="3.1182656530290842e-03" rms="4.3334966897964478e-01" purity="5.0420159101486206e-01" nType="0">
          <Node pos="l" depth="2" NCoef="0" IVar="-1" Cut="0.0000000000000000e+00" cType="1" res="2.5923465727828443e-04" rms="4.3362838029861450e-01" purity="5.0243902206420898e-01" nType="-99"/>
          <Node pos="r" depth="2" NCoef="0" IVar="-1" Cut="0.0000000000000000e+00" cType="1" res="1.8289615400135517e-03" rms="4.3282714486122131e-01" purity="5.0733840465545654e-01" nType="-99"/>
        </Node>
      </Node>
    </BinaryTree>
    <BinaryTree type="DecisionTree" boostWeight="1.0000000000000000e+00" itree="686">
      <Node pos="s" depth="0" NCoef="0" IVar="7" Cut="4.4917669296264648e+00" cType="1" res="-1.8265359103679657e-03" rms="4.3070650100708008e-01" purity="4.9779012799263000e-01" nType="0">
        <Node pos="l" depth="1" NCoef="0" IVar="4" Cut="7.8129434585571289e-01" cType="1" res="-4.6419748105108738e-03" rms="4.3709552288055420e-01" purity="4.5279860496520996e-01" nType="0">
          <Node pos="l" depth="2" NCoef="0" IVar="-1" Cut="0.0000000000000000e+00" cType="1" res="-1.7922432743944228e-04" rms="4.2612698674201965e-01" purity="3.2746845483779907e-01" nType="-99"/>
          <Node pos="r" depth="2" NCoef="0" IVar="-1" Cut="0.0000000000000000e+00" cType="1" res="-2.4565316271036863e-03" rms="4.5143318176269531e-01" purity="6.2209612131118774e-01" nType="-99"/>
        </Node>
        <Node pos="r" depth="1" NCoef="0" IVar="4" Cut="6.0307776927947998e-01" cType="1" res="5.1574083045125008e-03" rms="4.1435045003890991e-01" purity="6.0939544439315796e-01" nType="0">
          <Node pos="l" depth="2" NCoef="0" IVar="-1" Cut="0.0000000000000000e+00" cType="1" res="-6.4524281769990921e-03" rms="3.5898688435554504e-01" purity="1.9746643304824829e-01" nType="-99"/>
          <Node pos="r" depth="2" NCoef="0" IVar="-1" Cut="0.0000000000000000e+00" cType="1" res="2.3006661795079708e-03" rms="4.2164224386215210e-01" purity="6.6890370845794678e-01" nType="-99"/>
        </Node>
      </Node>
    </BinaryTree>
    <BinaryTree type="DecisionTree" boostWeight="1.0000000000000000e+00" itree="687">
      <Node pos="s" depth="0" NCoef="0" IVar="3" Cut="5.2380955219268799e-01" cType="1" res="-9.1962545411661267e-04" rms="4.3202385306358337e-01" purity="4.9858075380325317e-01" nType="0">
        <Node pos="l" depth="1" NCoef="0" IVar="2" Cut="1.0005257129669189e+00" cType="1" res="-8.9638786448631436e-05" rms="4.2978999018669128e-01" purity="4.9855431914329529e-01" nType="0">
          <Node pos="l" depth="2" NCoef="0" IVar="-1" Cut="0.0000000000000000e+00" cType="1" res="-3.2840290805324912e-04" rms="4.3099200725555420e-01" purity="4.9776741862297058e-01" nType="-99"/>
          <Node pos="r" depth="2" NCoef="0" IVar="-1" Cut="0.0000000000000000e+00" cType="1" res="1.9793028477579355e-03" rms="4.2201608419418335e-01" purity="5.0354427099227905e-01" nType="-99"/>
        </Node>
        <Node pos="r" depth="1" NCoef="0" IVar="4" Cut="7.4397259950637817e-01" cType="1" res="-7.5570051558315754e-03" rms="4.4943350553512573e-01" purity="4.9879172444343567e-01" nType="0">
          <Node pos="l" depth="2" NCoef="0" IVar="-1" Cut="0.0000000000000000e+00" cType="1" res="-4.4938521459698677e-03" rms="4.3743917346000671e-01" purity="3.1383359432220459e-01" nType="-99"/>
          <Node pos="r" depth="2" NCoef="0" IVar="-1" Cut="0.0000000000000000e+00" cType="1" res="-4.0686447755433619e-04" rms="4.5638677477836609e-01" purity="6.0990017652511597e-01" nType="-99"/>
        </Node>
      </Node>
    </BinaryTree>
    <BinaryTree type="DecisionTree" boostWeight="1.0000000000000000e+00" itree="688">
      <Node pos="s" depth="0" NCoef="0" IVar="8" Cut="1.0177014768123627e-01" cType="1" res="5.2107212832197547e-04" rms="4.3203717470169067e-01" purity="5.0020337104797363e-01" nType="0">
        <Node pos="l" depth="1" NCoef="0" IVar="6" Cut="2.7142856121063232e+00" cType="1" res="2.9270024970173836e-03" rms="4.3348816037178040e-01" purity="4.9376973509788513e-01" nType="0">
          <Node pos="l" depth="2" NCoef="0" IVar="-1" Cut="0.0000000000000000e+00" cType="1" res="2.5491576525382698e-04" rms="4.3483313918113708e-01" purity="4.9741119146347046e-01" nType="-99"/>
          <Node pos="r" depth="2" NCoef="0" IVar="-1" Cut="0.0000000000000000e+00" cType="1" res="2.6309879031032324e-03" rms="4.2876401543617249e-01" purity="4.8124930262565613e-01" nType="-99"/>
        </Node>
        <Node pos="r" depth="1" NCoef="0" IVar="5" Cut="2.6481100916862488e-01" cType="1" res="-2.5831353850662708e-03" rms="4.3013796210289001e-01" purity="5.0850433111190796e-01" nType="0">
          <Node pos="l" depth="2" NCoef="0" IVar="-1" Cut="0.0000000000000000e+00" cType="1" res="1.7840913496911526e-03" rms="4.5258286595344543e-01" purity="5.4811722040176392e-01" nType="-99"/>
          <Node pos="r" depth="2" NCoef="0" IVar="-1" Cut="0.0000000000000000e+00" cType="1" res="-9.7595073748379946e-04" rms="4.2776563763618469e-01" purity="5.0445747375488281e-01" nType="-99"/>
        </Node>
      </Node>
    </BinaryTree>
    <BinaryTree type="DecisionTree" boostWeight="1.0000000000000000e+00" itree="689">
      <Node pos="s" depth="0" NCoef="0" IVar="6" Cut="8.5714286565780640e-01" cType="1" res="1.1466358555480838e-03" rms="4.3127858638763428e-01" purity="5.0180816650390625e-01" nType="0">
        <Node pos="l" depth="1" NCoef="0" IVar="4" Cut="4.8451757431030273e-01" cType="1" res="3.4714939538389444e-03" rms="4.3032628297805786e-01" purity="5.0716823339462280e-01" nType="0">
          <Node pos="l" depth="2" NCoef="0" IVar="-1" Cut="0.0000000000000000e+00" cType="1" res="-3.0532602686434984e-03" rms="3.4010061621665955e-01" purity="1.4350377023220062e-01" nType="-99"/>
          <Node pos="r" depth="2" NCoef="0" IVar="-1" Cut="0.0000000000000000e+00" cType="1" res="1.3914282899349928e-03" rms="4.4620159268379211e-01" purity="5.8011597394943237e-01" nType="-99"/>
        </Node>
        <Node pos="r" depth="1" NCoef="0" IVar="4" Cut="4.7629147768020630e-01" cType="1" res="-1.6837309813126922e-03" rms="4.3241822719573975e-01" purity="4.9528262019157410e-01" nType="0">
          <Node pos="l" depth="2" NCoef="0" IVar="-1" Cut="0.0000000000000000e+00" cType="1" res="3.5153219942003489e-03" rms="3.4586340188980103e-01" purity="1.4927610754966736e-01" nType="-99"/>
          <Node pos="r" depth="2" NCoef="0" IVar="-1" Cut="0.0000000000000000e+00" cType="1" res="-9.0656318934634328e-04" rms="4.4805711507797241e-01" purity="5.6612884998321533e-01" nType="-99"/>
        </Node>
      </Node>
    </BinaryTree>
    <BinaryTree type="DecisionTree" boostWeight="1.0000000000000000e+00" itree="690">
      <Node pos="s" depth="0" NCoef="0" IVar="4" Cut="8.2081419229507446e-01" cType="1" res="-8.8247313397005200e-04" rms="4.3096533417701721e-01" purity="4.9943047761917114e-01" nType="0">
        <Node pos="l" depth="1" NCoef="0" IVar="7" Cut="1.4326692819595337e+00" cType="1" res="-3.9148316718637943e-03" rms="4.2848193645477295e-01" purity="3.5477632284164429e-01" nType="0">
          <Node pos="l" depth="2" NCoef="0" IVar="-1" Cut="0.0000000000000000e+00" cType="1" res="3.2757043372839689e-03" rms="4.5647367835044861e-01" purity="3.4131118655204773e-01" nType="-99"/>
          <Node pos="r" depth="2" NCoef="0" IVar="-1" Cut="0.0000000000000000e+00" cType="1" res="-1.7307166708633304e-03" rms="4.2430806159973145e-01" purity="3.5668554902076721e-01" nType="-99"/>
        </Node>
        <Node pos="r" depth="1" NCoef="0" IVar="10" Cut="2.4857143402099609e+01" cType="1" res="2.6817969046533108e-03" rms="4.3383905291557312e-01" purity="6.6945868730545044e-01" nType="0">
          <Node pos="l" depth="2" NCoef="0" IVar="-1" Cut="0.0000000000000000e+00" cType="1" res="1.7381627112627029e-03" rms="4.3825909495353699e-01" purity="6.7634898424148560e-01" nType="-99"/>
          <Node pos="r" depth="2" NCoef="0" IVar="-1" Cut="0.0000000000000000e+00" cType="1" res="-2.0382285583764315e-03" rms="4.2260158061981201e-01" purity="6.5251410007476807e-01" nType="-99"/>
        </Node>
      </Node>
    </BinaryTree>
    <BinaryTree type="DecisionTree" boostWeight="1.0000000000000000e+00" itree="691">
      <Node pos="s" depth="0" NCoef="0" IVar="3" Cut="5.2380955219268799e-01" cType="1" res="-9.6548750298097730e-04" rms="4.3132096529006958e-01" purity="4.9957951903343201e-01" nType="0">
        <Node pos="l" depth="1" NCoef="0" IVar="3" Cut="-8.5487687587738037e-01" cType="1" res="-1.5872591757215559e-04" rms="4.2909795045852661e-01" purity="4.9992156028747559e-01" nType="0">
          <Node pos="l" depth="2" NCoef="0" IVar="-1" Cut="0.0000000000000000e+00" cType="1" res="-3.0357434879988432e-03" rms="4.5702967047691345e-01" purity="4.6304836869239807e-01" nType="-99"/>
          <Node pos="r" depth="2" NCoef="0" IVar="-1" Cut="0.0000000000000000e+00" cType="1" res="1.0684686276363209e-04" rms="4.2781889438629150e-01" purity="5.0154346227645874e-01" nType="-99"/>
        </Node>
        <Node pos="r" depth="1" NCoef="0" IVar="10" Cut="5.0952382087707520e+00" cType="1" res="-7.3100412264466286e-03" rms="4.4836878776550293e-01" purity="4.9688971042633057e-01" nType="0">
          <Node pos="l" depth="2" NCoef="0" IVar="-1" Cut="0.0000000000000000e+00" cType="1" res="2.0289146050345153e-04" rms="4.6223169565200806e-01" purity="4.8873299360275269e-01" nType="-99"/>
          <Node pos="r" depth="2" NCoef="0" IVar="-1" Cut="0.0000000000000000e+00" cType="1" res="-3.5764113999903202e-03" rms="4.3711891770362854e-01" purity="5.0326621532440186e-01" nType="-99"/>
        </Node>
      </Node>
    </BinaryTree>
    <BinaryTree type="DecisionTree" boostWeight="1.0000000000000000e+00" itree="692">
      <Node pos="s" depth="0" NCoef="0" IVar="3" Cut="-8.0952382087707520e-01" cType="1" res="2.7843023417517543e-04" rms="4.3152138590812683e-01" purity="5.0169485807418823e-01" nType="0">
        <Node pos="l" depth="1" NCoef="0" IVar="-1" Cut="0.0000000000000000e+00" cType="1" res="-1.9842104520648718e-03" rms="4.5278933644294739e-01" purity="4.7804141044616699e-01" nType="-99"/>
        <Node pos="r" depth="1" NCoef="0" IVar="9" Cut="7.1428573131561279e-01" cType="1" res="6.6209706710651517e-04" rms="4.3054285645484924e-01" purity="5.0275141000747681e-01" nType="0">
          <Node pos="l" depth="2" NCoef="0" IVar="-1" Cut="0.0000000000000000e+00" cType="1" res="6.2351689848583192e-05" rms="4.2988970875740051e-01" purity="5.0692993402481079e-01" nType="-99"/>
          <Node pos="r" depth="2" NCoef="0" IVar="-1" Cut="0.0000000000000000e+00" cType="1" res="2.6114028878509998e-03" rms="4.4468593597412109e-01" purity="4.1001325845718384e-01" nType="-99"/>
        </Node>
      </Node>
    </BinaryTree>
    <BinaryTree type="DecisionTree" boostWeight="1.0000000000000000e+00" itree="693">
      <Node pos="s" depth="0" NCoef="0" IVar="3" Cut="-1.4285714924335480e-01" cType="1" res="1.1788792908191681e-03" rms="4.3249472975730896e-01" purity="4.9966508150100708e-01" nType="0">
        <Node pos="l" depth="1" NCoef="0" IVar="9" Cut="-4.7619048506021500e-02" cType="1" res="7.2300499305129051e-03" rms="4.3467721343040466e-01" purity="5.1120829582214355e-01" nType="0">
          <Node pos="l" depth="2" NCoef="0" IVar="-1" Cut="0.0000000000000000e+00" cType="1" res="3.6330413422547281e-04" rms="4.3604087829589844e-01" purity="4.9841725826263428e-01" nType="-99"/>
          <Node pos="r" depth="2" NCoef="0" IVar="-1" Cut="0.0000000000000000e+00" cType="1" res="3.1537490431219339e-03" rms="4.3350112438201904e-01" purity="5.2166020870208740e-01" nType="-99"/>
        </Node>
        <Node pos="r" depth="1" NCoef="0" IVar="4" Cut="9.4740384817123413e-01" cType="1" res="-2.3019681684672832e-03" rms="4.3119582533836365e-01" purity="4.9302503466606140e-01" nType="0">
          <Node pos="l" depth="2" NCoef="0" IVar="-1" Cut="0.0000000000000000e+00" cType="1" res="-1.1318502947688103e-04" rms="4.3333715200424194e-01" purity="4.4657355546951294e-01" nType="-99"/>
          <Node pos="r" depth="2" NCoef="0" IVar="-1" Cut="0.0000000000000000e+00" cType="1" res="-3.3826387953013182e-03" rms="4.1996774077415466e-01" purity="7.3008835315704346e-01" nType="-99"/>
        </Node>
      </Node>
    </BinaryTree>
    <BinaryTree type="DecisionTree" boostWeight="1.0000000000000000e+00" itree="694">
      <Node pos="s" depth="0" NCoef="0" IVar="4" Cut="6.0448181629180908e-01" cType="1" res="1.3391560642048717e-03" rms="4.3283379077911377e-01" purity="5.0091755390167236e-01" nType="0">
        <Node pos="l" depth="1" NCoef="0" IVar="7" Cut="1.4326692819595337e+00" cType="1" res="5.2555911242961884e-03" rms="3.9712765812873840e-01" purity="2.3395328223705292e-01" nType="0">
          <Node pos="l" depth="2" NCoef="0" IVar="-1" Cut="0.0000000000000000e+00" cType="1" res="7.8149009495973587e-03" rms="4.5595976710319519e-01" purity="3.2438054680824280e-01" nType="-99"/>
          <Node pos="r" depth="2" NCoef="0" IVar="-1" Cut="0.0000000000000000e+00" cType="1" res="4.4710398651659489e-04" rms="3.8697195053100586e-01" purity="2.1980994939804077e-01" nType="-99"/>
        </Node>
        <Node pos="r" depth="1" NCoef="0" IVar="0" Cut="9.8505669832229614e-01" cType="1" res="-2.3921769752632827e-04" rms="4.4640743732452393e-01" purity="6.0850763320922852e-01" nType="0">
          <Node pos="l" depth="2" NCoef="0" IVar="-1" Cut="0.0000000000000000e+00" cType="1" res="-1.6712622018530965e-03" rms="4.3565350770950317e-01" purity="7.1300542354583740e-01" nType="-99"/>
          <Node pos="r" depth="2" NCoef="0" IVar="-1" Cut="0.0000000000000000e+00" cType="1" res="1.8205912783741951e-03" rms="4.6047356724739075e-01" purity="4.6668279170989990e-01" nType="-99"/>
        </Node>
      </Node>
    </BinaryTree>
    <BinaryTree type="DecisionTree" boostWeight="1.0000000000000000e+00" itree="695">
      <Node pos="s" depth="0" NCoef="0" IVar="4" Cut="6.1064231395721436e-01" cType="1" res="-1.0113386670127511e-03" rms="4.3310606479644775e-01" purity="4.9959659576416016e-01" nType="0">
        <Node pos="l" depth="1" NCoef="0" IVar="7" Cut="4.0696434974670410e+00" cType="1" res="4.8400741070508957e-03" rms="3.9964172244071960e-01" purity="2.3871217668056488e-01" nType="0">
          <Node pos="l" depth="2" NCoef="0" IVar="-1" Cut="0.0000000000000000e+00" cType="1" res="2.8116218745708466e-03" rms="4.0630128979682922e-01" purity="2.4624525010585785e-01" nType="-99"/>
          <Node pos="r" depth="2" NCoef="0" IVar="-1" Cut="0.0000000000000000e+00" cType="1" res="-6.2957210466265678e-03" rms="3.6157879233360291e-01" purity="1.9888460636138916e-01" nType="-99"/>
        </Node>
        <Node pos="r" depth="1" NCoef="0" IVar="0" Cut="9.0358000993728638e-01" cType="1" res="-3.4396960400044918e-03" rms="4.4623515009880066e-01" purity="6.0786455869674683e-01" nType="0">
          <Node pos="l" depth="2" NCoef="0" IVar="-1" Cut="0.0000000000000000e+00" cType="1" res="-3.0877350363880396e-03" rms="4.2824038863182068e-01" purity="7.3110771179199219e-01" nType="-99"/>
          <Node pos="r" depth="2" NCoef="0" IVar="-1" Cut="0.0000000000000000e+00" cType="1" res="7.1120134089142084e-04" rms="4.6087002754211426e-01" purity="5.0316154956817627e-01" nType="-99"/>
        </Node>
      </Node>
    </BinaryTree>
    <BinaryTree type="DecisionTree" boostWeight="1.0000000000000000e+00" itree="696">
      <Node pos="s" depth="0" NCoef="0" IVar="9" Cut="-3.3333334326744080e-01" cType="1" res="5.4511369671672583e-04" rms="4.3129152059555054e-01" purity="5.0025385618209839e-01" nType="0">
        <Node pos="l" depth="1" NCoef="0" IVar="9" Cut="-7.4603259563446045e-01" cType="1" res="5.8989953249692917e-03" rms="4.3277704715728760e-01" purity="4.7388166189193726e-01" nType="0">
          <Node pos="l" depth="2" NCoef="0" IVar="-1" Cut="0.0000000000000000e+00" cType="1" res="-1.8220056081190705e-03" rms="4.3983852863311768e-01" purity="3.7524202466011047e-01" nType="-99"/>
          <Node pos="r" depth="2" NCoef="0" IVar="-1" Cut="0.0000000000000000e+00" cType="1" res="2.4384118150919676e-03" rms="4.3091699481010437e-01" purity="4.9874007701873779e-01" nType="-99"/>
        </Node>
        <Node pos="r" depth="1" NCoef="0" IVar="10" Cut="4.1523811340332031e+01" cType="1" res="-8.1243086606264114e-04" rms="4.3090343475341797e-01" purity="5.0694090127944946e-01" nType="0">
          <Node pos="l" depth="2" NCoef="0" IVar="-1" Cut="0.0000000000000000e+00" cType="1" res="-4.5766332186758518e-04" rms="4.3208920955657959e-01" purity="5.1609128713607788e-01" nType="-99"/>
          <Node pos="r" depth="2" NCoef="0" IVar="-1" Cut="0.0000000000000000e+00" cType="1" res="1.3099606148898602e-03" rms="4.2348855733871460e-01" purity="4.5062252879142761e-01" nType="-99"/>
        </Node>
      </Node>
    </BinaryTree>
    <BinaryTree type="DecisionTree" boostWeight="1.0000000000000000e+00" itree="697">
      <Node pos="s" depth="0" NCoef="0" IVar="2" Cut="-4.5702400803565979e-01" cType="1" res="2.2158380597829819e-03" rms="4.3213739991188049e-01" purity="5.0239557027816772e-01" nType="0">
        <Node pos="l" depth="1" NCoef="0" IVar="3" Cut="-6.1904764175415039e-01" cType="1" res="-5.5391388013958931e-04" rms="4.2991438508033752e-01" purity="5.0422757863998413e-01" nType="0">
          <Node pos="l" depth="2" NCoef="0" IVar="-1" Cut="0.0000000000000000e+00" cType="1" res="2.7663679793477058e-03" rms="4.4709372520446777e-01" purity="5.1899677515029907e-01" nType="-99"/>
          <Node pos="r" depth="2" NCoef="0" IVar="-1" Cut="0.0000000000000000e+00" cType="1" res="-6.4532132819294930e-04" rms="4.2710709571838379e-01" purity="5.0189286470413208e-01" nType="-99"/>
        </Node>
        <Node pos="r" depth="1" NCoef="0" IVar="5" Cut="2.7319011688232422e+00" cType="1" res="3.3904658630490303e-03" rms="4.3307134509086609e-01" purity="5.0161862373352051e-01" nType="0">
          <Node pos="l" depth="2" NCoef="0" IVar="-1" Cut="0.0000000000000000e+00" cType="1" res="1.0656543308869004e-03" rms="4.3442237377166748e-01" purity="5.0191158056259155e-01" nType="-99"/>
          <Node pos="r" depth="2" NCoef="0" IVar="-1" Cut="0.0000000000000000e+00" cType="1" res="-1.2397191021591425e-03" rms="4.1700780391693115e-01" purity="4.9822217226028442e-01" nType="-99"/>
        </Node>
      </Node>
    </BinaryTree>
    <BinaryTree type="DecisionTree" boostWeight="1.0000000000000000e+00" itree="698">
      <Node pos="s" depth="0" NCoef="0" IVar="6" Cut="-5.5714287757873535e+00" cType="1" res="3.8146099541336298e-04" rms="4.3184569478034973e-01" purity="4.9938032031059265e-01" nType="0">
        <Node pos="l" depth="1" NCoef="0" IVar="-1" Cut="0.0000000000000000e+00" cType="1" res="3.5079065710306168e-03" rms="4.1600245237350464e-01" purity="4.5801258087158203e-01" nType="-99"/>
        <Node pos="r" depth="1" NCoef="0" IVar="4" Cut="7.7536869049072266e-01" cType="1" res="-3.9908691542223096e-04" rms="4.3283888697624207e-01" purity="5.0205606222152710e-01" nType="0">
          <Node pos="l" depth="2" NCoef="0" IVar="-1" Cut="0.0000000000000000e+00" cType="1" res="-8.5130828665569425e-04" rms="4.2622825503349304e-01" purity="3.3166798949241638e-01" nType="-99"/>
          <Node pos="r" depth="2" NCoef="0" IVar="-1" Cut="0.0000000000000000e+00" cType="1" res="5.2327942103147507e-04" rms="4.3867900967597961e-01" purity="6.5514349937438965e-01" nType="-99"/>
        </Node>
      </Node>
    </BinaryTree>
    <BinaryTree type="DecisionTree" boostWeight="1.0000000000000000e+00" itree="699">
      <Node pos="s" depth="0" NCoef="0" IVar="7" Cut="9.8112993240356445e+00" cType="1" res="-7.3264579987153411e-04" rms="4.3248978257179260e-01" purity="5.0150030851364136e-01" nType="0">
        <Node pos="l" depth="1" NCoef="0" IVar="6" Cut="4.5238094329833984e+00" cType="1" res="-1.2179480399936438e-03" rms="4.3369996547698975e-01" purity="4.9186918139457703e-01" nType="0">
          <Node pos="l" depth="2" NCoef="0" IVar="-1" Cut="0.0000000000000000e+00" cType="1" res="-5.6242768187075853e-04" rms="4.3488034605979919e-01" purity="4.9637076258659363e-01" nType="-99"/>
          <Node pos="r" depth="2" NCoef="0" IVar="-1" Cut="0.0000000000000000e+00" cType="1" res="1.8349681049585342e-03" rms="4.2351210117340088e-01" purity="4.5382726192474365e-01" nType="-99"/>
        </Node>
        <Node pos="r" depth="1" NCoef="0" IVar="-1" Cut="0.0000000000000000e+00" cType="1" res="2.7977821882814169e-03" rms="4.0585851669311523e-01" purity="7.0560985803604126e-01" nType="-99"/>
      </Node>
    </BinaryTree>
    <BinaryTree type="DecisionTree" boostWeight="1.0000000000000000e+00" itree="700">
      <Node pos="s" depth="0" NCoef="0" IVar="3" Cut="-6.1904764175415039e-01" cType="1" res="-1.4780604396946728e-04" rms="4.3082132935523987e-01" purity="5.0042015314102173e-01" nType="0">
        <Node pos="l" depth="1" NCoef="0" IVar="10" Cut="4.7142858505249023e+00" cType="1" res="-1.4098937623202801e-02" rms="4.5011356472969055e-01" purity="4.8792654275894165e-01" nType="0">
          <Node pos="l" depth="2" NCoef="0" IVar="-1" Cut="0.0000000000000000e+00" cType="1" res="-2.1859293337911367e-03" rms="4.6245175600051880e-01" purity="4.6211907267570496e-01" nType="-99"/>
          <Node pos="r" depth="2" NCoef="0" IVar="-1" Cut="0.0000000000000000e+00" cType="1" res="-4.5430548489093781e-03" rms="4.4060224294662476e-01" purity="5.0727844238281250e-01" nType="-99"/>
        </Node>
        <Node pos="r" depth="1" NCoef="0" IVar="10" Cut="4.3904762268066406e+01" cType="1" res="1.1426912387832999e-03" rms="4.2897000908851624e-01" purity="5.0157576799392700e-01" nType="0">
          <Node pos="l" depth="2" NCoef="0" IVar="-1" Cut="0.0000000000000000e+00" cType="1" res="3.8126367144286633e-05" rms="4.2967510223388672e-01" purity="5.0911605358123779e-01" nType="-99"/>
          <Node pos="r" depth="2" NCoef="0" IVar="-1" Cut="0.0000000000000000e+00" cType="1" res="2.4202312342822552e-03" rms="4.2337712645530701e-01" purity="4.4304975867271423e-01" nType="-99"/>
        </Node>
      </Node>
    </BinaryTree>
    <BinaryTree type="DecisionTree" boostWeight="1.0000000000000000e+00" itree="701">
      <Node pos="s" depth="0" NCoef="0" IVar="8" Cut="-6.3515365123748779e-01" cType="1" res="1.0650439653545618e-03" rms="4.3168225884437561e-01" purity="5.0163942575454712e-01" nType="0">
        <Node pos="l" depth="1" NCoef="0" IVar="4" Cut="5.7302868366241455e-01" cType="1" res="-3.3040679991245270e-03" rms="4.2618972063064575e-01" purity="5.7244807481765747e-01" nType="0">
          <Node pos="l" depth="2" NCoef="0" IVar="-1" Cut="0.0000000000000000e+00" cType="1" res="-6.2525649555027485e-03" rms="3.4327465295791626e-01" purity="1.6025030612945557e-01" nType="-99"/>
          <Node pos="r" depth="2" NCoef="0" IVar="-1" Cut="0.0000000000000000e+00" cType="1" res="-2.1690978610422462e-04" rms="4.4060900807380676e-01" purity="6.5343737602233887e-01" nType="-99"/>
        </Node>
        <Node pos="r" depth="1" NCoef="0" IVar="7" Cut="7.6403403282165527e+00" cType="1" res="2.4168614763766527e-03" rms="4.3335863947868347e-01" purity="4.7973096370697021e-01" nType="0">
          <Node pos="l" depth="2" NCoef="0" IVar="-1" Cut="0.0000000000000000e+00" cType="1" res="3.3431241172365844e-04" rms="4.3524983525276184e-01" purity="4.6553969383239746e-01" nType="-99"/>
          <Node pos="r" depth="2" NCoef="0" IVar="-1" Cut="0.0000000000000000e+00" cType="1" res="5.1303273066878319e-03" rms="4.0619730949401855e-01" purity="6.7447084188461304e-01" nType="-99"/>
        </Node>
      </Node>
    </BinaryTree>
    <BinaryTree type="DecisionTree" boostWeight="1.0000000000000000e+00" itree="702">
      <Node pos="s" depth="0" NCoef="0" IVar="8" Cut="6.2378865480422974e-01" cType="1" res="-4.1792020056163892e-05" rms="4.3179610371589661e-01" purity="4.9955391883850098e-01" nType="0">
        <Node pos="l" depth="1" NCoef="0" IVar="5" Cut="9.2284566164016724e-01" cType="1" res="-1.7458208603784442e-03" rms="4.3472820520401001e-01" purity="4.7407555580139160e-01" nType="0">
          <Node pos="l" depth="2" NCoef="0" IVar="-1" Cut="0.0000000000000000e+00" cType="1" res="-1.5514735132455826e-03" rms="4.5007592439651489e-01" purity="4.7978356480598450e-01" nType="-99"/>
          <Node pos="r" depth="2" NCoef="0" IVar="-1" Cut="0.0000000000000000e+00" cType="1" res="3.1130757997743785e-04" rms="4.2467886209487915e-01" purity="4.7045433521270752e-01" nType="-99"/>
        </Node>
        <Node pos="r" depth="1" NCoef="0" IVar="4" Cut="6.2226903438568115e-01" cType="1" res="5.2771712653338909e-03" rms="4.2246875166893005e-01" purity="5.7908219099044800e-01" nType="0">
          <Node pos="l" depth="2" NCoef="0" IVar="-1" Cut="0.0000000000000000e+00" cType="1" res="-4.2088334448635578e-03" rms="3.7379783391952515e-01" purity="2.0677632093429565e-01" nType="-99"/>
          <Node pos="r" depth="2" NCoef="0" IVar="-1" Cut="0.0000000000000000e+00" cType="1" res="2.4837336968630552e-03" rms="4.3352356553077698e-01" purity="6.7087066173553467e-01" nType="-99"/>
        </Node>
      </Node>
    </BinaryTree>
    <BinaryTree type="DecisionTree" boostWeight="1.0000000000000000e+00" itree="703">
      <Node pos="s" depth="0" NCoef="0" IVar="6" Cut="2.5714285373687744e+00" cType="1" res="-9.4979099230840802e-04" rms="4.3154922127723694e-01" purity="4.9948889017105103e-01" nType="0">
        <Node pos="l" depth="1" NCoef="0" IVar="10" Cut="9.8095235824584961e+00" cType="1" res="4.7897937474772334e-04" rms="4.3339380621910095e-01" purity="5.0608247518539429e-01" nType="0">
          <Node pos="l" depth="2" NCoef="0" IVar="-1" Cut="0.0000000000000000e+00" cType="1" res="1.0175516363233328e-03" rms="4.5485094189643860e-01" purity="5.2631837129592896e-01" nType="-99"/>
          <Node pos="r" depth="2" NCoef="0" IVar="-1" Cut="0.0000000000000000e+00" cType="1" res="-4.8390208394266665e-04" rms="4.2018207907676697e-01" purity="4.9412307143211365e-01" nType="-99"/>
        </Node>
        <Node pos="r" depth="1" NCoef="0" IVar="0" Cut="1.1944082975387573e+00" cType="1" res="-5.6697307154536247e-03" rms="4.2536467313766479e-01" purity="4.7770705819129944e-01" nType="0">
          <Node pos="l" depth="2" NCoef="0" IVar="-1" Cut="0.0000000000000000e+00" cType="1" res="-6.8011990515515208e-04" rms="4.3698593974113464e-01" purity="5.4296851158142090e-01" nType="-99"/>
          <Node pos="r" depth="2" NCoef="0" IVar="-1" Cut="0.0000000000000000e+00" cType="1" res="-5.8551938273012638e-03" rms="3.7556436657905579e-01" purity="2.1917264163494110e-01" nType="-99"/>
        </Node>
      </Node>
    </BinaryTree>
    <BinaryTree type="DecisionTree" boostWeight="1.0000000000000000e+00" itree="704">
      <Node pos="s" depth="0" NCoef="0" IVar="3" Cut="-8.0952382087707520e-01" cType="1" res="-3.0228350078687072e-04" rms="4.3112033605575562e-01" purity="4.9978229403495789e-01" nType="0">
        <Node pos="l" depth="1" NCoef="0" IVar="-1" Cut="0.0000000000000000e+00" cType="1" res="3.5443864762783051e-03" rms="4.5323586463928223e-01" purity="4.9966320395469666e-01" nType="-99"/>
        <Node pos="r" depth="1" NCoef="0" IVar="3" Cut="-1.2014019489288330e-01" cType="1" res="-9.9679373670369387e-04" rms="4.3006688356399536e-01" purity="4.9978771805763245e-01" nType="0">
          <Node pos="l" depth="2" NCoef="0" IVar="-1" Cut="0.0000000000000000e+00" cType="1" res="-1.2848614715039730e-03" rms="4.3091952800750732e-01" purity="5.0251656770706177e-01" nType="-99"/>
          <Node pos="r" depth="2" NCoef="0" IVar="-1" Cut="0.0000000000000000e+00" cType="1" res="2.9795031878165901e-04" rms="4.2957893013954163e-01" purity="4.9827516078948975e-01" nType="-99"/>
        </Node>
      </Node>
    </BinaryTree>
    <BinaryTree type="DecisionTree" boostWeight="1.0000000000000000e+00" itree="705">
      <Node pos="s" depth="0" NCoef="0" IVar="8" Cut="1.4565860033035278e+00" cType="1" res="1.1519019026309252e-03" rms="4.3197304010391235e-01" purity="5.0113391876220703e-01" nType="0">
        <Node pos="l" depth="1" NCoef="0" IVar="5" Cut="3.4063655138015747e-01" cType="1" res="2.0491769537329674e-03" rms="4.3329700827598572e-01" purity="4.8699772357940674e-01" nType="0">
          <Node pos="l" depth="2" NCoef="0" IVar="-1" Cut="0.0000000000000000e+00" cType="1" res="1.9472005078569055e-03" rms="4.5340096950531006e-01" purity="5.0024664402008057e-01" nType="-99"/>
          <Node pos="r" depth="2" NCoef="0" IVar="-1" Cut="0.0000000000000000e+00" cType="1" res="2.3501136456616223e-04" rms="4.2931389808654785e-01" purity="4.8445042967796326e-01" nType="-99"/>
        </Node>
        <Node pos="r" depth="1" NCoef="0" IVar="-1" Cut="0.0000000000000000e+00" cType="1" res="-2.7791168540716171e-03" rms="4.1570180654525757e-01" purity="6.6980057954788208e-01" nType="-99"/>
      </Node>
    </BinaryTree>
    <BinaryTree type="DecisionTree" boostWeight="1.0000000000000000e+00" itree="706">
      <Node pos="s" depth="0" NCoef="0" IVar="3" Cut="8.0952382087707520e-01" cType="1" res="-1.6532562440261245e-03" rms="4.3229517340660095e-01" purity="4.9743562936782837e-01" nType="0">
        <Node pos="l" depth="1" NCoef="0" IVar="8" Cut="-1.2043129205703735e+00" cType="1" res="-2.3964918218553066e-03" rms="4.3115702271461487e-01" purity="4.9707877635955811e-01" nType="0">
          <Node pos="l" depth="2" NCoef="0" IVar="-1" Cut="0.0000000000000000e+00" cType="1" res="-2.9147462919354439e-03" rms="4.2153137922286987e-01" purity="6.3138127326965332e-01" nType="-99"/>
          <Node pos="r" depth="2" NCoef="0" IVar="-1" Cut="0.0000000000000000e+00" cType="1" res="-3.6483193980529904e-04" rms="4.3236464262008667e-01" purity="4.7986567020416260e-01" nType="-99"/>
        </Node>
        <Node pos="r" depth="1" NCoef="0" IVar="-1" Cut="0.0000000000000000e+00" cType="1" res="3.5795199219137430e-03" rms="4.5695886015892029e-01" purity="5.0550675392150879e-01" nType="-99"/>
      </Node>
    </BinaryTree>
    <BinaryTree type="DecisionTree" boostWeight="1.0000000000000000e+00" itree="707">
      <Node pos="s" depth="0" NCoef="0" IVar="6" Cut="2.8571429848670959e-01" cType="1" res="1.2462610611692071e-03" rms="4.3106150627136230e-01" purity="5.0152164697647095e-01" nType="0">
        <Node pos="l" depth="1" NCoef="0" IVar="5" Cut="9.7081106901168823e-01" cType="1" res="-1.2611908605322242e-03" rms="4.3154782056808472e-01" purity="5.0272631645202637e-01" nType="0">
          <Node pos="l" depth="2" NCoef="0" IVar="-1" Cut="0.0000000000000000e+00" cType="1" res="-1.5444032615050673e-03" rms="4.4446408748626709e-01" purity="5.0354987382888794e-01" nType="-99"/>
          <Node pos="r" depth="2" NCoef="0" IVar="-1" Cut="0.0000000000000000e+00" cType="1" res="5.4895674111321568e-04" rms="4.2274412512779236e-01" purity="5.0218081474304199e-01" nType="-99"/>
        </Node>
        <Node pos="r" depth="1" NCoef="0" IVar="4" Cut="8.2348114252090454e-01" cType="1" res="4.3191812001168728e-03" rms="4.3044486641883850e-01" purity="5.0004529953002930e-01" nType="0">
          <Node pos="l" depth="2" NCoef="0" IVar="-1" Cut="0.0000000000000000e+00" cType="1" res="2.4203001521527767e-03" rms="4.2830145359039307e-01" purity="3.6632168292999268e-01" nType="-99"/>
          <Node pos="r" depth="2" NCoef="0" IVar="-1" Cut="0.0000000000000000e+00" cType="1" res="-3.8094236515462399e-04" rms="4.3303948640823364e-01" purity="6.6718202829360962e-01" nType="-99"/>
        </Node>
      </Node>
    </BinaryTree>
    <BinaryTree type="DecisionTree" boostWeight="1.0000000000000000e+00" itree="708">
      <Node pos="s" depth="0" NCoef="0" IVar="10" Cut="3.5523811340332031e+01" cType="1" res="2.0455322228372097e-03" rms="4.3122529983520508e-01" purity="5.0161617994308472e-01" nType="0">
        <Node pos="l" depth="1" NCoef="0" IVar="10" Cut="5.1428570747375488e+00" cType="1" res="8.4781995974481106e-04" rms="4.3390676379203796e-01" purity="5.0658214092254639e-01" nType="0">
          <Node pos="l" depth="2" NCoef="0" IVar="-1" Cut="0.0000000000000000e+00" cType="1" res="2.7198879979550838e-03" rms="4.5755982398986816e-01" purity="5.1441437005996704e-01" nType="-99"/>
          <Node pos="r" depth="2" NCoef="0" IVar="-1" Cut="0.0000000000000000e+00" cType="1" res="-5.0440971972420812e-04" rms="4.2771571874618530e-01" purity="5.0461423397064209e-01" nType="-99"/>
        </Node>
        <Node pos="r" depth="1" NCoef="0" IVar="0" Cut="1.0491489171981812e+00" cType="1" res="7.9736616462469101e-03" rms="4.1764929890632629e-01" purity="4.7703725099563599e-01" nType="0">
          <Node pos="l" depth="2" NCoef="0" IVar="-1" Cut="0.0000000000000000e+00" cType="1" res="4.9486621282994747e-03" rms="4.3943905830383301e-01" purity="5.9238398075103760e-01" nType="-99"/>
          <Node pos="r" depth="2" NCoef="0" IVar="-1" Cut="0.0000000000000000e+00" cType="1" res="-7.8894523903727531e-03" rms="3.5337266325950623e-01" purity="1.7870037257671356e-01" nType="-99"/>
        </Node>
      </Node>
    </BinaryTree>
    <BinaryTree type="DecisionTree" boostWeight="1.0000000000000000e+00" itree="709">
      <Node pos="s" depth="0" NCoef="0" IVar="3" Cut="-8.0952382087707520e-01" cType="1" res="3.8737991417292506e-05" rms="4.3212407827377319e-01" purity="5.0007826089859009e-01" nType="0">
        <Node pos="l" depth="1" NCoef="0" IVar="-1" Cut="0.0000000000000000e+00" cType="1" res="-2.5929166004061699e-03" rms="4.5669645071029663e-01" purity="4.7350603342056274e-01" nType="-99"/>
        <Node pos="r" depth="1" NCoef="0" IVar="9" Cut="-3.3333334326744080e-01" cType="1" res="5.3720589494332671e-04" rms="4.3096140027046204e-01" purity="5.0129216909408569e-01" nType="0">
          <Node pos="l" depth="2" NCoef="0" IVar="-1" Cut="0.0000000000000000e+00" cType="1" res="1.3496588217094541e-03" rms="4.3323752284049988e-01" purity="4.7491014003753662e-01" nType="-99"/>
          <Node pos="r" depth="2" NCoef="0" IVar="-1" Cut="0.0000000000000000e+00" cType="1" res="-1.5381227422039956e-04" rms="4.3039545416831970e-01" purity="5.0774562358856201e-01" nType="-99"/>
        </Node>
      </Node>
    </BinaryTree>
    <BinaryTree type="DecisionTree" boostWeight="1.0000000000000000e+00" itree="710">
      <Node pos="s" depth="0" NCoef="0" IVar="3" Cut="4.7619048506021500e-02" cType="1" res="-3.6416211514733732e-04" rms="4.3150517344474792e-01" purity="4.9999251961708069e-01" nType="0">
        <Node pos="l" depth="1" NCoef="0" IVar="6" Cut="4.7142858505249023e+00" cType="1" res="1.9668838940560818e-03" rms="4.3103900551795959e-01" purity="5.0081717967987061e-01" nType="0">
          <Node pos="l" depth="2" NCoef="0" IVar="-1" Cut="0.0000000000000000e+00" cType="1" res="2.2040754265617579e-04" rms="4.3217876553535461e-01" purity="5.0437289476394653e-01" nType="-99"/>
          <Node pos="r" depth="2" NCoef="0" IVar="-1" Cut="0.0000000000000000e+00" cType="1" res="2.9873242601752281e-03" rms="4.2197954654693604e-01" purity="4.7320544719696045e-01" nType="-99"/>
        </Node>
        <Node pos="r" depth="1" NCoef="0" IVar="4" Cut="8.6449486017227173e-01" cType="1" res="-3.2448659185320139e-03" rms="4.3206316232681274e-01" purity="4.9897345900535583e-01" nType="0">
          <Node pos="l" depth="2" NCoef="0" IVar="-1" Cut="0.0000000000000000e+00" cType="1" res="-1.7873676260933280e-03" rms="4.3235594034194946e-01" purity="3.8069999217987061e-01" nType="-99"/>
          <Node pos="r" depth="2" NCoef="0" IVar="-1" Cut="0.0000000000000000e+00" cType="1" res="6.2930915737524629e-04" rms="4.3153622746467590e-01" purity="6.8751925230026245e-01" nType="-99"/>
        </Node>
      </Node>
    </BinaryTree>
    <BinaryTree type="DecisionTree" boostWeight="1.0000000000000000e+00" itree="711">
      <Node pos="s" depth="0" NCoef="0" IVar="5" Cut="3.0690398812294006e-01" cType="1" res="1.4284348580986261e-03" rms="4.3189123272895813e-01" purity="5.0322234630584717e-01" nType="0">
        <Node pos="l" depth="1" NCoef="0" IVar="4" Cut="7.7880120277404785e-01" cType="1" res="-8.1860311329364777e-03" rms="4.5209419727325439e-01" purity="4.9234846234321594e-01" nType="0">
          <Node pos="l" depth="2" NCoef="0" IVar="-1" Cut="0.0000000000000000e+00" cType="1" res="-5.8656455948948860e-03" rms="4.4369161128997803e-01" purity="3.1768959760665894e-01" nType="-99"/>
          <Node pos="r" depth="2" NCoef="0" IVar="-1" Cut="0.0000000000000000e+00" cType="1" res="-7.8765689977444708e-05" rms="4.5620778203010559e-01" purity="5.8322542905807495e-01" nType="-99"/>
        </Node>
        <Node pos="r" depth="1" NCoef="0" IVar="7" Cut="7.5220074653625488e+00" cType="1" res="3.0417393427342176e-03" rms="4.2838668823242188e-01" purity="5.0504690408706665e-01" nType="0">
          <Node pos="l" depth="2" NCoef="0" IVar="-1" Cut="0.0000000000000000e+00" cType="1" res="1.1501444969326258e-03" rms="4.3048134446144104e-01" purity="4.8563465476036072e-01" nType="-99"/>
          <Node pos="r" depth="2" NCoef="0" IVar="-1" Cut="0.0000000000000000e+00" cType="1" res="-1.9171604653820395e-03" rms="4.1165563464164734e-01" purity="6.5555781126022339e-01" nType="-99"/>
        </Node>
      </Node>
    </BinaryTree>
    <BinaryTree type="DecisionTree" boostWeight="1.0000000000000000e+00" itree="712">
      <Node pos="s" depth="0" NCoef="0" IVar="7" Cut="7.3071408271789551e+00" cType="1" res="-1.1982956202700734e-03" rms="4.3108969926834106e-01" purity="4.9966904520988464e-01" nType="0">
        <Node pos="l" depth="1" NCoef="0" IVar="8" Cut="-6.2401527166366577e-01" cType="1" res="-2.4789294693619013e-03" rms="4.3374937772750854e-01" purity="4.7978031635284424e-01" nType="0">
          <Node pos="l" depth="2" NCoef="0" IVar="-1" Cut="0.0000000000000000e+00" cType="1" res="-2.1487162448465824e-03" rms="4.2948406934738159e-01" purity="5.3965973854064941e-01" nType="-99"/>
          <Node pos="r" depth="2" NCoef="0" IVar="-1" Cut="0.0000000000000000e+00" cType="1" res="-2.5074346922338009e-04" rms="4.3490880727767944e-01" purity="4.6322798728942871e-01" nType="-99"/>
        </Node>
        <Node pos="r" depth="1" NCoef="0" IVar="8" Cut="1.2770662307739258e+00" cType="1" res="9.7494479268789291e-03" rms="4.0748086571693420e-01" purity="6.6969174146652222e-01" nType="0">
          <Node pos="l" depth="2" NCoef="0" IVar="-1" Cut="0.0000000000000000e+00" cType="1" res="4.4545372948050499e-03" rms="4.0953835844993591e-01" purity="6.5873736143112183e-01" nType="-99"/>
          <Node pos="r" depth="2" NCoef="0" IVar="-1" Cut="0.0000000000000000e+00" cType="1" res="-1.6135703481268138e-04" rms="4.0382501482963562e-01" purity="6.8791413307189941e-01" nType="-99"/>
        </Node>
      </Node>
    </BinaryTree>
    <BinaryTree type="DecisionTree" boostWeight="1.0000000000000000e+00" itree="713">
      <Node pos="s" depth="0" NCoef="0" IVar="0" Cut="6.1076790094375610e-01" cType="1" res="-4.3484297930262983e-04" rms="4.3132233619689941e-01" purity="4.9963945150375366e-01" nType="0">
        <Node pos="l" depth="1" NCoef="0" IVar="4" Cut="8.6909186840057373e-01" cType="1" res="-8.6654964834451675e-03" rms="4.4069412350654602e-01" purity="6.6446822881698608e-01" nType="0">
          <Node pos="l" depth="2" NCoef="0" IVar="-1" Cut="0.0000000000000000e+00" cType="1" res="-1.1900696699740365e-04" rms="4.6891355514526367e-01" purity="5.6869632005691528e-01" nType="-99"/>
          <Node pos="r" depth="2" NCoef="0" IVar="-1" Cut="0.0000000000000000e+00" cType="1" res="-4.7904783859848976e-03" rms="4.1376808285713196e-01" purity="7.4989008903503418e-01" nType="-99"/>
        </Node>
        <Node pos="r" depth="1" NCoef="0" IVar="4" Cut="9.4692862033843994e-01" cType="1" res="3.1372447847388685e-04" rms="4.3045204877853394e-01" purity="4.8464852571487427e-01" nType="0">
          <Node pos="l" depth="2" NCoef="0" IVar="-1" Cut="0.0000000000000000e+00" cType="1" res="-2.0518597739282995e-04" rms="4.3288627266883850e-01" purity="4.3847310543060303e-01" nType="-99"/>
          <Node pos="r" depth="2" NCoef="0" IVar="-1" Cut="0.0000000000000000e+00" cType="1" res="1.7516248626634479e-03" rms="4.1684257984161377e-01" purity="7.3708391189575195e-01" nType="-99"/>
        </Node>
      </Node>
    </BinaryTree>
    <BinaryTree type="DecisionTree" boostWeight="1.0000000000000000e+00" itree="714">
      <Node pos="s" depth="0" NCoef="0" IVar="2" Cut="-1.9145736694335938e+00" cType="1" res="6.8197085056453943e-04" rms="4.3248847126960754e-01" purity="5.0065129995346069e-01" nType="0">
        <Node pos="l" depth="1" NCoef="0" IVar="-1" Cut="0.0000000000000000e+00" cType="1" res="-4.6323020942509174e-03" rms="4.2143130302429199e-01" purity="4.8607650399208069e-01" nType="-99"/>
        <Node pos="r" depth="1" NCoef="0" IVar="2" Cut="2.1457552909851074e+00" cType="1" res="1.5171924605965614e-03" rms="4.3300357460975647e-01" purity="5.0136268138885498e-01" nType="0">
          <Node pos="l" depth="2" NCoef="0" IVar="-1" Cut="0.0000000000000000e+00" cType="1" res="2.6939241797663271e-04" rms="4.3361815810203552e-01" purity="5.0079476833343506e-01" nType="-99"/>
          <Node pos="r" depth="2" NCoef="0" IVar="-1" Cut="0.0000000000000000e+00" cType="1" res="3.8999684620648623e-03" rms="4.1721749305725098e-01" purity="5.1550304889678955e-01" nType="-99"/>
        </Node>
      </Node>
    </BinaryTree>
    <BinaryTree type="DecisionTree" boostWeight="1.0000000000000000e+00" itree="715">
      <Node pos="s" depth="0" NCoef="0" IVar="2" Cut="1.5670368075370789e-01" cType="1" res="-8.7401777273043990e-04" rms="4.3141633272171021e-01" purity="4.9981564283370972e-01" nType="0">
        <Node pos="l" depth="1" NCoef="0" IVar="4" Cut="6.5956133604049683e-01" cType="1" res="1.5038870042189956e-03" rms="4.3200102448463440e-01" purity="4.9938812851905823e-01" nType="0">
          <Node pos="l" depth="2" NCoef="0" IVar="-1" Cut="0.0000000000000000e+00" cType="1" res="1.6457310412079096e-03" rms="4.0981891751289368e-01" purity="2.6961645483970642e-01" nType="-99"/>
          <Node pos="r" depth="2" NCoef="0" IVar="-1" Cut="0.0000000000000000e+00" cType="1" res="-1.2594289728440344e-04" rms="4.4276806712150574e-01" purity="6.1543124914169312e-01" nType="-99"/>
        </Node>
        <Node pos="r" depth="1" NCoef="0" IVar="6" Cut="-2.7142856121063232e+00" cType="1" res="-4.1941907256841660e-03" rms="4.3057668209075928e-01" purity="5.0041258335113525e-01" nType="0">
          <Node pos="l" depth="2" NCoef="0" IVar="-1" Cut="0.0000000000000000e+00" cType="1" res="1.3281034771353006e-03" rms="4.2250072956085205e-01" purity="4.9095669388771057e-01" nType="-99"/>
          <Node pos="r" depth="2" NCoef="0" IVar="-1" Cut="0.0000000000000000e+00" cType="1" res="-1.8057610141113400e-03" rms="4.3284842371940613e-01" purity="5.0314646959304810e-01" nType="-99"/>
        </Node>
      </Node>
    </BinaryTree>
    <BinaryTree type="DecisionTree" boostWeight="1.0000000000000000e+00" itree="716">
      <Node pos="s" depth="0" NCoef="0" IVar="5" Cut="1.6705849766731262e-01" cType="1" res="9.2246453277766705e-04" rms="4.3117022514343262e-01" purity="5.0292587280273438e-01" nType="0">
        <Node pos="l" depth="1" NCoef="0" IVar="10" Cut="3.3333332538604736e+00" cType="1" res="7.5589013285934925e-03" rms="4.5494884252548218e-01" purity="5.0041776895523071e-01" nType="0">
          <Node pos="l" depth="2" NCoef="0" IVar="-1" Cut="0.0000000000000000e+00" cType="1" res="-1.1840704828500748e-03" rms="4.6342334151268005e-01" purity="4.4230833649635315e-01" nType="-99"/>
          <Node pos="r" depth="2" NCoef="0" IVar="-1" Cut="0.0000000000000000e+00" cType="1" res="5.2888887003064156e-03" rms="4.4498926401138306e-01" purity="5.6454223394393921e-01" nType="-99"/>
        </Node>
        <Node pos="r" depth="1" NCoef="0" IVar="9" Cut="-4.2857143282890320e-01" cType="1" res="4.2595485865604132e-05" rms="4.2791071534156799e-01" purity="5.0325846672058105e-01" nType="0">
          <Node pos="l" depth="2" NCoef="0" IVar="-1" Cut="0.0000000000000000e+00" cType="1" res="-2.0147915929555893e-03" rms="4.2844212055206299e-01" purity="4.5245778560638428e-01" nType="-99"/>
          <Node pos="r" depth="2" NCoef="0" IVar="-1" Cut="0.0000000000000000e+00" cType="1" res="3.1116625177673995e-04" rms="4.2782047390937805e-01" purity="5.1080852746963501e-01" nType="-99"/>
        </Node>
      </Node>
    </BinaryTree>
    <BinaryTree type="DecisionTree" boostWeight="1.0000000000000000e+00" itree="717">
      <Node pos="s" depth="0" NCoef="0" IVar="9" Cut="5.2380955219268799e-01" cType="1" res="1.0415621800348163e-03" rms="4.3205162882804871e-01" purity="5.0196939706802368e-01" nType="0">
        <Node pos="l" depth="1" NCoef="0" IVar="2" Cut="-1.0256971418857574e-01" cType="1" res="2.1429166663438082e-03" rms="4.3108060956001282e-01" purity="5.0959521532058716e-01" nType="0">
          <Node pos="l" depth="2" NCoef="0" IVar="-1" Cut="0.0000000000000000e+00" cType="1" res="1.3429415412247181e-03" rms="4.3008154630661011e-01" purity="5.1368832588195801e-01" nType="-99"/>
          <Node pos="r" depth="2" NCoef="0" IVar="-1" Cut="0.0000000000000000e+00" cType="1" res="-2.2834947230876423e-05" rms="4.3184241652488708e-01" purity="5.0641357898712158e-01" nType="-99"/>
        </Node>
        <Node pos="r" depth="1" NCoef="0" IVar="4" Cut="6.9806087017059326e-01" cType="1" res="-8.3976592868566513e-03" rms="4.4017305970191956e-01" purity="4.3661186099052429e-01" nType="0">
          <Node pos="l" depth="2" NCoef="0" IVar="-1" Cut="0.0000000000000000e+00" cType="1" res="1.2470306828618050e-03" rms="4.1140264272689819e-01" purity="2.5985419750213623e-01" nType="-99"/>
          <Node pos="r" depth="2" NCoef="0" IVar="-1" Cut="0.0000000000000000e+00" cType="1" res="-4.0935045108199120e-03" rms="4.5926558971405029e-01" purity="5.6187689304351807e-01" nType="-99"/>
        </Node>
      </Node>
    </BinaryTree>
    <BinaryTree type="DecisionTree" boostWeight="1.0000000000000000e+00" itree="718">
      <Node pos="s" depth="0" NCoef="0" IVar="10" Cut="1.8761905670166016e+01" cType="1" res="-9.9663925357162952e-04" rms="4.3196561932563782e-01" purity="4.9987578392028809e-01" nType="0">
        <Node pos="l" depth="1" NCoef="0" IVar="4" Cut="4.3357238173484802e-01" cType="1" res="-3.3805896528065205e-03" rms="4.4399756193161011e-01" purity="5.0360810756683350e-01" nType="0">
          <Node pos="l" depth="2" NCoef="0" IVar="-1" Cut="0.0000000000000000e+00" cType="1" res="6.6141639836132526e-03" rms="3.5685852169990540e-01" purity="1.5703086555004120e-01" nType="-99"/>
          <Node pos="r" depth="2" NCoef="0" IVar="-1" Cut="0.0000000000000000e+00" cType="1" res="-1.3726453762501478e-03" rms="4.5347541570663452e-01" purity="5.4609555006027222e-01" nType="-99"/>
        </Node>
        <Node pos="r" depth="1" NCoef="0" IVar="0" Cut="7.5296217203140259e-01" cType="1" res="2.2624114062637091e-03" rms="4.1493073105812073e-01" purity="4.9477344751358032e-01" nType="0">
          <Node pos="l" depth="2" NCoef="0" IVar="-1" Cut="0.0000000000000000e+00" cType="1" res="5.8309640735387802e-03" rms="3.9026176929473877e-01" purity="7.3739290237426758e-01" nType="-99"/>
          <Node pos="r" depth="2" NCoef="0" IVar="-1" Cut="0.0000000000000000e+00" cType="1" res="-1.9884026551153511e-04" rms="4.1911667585372925e-01" purity="4.5141762495040894e-01" nType="-99"/>
        </Node>
      </Node>
    </BinaryTree>
    <BinaryTree type="DecisionTree" boostWeight="1.0000000000000000e+00" itree="719">
      <Node pos="s" depth="0" NCoef="0" IVar="0" Cut="1.1777456998825073e+00" cType="1" res="2.4086732883006334e-03" rms="4.3235674500465393e-01" purity="5.0281298160552979e-01" nType="0">
        <Node pos="l" depth="1" NCoef="0" IVar="10" Cut="1.0380952835083008e+01" cType="1" res="4.6083988854661584e-04" rms="4.3810293078422546e-01" purity="5.7213568687438965e-01" nType="0">
          <Node pos="l" depth="2" NCoef="0" IVar="-1" Cut="0.0000000000000000e+00" cType="1" res="-1.3455946464091539e-03" rms="4.5763590931892395e-01" purity="6.0137718915939331e-01" nType="-99"/>
          <Node pos="r" depth="2" NCoef="0" IVar="-1" Cut="0.0000000000000000e+00" cType="1" res="8.0878310836851597e-04" rms="4.2945477366447449e-01" purity="5.5963343381881714e-01" nType="-99"/>
        </Node>
        <Node pos="r" depth="1" NCoef="0" IVar="10" Cut="2.2428571701049805e+01" cType="1" res="7.9298047348856926e-03" rms="4.1558811068534851e-01" purity="3.0631756782531738e-01" nType="0">
          <Node pos="l" depth="2" NCoef="0" IVar="-1" Cut="0.0000000000000000e+00" cType="1" res="3.4818996209651232e-03" rms="4.3310612440109253e-01" purity="3.4514763951301575e-01" nType="-99"/>
          <Node pos="r" depth="2" NCoef="0" IVar="-1" Cut="0.0000000000000000e+00" cType="1" res="-6.0243331827223301e-03" rms="3.3117458224296570e-01" purity="1.4327672123908997e-01" nType="-99"/>
        </Node>
      </Node>
    </BinaryTree>
    <BinaryTree type="DecisionTree" boostWeight="1.0000000000000000e+00" itree="720">
      <Node pos="s" depth="0" NCoef="0" IVar="6" Cut="5.2857141494750977e+00" cType="1" res="-2.7662556385621428e-04" rms="4.3165889382362366e-01" purity="5.0091433525085449e-01" nType="0">
        <Node pos="l" depth="1" NCoef="0" IVar="8" Cut="1.7042640447616577e+00" cType="1" res="4.5845613931305707e-04" rms="4.3279251456260681e-01" purity="5.0490170717239380e-01" nType="0">
          <Node pos="l" depth="2" NCoef="0" IVar="-1" Cut="0.0000000000000000e+00" cType="1" res="-4.6236669732024893e-05" rms="4.3432655930519104e-01" purity="4.9300915002822876e-01" nType="-99"/>
          <Node pos="r" depth="2" NCoef="0" IVar="-1" Cut="0.0000000000000000e+00" cType="1" res="3.6661280319094658e-03" rms="4.0294316411018372e-01" purity="7.2661393880844116e-01" nType="-99"/>
        </Node>
        <Node pos="r" depth="1" NCoef="0" IVar="0" Cut="9.5863479375839233e-01" cType="1" res="-9.5570906996726990e-03" rms="4.1697046160697937e-01" purity="4.5057302713394165e-01" nType="0">
          <Node pos="l" depth="2" NCoef="0" IVar="-1" Cut="0.0000000000000000e+00" cType="1" res="-1.0138181824004278e-04" rms="4.3237185478210449e-01" purity="6.0930818319320679e-01" nType="-99"/>
          <Node pos="r" depth="2" NCoef="0" IVar="-1" Cut="0.0000000000000000e+00" cType="1" res="-5.7443217374384403e-03" rms="3.9960327744483948e-01" purity="2.8074437379837036e-01" nType="-99"/>
        </Node>
      </Node>
    </BinaryTree>
    <BinaryTree type="DecisionTree" boostWeight="1.0000000000000000e+00" itree="721">
      <Node pos="s" depth="0" NCoef="0" IVar="4" Cut="9.0511381626129150e-01" cType="1" res="1.1282897321507335e-03" rms="4.3232807517051697e-01" purity="5.0087982416152954e-01" nType="0">
        <Node pos="l" depth="1" NCoef="0" IVar="8" Cut="-3.5207900404930115e-01" cType="1" res="3.1391375232487917e-03" rms="4.3467089533805847e-01" purity="4.1520848870277405e-01" nType="0">
          <Node pos="l" depth="2" NCoef="0" IVar="-1" Cut="0.0000000000000000e+00" cType="1" res="2.3467207793146372e-03" rms="4.3716704845428467e-01" purity="4.5818701386451721e-01" nType="-99"/>
          <Node pos="r" depth="2" NCoef="0" IVar="-1" Cut="0.0000000000000000e+00" cType="1" res="2.8174619728815742e-05" rms="4.3334400653839111e-01" purity="3.9299547672271729e-01" nType="-99"/>
        </Node>
        <Node pos="r" depth="1" NCoef="0" IVar="4" Cut="9.6502357721328735e-01" cType="1" res="-3.7665443960577250e-03" rms="4.2653179168701172e-01" purity="7.0942217111587524e-01" nType="0">
          <Node pos="l" depth="2" NCoef="0" IVar="-1" Cut="0.0000000000000000e+00" cType="1" res="-3.0062762089073658e-03" rms="4.3589612841606140e-01" purity="6.8798297643661499e-01" nType="-99"/>
          <Node pos="r" depth="2" NCoef="0" IVar="-1" Cut="0.0000000000000000e+00" cType="1" res="2.1475160028785467e-03" rms="4.1162899136543274e-01" purity="7.4200683832168579e-01" nType="-99"/>
        </Node>
      </Node>
    </BinaryTree>
    <BinaryTree type="DecisionTree" boostWeight="1.0000000000000000e+00" itree="722">
      <Node pos="s" depth="0" NCoef="0" IVar="0" Cut="1.7578681707382202e+00" cType="1" res="-9.1928447363898158e-04" rms="4.3160244822502136e-01" purity="5.0011152029037476e-01" nType="0">
        <Node pos="l" depth="1" NCoef="0" IVar="0" Cut="1.5085773468017578e+00" cType="1" res="-1.8794473726302385e-04" rms="4.3363901972770691e-01" purity="5.1351153850555420e-01" nType="0">
          <Node pos="l" depth="2" NCoef="0" IVar="-1" Cut="0.0000000000000000e+00" cType="1" res="1.5114968118723482e-04" rms="4.3516236543655396e-01" purity="5.2522647380828857e-01" nType="-99"/>
          <Node pos="r" depth="2" NCoef="0" IVar="-1" Cut="0.0000000000000000e+00" cType="1" res="-4.4940616935491562e-03" rms="4.0094095468521118e-01" purity="2.7421364188194275e-01" nType="-99"/>
        </Node>
        <Node pos="r" depth="1" NCoef="0" IVar="-1" Cut="0.0000000000000000e+00" cType="1" res="-4.6390914358198643e-03" rms="3.8812279701232910e-01" purity="2.3080267012119293e-01" nType="-99"/>
      </Node>
    </BinaryTree>
    <BinaryTree type="DecisionTree" boostWeight="1.0000000000000000e+00" itree="723">
      <Node pos="s" depth="0" NCoef="0" IVar="2" Cut="-1.1637524366378784e+00" cType="1" res="-1.1210066440980881e-04" rms="4.3111830949783325e-01" purity="5.0120097398757935e-01" nType="0">
        <Node pos="l" depth="1" NCoef="0" IVar="7" Cut="3.6788203716278076e+00" cType="1" res="-5.9825009666383266e-03" rms="4.2004093527793884e-01" purity="4.9604690074920654e-01" nType="0">
          <Node pos="l" depth="2" NCoef="0" IVar="-1" Cut="0.0000000000000000e+00" cType="1" res="-4.2943330481648445e-03" rms="4.2752346396446228e-01" purity="3.9029362797737122e-01" nType="-99"/>
          <Node pos="r" depth="2" NCoef="0" IVar="-1" Cut="0.0000000000000000e+00" cType="1" res="7.9516280675306916e-04" rms="4.1295531392097473e-01" purity="5.9175080060958862e-01" nType="-99"/>
        </Node>
        <Node pos="r" depth="1" NCoef="0" IVar="5" Cut="9.1114413738250732e-01" cType="1" res="6.8254960933700204e-04" rms="4.3258988857269287e-01" purity="5.0189864635467529e-01" nType="0">
          <Node pos="l" depth="2" NCoef="0" IVar="-1" Cut="0.0000000000000000e+00" cType="1" res="1.0178782977163792e-03" rms="4.4660302996635437e-01" purity="5.1204013824462891e-01" nType="-99"/>
          <Node pos="r" depth="2" NCoef="0" IVar="-1" Cut="0.0000000000000000e+00" cType="1" res="-3.7479080492630601e-04" rms="4.2393159866333008e-01" purity="4.9580335617065430e-01" nType="-99"/>
        </Node>
      </Node>
    </BinaryTree>
    <BinaryTree type="DecisionTree" boostWeight="1.0000000000000000e+00" itree="724">
      <Node pos="s" depth="0" NCoef="0" IVar="8" Cut="-1.6948710680007935e+00" cType="1" res="1.3921918580308557e-03" rms="4.3133473396301270e-01" purity="5.0249207019805908e-01" nType="0">
        <Node pos="l" depth="1" NCoef="0" IVar="-1" Cut="0.0000000000000000e+00" cType="1" res="-4.7952882014214993e-03" rms="4.1476982831954956e-01" purity="6.9216054677963257e-01" nType="-99"/>
        <Node pos="r" depth="1" NCoef="0" IVar="3" Cut="-8.0952382087707520e-01" cType="1" res="2.3534859064966440e-03" rms="4.3220195174217224e-01" purity="4.9211686849594116e-01" nType="0">
          <Node pos="l" depth="2" NCoef="0" IVar="-1" Cut="0.0000000000000000e+00" cType="1" res="-2.6911019813269377e-03" rms="4.5971527695655823e-01" purity="4.6671974658966064e-01" nType="-99"/>
          <Node pos="r" depth="2" NCoef="0" IVar="-1" Cut="0.0000000000000000e+00" cType="1" res="7.9753145109862089e-04" rms="4.3082737922668457e-01" purity="4.9333485960960388e-01" nType="-99"/>
        </Node>
      </Node>
    </BinaryTree>
    <BinaryTree type="DecisionTree" boostWeight="1.0000000000000000e+00" itree="725">
      <Node pos="s" depth="0" NCoef="0" IVar="5" Cut="3.3508896827697754e+00" cType="1" res="-2.0923791453242302e-03" rms="4.3093866109848022e-01" purity="4.9930977821350098e-01" nType="0">
        <Node pos="l" depth="1" NCoef="0" IVar="7" Cut="2.8278248310089111e+00" cType="1" res="-1.4913445338606834e-03" rms="4.3147462606430054e-01" purity="4.9823662638664246e-01" nType="0">
          <Node pos="l" depth="2" NCoef="0" IVar="-1" Cut="0.0000000000000000e+00" cType="1" res="-1.0832669213414192e-03" rms="4.4125255942344666e-01" purity="4.3323487043380737e-01" nType="-99"/>
          <Node pos="r" depth="2" NCoef="0" IVar="-1" Cut="0.0000000000000000e+00" cType="1" res="3.5345126525498927e-04" rms="4.2155465483665466e-01" purity="5.6257706880569458e-01" nType="-99"/>
        </Node>
        <Node pos="r" depth="1" NCoef="0" IVar="-1" Cut="0.0000000000000000e+00" cType="1" res="-4.2873793281614780e-03" rms="4.1867870092391968e-01" purity="5.2306348085403442e-01" nType="-99"/>
      </Node>
    </BinaryTree>
    <BinaryTree type="DecisionTree" boostWeight="1.0000000000000000e+00" itree="726">
      <Node pos="s" depth="0" NCoef="0" IVar="9" Cut="4.2857143282890320e-01" cType="1" res="5.6732469238340855e-04" rms="4.3141451478004456e-01" purity="5.0053936243057251e-01" nType="0">
        <Node pos="l" depth="1" NCoef="0" IVar="2" Cut="-1.9434324502944946e+00" cType="1" res="-1.0660163825377822e-03" rms="4.3035742640495300e-01" purity="5.0551307201385498e-01" nType="0">
          <Node pos="l" depth="2" NCoef="0" IVar="-1" Cut="0.0000000000000000e+00" cType="1" res="3.2009391579777002e-03" rms="4.1844186186790466e-01" purity="5.1966804265975952e-01" nType="-99"/>
          <Node pos="r" depth="2" NCoef="0" IVar="-1" Cut="0.0000000000000000e+00" cType="1" res="-4.5729026896879077e-04" rms="4.3096598982810974e-01" purity="5.0476729869842529e-01" nType="-99"/>
        </Node>
        <Node pos="r" depth="1" NCoef="0" IVar="4" Cut="9.0613871812820435e-01" cType="1" res="9.9209137260913849e-03" rms="4.3730142712593079e-01" purity="4.7205647826194763e-01" nType="0">
          <Node pos="l" depth="2" NCoef="0" IVar="-1" Cut="0.0000000000000000e+00" cType="1" res="3.3672663848847151e-03" rms="4.3639478087425232e-01" purity="3.7833809852600098e-01" nType="-99"/>
          <Node pos="r" depth="2" NCoef="0" IVar="-1" Cut="0.0000000000000000e+00" cType="1" res="1.0962282540276647e-03" rms="4.3911287188529968e-01" purity="6.6529780626296997e-01" nType="-99"/>
        </Node>
      </Node>
    </BinaryTree>
    <BinaryTree type="DecisionTree" boostWeight="1.0000000000000000e+00" itree="727">
      <Node pos="s" depth="0" NCoef="0" IVar="2" Cut="2.7175083756446838e-01" cType="1" res="1.5983986668288708e-03" rms="4.3185675144195557e-01" purity="5.0346332788467407e-01" nType="0">
        <Node pos="l" depth="1" NCoef="0" IVar="3" Cut="-8.0952382087707520e-01" cType="1" res="3.8002347573637962e-03" rms="4.3248412013053894e-01" purity="5.0412368774414062e-01" nType="0">
          <Node pos="l" depth="2" NCoef="0" IVar="-1" Cut="0.0000000000000000e+00" cType="1" res="3.2539120875298977e-03" rms="4.5837232470512390e-01" purity="4.9295276403427124e-01" nType="-99"/>
          <Node pos="r" depth="2" NCoef="0" IVar="-1" Cut="0.0000000000000000e+00" cType="1" res="8.3216157509014010e-04" rms="4.3066164851188660e-01" purity="5.0488221645355225e-01" nType="-99"/>
        </Node>
        <Node pos="r" depth="1" NCoef="0" IVar="6" Cut="-2.7142856121063232e+00" cType="1" res="-2.1156850270926952e-03" rms="4.3077096343040466e-01" purity="5.0234931707382202e-01" nType="0">
          <Node pos="l" depth="2" NCoef="0" IVar="-1" Cut="0.0000000000000000e+00" cType="1" res="1.7427036073058844e-03" rms="4.2404973506927490e-01" purity="4.9144569039344788e-01" nType="-99"/>
          <Node pos="r" depth="2" NCoef="0" IVar="-1" Cut="0.0000000000000000e+00" cType="1" res="-1.1961346026510000e-03" rms="4.3262201547622681e-01" purity="5.0543183088302612e-01" nType="-99"/>
        </Node>
      </Node>
    </BinaryTree>
    <BinaryTree type="DecisionTree" boostWeight="1.0000000000000000e+00" itree="728">
      <Node pos="s" depth="0" NCoef="0" IVar="2" Cut="1.0585216283798218e+00" cType="1" res="-3.2396449241787195e-03" rms="4.3233212828636169e-01" purity="4.9792593717575073e-01" nType="0">
        <Node pos="l" depth="1" NCoef="0" IVar="2" Cut="6.4565467834472656e-01" cType="1" res="-4.0052509866654873e-03" rms="4.3357411026954651e-01" purity="4.9699831008911133e-01" nType="0">
          <Node pos="l" depth="2" NCoef="0" IVar="-1" Cut="0.0000000000000000e+00" cType="1" res="-1.2584730284288526e-03" rms="4.3402397632598877e-01" purity="4.9576887488365173e-01" nType="-99"/>
          <Node pos="r" depth="2" NCoef="0" IVar="-1" Cut="0.0000000000000000e+00" cType="1" res="6.1284267576411366e-04" rms="4.2989221215248108e-01" purity="5.0687134265899658e-01" nType="-99"/>
        </Node>
        <Node pos="r" depth="1" NCoef="0" IVar="7" Cut="2.8712613582611084e+00" cType="1" res="1.5152614796534181e-03" rms="4.2450633645057678e-01" purity="5.0368720293045044e-01" nType="0">
          <Node pos="l" depth="2" NCoef="0" IVar="-1" Cut="0.0000000000000000e+00" cType="1" res="2.3677430581301451e-03" rms="4.3320044875144958e-01" purity="4.0038841962814331e-01" nType="-99"/>
          <Node pos="r" depth="2" NCoef="0" IVar="-1" Cut="0.0000000000000000e+00" cType="1" res="-6.4637983450666070e-04" rms="4.1987517476081848e-01" purity="5.5726325511932373e-01" nType="-99"/>
        </Node>
      </Node>
    </BinaryTree>
    <BinaryTree type="DecisionTree" boostWeight="1.0000000000000000e+00" itree="729">
      <Node pos="s" depth="0" NCoef="0" IVar="9" Cut="7.1428573131561279e-01" cType="1" res="-3.6403941339813173e-04" rms="4.3148046731948853e-01" purity="4.9960008263587952e-01" nType="0">
        <Node pos="l" depth="1" NCoef="0" IVar="6" Cut="-3.1904761791229248e+00" cType="1" res="-1.0831692488864064e-03" rms="4.3062311410903931e-01" purity="5.0413584709167480e-01" nType="0">
          <Node pos="l" depth="2" NCoef="0" IVar="-1" Cut="0.0000000000000000e+00" cType="1" res="1.8103136681020260e-03" rms="4.2160031199455261e-01" purity="4.8031643033027649e-01" nType="-99"/>
          <Node pos="r" depth="2" NCoef="0" IVar="-1" Cut="0.0000000000000000e+00" cType="1" res="-6.2616128707304597e-04" rms="4.3211141228675842e-01" purity="5.0814878940582275e-01" nType="-99"/>
        </Node>
        <Node pos="r" depth="1" NCoef="0" IVar="-1" Cut="0.0000000000000000e+00" cType="1" res="3.5330401733517647e-03" rms="4.4798088073730469e-01" purity="4.0922629833221436e-01" nType="-99"/>
      </Node>
    </BinaryTree>
    <BinaryTree type="DecisionTree" boostWeight="1.0000000000000000e+00" itree="730">
      <Node pos="s" depth="0" NCoef="0" IVar="9" Cut="5.2380955219268799e-01" cType="1" res="8.1831595161929727e-04" rms="4.3104919791221619e-01" purity="5.0164324045181274e-01" nType="0">
        <Node pos="l" depth="1" NCoef="0" IVar="8" Cut="1.1799359321594238e+00" cType="1" res="2.1417697425931692e-03" rms="4.2989432811737061e-01" purity="5.0922775268554688e-01" nType="0">
          <Node pos="l" depth="2" NCoef="0" IVar="-1" Cut="0.0000000000000000e+00" cType="1" res="8.8011461775749922e-04" rms="4.3146297335624695e-01" purity="4.9376598000526428e-01" nType="-99"/>
          <Node pos="r" depth="2" NCoef="0" IVar="-1" Cut="0.0000000000000000e+00" cType="1" res="-1.9874090794473886e-03" rms="4.1748708486557007e-01" purity="6.2845557928085327e-01" nType="-99"/>
        </Node>
        <Node pos="r" depth="1" NCoef="0" IVar="3" Cut="-4.7619048506021500e-02" cType="1" res="-1.0395824909210205e-02" rms="4.4055387377738953e-01" purity="4.3737614154815674e-01" nType="0">
          <Node pos="l" depth="2" NCoef="0" IVar="-1" Cut="0.0000000000000000e+00" cType="1" res="-5.0638462416827679e-03" rms="4.4041553139686584e-01" purity="4.2711505293846130e-01" nType="-99"/>
          <Node pos="r" depth="2" NCoef="0" IVar="-1" Cut="0.0000000000000000e+00" cType="1" res="-5.4076226660981774e-04" rms="4.4051307439804077e-01" purity="4.4661673903465271e-01" nType="-99"/>
        </Node>
      </Node>
    </BinaryTree>
    <BinaryTree type="DecisionTree" boostWeight="1.0000000000000000e+00" itree="731">
      <Node pos="s" depth="0" NCoef="0" IVar="5" Cut="1.8679543733596802e+00" cType="1" res="-9.9484133534133434e-04" rms="4.3130743503570557e-01" purity="4.9943274259567261e-01" nType="0">
        <Node pos="l" depth="1" NCoef="0" IVar="1" Cut="6.4850788116455078e+00" cType="1" res="5.8461789740249515e-04" rms="4.3477952480316162e-01" purity="5.0512117147445679e-01" nType="0">
          <Node pos="l" depth="2" NCoef="0" IVar="-1" Cut="0.0000000000000000e+00" cType="1" res="4.1883703670464456e-04" rms="4.3732056021690369e-01" purity="5.0696682929992676e-01" nType="-99"/>
          <Node pos="r" depth="2" NCoef="0" IVar="-1" Cut="0.0000000000000000e+00" cType="1" res="-2.1407133899629116e-03" rms="4.1429749131202698e-01" purity="4.9069896340370178e-01" nType="-99"/>
        </Node>
        <Node pos="r" depth="1" NCoef="0" IVar="2" Cut="-1.1637524366378784e+00" cType="1" res="-5.8104838244616985e-03" rms="4.2050775885581970e-01" purity="4.8208907246589661e-01" nType="0">
          <Node pos="l" depth="2" NCoef="0" IVar="-1" Cut="0.0000000000000000e+00" cType="1" res="2.3993321228772402e-03" rms="4.1915169358253479e-01" purity="5.0490772724151611e-01" nType="-99"/>
          <Node pos="r" depth="2" NCoef="0" IVar="-1" Cut="0.0000000000000000e+00" cType="1" res="-2.3621951695531607e-03" rms="4.2070764303207397e-01" purity="4.7779479622840881e-01" nType="-99"/>
        </Node>
      </Node>
    </BinaryTree>
    <BinaryTree type="DecisionTree" boostWeight="1.0000000000000000e+00" itree="732">
      <Node pos="s" depth="0" NCoef="0" IVar="0" Cut="1.7609518766403198e+00" cType="1" res="7.9906976316124201e-04" rms="4.3152642250061035e-01" purity="5.0084084272384644e-01" nType="0">
        <Node pos="l" depth="1" NCoef="0" IVar="9" Cut="4.2857143282890320e-01" cType="1" res="1.7386747058480978e-03" rms="4.3358254432678223e-01" purity="5.1449316740036011e-01" nType="0">
          <Node pos="l" depth="2" NCoef="0" IVar="-1" Cut="0.0000000000000000e+00" cType="1" res="3.1160892831394449e-05" rms="4.3240585923194885e-01" purity="5.1753968000411987e-01" nType="-99"/>
          <Node pos="r" depth="2" NCoef="0" IVar="-1" Cut="0.0000000000000000e+00" cType="1" res="2.9492499306797981e-03" rms="4.4046023488044739e-01" purity="4.9618971347808838e-01" nType="-99"/>
        </Node>
        <Node pos="r" depth="1" NCoef="0" IVar="-1" Cut="0.0000000000000000e+00" cType="1" res="-5.4427245631814003e-03" rms="3.8715344667434692e-01" purity="2.2492831945419312e-01" nType="-99"/>
      </Node>
    </BinaryTree>
    <BinaryTree type="DecisionTree" boostWeight="1.0000000000000000e+00" itree="733">
      <Node pos="s" depth="0" NCoef="0" IVar="3" Cut="6.1904764175415039e-01" cType="1" res="-2.8821424348279834e-04" rms="4.3236389756202698e-01" purity="5.0011307001113892e-01" nType="0">
        <Node pos="l" depth="1" NCoef="0" IVar="3" Cut="4.6480301022529602e-01" cType="1" res="3.6780670052394271e-04" rms="4.3043345212936401e-01" purity="5.0076717138290405e-01" nType="0">
          <Node pos="l" depth="2" NCoef="0" IVar="-1" Cut="0.0000000000000000e+00" cType="1" res="-9.9998418590985239e-05" rms="4.3030998110771179e-01" purity="4.9938437342643738e-01" nType="-99"/>
          <Node pos="r" depth="2" NCoef="0" IVar="-1" Cut="0.0000000000000000e+00" cType="1" res="3.1906424555927515e-03" rms="4.3222841620445251e-01" purity="5.2285158634185791e-01" nType="-99"/>
        </Node>
        <Node pos="r" depth="1" NCoef="0" IVar="4" Cut="8.6743992567062378e-01" cType="1" res="-7.8561473637819290e-03" rms="4.5397198200225830e-01" purity="4.9256664514541626e-01" nType="0">
          <Node pos="l" depth="2" NCoef="0" IVar="-1" Cut="0.0000000000000000e+00" cType="1" res="2.7482610312290490e-04" rms="4.5287275314331055e-01" purity="3.9284509420394897e-01" nType="-99"/>
          <Node pos="r" depth="2" NCoef="0" IVar="-1" Cut="0.0000000000000000e+00" cType="1" res="-4.3856287375092506e-03" rms="4.5502626895904541e-01" purity="6.0868805646896362e-01" nType="-99"/>
        </Node>
      </Node>
    </BinaryTree>
    <BinaryTree type="DecisionTree" boostWeight="1.0000000000000000e+00" itree="734">
      <Node pos="s" depth="0" NCoef="0" IVar="5" Cut="3.5020284652709961e+00" cType="1" res="-1.3540100771933794e-03" rms="4.3085968494415283e-01" purity="4.9851971864700317e-01" nType="0">
        <Node pos="l" depth="1" NCoef="0" IVar="3" Cut="-8.0952382087707520e-01" cType="1" res="-1.9567504059523344e-03" rms="4.3125501275062561e-01" purity="4.9633619189262390e-01" nType="0">
          <Node pos="l" depth="2" NCoef="0" IVar="-1" Cut="0.0000000000000000e+00" cType="1" res="2.5902637280523777e-03" rms="4.5615127682685852e-01" purity="4.9717149138450623e-01" nType="-99"/>
          <Node pos="r" depth="2" NCoef="0" IVar="-1" Cut="0.0000000000000000e+00" cType="1" res="-6.8190542515367270e-04" rms="4.3002635240554810e-01" purity="4.9629649519920349e-01" nType="-99"/>
        </Node>
        <Node pos="r" depth="1" NCoef="0" IVar="-1" Cut="0.0000000000000000e+00" cType="1" res="3.9586923085153103e-03" rms="4.2017003893852234e-01" purity="5.5517530441284180e-01" nType="-99"/>
      </Node>
    </BinaryTree>
    <BinaryTree type="DecisionTree" boostWeight="1.0000000000000000e+00" itree="735">
      <Node pos="s" depth="0" NCoef="0" IVar="6" Cut="4.5238094329833984e+00" cType="1" res="1.1868372093886137e-03" rms="4.3157947063446045e-01" purity="5.0172936916351318e-01" nType="0">
        <Node pos="l" depth="1" NCoef="0" IVar="3" Cut="-4.7619048506021500e-02" cType="1" res="2.1270811557769775e-03" rms="4.3274298310279846e-01" purity="5.0708419084548950e-01" nType="0">
          <Node pos="l" depth="2" NCoef="0" IVar="-1" Cut="0.0000000000000000e+00" cType="1" res="-2.8196355560794473e-04" rms="4.3397989869117737e-01" purity="5.0380593538284302e-01" nType="-99"/>
          <Node pos="r" depth="2" NCoef="0" IVar="-1" Cut="0.0000000000000000e+00" cType="1" res="1.2735691852867603e-03" rms="4.3167510628700256e-01" purity="5.0985801219940186e-01" nType="-99"/>
        </Node>
        <Node pos="r" depth="1" NCoef="0" IVar="2" Cut="3.3819022774696350e-01" cType="1" res="-6.4655207097530365e-03" rms="4.2191261053085327e-01" purity="4.5814833045005798e-01" nType="0">
          <Node pos="l" depth="2" NCoef="0" IVar="-1" Cut="0.0000000000000000e+00" cType="1" res="3.2227343763224781e-04" rms="4.2006948590278625e-01" purity="4.6726021170616150e-01" nType="-99"/>
          <Node pos="r" depth="2" NCoef="0" IVar="-1" Cut="0.0000000000000000e+00" cType="1" res="-5.5577224120497704e-03" rms="4.2481309175491333e-01" purity="4.4206011295318604e-01" nType="-99"/>
        </Node>
      </Node>
    </BinaryTree>
    <BinaryTree type="DecisionTree" boostWeight="1.0000000000000000e+00" itree="736">
      <Node pos="s" depth="0" NCoef="0" IVar="9" Cut="-5.2380955219268799e-01" cType="1" res="1.3184498529881239e-03" rms="4.3216672539710999e-01" purity="5.0156557559967041e-01" nType="0">
        <Node pos="l" depth="1" NCoef="0" IVar="4" Cut="8.6445879936218262e-01" cType="1" res="1.0947116650640965e-02" rms="4.4023621082305908e-01" purity="4.4913062453269958e-01" nType="0">
          <Node pos="l" depth="2" NCoef="0" IVar="-1" Cut="0.0000000000000000e+00" cType="1" res="5.6683262810111046e-03" rms="4.3118506669998169e-01" purity="3.4363225102424622e-01" nType="-99"/>
          <Node pos="r" depth="2" NCoef="0" IVar="-1" Cut="0.0000000000000000e+00" cType="1" res="-8.1352848792448640e-04" rms="4.5307892560958862e-01" purity="6.0719132423400879e-01" nType="-99"/>
        </Node>
        <Node pos="r" depth="1" NCoef="0" IVar="4" Cut="9.4692862033843994e-01" cType="1" res="1.7753736756276339e-04" rms="4.3118628859519958e-01" purity="5.0777858495712280e-01" nType="0">
          <Node pos="l" depth="2" NCoef="0" IVar="-1" Cut="0.0000000000000000e+00" cType="1" res="-3.1217161449603736e-04" rms="4.3555760383605957e-01" purity="4.5763021707534790e-01" nType="-99"/>
          <Node pos="r" depth="2" NCoef="0" IVar="-1" Cut="0.0000000000000000e+00" cType="1" res="2.0420509390532970e-03" rms="4.0847221016883850e-01" purity="7.5946444272994995e-01" nType="-99"/>
        </Node>
      </Node>
    </BinaryTree>
    <BinaryTree type="DecisionTree" boostWeight="1.0000000000000000e+00" itree="737">
      <Node pos="s" depth="0" NCoef="0" IVar="6" Cut="5.2857141494750977e+00" cType="1" res="7.6698535121977329e-04" rms="4.3102753162384033e-01" purity="5.0080293416976929e-01" nType="0">
        <Node pos="l" depth="1" NCoef="0" IVar="7" Cut="6.4509458541870117e+00" cType="1" res="-7.5442469096742570e-05" rms="4.3240430951118469e-01" purity="5.0372487306594849e-01" nType="0">
          <Node pos="l" depth="2" NCoef="0" IVar="-1" Cut="0.0000000000000000e+00" cType="1" res="-2.6637100381776690e-04" rms="4.3606957793235779e-01" purity="4.7915232181549072e-01" nType="-99"/>
          <Node pos="r" depth="2" NCoef="0" IVar="-1" Cut="0.0000000000000000e+00" cType="1" res="1.7498175147920847e-03" rms="4.0758207440376282e-01" purity="6.6433918476104736e-01" nType="-99"/>
        </Node>
        <Node pos="r" depth="1" NCoef="0" IVar="8" Cut="-3.8056191056966782e-02" cType="1" res="1.1290361173450947e-02" rms="4.1329821944236755e-01" purity="4.6430346369743347e-01" nType="0">
          <Node pos="l" depth="2" NCoef="0" IVar="-1" Cut="0.0000000000000000e+00" cType="1" res="2.0655114203691483e-03" rms="4.1653069853782654e-01" purity="4.5510652661323547e-01" nType="-99"/>
          <Node pos="r" depth="2" NCoef="0" IVar="-1" Cut="0.0000000000000000e+00" cType="1" res="4.2201518081128597e-03" rms="4.1021484136581421e-01" purity="4.7290977835655212e-01" nType="-99"/>
        </Node>
      </Node>
    </BinaryTree>
    <BinaryTree type="DecisionTree" boostWeight="1.0000000000000000e+00" itree="738">
      <Node pos="s" depth="0" NCoef="0" IVar="3" Cut="2.3809523880481720e-01" cType="1" res="1.2289615115150809e-03" rms="4.3194326758384705e-01" purity="5.0192010402679443e-01" nType="0">
        <Node pos="l" depth="1" NCoef="0" IVar="9" Cut="2.3809523880481720e-01" cType="1" res="3.2535851933062077e-03" rms="4.2955142259597778e-01" purity="5.0169795751571655e-01" nType="0">
          <Node pos="l" depth="2" NCoef="0" IVar="-1" Cut="0.0000000000000000e+00" cType="1" res="3.3915301901288331e-04" rms="4.2896834015846252e-01" purity="5.0354313850402832e-01" nType="-99"/>
          <Node pos="r" depth="2" NCoef="0" IVar="-1" Cut="0.0000000000000000e+00" cType="1" res="2.3326557129621506e-03" rms="4.3110394477844238e-01" purity="4.9662274122238159e-01" nType="-99"/>
        </Node>
        <Node pos="r" depth="1" NCoef="0" IVar="3" Cut="3.1066828966140747e-01" cType="1" res="-4.1586845181882381e-03" rms="4.3819904327392578e-01" purity="5.0251108407974243e-01" nType="0">
          <Node pos="l" depth="2" NCoef="0" IVar="-1" Cut="0.0000000000000000e+00" cType="1" res="-4.1877212934195995e-03" rms="4.2774668335914612e-01" purity="4.8351028561592102e-01" nType="-99"/>
          <Node pos="r" depth="2" NCoef="0" IVar="-1" Cut="0.0000000000000000e+00" cType="1" res="-3.7818081909790635e-04" rms="4.4057923555374146e-01" purity="5.0698143243789673e-01" nType="-99"/>
        </Node>
      </Node>
    </BinaryTree>
    <BinaryTree type="DecisionTree" boostWeight="1.0000000000000000e+00" itree="739">
      <Node pos="s" depth="0" NCoef="0" IVar="0" Cut="6.4201694726943970e-01" cType="1" res="-8.8822387624531984e-04" rms="4.3102008104324341e-01" purity="5.0044101476669312e-01" nType="0">
        <Node pos="l" depth="1" NCoef="0" IVar="4" Cut="9.1214936971664429e-01" cType="1" res="6.0057262890040874e-03" rms="4.3060228228569031e-01" purity="6.8476575613021851e-01" nType="0">
          <Node pos="l" depth="2" NCoef="0" IVar="-1" Cut="0.0000000000000000e+00" cType="1" res="4.6539106406271458e-03" rms="4.4949942827224731e-01" purity="6.1857277154922485e-01" nType="-99"/>
          <Node pos="r" depth="2" NCoef="0" IVar="-1" Cut="0.0000000000000000e+00" cType="1" res="-2.5493076536804438e-03" rms="4.0756830573081970e-01" purity="7.6005721092224121e-01" nType="-99"/>
        </Node>
        <Node pos="r" depth="1" NCoef="0" IVar="8" Cut="-4.3867003917694092e-01" cType="1" res="-1.6837002476677299e-03" rms="4.3106117844581604e-01" purity="4.7917217016220093e-01" nType="0">
          <Node pos="l" depth="2" NCoef="0" IVar="-1" Cut="0.0000000000000000e+00" cType="1" res="6.6128390608355403e-04" rms="4.3018451333045959e-01" purity="5.2807307243347168e-01" nType="-99"/>
          <Node pos="r" depth="2" NCoef="0" IVar="-1" Cut="0.0000000000000000e+00" cType="1" res="-9.3510613078251481e-04" rms="4.3144023418426514e-01" purity="4.5726907253265381e-01" nType="-99"/>
        </Node>
      </Node>
    </BinaryTree>
    <BinaryTree type="DecisionTree" boostWeight="1.0000000000000000e+00" itree="740">
      <Node pos="s" depth="0" NCoef="0" IVar="9" Cut="-1.4285714924335480e-01" cType="1" res="-1.4500044053420424e-03" rms="4.3140500783920288e-01" purity="4.9882304668426514e-01" nType="0">
        <Node pos="l" depth="1" NCoef="0" IVar="3" Cut="-1.4285714924335480e-01" cType="1" res="3.8217129185795784e-03" rms="4.3179848790168762e-01" purity="4.9121671915054321e-01" nType="0">
          <Node pos="l" depth="2" NCoef="0" IVar="-1" Cut="0.0000000000000000e+00" cType="1" res="-1.4508854364976287e-03" rms="4.3519157171249390e-01" purity="4.8782989382743835e-01" nType="-99"/>
          <Node pos="r" depth="2" NCoef="0" IVar="-1" Cut="0.0000000000000000e+00" cType="1" res="2.4748633150011301e-03" rms="4.2970186471939087e-01" purity="4.9320283532142639e-01" nType="-99"/>
        </Node>
        <Node pos="r" depth="1" NCoef="0" IVar="4" Cut="9.0355128049850464e-01" cType="1" res="-4.3113445863127708e-03" rms="4.3116432428359985e-01" purity="5.0295156240463257e-01" nType="0">
          <Node pos="l" depth="2" NCoef="0" IVar="-1" Cut="0.0000000000000000e+00" cType="1" res="-1.5677143819630146e-03" rms="4.3438494205474854e-01" purity="4.1334486007690430e-01" nType="-99"/>
          <Node pos="r" depth="2" NCoef="0" IVar="-1" Cut="0.0000000000000000e+00" cType="1" res="-7.5947697041556239e-05" rms="4.2330476641654968e-01" purity="7.1808457374572754e-01" nType="-99"/>
        </Node>
      </Node>
    </BinaryTree>
    <BinaryTree type="DecisionTree" boostWeight="1.0000000000000000e+00" itree="741">
      <Node pos="s" depth="0" NCoef="0" IVar="10" Cut="3.5523811340332031e+01" cType="1" res="4.9790274351835251e-04" rms="4.3123495578765869e-01" purity="5.0096583366394043e-01" nType="0">
        <Node pos="l" depth="1" NCoef="0" IVar="4" Cut="7.3262721300125122e-01" cType="1" res="1.9840928725898266e-03" rms="4.3365371227264404e-01" purity="5.0844115018844604e-01" nType="0">
          <Node pos="l" depth="2" NCoef="0" IVar="-1" Cut="0.0000000000000000e+00" cType="1" res="-9.8090653773397207e-04" rms="4.2302426695823669e-01" purity="3.0514863133430481e-01" nType="-99"/>
          <Node pos="r" depth="2" NCoef="0" IVar="-1" Cut="0.0000000000000000e+00" cType="1" res="1.5185382217168808e-03" rms="4.4120433926582336e-01" purity="6.5676826238632202e-01" nType="-99"/>
        </Node>
        <Node pos="r" depth="1" NCoef="0" IVar="0" Cut="8.2273423671722412e-01" cType="1" res="-7.0531950332224369e-03" rms="4.1864833235740662e-01" purity="4.6298500895500183e-01" nType="0">
          <Node pos="l" depth="2" NCoef="0" IVar="-1" Cut="0.0000000000000000e+00" cType="1" res="6.4622974023222923e-03" rms="4.0931969881057739e-01" purity="7.2133129835128784e-01" nType="-99"/>
          <Node pos="r" depth="2" NCoef="0" IVar="-1" Cut="0.0000000000000000e+00" cType="1" res="-4.5516043901443481e-03" rms="4.2110511660575867e-01" purity="3.8132801651954651e-01" nType="-99"/>
        </Node>
      </Node>
    </BinaryTree>
    <BinaryTree type="DecisionTree" boostWeight="1.0000000000000000e+00" itree="742">
      <Node pos="s" depth="0" NCoef="0" IVar="4" Cut="5.6173598766326904e-01" cType="1" res="2.2257216915022582e-04" rms="4.3226706981658936e-01" purity="5.0087529420852661e-01" nType="0">
        <Node pos="l" depth="1" NCoef="0" IVar="7" Cut="3.9448535442352295e+00" cType="1" res="5.4048658348619938e-03" rms="3.8463807106018066e-01" purity="2.0767985284328461e-01" nType="0">
          <Node pos="l" depth="2" NCoef="0" IVar="-1" Cut="0.0000000000000000e+00" cType="1" res="3.0051346402615309e-03" rms="3.9316835999488831e-01" purity="2.1718981862068176e-01" nType="-99"/>
          <Node pos="r" depth="2" NCoef="0" IVar="-1" Cut="0.0000000000000000e+00" cType="1" res="-4.3806061148643494e-03" rms="3.4333112835884094e-01" purity="1.6504985094070435e-01" nType="-99"/>
        </Node>
        <Node pos="r" depth="1" NCoef="0" IVar="4" Cut="9.6861457824707031e-01" cType="1" res="-1.4705911744385958e-03" rms="4.4671618938446045e-01" purity="5.9666836261749268e-01" nType="0">
          <Node pos="l" depth="2" NCoef="0" IVar="-1" Cut="0.0000000000000000e+00" cType="1" res="-8.9342438150197268e-04" rms="4.5173752307891846e-01" purity="5.7319396734237671e-01" nType="-99"/>
          <Node pos="r" depth="2" NCoef="0" IVar="-1" Cut="0.0000000000000000e+00" cType="1" res="3.5435042809695005e-03" rms="4.1285359859466553e-01" purity="7.4691891670227051e-01" nType="-99"/>
        </Node>
      </Node>
    </BinaryTree>
    <BinaryTree type="DecisionTree" boostWeight="1.0000000000000000e+00" itree="743">
      <Node pos="s" depth="0" NCoef="0" IVar="1" Cut="4.3589663505554199e+00" cType="1" res="-1.7996252281591296e-03" rms="4.3192955851554871e-01" purity="4.9842381477355957e-01" nType="0">
        <Node pos="l" depth="1" NCoef="0" IVar="1" Cut="1.0512787103652954e+00" cType="1" res="-4.0904153138399124e-03" rms="4.3842446804046631e-01" purity="4.9917182326316833e-01" nType="0">
          <Node pos="l" depth="2" NCoef="0" IVar="-1" Cut="0.0000000000000000e+00" cType="1" res="-2.7910179924219847e-03" rms="4.7002658247947693e-01" purity="4.5223608613014221e-01" nType="-99"/>
          <Node pos="r" depth="2" NCoef="0" IVar="-1" Cut="0.0000000000000000e+00" cType="1" res="-7.3371030157431960e-04" rms="4.3300867080688477e-01" purity="5.0686794519424438e-01" nType="-99"/>
        </Node>
        <Node pos="r" depth="1" NCoef="0" IVar="6" Cut="-2.8571429252624512e+00" cType="1" res="3.1689528841525316e-03" rms="4.1745221614837646e-01" purity="4.9680140614509583e-01" nType="0">
          <Node pos="l" depth="2" NCoef="0" IVar="-1" Cut="0.0000000000000000e+00" cType="1" res="3.7005972117185593e-03" rms="4.1596916317939758e-01" purity="4.9289029836654663e-01" nType="-99"/>
          <Node pos="r" depth="2" NCoef="0" IVar="-1" Cut="0.0000000000000000e+00" cType="1" res="-1.2733241601381451e-04" rms="4.1793540120124817e-01" purity="4.9823355674743652e-01" nType="-99"/>
        </Node>
      </Node>
    </BinaryTree>
    <BinaryTree type="DecisionTree" boostWeight="1.0000000000000000e+00" itree="744">
      <Node pos="s" depth="0" NCoef="0" IVar="6" Cut="-5.7142859697341919e-01" cType="1" res="-9.5731571491342038e-05" rms="4.3003162741661072e-01" purity="5.0111299753189087e-01" nType="0">
        <Node pos="l" depth="1" NCoef="0" IVar="1" Cut="6.1323337554931641e+00" cType="1" res="-4.5194965787231922e-03" rms="4.2950251698493958e-01" purity="4.9522632360458374e-01" nType="0">
          <Node pos="l" depth="2" NCoef="0" IVar="-1" Cut="0.0000000000000000e+00" cType="1" res="-1.6502330545336008e-03" rms="4.3407997488975525e-01" purity="4.9457690119743347e-01" nType="-99"/>
          <Node pos="r" depth="2" NCoef="0" IVar="-1" Cut="0.0000000000000000e+00" cType="1" res="8.9922378538176417e-04" rms="4.0882474184036255e-01" purity="4.9806234240531921e-01" nType="-99"/>
        </Node>
        <Node pos="r" depth="1" NCoef="0" IVar="4" Cut="8.1807619333267212e-01" cType="1" res="3.0098117422312498e-03" rms="4.3037551641464233e-01" purity="5.0524550676345825e-01" nType="0">
          <Node pos="l" depth="2" NCoef="0" IVar="-1" Cut="0.0000000000000000e+00" cType="1" res="-2.7515576221048832e-04" rms="4.2867487668991089e-01" purity="3.5612833499908447e-01" nType="-99"/>
          <Node pos="r" depth="2" NCoef="0" IVar="-1" Cut="0.0000000000000000e+00" cType="1" res="1.9380782032385468e-03" rms="4.3221414089202881e-01" purity="6.7101490497589111e-01" nType="-99"/>
        </Node>
      </Node>
    </BinaryTree>
    <BinaryTree type="DecisionTree" boostWeight="1.0000000000000000e+00" itree="745">
      <Node pos="s" depth="0" NCoef="0" IVar="5" Cut="2.7670700550079346e+00" cType="1" res="-9.7901897970587015e-04" rms="4.3191039562225342e-01" purity="4.9870637059211731e-01" nType="0">
        <Node pos="l" depth="1" NCoef="0" IVar="10" Cut="4.3904762268066406e+01" cType="1" res="-2.5338656269013882e-04" rms="4.3307188153266907e-01" purity="4.9884179234504700e-01" nType="0">
          <Node pos="l" depth="2" NCoef="0" IVar="-1" Cut="0.0000000000000000e+00" cType="1" res="1.9413723202887923e-04" rms="4.3382242321968079e-01" purity="5.0651150941848755e-01" nType="-99"/>
          <Node pos="r" depth="2" NCoef="0" IVar="-1" Cut="0.0000000000000000e+00" cType="1" res="-3.2390814740210772e-03" rms="4.2402550578117371e-01" purity="4.0915665030479431e-01" nType="-99"/>
        </Node>
        <Node pos="r" depth="1" NCoef="0" IVar="4" Cut="8.2490575313568115e-01" cType="1" res="-9.2822406440973282e-03" rms="4.1830059885978699e-01" purity="4.9715727567672729e-01" nType="0">
          <Node pos="l" depth="2" NCoef="0" IVar="-1" Cut="0.0000000000000000e+00" cType="1" res="-4.8104175366461277e-03" rms="4.1287809610366821e-01" purity="3.5193440318107605e-01" nType="-99"/>
          <Node pos="r" depth="2" NCoef="0" IVar="-1" Cut="0.0000000000000000e+00" cType="1" res="-1.6723138105589896e-04" rms="4.2426410317420959e-01" purity="6.6359657049179077e-01" nType="-99"/>
        </Node>
      </Node>
    </BinaryTree>
    <BinaryTree type="DecisionTree" boostWeight="1.0000000000000000e+00" itree="746">
      <Node pos="s" depth="0" NCoef="0" IVar="2" Cut="1.0005257129669189e+00" cType="1" res="3.3757288474589586e-04" rms="4.3217223882675171e-01" purity="5.0095689296722412e-01" nType="0">
        <Node pos="l" depth="1" NCoef="0" IVar="0" Cut="1.2725206613540649e+00" cType="1" res="1.7766273813322186e-03" rms="4.3373119831085205e-01" purity="5.0175887346267700e-01" nType="0">
          <Node pos="l" depth="2" NCoef="0" IVar="-1" Cut="0.0000000000000000e+00" cType="1" res="9.4475908554159105e-05" rms="4.3903839588165283e-01" purity="5.5305504798889160e-01" nType="-99"/>
          <Node pos="r" depth="2" NCoef="0" IVar="-1" Cut="0.0000000000000000e+00" cType="1" res="2.1455206442624331e-03" rms="4.1164562106132507e-01" purity="2.9543945193290710e-01" nType="-99"/>
        </Node>
        <Node pos="r" depth="1" NCoef="0" IVar="0" Cut="1.0147778987884521e+00" cType="1" res="-7.7375946566462517e-03" rms="4.2322707176208496e-01" purity="4.9645647406578064e-01" nType="0">
          <Node pos="l" depth="2" NCoef="0" IVar="-1" Cut="0.0000000000000000e+00" cType="1" res="-1.2658025370910764e-03" rms="4.3201884627342224e-01" purity="6.2224143743515015e-01" nType="-99"/>
          <Node pos="r" depth="2" NCoef="0" IVar="-1" Cut="0.0000000000000000e+00" cType="1" res="-3.5762612242251635e-03" rms="4.0888610482215881e-01" purity="2.9745492339134216e-01" nType="-99"/>
        </Node>
      </Node>
    </BinaryTree>
    <BinaryTree type="DecisionTree" boostWeight="1.0000000000000000e+00" itree="747">
      <Node pos="s" depth="0" NCoef="0" IVar="2" Cut="6.8575268983840942e-01" cType="1" res="-7.1088148979470134e-04" rms="4.3239632248878479e-01" purity="5.0038677453994751e-01" nType="0">
        <Node pos="l" depth="1" NCoef="0" IVar="4" Cut="5.6951022148132324e-01" cType="1" res="-2.2958237677812576e-03" rms="4.3470448255538940e-01" purity="4.9801093339920044e-01" nType="0">
          <Node pos="l" depth="2" NCoef="0" IVar="-1" Cut="0.0000000000000000e+00" cType="1" res="1.1458400404080749e-03" rms="3.8608297705650330e-01" purity="2.0870116353034973e-01" nType="-99"/>
          <Node pos="r" depth="2" NCoef="0" IVar="-1" Cut="0.0000000000000000e+00" cType="1" res="-1.0218319948762655e-03" rms="4.4944894313812256e-01" purity="5.9261858463287354e-01" nType="-99"/>
        </Node>
        <Node pos="r" depth="1" NCoef="0" IVar="4" Cut="7.8223061561584473e-01" cType="1" res="4.7694058157503605e-03" rms="4.2427289485931396e-01" purity="5.0860184431076050e-01" nType="0">
          <Node pos="l" depth="2" NCoef="0" IVar="-1" Cut="0.0000000000000000e+00" cType="1" res="-5.7181337615475059e-04" rms="4.2429843544960022e-01" purity="3.4463185071945190e-01" nType="-99"/>
          <Node pos="r" depth="2" NCoef="0" IVar="-1" Cut="0.0000000000000000e+00" cType="1" res="3.2374525908380747e-03" rms="4.2412161827087402e-01" purity="6.8550980091094971e-01" nType="-99"/>
        </Node>
      </Node>
    </BinaryTree>
    <BinaryTree type="DecisionTree" boostWeight="1.0000000000000000e+00" itree="748">
      <Node pos="s" depth="0" NCoef="0" IVar="4" Cut="6.9805276393890381e-01" cType="1" res="5.2731548203155398e-04" rms="4.3156054615974426e-01" purity="5.0080519914627075e-01" nType="0">
        <Node pos="l" depth="1" NCoef="0" IVar="7" Cut="1.3944694995880127e+00" cType="1" res="3.4603381063789129e-03" rms="4.1459867358207703e-01" purity="2.9327875375747681e-01" nType="0">
          <Node pos="l" depth="2" NCoef="0" IVar="-1" Cut="0.0000000000000000e+00" cType="1" res="6.4892726950347424e-03" rms="4.5561519265174866e-01" purity="3.5495442152023315e-01" nType="-99"/>
          <Node pos="r" depth="2" NCoef="0" IVar="-1" Cut="0.0000000000000000e+00" cType="1" res="4.2162177123827860e-05" rms="4.0814483165740967e-01" purity="2.8425264358520508e-01" nType="-99"/>
        </Node>
        <Node pos="r" depth="1" NCoef="0" IVar="4" Cut="9.7510206699371338e-01" cType="1" res="-1.2857315596193075e-03" rms="4.4171017408370972e-01" purity="6.2908762693405151e-01" nType="0">
          <Node pos="l" depth="2" NCoef="0" IVar="-1" Cut="0.0000000000000000e+00" cType="1" res="-9.9734007380902767e-04" rms="4.4507068395614624e-01" purity="6.1405795812606812e-01" nType="-99"/>
          <Node pos="r" depth="2" NCoef="0" IVar="-1" Cut="0.0000000000000000e+00" cType="1" res="5.5717905052006245e-03" rms="4.1329815983772278e-01" purity="7.4897211790084839e-01" nType="-99"/>
        </Node>
      </Node>
    </BinaryTree>
    <BinaryTree type="DecisionTree" boostWeight="1.0000000000000000e+00" itree="749">
      <Node pos="s" depth="0" NCoef="0" IVar="4" Cut="9.4702637195587158e-01" cType="1" res="2.0845111066591926e-05" rms="4.3105670809745789e-01" purity="5.0022816658020020e-01" nType="0">
        <Node pos="l" depth="1" NCoef="0" IVar="6" Cut="3.0000000000000000e+00" cType="1" res="1.4674998819828033e-03" rms="4.3366628885269165e-01" purity="4.5069527626037598e-01" nType="0">
          <Node pos="l" depth="2" NCoef="0" IVar="-1" Cut="0.0000000000000000e+00" cType="1" res="-1.7511751502752304e-04" rms="4.3535599112510681e-01" purity="4.5064532756805420e-01" nType="-99"/>
          <Node pos="r" depth="2" NCoef="0" IVar="-1" Cut="0.0000000000000000e+00" cType="1" res="2.1189395338296890e-03" rms="4.2847949266433716e-01" purity="4.5084553956985474e-01" nType="-99"/>
        </Node>
        <Node pos="r" depth="1" NCoef="0" IVar="4" Cut="9.7897833585739136e-01" cType="1" res="-6.6986684687435627e-03" rms="4.1865691542625427e-01" purity="7.3030161857604980e-01" nType="0">
          <Node pos="l" depth="2" NCoef="0" IVar="-1" Cut="0.0000000000000000e+00" cType="1" res="-4.1510015726089478e-03" rms="4.1731795668601990e-01" purity="7.3107510805130005e-01" nType="-99"/>
          <Node pos="r" depth="2" NCoef="0" IVar="-1" Cut="0.0000000000000000e+00" cType="1" res="3.6649317480623722e-03" rms="4.2154768109321594e-01" purity="7.2822302579879761e-01" nType="-99"/>
        </Node>
      </Node>
    </BinaryTree>
    <BinaryTree type="DecisionTree" boostWeight="1.0000000000000000e+00" itree="750">
      <Node pos="s" depth="0" NCoef="0" IVar="9" Cut="6.1904764175415039e-01" cType="1" res="1.0043127986136824e-04" rms="4.3146106600761414e-01" purity="4.9992394447326660e-01" nType="0">
        <Node pos="l" depth="1" NCoef="0" IVar="3" Cut="-2.3809523880481720e-01" cType="1" res="8.6209992878139019e-04" rms="4.3056717514991760e-01" purity="5.0641697645187378e-01" nType="0">
          <Node pos="l" depth="2" NCoef="0" IVar="-1" Cut="0.0000000000000000e+00" cType="1" res="1.4368731062859297e-03" rms="4.3474292755126953e-01" purity="5.2275460958480835e-01" nType="-99"/>
          <Node pos="r" depth="2" NCoef="0" IVar="-1" Cut="0.0000000000000000e+00" cType="1" res="-2.3790508566889912e-04" rms="4.2896842956542969e-01" purity="5.0025421380996704e-01" nType="-99"/>
        </Node>
        <Node pos="r" depth="1" NCoef="0" IVar="4" Cut="7.7535355091094971e-01" cType="1" res="-9.5276236534118652e-03" rms="4.4249188899993896e-01" purity="4.1784709692001343e-01" nType="0">
          <Node pos="l" depth="2" NCoef="0" IVar="-1" Cut="0.0000000000000000e+00" cType="1" res="1.8549362721387297e-04" rms="4.2399427294731140e-01" purity="2.7911925315856934e-01" nType="-99"/>
          <Node pos="r" depth="2" NCoef="0" IVar="-1" Cut="0.0000000000000000e+00" cType="1" res="-4.4901277869939804e-03" rms="4.5946487784385681e-01" purity="5.5205613374710083e-01" nType="-99"/>
        </Node>
      </Node>
    </BinaryTree>
    <BinaryTree type="DecisionTree" boostWeight="1.0000000000000000e+00" itree="751">
      <Node pos="s" depth="0" NCoef="0" IVar="10" Cut="4.3904762268066406e+01" cType="1" res="-4.7141002141870558e-04" rms="4.3257823586463928e-01" purity="4.9992054700851440e-01" nType="0">
        <Node pos="l" depth="1" NCoef="0" IVar="10" Cut="3.9523808956146240e+00" cType="1" res="-1.5864064916968346e-03" rms="4.3343853950500488e-01" purity="5.0638061761856079e-01" nType="0">
          <Node pos="l" depth="2" NCoef="0" IVar="-1" Cut="0.0000000000000000e+00" cType="1" res="-3.2830692362040281e-03" rms="4.7133561968803406e-01" purity="4.4272521138191223e-01" nType="-99"/>
          <Node pos="r" depth="2" NCoef="0" IVar="-1" Cut="0.0000000000000000e+00" cType="1" res="-5.6910521379904822e-05" rms="4.2907214164733887e-01" purity="5.1333653926849365e-01" nType="-99"/>
        </Node>
        <Node pos="r" depth="1" NCoef="0" IVar="4" Cut="6.8373781442642212e-01" cType="1" res="9.0910596773028374e-03" rms="4.2500850558280945e-01" purity="4.4451758265495300e-01" nType="0">
          <Node pos="l" depth="2" NCoef="0" IVar="-1" Cut="0.0000000000000000e+00" cType="1" res="8.4970491006970406e-03" rms="4.0450766682624817e-01" purity="2.9554811120033264e-01" nType="-99"/>
          <Node pos="r" depth="2" NCoef="0" IVar="-1" Cut="0.0000000000000000e+00" cType="1" res="-5.6045460951281711e-05" rms="4.3536338210105896e-01" purity="5.2473121881484985e-01" nType="-99"/>
        </Node>
      </Node>
    </BinaryTree>
    <BinaryTree type="DecisionTree" boostWeight="1.0000000000000000e+00" itree="752">
      <Node pos="s" depth="0" NCoef="0" IVar="3" Cut="-8.0952382087707520e-01" cType="1" res="-6.3312973361462355e-04" rms="4.3213048577308655e-01" purity="5.0026780366897583e-01" nType="0">
        <Node pos="l" depth="1" NCoef="0" IVar="-1" Cut="0.0000000000000000e+00" cType="1" res="3.1903968192636967e-03" rms="4.6003243327140808e-01" purity="4.9718442559242249e-01" nType="-99"/>
        <Node pos="r" depth="1" NCoef="0" IVar="8" Cut="1.7648040056228638e+00" cType="1" res="-1.2765855062752962e-03" rms="4.3079751729965210e-01" purity="5.0040912628173828e-01" nType="0">
          <Node pos="l" depth="2" NCoef="0" IVar="-1" Cut="0.0000000000000000e+00" cType="1" res="-4.7171831829473376e-04" rms="4.3222990632057190e-01" purity="4.8945406079292297e-01" nType="-99"/>
          <Node pos="r" depth="2" NCoef="0" IVar="-1" Cut="0.0000000000000000e+00" cType="1" res="2.5481726042926311e-03" rms="4.0167620778083801e-01" purity="7.1434283256530762e-01" nType="-99"/>
        </Node>
      </Node>
    </BinaryTree>
    <BinaryTree type="DecisionTree" boostWeight="1.0000000000000000e+00" itree="753">
      <Node pos="s" depth="0" NCoef="0" IVar="10" Cut="9.9047622680664062e+00" cType="1" res="-1.8321479437872767e-03" rms="4.3256086111068726e-01" purity="4.9856978654861450e-01" nType="0">
        <Node pos="l" depth="1" NCoef="0" IVar="0" Cut="1.1617238521575928e+00" cType="1" res="-6.9359992630779743e-03" rms="4.5535740256309509e-01" purity="5.1595711708068848e-01" nType="0">
          <Node pos="l" depth="2" NCoef="0" IVar="-1" Cut="0.0000000000000000e+00" cType="1" res="-4.3081156909465790e-03" rms="4.5920225977897644e-01" purity="5.9824407100677490e-01" nType="-99"/>
          <Node pos="r" depth="2" NCoef="0" IVar="-1" Cut="0.0000000000000000e+00" cType="1" res="2.2343122400343418e-03" rms="4.4906863570213318e-01" purity="3.9316016435623169e-01" nType="-99"/>
        </Node>
        <Node pos="r" depth="1" NCoef="0" IVar="6" Cut="1.7142857313156128e+00" cType="1" res="5.9358193539083004e-04" rms="4.2127230763435364e-01" purity="4.9030601978302002e-01" nType="0">
          <Node pos="l" depth="2" NCoef="0" IVar="-1" Cut="0.0000000000000000e+00" cType="1" res="-6.4728199504315853e-04" rms="4.2093586921691895e-01" purity="4.9120226502418518e-01" nType="-99"/>
          <Node pos="r" depth="2" NCoef="0" IVar="-1" Cut="0.0000000000000000e+00" cType="1" res="1.4739021426066756e-03" rms="4.2177140712738037e-01" purity="4.8886191844940186e-01" nType="-99"/>
        </Node>
      </Node>
    </BinaryTree>
    <BinaryTree type="DecisionTree" boostWeight="1.0000000000000000e+00" itree="754">
      <Node pos="s" depth="0" NCoef="0" IVar="3" Cut="-4.2857143282890320e-01" cType="1" res="-1.3852090341970325e-04" rms="4.3224984407424927e-01" purity="5.0065851211547852e-01" nType="0">
        <Node pos="l" depth="1" NCoef="0" IVar="2" Cut="-7.8234806656837463e-02" cType="1" res="5.5298698134720325e-03" rms="4.4243460893630981e-01" purity="5.1600241661071777e-01" nType="0">
          <Node pos="l" depth="2" NCoef="0" IVar="-1" Cut="0.0000000000000000e+00" cType="1" res="3.1013504485599697e-04" rms="4.4037452340126038e-01" purity="5.1934248208999634e-01" nType="-99"/>
          <Node pos="r" depth="2" NCoef="0" IVar="-1" Cut="0.0000000000000000e+00" cType="1" res="3.6838978994637728e-03" rms="4.4677817821502686e-01" purity="5.0866788625717163e-01" nType="-99"/>
        </Node>
        <Node pos="r" depth="1" NCoef="0" IVar="9" Cut="-6.1904764175415039e-01" cType="1" res="-1.1805787216871977e-03" rms="4.3034318089485168e-01" purity="4.9783775210380554e-01" nType="0">
          <Node pos="l" depth="2" NCoef="0" IVar="-1" Cut="0.0000000000000000e+00" cType="1" res="2.5112333241850138e-03" rms="4.3612751364707947e-01" purity="4.2027637362480164e-01" nType="-99"/>
          <Node pos="r" depth="2" NCoef="0" IVar="-1" Cut="0.0000000000000000e+00" cType="1" res="-5.1578902639448643e-04" rms="4.2992791533470154e-01" purity="5.0323301553726196e-01" nType="-99"/>
        </Node>
      </Node>
    </BinaryTree>
    <BinaryTree type="DecisionTree" boostWeight="1.0000000000000000e+00" itree="755">
      <Node pos="s" depth="0" NCoef="0" IVar="5" Cut="2.6793467998504639e+00" cType="1" res="-1.9717474060598761e-05" rms="4.3181005120277405e-01" purity="5.0089126825332642e-01" nType="0">
        <Node pos="l" depth="1" NCoef="0" IVar="9" Cut="4.7619048506021500e-02" cType="1" res="9.2417822452262044e-04" rms="4.3285426497459412e-01" purity="5.0151067972183228e-01" nType="0">
          <Node pos="l" depth="2" NCoef="0" IVar="-1" Cut="0.0000000000000000e+00" cType="1" res="-4.7272196388803422e-04" rms="4.3238332867622375e-01" purity="4.9741005897521973e-01" nType="-99"/>
          <Node pos="r" depth="2" NCoef="0" IVar="-1" Cut="0.0000000000000000e+00" cType="1" res="1.1027322616428137e-03" rms="4.3339595198631287e-01" purity="5.0642913579940796e-01" nType="-99"/>
        </Node>
        <Node pos="r" depth="1" NCoef="0" IVar="9" Cut="-3.6085121333599091e-02" cType="1" res="-9.9104689434170723e-03" rms="4.2058485746383667e-01" purity="4.9440115690231323e-01" nType="0">
          <Node pos="l" depth="2" NCoef="0" IVar="-1" Cut="0.0000000000000000e+00" cType="1" res="4.0882607572712004e-04" rms="4.2145365476608276e-01" purity="5.0238001346588135e-01" nType="-99"/>
          <Node pos="r" depth="2" NCoef="0" IVar="-1" Cut="0.0000000000000000e+00" cType="1" res="-5.3205839358270168e-03" rms="4.1966325044631958e-01" purity="4.8799598217010498e-01" nType="-99"/>
        </Node>
      </Node>
    </BinaryTree>
    <BinaryTree type="DecisionTree" boostWeight="1.0000000000000000e+00" itree="756">
      <Node pos="s" depth="0" NCoef="0" IVar="8" Cut="1.1659349501132965e-01" cType="1" res="-2.9186545871198177e-03" rms="4.3162605166435242e-01" purity="4.9747058749198914e-01" nType="0">
        <Node pos="l" depth="1" NCoef="0" IVar="6" Cut="1.6190476417541504e+00" cType="1" res="-5.6422911584377289e-03" rms="4.3225693702697754e-01" purity="4.8441073298454285e-01" nType="0">
          <Node pos="l" depth="2" NCoef="0" IVar="-1" Cut="0.0000000000000000e+00" cType="1" res="-5.9528491692617536e-04" rms="4.3462932109832764e-01" purity="4.9289762973785400e-01" nType="-99"/>
          <Node pos="r" depth="2" NCoef="0" IVar="-1" Cut="0.0000000000000000e+00" cType="1" res="-3.3141833264380693e-03" rms="4.2738896608352661e-01" purity="4.6742174029350281e-01" nType="-99"/>
        </Node>
        <Node pos="r" depth="1" NCoef="0" IVar="10" Cut="3.1761905670166016e+01" cType="1" res="6.6319783218204975e-04" rms="4.3076872825622559e-01" purity="5.1464551687240601e-01" nType="0">
          <Node pos="l" depth="2" NCoef="0" IVar="-1" Cut="0.0000000000000000e+00" cType="1" res="-3.7910291575826705e-04" rms="4.3487042188644409e-01" purity="5.2047652006149292e-01" nType="-99"/>
          <Node pos="r" depth="2" NCoef="0" IVar="-1" Cut="0.0000000000000000e+00" cType="1" res="2.2422713227570057e-03" rms="4.1597399115562439e-01" purity="4.9418660998344421e-01" nType="-99"/>
        </Node>
      </Node>
    </BinaryTree>
    <BinaryTree type="DecisionTree" boostWeight="1.0000000000000000e+00" itree="757">
      <Node pos="s" depth="0" NCoef="0" IVar="3" Cut="7.1428573131561279e-01" cType="1" res="1.6848858213052154e-03" rms="4.3185561895370483e-01" purity="5.0146174430847168e-01" nType="0">
        <Node pos="l" depth="1" NCoef="0" IVar="7" Cut="5.1556496620178223e+00" cType="1" res="2.4812216870486736e-03" rms="4.3033888936042786e-01" purity="5.0251138210296631e-01" nType="0">
          <Node pos="l" depth="2" NCoef="0" IVar="-1" Cut="0.0000000000000000e+00" cType="1" res="1.0331905214115977e-03" rms="4.3476456403732300e-01" purity="4.6730506420135498e-01" nType="-99"/>
          <Node pos="r" depth="2" NCoef="0" IVar="-1" Cut="0.0000000000000000e+00" cType="1" res="-6.1432638904079795e-04" rms="4.1573351621627808e-01" purity="6.1587852239608765e-01" nType="-99"/>
        </Node>
        <Node pos="r" depth="1" NCoef="0" IVar="-1" Cut="0.0000000000000000e+00" cType="1" res="-2.6605606544762850e-03" rms="4.5539936423301697e-01" purity="4.8455429077148438e-01" nType="-99"/>
      </Node>
    </BinaryTree>
    <BinaryTree type="DecisionTree" boostWeight="1.0000000000000000e+00" itree="758">
      <Node pos="s" depth="0" NCoef="0" IVar="3" Cut="7.1428573131561279e-01" cType="1" res="-1.8787166482070461e-05" rms="4.3211731314659119e-01" purity="5.0095951557159424e-01" nType="0">
        <Node pos="l" depth="1" NCoef="0" IVar="4" Cut="4.0716162323951721e-01" cType="1" res="-7.0793641498312354e-04" rms="4.3079558014869690e-01" purity="5.0043296813964844e-01" nType="0">
          <Node pos="l" depth="2" NCoef="0" IVar="-1" Cut="0.0000000000000000e+00" cType="1" res="2.7816372457891703e-03" rms="3.0680173635482788e-01" purity="1.1084906011819839e-01" nType="-99"/>
          <Node pos="r" depth="2" NCoef="0" IVar="-1" Cut="0.0000000000000000e+00" cType="1" res="-3.4592219162732363e-04" rms="4.4286301732063293e-01" purity="5.4536068439483643e-01" nType="-99"/>
        </Node>
        <Node pos="r" depth="1" NCoef="0" IVar="-1" Cut="0.0000000000000000e+00" cType="1" res="2.6577250100672245e-03" rms="4.5277753472328186e-01" purity="5.0945937633514404e-01" nType="-99"/>
      </Node>
    </BinaryTree>
    <BinaryTree type="DecisionTree" boostWeight="1.0000000000000000e+00" itree="759">
      <Node pos="s" depth="0" NCoef="0" IVar="3" Cut="8.0952382087707520e-01" cType="1" res="-6.5879995236173272e-04" rms="4.3170383572578430e-01" purity="4.9894243478775024e-01" nType="0">
        <Node pos="l" depth="1" NCoef="0" IVar="5" Cut="9.2284566164016724e-01" cType="1" res="-1.1886178253917024e-04" rms="4.3044430017471313e-01" purity="4.9985116720199585e-01" nType="0">
          <Node pos="l" depth="2" NCoef="0" IVar="-1" Cut="0.0000000000000000e+00" cType="1" res="9.0117932995781302e-04" rms="4.4366684556007385e-01" purity="5.1343047618865967e-01" nType="-99"/>
          <Node pos="r" depth="2" NCoef="0" IVar="-1" Cut="0.0000000000000000e+00" cType="1" res="-5.6315492838621140e-04" rms="4.2337346076965332e-01" purity="4.9277091026306152e-01" nType="-99"/>
        </Node>
        <Node pos="r" depth="1" NCoef="0" IVar="-1" Cut="0.0000000000000000e+00" cType="1" res="-3.0787959694862366e-03" rms="4.5951235294342041e-01" purity="4.7806924581527710e-01" nType="-99"/>
      </Node>
    </BinaryTree>
    <BinaryTree type="DecisionTree" boostWeight="1.0000000000000000e+00" itree="760">
      <Node pos="s" depth="0" NCoef="0" IVar="4" Cut="5.6175756454467773e-01" cType="1" res="4.9645785475149751e-04" rms="4.3071761727333069e-01" purity="5.0199627876281738e-01" nType="0">
        <Node pos="l" depth="1" NCoef="0" IVar="10" Cut="3.3619049072265625e+01" cType="1" res="-5.6683751754462719e-03" rms="3.7765970826148987e-01" purity="1.9640815258026123e-01" nType="0">
          <Node pos="l" depth="2" NCoef="0" IVar="-1" Cut="0.0000000000000000e+00" cType="1" res="-3.1390360090881586e-03" rms="3.8059505820274353e-01" purity="1.9668944180011749e-01" nType="-99"/>
          <Node pos="r" depth="2" NCoef="0" IVar="-1" Cut="0.0000000000000000e+00" cType="1" res="4.3668383732438087e-03" rms="3.6348724365234375e-01" purity="1.9512508809566498e-01" nType="-99"/>
        </Node>
        <Node pos="r" depth="1" NCoef="0" IVar="0" Cut="9.1113716363906860e-01" cType="1" res="2.4867169559001923e-03" rms="4.4648441672325134e-01" purity="6.0065257549285889e-01" nType="0">
          <Node pos="l" depth="2" NCoef="0" IVar="-1" Cut="0.0000000000000000e+00" cType="1" res="-6.1488582286983728e-04" rms="4.2943739891052246e-01" purity="7.2625333070755005e-01" nType="-99"/>
          <Node pos="r" depth="2" NCoef="0" IVar="-1" Cut="0.0000000000000000e+00" cType="1" res="1.5298230573534966e-03" rms="4.6091380715370178e-01" purity="4.9020275473594666e-01" nType="-99"/>
        </Node>
      </Node>
    </BinaryTree>
    <BinaryTree type="DecisionTree" boostWeight="1.0000000000000000e+00" itree="761">
      <Node pos="s" depth="0" NCoef="0" IVar="5" Cut="1.5244982242584229e+00" cType="1" res="-1.7029689624905586e-03" rms="4.3172845244407654e-01" purity="4.9797940254211426e-01" nType="0">
        <Node pos="l" depth="1" NCoef="0" IVar="4" Cut="7.4005448818206787e-01" cType="1" res="-3.5971999168395996e-03" rms="4.3632832169532776e-01" purity="5.0296610593795776e-01" nType="0">
          <Node pos="l" depth="2" NCoef="0" IVar="-1" Cut="0.0000000000000000e+00" cType="1" res="-2.2727157920598984e-03" rms="4.2580392956733704e-01" purity="3.0761286616325378e-01" nType="-99"/>
          <Node pos="r" depth="2" NCoef="0" IVar="-1" Cut="0.0000000000000000e+00" cType="1" res="-4.6871649828972295e-05" rms="4.4367602467536926e-01" purity="6.4278101921081543e-01" nType="-99"/>
        </Node>
        <Node pos="r" depth="1" NCoef="0" IVar="4" Cut="4.4282615184783936e-01" cType="1" res="1.4733165735378861e-03" rms="4.2388427257537842e-01" purity="4.8961761593818665e-01" nType="0">
          <Node pos="l" depth="2" NCoef="0" IVar="-1" Cut="0.0000000000000000e+00" cType="1" res="-6.2687988393008709e-03" rms="2.9258796572685242e-01" purity="9.9113844335079193e-02" nType="-99"/>
          <Node pos="r" depth="2" NCoef="0" IVar="-1" Cut="0.0000000000000000e+00" cType="1" res="9.6534145995974541e-04" rms="4.4289121031761169e-01" purity="5.5815774202346802e-01" nType="-99"/>
        </Node>
      </Node>
    </BinaryTree>
    <BinaryTree type="DecisionTree" boostWeight="1.0000000000000000e+00" itree="762">
      <Node pos="s" depth="0" NCoef="0" IVar="9" Cut="4.7619048506021500e-02" cType="1" res="2.6072945911437273e-03" rms="4.3132975697517395e-01" purity="5.0371038913726807e-01" nType="0">
        <Node pos="l" depth="1" NCoef="0" IVar="6" Cut="-8.0952382087707520e-01" cType="1" res="4.8446496948599815e-03" rms="4.3121877312660217e-01" purity="5.0538831949234009e-01" nType="0">
          <Node pos="l" depth="2" NCoef="0" IVar="-1" Cut="0.0000000000000000e+00" cType="1" res="-4.2996176489396021e-05" rms="4.3097347021102905e-01" purity="4.9853721261024475e-01" nType="-99"/>
          <Node pos="r" depth="2" NCoef="0" IVar="-1" Cut="0.0000000000000000e+00" cType="1" res="2.2039809264242649e-03" rms="4.3135565519332886e-01" purity="5.1017820835113525e-01" nType="-99"/>
        </Node>
        <Node pos="r" depth="1" NCoef="0" IVar="10" Cut="8.9523811340332031e+00" cType="1" res="-1.0974379983963445e-04" rms="4.3144887685775757e-01" purity="5.0167280435562134e-01" nType="0">
          <Node pos="l" depth="2" NCoef="0" IVar="-1" Cut="0.0000000000000000e+00" cType="1" res="1.3919438933953643e-03" rms="4.5368665456771851e-01" purity="5.3015232086181641e-01" nType="-99"/>
          <Node pos="r" depth="2" NCoef="0" IVar="-1" Cut="0.0000000000000000e+00" cType="1" res="-7.3359819361940026e-04" rms="4.2157676815986633e-01" purity="4.8951917886734009e-01" nType="-99"/>
        </Node>
      </Node>
    </BinaryTree>
    <BinaryTree type="DecisionTree" boostWeight="1.0000000000000000e+00" itree="763">
      <Node pos="s" depth="0" NCoef="0" IVar="10" Cut="3.3047618865966797e+01" cType="1" res="-1.3381824828684330e-03" rms="4.3153250217437744e-01" purity="4.9981203675270081e-01" nType="0">
        <Node pos="l" depth="1" NCoef="0" IVar="4" Cut="6.4720600843429565e-01" cType="1" res="1.0907215619226918e-04" rms="4.3416267633438110e-01" purity="5.0681382417678833e-01" nType="0">
          <Node pos="l" depth="2" NCoef="0" IVar="-1" Cut="0.0000000000000000e+00" cType="1" res="-1.8411432392895222e-03" rms="4.0711742639541626e-01" purity="2.5224393606185913e-01" nType="-99"/>
          <Node pos="r" depth="2" NCoef="0" IVar="-1" Cut="0.0000000000000000e+00" cType="1" res="7.8947487054392695e-04" rms="4.4674062728881836e-01" purity="6.3110494613647461e-01" nType="-99"/>
        </Node>
        <Node pos="r" depth="1" NCoef="0" IVar="0" Cut="8.8860201835632324e-01" cType="1" res="-7.6062935404479504e-03" rms="4.1989344358444214e-01" purity="4.6948689222335815e-01" nType="0">
          <Node pos="l" depth="2" NCoef="0" IVar="-1" Cut="0.0000000000000000e+00" cType="1" res="1.9733228255063295e-03" rms="4.2980614304542542e-01" purity="6.7779755592346191e-01" nType="-99"/>
          <Node pos="r" depth="2" NCoef="0" IVar="-1" Cut="0.0000000000000000e+00" cType="1" res="-4.9760271795094013e-03" rms="4.1280850768089294e-01" purity="3.2976827025413513e-01" nType="-99"/>
        </Node>
      </Node>
    </BinaryTree>
    <BinaryTree type="DecisionTree" boostWeight="1.0000000000000000e+00" itree="764">
      <Node pos="s" depth="0" NCoef="0" IVar="10" Cut="2.7142856597900391e+01" cType="1" res="1.3212321791797876e-03" rms="4.3081411719322205e-01" purity="5.0094079971313477e-01" nType="0">
        <Node pos="l" depth="1" NCoef="0" IVar="4" Cut="6.4716738462448120e-01" cType="1" res="-3.1661492539569736e-04" rms="4.3634068965911865e-01" purity="5.0429856777191162e-01" nType="0">
          <Node pos="l" depth="2" NCoef="0" IVar="-1" Cut="0.0000000000000000e+00" cType="1" res="-2.3364883381873369e-03" rms="4.0923899412155151e-01" purity="2.5052356719970703e-01" nType="-99"/>
          <Node pos="r" depth="2" NCoef="0" IVar="-1" Cut="0.0000000000000000e+00" cType="1" res="8.3082477794960141e-04" rms="4.4886201620101929e-01" purity="6.2750124931335449e-01" nType="-99"/>
        </Node>
        <Node pos="r" depth="1" NCoef="0" IVar="0" Cut="1.1624919176101685e+00" cType="1" res="5.9305052272975445e-03" rms="4.1483137011528015e-01" purity="4.9149128794670105e-01" nType="0">
          <Node pos="l" depth="2" NCoef="0" IVar="-1" Cut="0.0000000000000000e+00" cType="1" res="2.9212620574980974e-03" rms="4.2981851100921631e-01" purity="5.5390363931655884e-01" nType="-99"/>
          <Node pos="r" depth="2" NCoef="0" IVar="-1" Cut="0.0000000000000000e+00" cType="1" res="-1.0789736174046993e-02" rms="3.0971139669418335e-01" purity="1.2127098441123962e-01" nType="-99"/>
        </Node>
      </Node>
    </BinaryTree>
    <BinaryTree type="DecisionTree" boostWeight="1.0000000000000000e+00" itree="765">
      <Node pos="s" depth="0" NCoef="0" IVar="9" Cut="4.2857143282890320e-01" cType="1" res="1.7263721674680710e-03" rms="4.3139049410820007e-01" purity="5.0248438119888306e-01" nType="0">
        <Node pos="l" depth="1" NCoef="0" IVar="3" Cut="-5.2380955219268799e-01" cType="1" res="2.7395191136747599e-03" rms="4.3075120449066162e-01" purity="5.0957399606704712e-01" nType="0">
          <Node pos="l" depth="2" NCoef="0" IVar="-1" Cut="0.0000000000000000e+00" cType="1" res="2.3561429698020220e-03" rms="4.4357025623321533e-01" purity="5.2885937690734863e-01" nType="-99"/>
          <Node pos="r" depth="2" NCoef="0" IVar="-1" Cut="0.0000000000000000e+00" cType="1" res="5.2585732191801071e-04" rms="4.2922082543373108e-01" purity="5.0731945037841797e-01" nType="-99"/>
        </Node>
        <Node pos="r" depth="1" NCoef="0" IVar="8" Cut="9.3865394592285156e-03" cType="1" res="-4.1138147935271263e-03" rms="4.3501129746437073e-01" purity="4.6161669492721558e-01" nType="0">
          <Node pos="l" depth="2" NCoef="0" IVar="-1" Cut="0.0000000000000000e+00" cType="1" res="-3.2318863086402416e-03" rms="4.1945433616638184e-01" purity="3.2897046208381653e-01" nType="-99"/>
          <Node pos="r" depth="2" NCoef="0" IVar="-1" Cut="0.0000000000000000e+00" cType="1" res="1.4978949911892414e-04" rms="4.4422721862792969e-01" purity="5.4305452108383179e-01" nType="-99"/>
        </Node>
      </Node>
    </BinaryTree>
    <BinaryTree type="DecisionTree" boostWeight="1.0000000000000000e+00" itree="766">
      <Node pos="s" depth="0" NCoef="0" IVar="2" Cut="-5.0307530164718628e-01" cType="1" res="-7.1484610089100897e-05" rms="4.3181350827217102e-01" purity="5.0061249732971191e-01" nType="0">
        <Node pos="l" depth="1" NCoef="0" IVar="6" Cut="-3.1904761791229248e+00" cType="1" res="-3.5629617050290108e-03" rms="4.2724046111106873e-01" purity="4.9984949827194214e-01" nType="0">
          <Node pos="l" depth="2" NCoef="0" IVar="-1" Cut="0.0000000000000000e+00" cType="1" res="-5.1065711304545403e-03" rms="4.1566887497901917e-01" purity="4.5577406883239746e-01" nType="-99"/>
          <Node pos="r" depth="2" NCoef="0" IVar="-1" Cut="0.0000000000000000e+00" cType="1" res="-2.8239612584002316e-04" rms="4.2914205789566040e-01" purity="5.0740349292755127e-01" nType="-99"/>
        </Node>
        <Node pos="r" depth="1" NCoef="0" IVar="9" Cut="-1.4285714924335480e-01" cType="1" res="1.2944090412929654e-03" rms="4.3358170986175537e-01" purity="5.0091099739074707e-01" nType="0">
          <Node pos="l" depth="2" NCoef="0" IVar="-1" Cut="0.0000000000000000e+00" cType="1" res="-1.0080458596348763e-03" rms="4.3416857719421387e-01" purity="4.8507881164550781e-01" nType="-99"/>
          <Node pos="r" depth="2" NCoef="0" IVar="-1" Cut="0.0000000000000000e+00" cType="1" res="1.0925247333943844e-03" rms="4.3322959542274475e-01" purity="5.0969529151916504e-01" nType="-99"/>
        </Node>
      </Node>
    </BinaryTree>
    <BinaryTree type="DecisionTree" boostWeight="1.0000000000000000e+00" itree="767">
      <Node pos="s" depth="0" NCoef="0" IVar="6" Cut="-2.6666667461395264e+00" cType="1" res="-1.9942745566368103e-03" rms="4.3067216873168945e-01" purity="4.9872928857803345e-01" nType="0">
        <Node pos="l" depth="1" NCoef="0" IVar="2" Cut="1.0188676118850708e+00" cType="1" res="-7.8342901542782784e-03" rms="4.2346772551536560e-01" purity="4.7491112351417542e-01" nType="0">
          <Node pos="l" depth="2" NCoef="0" IVar="-1" Cut="0.0000000000000000e+00" cType="1" res="-3.0827524606138468e-03" rms="4.2487490177154541e-01" purity="4.7029590606689453e-01" nType="-99"/>
          <Node pos="r" depth="2" NCoef="0" IVar="-1" Cut="0.0000000000000000e+00" cType="1" res="2.2023776546120644e-03" rms="4.1669967770576477e-01" purity="4.9573466181755066e-01" nType="-99"/>
        </Node>
        <Node pos="r" depth="1" NCoef="0" IVar="9" Cut="4.7619048506021500e-02" cType="1" res="-4.8199578304775059e-04" rms="4.3250533938407898e-01" purity="5.0489699840545654e-01" nType="0">
          <Node pos="l" depth="2" NCoef="0" IVar="-1" Cut="0.0000000000000000e+00" cType="1" res="5.6715164100751281e-04" rms="4.3219852447509766e-01" purity="5.0621700286865234e-01" nType="-99"/>
          <Node pos="r" depth="2" NCoef="0" IVar="-1" Cut="0.0000000000000000e+00" cType="1" res="-9.6159771783277392e-04" rms="4.3285202980041504e-01" purity="5.0331282615661621e-01" nType="-99"/>
        </Node>
      </Node>
    </BinaryTree>
    <BinaryTree type="DecisionTree" boostWeight="1.0000000000000000e+00" itree="768">
      <Node pos="s" depth="0" NCoef="0" IVar="8" Cut="8.7689512968063354e-01" cType="1" res="1.2371117481961846e-03" rms="4.3186759948730469e-01" purity="4.9998444318771362e-01" nType="0">
        <Node pos="l" depth="1" NCoef="0" IVar="6" Cut="6.1904764175415039e-01" cType="1" res="2.8509434778243303e-03" rms="4.3358182907104492e-01" purity="4.7895857691764832e-01" nType="0">
          <Node pos="l" depth="2" NCoef="0" IVar="-1" Cut="0.0000000000000000e+00" cType="1" res="1.3046896783635020e-03" rms="4.3385142087936401e-01" purity="4.8401102423667908e-01" nType="-99"/>
          <Node pos="r" depth="2" NCoef="0" IVar="-1" Cut="0.0000000000000000e+00" cType="1" res="7.0730893639847636e-05" rms="4.3324065208435059e-01" purity="4.7283232212066650e-01" nType="-99"/>
        </Node>
        <Node pos="r" depth="1" NCoef="0" IVar="10" Cut="1.0428571701049805e+01" cType="1" res="-6.3146539032459259e-03" rms="4.2367225885391235e-01" purity="5.9837299585342407e-01" nType="0">
          <Node pos="l" depth="2" NCoef="0" IVar="-1" Cut="0.0000000000000000e+00" cType="1" res="2.8171427547931671e-03" rms="4.3696779012680054e-01" purity="6.6409134864807129e-01" nType="-99"/>
          <Node pos="r" depth="2" NCoef="0" IVar="-1" Cut="0.0000000000000000e+00" cType="1" res="-3.1806374900043011e-03" rms="4.1964185237884521e-01" purity="5.7947301864624023e-01" nType="-99"/>
        </Node>
      </Node>
    </BinaryTree>
    <BinaryTree type="DecisionTree" boostWeight="1.0000000000000000e+00" itree="769">
      <Node pos="s" depth="0" NCoef="0" IVar="9" Cut="-6.1904764175415039e-01" cType="1" res="-1.2110088719055057e-03" rms="4.3056407570838928e-01" purity="4.9923568964004517e-01" nType="0">
        <Node pos="l" depth="1" NCoef="0" IVar="4" Cut="7.8338104486465454e-01" cType="1" res="-1.2176148593425751e-02" rms="4.3570610880851746e-01" purity="4.0235981345176697e-01" nType="0">
          <Node pos="l" depth="2" NCoef="0" IVar="-1" Cut="0.0000000000000000e+00" cType="1" res="-1.1338602053001523e-03" rms="4.1239991784095764e-01" purity="2.6874205470085144e-01" nType="-99"/>
          <Node pos="r" depth="2" NCoef="0" IVar="-1" Cut="0.0000000000000000e+00" cType="1" res="-4.7935512848198414e-03" rms="4.5824852585792542e-01" purity="5.3955549001693726e-01" nType="-99"/>
        </Node>
        <Node pos="r" depth="1" NCoef="0" IVar="0" Cut="1.8031352758407593e+00" cType="1" res="-3.4237973159179091e-04" rms="4.3014216423034668e-01" purity="5.0690996646881104e-01" nType="0">
          <Node pos="l" depth="2" NCoef="0" IVar="-1" Cut="0.0000000000000000e+00" cType="1" res="5.2251220040488988e-05" rms="4.3149736523628235e-01" purity="5.1777553558349609e-01" nType="-99"/>
          <Node pos="r" depth="2" NCoef="0" IVar="-1" Cut="0.0000000000000000e+00" cType="1" res="-4.0486771613359451e-03" rms="3.9466124773025513e-01" purity="2.3634141683578491e-01" nType="-99"/>
        </Node>
      </Node>
    </BinaryTree>
    <BinaryTree type="DecisionTree" boostWeight="1.0000000000000000e+00" itree="770">
      <Node pos="s" depth="0" NCoef="0" IVar="5" Cut="3.0690398812294006e-01" cType="1" res="1.2669592397287488e-03" rms="4.3143144249916077e-01" purity="5.0114500522613525e-01" nType="0">
        <Node pos="l" depth="1" NCoef="0" IVar="8" Cut="-2.0638820528984070e-01" cType="1" res="-8.2760043442249298e-03" rms="4.5259058475494385e-01" purity="4.8916834592819214e-01" nType="0">
          <Node pos="l" depth="2" NCoef="0" IVar="-1" Cut="0.0000000000000000e+00" cType="1" res="1.8293457105755806e-03" rms="4.5158508419990540e-01" purity="5.4737371206283569e-01" nType="-99"/>
          <Node pos="r" depth="2" NCoef="0" IVar="-1" Cut="0.0000000000000000e+00" cType="1" res="-3.4066634252667427e-03" rms="4.5282700657844543e-01" purity="4.6709588170051575e-01" nType="-99"/>
        </Node>
        <Node pos="r" depth="1" NCoef="0" IVar="10" Cut="4.4666667938232422e+01" cType="1" res="2.8834764380007982e-03" rms="4.2772248387336731e-01" purity="5.0317376852035522e-01" nType="0">
          <Node pos="l" depth="2" NCoef="0" IVar="-1" Cut="0.0000000000000000e+00" cType="1" res="1.1170564685016870e-03" rms="4.2818385362625122e-01" purity="5.1324379444122314e-01" nType="-99"/>
          <Node pos="r" depth="2" NCoef="0" IVar="-1" Cut="0.0000000000000000e+00" cType="1" res="-1.8378855893388391e-03" rms="4.2403396964073181e-01" purity="4.2572909593582153e-01" nType="-99"/>
        </Node>
      </Node>
    </BinaryTree>
    <BinaryTree type="DecisionTree" boostWeight="1.0000000000000000e+00" itree="771">
      <Node pos="s" depth="0" NCoef="0" IVar="10" Cut="5.2285713195800781e+01" cType="1" res="5.2637046792369802e-06" rms="4.3171441555023193e-01" purity="5.0014972686767578e-01" nType="0">
        <Node pos="l" depth="1" NCoef="0" IVar="6" Cut="-4.8571429252624512e+00" cType="1" res="-7.6180213363841176e-04" rms="4.3215024471282959e-01" purity="5.0666809082031250e-01" nType="0">
          <Node pos="l" depth="2" NCoef="0" IVar="-1" Cut="0.0000000000000000e+00" cType="1" res="3.5798416938632727e-03" rms="4.1792625188827515e-01" purity="4.9034199118614197e-01" nType="-99"/>
          <Node pos="r" depth="2" NCoef="0" IVar="-1" Cut="0.0000000000000000e+00" cType="1" res="-5.2729964954778552e-04" rms="4.3340861797332764e-01" purity="5.0816339254379272e-01" nType="-99"/>
        </Node>
        <Node pos="r" depth="1" NCoef="0" IVar="-1" Cut="0.0000000000000000e+00" cType="1" res="3.3208196982741356e-03" rms="4.2452439665794373e-01" purity="3.9630931615829468e-01" nType="-99"/>
      </Node>
    </BinaryTree>
    <BinaryTree type="DecisionTree" boostWeight="1.0000000000000000e+00" itree="772">
      <Node pos="s" depth="0" NCoef="0" IVar="5" Cut="1.6705849766731262e-01" cType="1" res="-2.8036530129611492e-03" rms="4.3210181593894958e-01" purity="4.9702975153923035e-01" nType="0">
        <Node pos="l" depth="1" NCoef="0" IVar="0" Cut="1.2770150899887085e+00" cType="1" res="-1.1422183364629745e-02" rms="4.5311906933784485e-01" purity="4.8219409584999084e-01" nType="0">
          <Node pos="l" depth="2" NCoef="0" IVar="-1" Cut="0.0000000000000000e+00" cType="1" res="-4.0578870102763176e-03" rms="4.6497979760169983e-01" purity="5.6440377235412598e-01" nType="-99"/>
          <Node pos="r" depth="2" NCoef="0" IVar="-1" Cut="0.0000000000000000e+00" cType="1" res="-3.4978555049747229e-04" rms="4.3291896581649780e-01" purity="3.4829527139663696e-01" nType="-99"/>
        </Node>
        <Node pos="r" depth="1" NCoef="0" IVar="4" Cut="8.6059081554412842e-01" cType="1" res="-1.6602915711700916e-03" rms="4.2922326922416687e-01" purity="4.9899789690971375e-01" nType="0">
          <Node pos="l" depth="2" NCoef="0" IVar="-1" Cut="0.0000000000000000e+00" cType="1" res="3.1100880005396903e-04" rms="4.3047097325325012e-01" purity="3.8435661792755127e-01" nType="-99"/>
          <Node pos="r" depth="2" NCoef="0" IVar="-1" Cut="0.0000000000000000e+00" cType="1" res="-1.8127656076103449e-03" rms="4.2697590589523315e-01" purity="7.0052140951156616e-01" nType="-99"/>
        </Node>
      </Node>
    </BinaryTree>
    <BinaryTree type="DecisionTree" boostWeight="1.0000000000000000e+00" itree="773">
      <Node pos="s" depth="0" NCoef="0" IVar="2" Cut="2.8652167320251465e-01" cType="1" res="-9.9438428878784180e-04" rms="4.3107330799102783e-01" purity="4.9863737821578979e-01" nType="0">
        <Node pos="l" depth="1" NCoef="0" IVar="3" Cut="6.1904764175415039e-01" cType="1" res="7.6563819311559200e-04" rms="4.3177217245101929e-01" purity="4.9914789199829102e-01" nType="0">
          <Node pos="l" depth="2" NCoef="0" IVar="-1" Cut="0.0000000000000000e+00" cType="1" res="3.5488163121044636e-05" rms="4.3034127354621887e-01" purity="4.9950298666954041e-01" nType="-99"/>
          <Node pos="r" depth="2" NCoef="0" IVar="-1" Cut="0.0000000000000000e+00" cType="1" res="2.7031898498535156e-03" rms="4.5488223433494568e-01" purity="4.9321559071540833e-01" nType="-99"/>
        </Node>
        <Node pos="r" depth="1" NCoef="0" IVar="3" Cut="-1.4285714924335480e-01" cType="1" res="-4.0299254469573498e-03" rms="4.2984837293624878e-01" purity="4.9775683879852295e-01" nType="0">
          <Node pos="l" depth="2" NCoef="0" IVar="-1" Cut="0.0000000000000000e+00" cType="1" res="-5.2875801920890808e-03" rms="4.3559783697128296e-01" purity="4.9401879310607910e-01" nType="-99"/>
          <Node pos="r" depth="2" NCoef="0" IVar="-1" Cut="0.0000000000000000e+00" cType="1" res="-3.8776249857619405e-04" rms="4.2886218428611755e-01" purity="4.9835667014122009e-01" nType="-99"/>
        </Node>
      </Node>
    </BinaryTree>
    <BinaryTree type="DecisionTree" boostWeight="1.0000000000000000e+00" itree="774">
      <Node pos="s" depth="0" NCoef="0" IVar="3" Cut="-2.3809523880481720e-01" cType="1" res="2.1964781917631626e-03" rms="4.3152967095375061e-01" purity="5.0175625085830688e-01" nType="0">
        <Node pos="l" depth="1" NCoef="0" IVar="4" Cut="9.0591734647750854e-01" cType="1" res="5.9366589412093163e-03" rms="4.3611910939216614e-01" purity="5.1603162288665771e-01" nType="0">
          <Node pos="l" depth="2" NCoef="0" IVar="-1" Cut="0.0000000000000000e+00" cType="1" res="2.6632733643054962e-03" rms="4.3988299369812012e-01" purity="4.2930170893669128e-01" nType="-99"/>
          <Node pos="r" depth="2" NCoef="0" IVar="-1" Cut="0.0000000000000000e+00" cType="1" res="-8.8212266564369202e-04" rms="4.2793282866477966e-01" purity="6.9877034425735474e-01" nType="-99"/>
        </Node>
        <Node pos="r" depth="1" NCoef="0" IVar="2" Cut="-4.4670963287353516e-01" cType="1" res="7.3884893208742142e-04" rms="4.2971900105476379e-01" purity="4.9619293212890625e-01" nType="0">
          <Node pos="l" depth="2" NCoef="0" IVar="-1" Cut="0.0000000000000000e+00" cType="1" res="-1.1956987436860800e-03" rms="4.2757841944694519e-01" purity="4.8959016799926758e-01" nType="-99"/>
          <Node pos="r" depth="2" NCoef="0" IVar="-1" Cut="0.0000000000000000e+00" cType="1" res="5.5947090731933713e-04" rms="4.3027627468109131e-01" purity="4.9794909358024597e-01" nType="-99"/>
        </Node>
      </Node>
    </BinaryTree>
    <BinaryTree type="DecisionTree" boostWeight="1.0000000000000000e+00" itree="775">
      <Node pos="s" depth="0" NCoef="0" IVar="4" Cut="3.9086073637008667e-01" cType="1" res="1.3241828128229827e-04" rms="4.3207141757011414e-01" purity="4.9965521693229675e-01" nType="0">
        <Node pos="l" depth="1" NCoef="0" IVar="10" Cut="2.1571428298950195e+01" cType="1" res="8.5936989635229111e-03" rms="3.0177271366119385e-01" purity="1.0592020303010941e-01" nType="0">
          <Node pos="l" depth="2" NCoef="0" IVar="-1" Cut="0.0000000000000000e+00" cType="1" res="1.1291247792541981e-02" rms="3.3512359857559204e-01" purity="1.3450063765048981e-01" nType="-99"/>
          <Node pos="r" depth="2" NCoef="0" IVar="-1" Cut="0.0000000000000000e+00" cType="1" res="-8.0860527232289314e-03" rms="2.4368306994438171e-01" purity="6.4148783683776855e-02" nType="-99"/>
        </Node>
        <Node pos="r" depth="1" NCoef="0" IVar="4" Cut="9.6051764488220215e-01" cType="1" res="-6.7267514532431960e-04" rms="4.4246628880500793e-01" purity="5.3711920976638794e-01" nType="0">
          <Node pos="l" depth="2" NCoef="0" IVar="-1" Cut="0.0000000000000000e+00" cType="1" res="-5.9023749781772494e-04" rms="4.4732868671417236e-01" purity="5.0131672620773315e-01" nType="-99"/>
          <Node pos="r" depth="2" NCoef="0" IVar="-1" Cut="0.0000000000000000e+00" cType="1" res="2.5801640003919601e-03" rms="4.1309675574302673e-01" purity="7.4410998821258545e-01" nType="-99"/>
        </Node>
      </Node>
    </BinaryTree>
    <BinaryTree type="DecisionTree" boostWeight="1.0000000000000000e+00" itree="776">
      <Node pos="s" depth="0" NCoef="0" IVar="4" Cut="6.8992149829864502e-01" cType="1" res="-4.4494256144389510e-04" rms="4.3242672085762024e-01" purity="5.0037437677383423e-01" nType="0">
        <Node pos="l" depth="1" NCoef="0" IVar="7" Cut="1.3944694995880127e+00" cType="1" res="4.2342692613601685e-03" rms="4.1438886523246765e-01" purity="2.8875458240509033e-01" nType="0">
          <Node pos="l" depth="2" NCoef="0" IVar="-1" Cut="0.0000000000000000e+00" cType="1" res="6.6583650186657906e-03" rms="4.6164342761039734e-01" purity="3.5584113001823425e-01" nType="-99"/>
          <Node pos="r" depth="2" NCoef="0" IVar="-1" Cut="0.0000000000000000e+00" cType="1" res="2.5989953428506851e-04" rms="4.0679717063903809e-01" purity="2.7879366278648376e-01" nType="-99"/>
        </Node>
        <Node pos="r" depth="1" NCoef="0" IVar="4" Cut="9.7474569082260132e-01" cType="1" res="-3.2231223303824663e-03" rms="4.4276541471481323e-01" purity="6.2601900100708008e-01" nType="0">
          <Node pos="l" depth="2" NCoef="0" IVar="-1" Cut="0.0000000000000000e+00" cType="1" res="-1.3309002388268709e-03" rms="4.4621592760086060e-01" purity="6.1082321405410767e-01" nType="-99"/>
          <Node pos="r" depth="2" NCoef="0" IVar="-1" Cut="0.0000000000000000e+00" cType="1" res="3.5280820447951555e-03" rms="4.1527068614959717e-01" purity="7.4144804477691650e-01" nType="-99"/>
        </Node>
      </Node>
    </BinaryTree>
    <BinaryTree type="DecisionTree" boostWeight="1.0000000000000000e+00" itree="777">
      <Node pos="s" depth="0" NCoef="0" IVar="8" Cut="-9.6512985229492188e-01" cType="1" res="-8.4411731222644448e-04" rms="4.3086352944374084e-01" purity="4.9859127402305603e-01" nType="0">
        <Node pos="l" depth="1" NCoef="0" IVar="10" Cut="1.1428571701049805e+01" cType="1" res="4.0722661651670933e-03" rms="4.2187443375587463e-01" purity="6.1925667524337769e-01" nType="0">
          <Node pos="l" depth="2" NCoef="0" IVar="-1" Cut="0.0000000000000000e+00" cType="1" res="6.1298366636037827e-03" rms="4.3611922860145569e-01" purity="6.8089425563812256e-01" nType="-99"/>
          <Node pos="r" depth="2" NCoef="0" IVar="-1" Cut="0.0000000000000000e+00" cType="1" res="-6.2108592828735709e-04" rms="4.1692700982093811e-01" purity="5.9913444519042969e-01" nType="-99"/>
        </Node>
        <Node pos="r" depth="1" NCoef="0" IVar="10" Cut="9.9047622680664062e+00" cType="1" res="-1.7423197859898210e-03" rms="4.3247956037521362e-01" purity="4.7654622793197632e-01" nType="0">
          <Node pos="l" depth="2" NCoef="0" IVar="-1" Cut="0.0000000000000000e+00" cType="1" res="-1.5018505509942770e-03" rms="4.5414587855339050e-01" purity="5.0383913516998291e-01" nType="-99"/>
          <Node pos="r" depth="2" NCoef="0" IVar="-1" Cut="0.0000000000000000e+00" cType="1" res="1.8947047647088766e-04" rms="4.2041504383087158e-01" purity="4.6195068955421448e-01" nType="-99"/>
        </Node>
      </Node>
    </BinaryTree>
    <BinaryTree type="DecisionTree" boostWeight="1.0000000000000000e+00" itree="778">
      <Node pos="s" depth="0" NCoef="0" IVar="8" Cut="-3.5232210159301758e-01" cType="1" res="1.6965690301731229e-03" rms="4.3126392364501953e-01" purity="5.0134438276290894e-01" nType="0">
        <Node pos="l" depth="1" NCoef="0" IVar="4" Cut="9.0330195426940918e-01" cType="1" res="6.3333739526569843e-03" rms="4.2928752303123474e-01" purity="5.4323834180831909e-01" nType="0">
          <Node pos="l" depth="2" NCoef="0" IVar="-1" Cut="0.0000000000000000e+00" cType="1" res="2.9208483174443245e-03" rms="4.3481352925300598e-01" purity="4.6054425835609436e-01" nType="-99"/>
          <Node pos="r" depth="2" NCoef="0" IVar="-1" Cut="0.0000000000000000e+00" cType="1" res="-1.6146643320098519e-03" rms="4.1529271006584167e-01" purity="7.4448555707931519e-01" nType="-99"/>
        </Node>
        <Node pos="r" depth="1" NCoef="0" IVar="3" Cut="-3.3333334326744080e-01" cType="1" res="-7.0573884295299649e-04" rms="4.3226480484008789e-01" purity="4.7963926196098328e-01" nType="0">
          <Node pos="l" depth="2" NCoef="0" IVar="-1" Cut="0.0000000000000000e+00" cType="1" res="-1.8765741260722280e-03" rms="4.4024637341499329e-01" purity="4.8312112689018250e-01" nType="-99"/>
          <Node pos="r" depth="2" NCoef="0" IVar="-1" Cut="0.0000000000000000e+00" cType="1" res="3.0977962887845933e-04" rms="4.2998620867729187e-01" purity="4.7866493463516235e-01" nType="-99"/>
        </Node>
      </Node>
    </BinaryTree>
    <BinaryTree type="DecisionTree" boostWeight="1.0000000000000000e+00" itree="779">
      <Node pos="s" depth="0" NCoef="0" IVar="9" Cut="-1.4285714924335480e-01" cType="1" res="1.5453338855877519e-03" rms="4.3294981122016907e-01" purity="5.0191491842269897e-01" nType="0">
        <Node pos="l" depth="1" NCoef="0" IVar="3" Cut="4.2857143282890320e-01" cType="1" res="-2.1853889338672161e-03" rms="4.3341916799545288e-01" purity="4.8923218250274658e-01" nType="0">
          <Node pos="l" depth="2" NCoef="0" IVar="-1" Cut="0.0000000000000000e+00" cType="1" res="-1.1608038330450654e-03" rms="4.3063887953758240e-01" purity="4.8573598265647888e-01" nType="-99"/>
          <Node pos="r" depth="2" NCoef="0" IVar="-1" Cut="0.0000000000000000e+00" cType="1" res="1.9947974942624569e-03" rms="4.4628894329071045e-01" purity="5.0589096546173096e-01" nType="-99"/>
        </Node>
        <Node pos="r" depth="1" NCoef="0" IVar="7" Cut="7.4834742546081543e+00" cType="1" res="3.5565986763685942e-03" rms="4.3268322944641113e-01" purity="5.0875222682952881e-01" nType="0">
          <Node pos="l" depth="2" NCoef="0" IVar="-1" Cut="0.0000000000000000e+00" cType="1" res="1.2839449336752295e-03" rms="4.3433108925819397e-01" purity="4.9177688360214233e-01" nType="-99"/>
          <Node pos="r" depth="2" NCoef="0" IVar="-1" Cut="0.0000000000000000e+00" cType="1" res="-2.1147488150745630e-03" rms="4.1860181093215942e-01" purity="6.4958393573760986e-01" nType="-99"/>
        </Node>
      </Node>
    </BinaryTree>
    <BinaryTree type="DecisionTree" boostWeight="1.0000000000000000e+00" itree="780">
      <Node pos="s" depth="0" NCoef="0" IVar="3" Cut="-1.4285714924335480e-01" cType="1" res="-6.4996123546734452e-04" rms="4.3145564198493958e-01" purity="4.9982926249504089e-01" nType="0">
        <Node pos="l" depth="1" NCoef="0" IVar="1" Cut="3.8078997135162354e+00" cType="1" res="-4.6475892886519432e-03" rms="4.3295273184776306e-01" purity="5.0161957740783691e-01" nType="0">
          <Node pos="l" depth="2" NCoef="0" IVar="-1" Cut="0.0000000000000000e+00" cType="1" res="-2.0311938133090734e-03" rms="4.3961244821548462e-01" purity="4.9967402219772339e-01" nType="-99"/>
          <Node pos="r" depth="2" NCoef="0" IVar="-1" Cut="0.0000000000000000e+00" cType="1" res="3.8122577825561166e-04" rms="4.2061513662338257e-01" purity="5.0512659549713135e-01" nType="-99"/>
        </Node>
        <Node pos="r" depth="1" NCoef="0" IVar="10" Cut="3.5523811340332031e+01" cType="1" res="1.6129763098433614e-03" rms="4.3058943748474121e-01" purity="4.9881580471992493e-01" nType="0">
          <Node pos="l" depth="2" NCoef="0" IVar="-1" Cut="0.0000000000000000e+00" cType="1" res="8.4183097351342440e-04" rms="4.3271365761756897e-01" purity="5.0868082046508789e-01" nType="-99"/>
          <Node pos="r" depth="2" NCoef="0" IVar="-1" Cut="0.0000000000000000e+00" cType="1" res="-1.4182447921484709e-03" rms="4.2128884792327881e-01" purity="4.5649620890617371e-01" nType="-99"/>
        </Node>
      </Node>
    </BinaryTree>
    <BinaryTree type="DecisionTree" boostWeight="1.0000000000000000e+00" itree="781">
      <Node pos="s" depth="0" NCoef="0" IVar="7" Cut="5.1556496620178223e+00" cType="1" res="-1.4387650880962610e-03" rms="4.2995962500572205e-01" purity="4.9955630302429199e-01" nType="0">
        <Node pos="l" depth="1" NCoef="0" IVar="0" Cut="1.1551470756530762e+00" cType="1" res="-4.0700286626815796e-03" rms="4.3505427241325378e-01" purity="4.6157509088516235e-01" nType="0">
          <Node pos="l" depth="2" NCoef="0" IVar="-1" Cut="0.0000000000000000e+00" cType="1" res="-1.5385666629299521e-03" rms="4.4398784637451172e-01" purity="5.3716856241226196e-01" nType="-99"/>
          <Node pos="r" depth="2" NCoef="0" IVar="-1" Cut="0.0000000000000000e+00" cType="1" res="4.1955408960347995e-05" rms="4.1572889685630798e-01" purity="3.0355906486511230e-01" nType="-99"/>
        </Node>
        <Node pos="r" depth="1" NCoef="0" IVar="8" Cut="-1.4385809898376465e+00" cType="1" res="7.5522060506045818e-03" rms="4.1194942593574524e-01" purity="6.2933719158172607e-01" nType="0">
          <Node pos="l" depth="2" NCoef="0" IVar="-1" Cut="0.0000000000000000e+00" cType="1" res="-2.1980076562613249e-03" rms="4.1419073939323425e-01" purity="6.7059534788131714e-01" nType="-99"/>
          <Node pos="r" depth="2" NCoef="0" IVar="-1" Cut="0.0000000000000000e+00" cType="1" res="3.7298174574971199e-03" rms="4.1092574596405029e-01" purity="6.1330270767211914e-01" nType="-99"/>
        </Node>
      </Node>
    </BinaryTree>
    <BinaryTree type="DecisionTree" boostWeight="1.0000000000000000e+00" itree="782">
      <Node pos="s" depth="0" NCoef="0" IVar="4" Cut="6.5268206596374512e-01" cType="1" res="7.6445890590548515e-04" rms="4.3197658658027649e-01" purity="5.0147479772567749e-01" nType="0">
        <Node pos="l" depth="1" NCoef="0" IVar="7" Cut="1.4063184261322021e+00" cType="1" res="4.6449759975075722e-03" rms="4.0839809179306030e-01" purity="2.6560726761817932e-01" nType="0">
          <Node pos="l" depth="2" NCoef="0" IVar="-1" Cut="0.0000000000000000e+00" cType="1" res="6.7741191014647484e-03" rms="4.5753189921379089e-01" purity="3.4382471442222595e-01" nType="-99"/>
          <Node pos="r" depth="2" NCoef="0" IVar="-1" Cut="0.0000000000000000e+00" cType="1" res="3.9514843956567347e-04" rms="4.0038064122200012e-01" purity="2.5384643673896790e-01" nType="-99"/>
        </Node>
        <Node pos="r" depth="1" NCoef="0" IVar="0" Cut="9.1267633438110352e-01" cType="1" res="-1.1968672042712569e-03" rms="4.4340416789054871e-01" purity="6.2068909406661987e-01" nType="0">
          <Node pos="l" depth="2" NCoef="0" IVar="-1" Cut="0.0000000000000000e+00" cType="1" res="-2.4937661364674568e-03" rms="4.2552039027214050e-01" purity="7.3797231912612915e-01" nType="-99"/>
          <Node pos="r" depth="2" NCoef="0" IVar="-1" Cut="0.0000000000000000e+00" cType="1" res="1.3430864783003926e-03" rms="4.5908057689666748e-01" purity="5.1312077045440674e-01" nType="-99"/>
        </Node>
      </Node>
    </BinaryTree>
    <BinaryTree type="DecisionTree" boostWeight="1.0000000000000000e+00" itree="783">
      <Node pos="s" depth="0" NCoef="0" IVar="3" Cut="-8.0952382087707520e-01" cType="1" res="-5.0392065895721316e-04" rms="4.3208333849906921e-01" purity="4.9841234087944031e-01" nType="0">
        <Node pos="l" depth="1" NCoef="0" IVar="-1" Cut="0.0000000000000000e+00" cType="1" res="2.7238461188971996e-03" rms="4.5617955923080444e-01" purity="4.9380987882614136e-01" nType="-99"/>
        <Node pos="r" depth="1" NCoef="0" IVar="3" Cut="-6.3715940713882446e-01" cType="1" res="-1.0394313139840961e-03" rms="4.3096232414245605e-01" purity="4.9861896038055420e-01" nType="0">
          <Node pos="l" depth="2" NCoef="0" IVar="-1" Cut="0.0000000000000000e+00" cType="1" res="-4.0457025170326233e-03" rms="4.4312343001365662e-01" purity="4.9867913126945496e-01" nType="-99"/>
          <Node pos="r" depth="2" NCoef="0" IVar="-1" Cut="0.0000000000000000e+00" cType="1" res="-1.2445454194676131e-04" rms="4.3047630786895752e-01" purity="4.9861666560173035e-01" nType="-99"/>
        </Node>
      </Node>
    </BinaryTree>
    <BinaryTree type="DecisionTree" boostWeight="1.0000000000000000e+00" itree="784">
      <Node pos="s" depth="0" NCoef="0" IVar="6" Cut="-6.4285712242126465e+00" cType="1" res="-8.3217152860015631e-04" rms="4.3108716607093811e-01" purity="4.9894568324089050e-01" nType="0">
        <Node pos="l" depth="1" NCoef="0" IVar="-1" Cut="0.0000000000000000e+00" cType="1" res="-3.6768745630979538e-03" rms="4.1367769241333008e-01" purity="4.2333602905273438e-01" nType="-99"/>
        <Node pos="r" depth="1" NCoef="0" IVar="10" Cut="3.3619049072265625e+01" cType="1" res="-3.3022632123902440e-04" rms="4.3178701400756836e-01" purity="5.0208270549774170e-01" nType="0">
          <Node pos="l" depth="2" NCoef="0" IVar="-1" Cut="0.0000000000000000e+00" cType="1" res="-4.1642316500656307e-04" rms="4.3491435050964355e-01" purity="5.0601631402969360e-01" nType="-99"/>
          <Node pos="r" depth="2" NCoef="0" IVar="-1" Cut="0.0000000000000000e+00" cType="1" res="1.5906691551208496e-03" rms="4.1639247536659241e-01" purity="4.8319748044013977e-01" nType="-99"/>
        </Node>
      </Node>
    </BinaryTree>
    <BinaryTree type="DecisionTree" boostWeight="1.0000000000000000e+00" itree="785">
      <Node pos="s" depth="0" NCoef="0" IVar="3" Cut="4.2857143282890320e-01" cType="1" res="-6.5671832999214530e-04" rms="4.3095448613166809e-01" purity="4.9901729822158813e-01" nType="0">
        <Node pos="l" depth="1" NCoef="0" IVar="5" Cut="1.6269195079803467e+00" cType="1" res="-1.9336225232109427e-03" rms="4.2819821834564209e-01" purity="4.9627107381820679e-01" nType="0">
          <Node pos="l" depth="2" NCoef="0" IVar="-1" Cut="0.0000000000000000e+00" cType="1" res="-4.1039647840079851e-06" rms="4.3127065896987915e-01" purity="5.0610440969467163e-01" nType="-99"/>
          <Node pos="r" depth="2" NCoef="0" IVar="-1" Cut="0.0000000000000000e+00" cType="1" res="-1.4971395721659064e-03" rms="4.2257621884346008e-01" purity="4.7852903604507446e-01" nType="-99"/>
        </Node>
        <Node pos="r" depth="1" NCoef="0" IVar="7" Cut="1.5364919900894165e+00" cType="1" res="6.3763912767171860e-03" rms="4.4576483964920044e-01" purity="5.1414352655410767e-01" nType="0">
          <Node pos="l" depth="2" NCoef="0" IVar="-1" Cut="0.0000000000000000e+00" cType="1" res="2.9745965548499953e-06" rms="4.6513018012046814e-01" purity="4.5308721065521240e-01" nType="-99"/>
          <Node pos="r" depth="2" NCoef="0" IVar="-1" Cut="0.0000000000000000e+00" cType="1" res="2.5928560644388199e-03" rms="4.3469655513763428e-01" purity="5.4775470495223999e-01" nType="-99"/>
        </Node>
      </Node>
    </BinaryTree>
    <BinaryTree type="DecisionTree" boostWeight="1.0000000000000000e+00" itree="786">
      <Node pos="s" depth="0" NCoef="0" IVar="3" Cut="8.0952382087707520e-01" cType="1" res="-7.1327667683362961e-04" rms="4.3295791745185852e-01" purity="4.9958604574203491e-01" nType="0">
        <Node pos="l" depth="1" NCoef="0" IVar="3" Cut="3.7862658500671387e-01" cType="1" res="-1.4565389137715101e-03" rms="4.3184453248977661e-01" purity="4.9928450584411621e-01" nType="0">
          <Node pos="l" depth="2" NCoef="0" IVar="-1" Cut="0.0000000000000000e+00" cType="1" res="5.9363310356275178e-06" rms="4.3077683448791504e-01" purity="4.9839064478874207e-01" nType="-99"/>
          <Node pos="r" depth="2" NCoef="0" IVar="-1" Cut="0.0000000000000000e+00" cType="1" res="-2.6754450518637896e-03" rms="4.3808075785636902e-01" purity="5.0463837385177612e-01" nType="-99"/>
        </Node>
        <Node pos="r" depth="1" NCoef="0" IVar="-1" Cut="0.0000000000000000e+00" cType="1" res="3.7750962655991316e-03" rms="4.5682445168495178e-01" purity="5.0632601976394653e-01" nType="-99"/>
      </Node>
    </BinaryTree>
    <BinaryTree type="DecisionTree" boostWeight="1.0000000000000000e+00" itree="787">
      <Node pos="s" depth="0" NCoef="0" IVar="6" Cut="-1.4285714924335480e-01" cType="1" res="-1.2199693592265248e-03" rms="4.3137231469154358e-01" purity="4.9848037958145142e-01" nType="0">
        <Node pos="l" depth="1" NCoef="0" IVar="4" Cut="9.4749790430068970e-01" cType="1" res="2.4753443431109190e-03" rms="4.3073108792304993e-01" purity="5.0040006637573242e-01" nType="0">
          <Node pos="l" depth="2" NCoef="0" IVar="-1" Cut="0.0000000000000000e+00" cType="1" res="1.4764001825824380e-03" rms="4.3323799967765808e-01" purity="4.5500507950782776e-01" nType="-99"/>
          <Node pos="r" depth="2" NCoef="0" IVar="-1" Cut="0.0000000000000000e+00" cType="1" res="-3.9293044246733189e-03" rms="4.1727456450462341e-01" purity="7.3302823305130005e-01" nType="-99"/>
        </Node>
        <Node pos="r" depth="1" NCoef="0" IVar="4" Cut="7.8117686510086060e-01" cType="1" res="-3.8213145453482866e-03" rms="4.3180418014526367e-01" purity="4.9712896347045898e-01" nType="0">
          <Node pos="l" depth="2" NCoef="0" IVar="-1" Cut="0.0000000000000000e+00" cType="1" res="-2.2111448924988508e-03" rms="4.2467665672302246e-01" purity="3.2827350497245789e-01" nType="-99"/>
          <Node pos="r" depth="2" NCoef="0" IVar="-1" Cut="0.0000000000000000e+00" cType="1" res="1.7945874787983485e-05" rms="4.3818923830986023e-01" purity="6.5165853500366211e-01" nType="-99"/>
        </Node>
      </Node>
    </BinaryTree>
    <BinaryTree type="DecisionTree" boostWeight="1.0000000000000000e+00" itree="788">
      <Node pos="s" depth="0" NCoef="0" IVar="5" Cut="2.2317354381084442e-01" cType="1" res="2.1406196174211800e-04" rms="4.3166366219520569e-01" purity="4.9947410821914673e-01" nType="0">
        <Node pos="l" depth="1" NCoef="0" IVar="10" Cut="3.5714285373687744e+00" cType="1" res="-1.1014605872333050e-02" rms="4.5466303825378418e-01" purity="4.8362684249877930e-01" nType="0">
          <Node pos="l" depth="2" NCoef="0" IVar="-1" Cut="0.0000000000000000e+00" cType="1" res="-6.3064540736377239e-03" rms="4.6157333254814148e-01" purity="4.1775113344192505e-01" nType="-99"/>
          <Node pos="r" depth="2" NCoef="0" IVar="-1" Cut="0.0000000000000000e+00" cType="1" res="1.1010977905243635e-03" rms="4.4741716980934143e-01" purity="5.4650974273681641e-01" nType="-99"/>
        </Node>
        <Node pos="r" depth="1" NCoef="0" IVar="2" Cut="2.1870710849761963e+00" cType="1" res="1.8442430300638080e-03" rms="4.2819747328758240e-01" purity="5.0177484750747681e-01" nType="0">
          <Node pos="l" depth="2" NCoef="0" IVar="-1" Cut="0.0000000000000000e+00" cType="1" res="6.7975174169987440e-04" rms="4.2894366383552551e-01" purity="5.0248676538467407e-01" nType="-99"/>
          <Node pos="r" depth="2" NCoef="0" IVar="-1" Cut="0.0000000000000000e+00" cType="1" res="-4.0931217372417450e-03" rms="4.0963023900985718e-01" purity="4.8476803302764893e-01" nType="-99"/>
        </Node>
      </Node>
    </BinaryTree>
    <BinaryTree type="DecisionTree" boostWeight="1.0000000000000000e+00" itree="789">
      <Node pos="s" depth="0" NCoef="0" IVar="8" Cut="1.5679434537887573e+00" cType="1" res="1.8262687372043729e-03" rms="4.3130108714103699e-01" purity="5.0205993652343750e-01" nType="0">
        <Node pos="l" depth="1" NCoef="0" IVar="8" Cut="-1.3323488235473633e+00" cType="1" res="8.8708853581920266e-04" rms="4.3328878283500671e-01" purity="4.8765474557876587e-01" nType="0">
          <Node pos="l" depth="2" NCoef="0" IVar="-1" Cut="0.0000000000000000e+00" cType="1" res="-2.1926795598119497e-03" rms="4.1924703121185303e-01" purity="6.5184932947158813e-01" nType="-99"/>
          <Node pos="r" depth="2" NCoef="0" IVar="-1" Cut="0.0000000000000000e+00" cType="1" res="4.7935490147210658e-04" rms="4.3478536605834961e-01" purity="4.6971163153648376e-01" nType="-99"/>
        </Node>
        <Node pos="r" depth="1" NCoef="0" IVar="-1" Cut="0.0000000000000000e+00" cType="1" res="4.4056857004761696e-03" rms="4.0199002623558044e-01" purity="7.0521664619445801e-01" nType="-99"/>
      </Node>
    </BinaryTree>
    <BinaryTree type="DecisionTree" boostWeight="1.0000000000000000e+00" itree="790">
      <Node pos="s" depth="0" NCoef="0" IVar="8" Cut="-1.7734720706939697e+00" cType="1" res="7.5891654705628753e-04" rms="4.3180450797080994e-01" purity="5.0163125991821289e-01" nType="0">
        <Node pos="l" depth="1" NCoef="0" IVar="-1" Cut="0.0000000000000000e+00" cType="1" res="4.2544882744550705e-03" rms="4.0542992949485779e-01" purity="7.2188651561737061e-01" nType="-99"/>
        <Node pos="r" depth="1" NCoef="0" IVar="9" Cut="-2.3809523880481720e-01" cType="1" res="9.3539056251756847e-05" rms="4.3303754925727844e-01" purity="4.9089971184730530e-01" nType="0">
          <Node pos="l" depth="2" NCoef="0" IVar="-1" Cut="0.0000000000000000e+00" cType="1" res="-1.4290981926023960e-03" rms="4.3494129180908203e-01" purity="4.5574542880058289e-01" nType="-99"/>
          <Node pos="r" depth="2" NCoef="0" IVar="-1" Cut="0.0000000000000000e+00" cType="1" res="5.5150344269350171e-04" rms="4.3233731389045715e-01" purity="5.0347149372100830e-01" nType="-99"/>
        </Node>
      </Node>
    </BinaryTree>
    <BinaryTree type="DecisionTree" boostWeight="1.0000000000000000e+00" itree="791">
      <Node pos="s" depth="0" NCoef="0" IVar="3" Cut="3.3333334326744080e-01" cType="1" res="3.4757415414787829e-04" rms="4.3112456798553467e-01" purity="4.9954006075859070e-01" nType="0">
        <Node pos="l" depth="1" NCoef="0" IVar="2" Cut="-9.3058556318283081e-01" cType="1" res="-7.7464093919843435e-04" rms="4.2884078621864319e-01" purity="4.9592635035514832e-01" nType="0">
          <Node pos="l" depth="2" NCoef="0" IVar="-1" Cut="0.0000000000000000e+00" cType="1" res="1.2410547351464629e-03" rms="4.2222735285758972e-01" purity="5.0860786437988281e-01" nType="-99"/>
          <Node pos="r" depth="2" NCoef="0" IVar="-1" Cut="0.0000000000000000e+00" cType="1" res="-5.5774400243535638e-04" rms="4.3046763539314270e-01" purity="4.9275699257850647e-01" nType="-99"/>
        </Node>
        <Node pos="r" depth="1" NCoef="0" IVar="4" Cut="6.2529504299163818e-01" cType="1" res="4.7263186424970627e-03" rms="4.3989479541778564e-01" purity="5.1364010572433472e-01" nType="0">
          <Node pos="l" depth="2" NCoef="0" IVar="-1" Cut="0.0000000000000000e+00" cType="1" res="-1.5887375921010971e-03" rms="4.1172319650650024e-01" purity="2.5158116221427917e-01" nType="-99"/>
          <Node pos="r" depth="2" NCoef="0" IVar="-1" Cut="0.0000000000000000e+00" cType="1" res="2.1043673623353243e-03" rms="4.5024874806404114e-01" purity="6.1491298675537109e-01" nType="-99"/>
        </Node>
      </Node>
    </BinaryTree>
    <BinaryTree type="DecisionTree" boostWeight="1.0000000000000000e+00" itree="792">
      <Node pos="s" depth="0" NCoef="0" IVar="0" Cut="6.4494174718856812e-01" cType="1" res="-1.9546463154256344e-03" rms="4.3093737959861755e-01" purity="4.9883401393890381e-01" nType="0">
        <Node pos="l" depth="1" NCoef="0" IVar="4" Cut="8.6773997545242310e-01" cType="1" res="-9.3717519193887711e-03" rms="4.3463888764381409e-01" purity="6.6797482967376709e-01" nType="0">
          <Node pos="l" depth="2" NCoef="0" IVar="-1" Cut="0.0000000000000000e+00" cType="1" res="1.0523290256969631e-04" rms="4.5895174145698547e-01" purity="5.7114571332931519e-01" nType="-99"/>
          <Node pos="r" depth="2" NCoef="0" IVar="-1" Cut="0.0000000000000000e+00" cType="1" res="-5.5928034707903862e-03" rms="4.1140669584274292e-01" purity="7.5484770536422729e-01" nType="-99"/>
        </Node>
        <Node pos="r" depth="1" NCoef="0" IVar="4" Cut="9.0509134531021118e-01" cType="1" res="-1.0942983208224177e-03" rms="4.3049770593643188e-01" purity="4.7921457886695862e-01" nType="0">
          <Node pos="l" depth="2" NCoef="0" IVar="-1" Cut="0.0000000000000000e+00" cType="1" res="-8.5319404024630785e-04" rms="4.3093734979629517e-01" purity="3.9459845423698425e-01" nType="-99"/>
          <Node pos="r" depth="2" NCoef="0" IVar="-1" Cut="0.0000000000000000e+00" cType="1" res="1.2114209821447730e-03" rms="4.2927932739257812e-01" purity="7.0337599515914917e-01" nType="-99"/>
        </Node>
      </Node>
    </BinaryTree>
    <BinaryTree type="DecisionTree" boostWeight="1.0000000000000000e+00" itree="793">
      <Node pos="s" depth="0" NCoef="0" IVar="3" Cut="-6.1904764175415039e-01" cType="1" res="8.2578003639355302e-04" rms="4.3089991807937622e-01" purity="5.0233310461044312e-01" nType="0">
        <Node pos="l" depth="1" NCoef="0" IVar="10" Cut="4.6666665077209473e+00" cType="1" res="-6.8727685138583183e-03" rms="4.4937500357627869e-01" purity="4.9603226780891418e-01" nType="0">
          <Node pos="l" depth="2" NCoef="0" IVar="-1" Cut="0.0000000000000000e+00" cType="1" res="1.3062857324257493e-03" rms="4.6185702085494995e-01" purity="4.7637999057769775e-01" nType="-99"/>
          <Node pos="r" depth="2" NCoef="0" IVar="-1" Cut="0.0000000000000000e+00" cType="1" res="-4.2183822952210903e-03" rms="4.3937987089157104e-01" purity="5.1101911067962646e-01" nType="-99"/>
        </Node>
        <Node pos="r" depth="1" NCoef="0" IVar="6" Cut="-4.2857141494750977e+00" cType="1" res="1.5428754268214107e-03" rms="4.2913147807121277e-01" purity="5.0292003154754639e-01" nType="0">
          <Node pos="l" depth="2" NCoef="0" IVar="-1" Cut="0.0000000000000000e+00" cType="1" res="-1.5103867044672370e-03" rms="4.1929844021797180e-01" purity="4.5823076367378235e-01" nType="-99"/>
          <Node pos="r" depth="2" NCoef="0" IVar="-1" Cut="0.0000000000000000e+00" cType="1" res="6.1071931850165129e-04" rms="4.3017944693565369e-01" purity="5.0777488946914673e-01" nType="-99"/>
        </Node>
      </Node>
    </BinaryTree>
    <BinaryTree type="DecisionTree" boostWeight="1.0000000000000000e+00" itree="794">
      <Node pos="s" depth="0" NCoef="0" IVar="9" Cut="4.2857143282890320e-01" cType="1" res="1.8638349501998164e-05" rms="4.3162441253662109e-01" purity="4.9916318058967590e-01" nType="0">
        <Node pos="l" depth="1" NCoef="0" IVar="10" Cut="6.0666667938232422e+01" cType="1" res="1.1601824080571532e-03" rms="4.3057692050933838e-01" purity="5.0752151012420654e-01" nType="0">
          <Node pos="l" depth="2" NCoef="0" IVar="-1" Cut="0.0000000000000000e+00" cType="1" res="4.7606613952666521e-04" rms="4.3098747730255127e-01" purity="5.1519346237182617e-01" nType="-99"/>
          <Node pos="r" depth="2" NCoef="0" IVar="-1" Cut="0.0000000000000000e+00" cType="1" res="-3.6130170337855816e-03" rms="4.2086684703826904e-01" purity="3.3288466930389404e-01" nType="-99"/>
        </Node>
        <Node pos="r" depth="1" NCoef="0" IVar="4" Cut="9.0576803684234619e-01" cType="1" res="-6.4561231993138790e-03" rms="4.3746185302734375e-01" purity="4.5175567269325256e-01" nType="0">
          <Node pos="l" depth="2" NCoef="0" IVar="-1" Cut="0.0000000000000000e+00" cType="1" res="6.4890139037743211e-04" rms="4.3231388926506042e-01" purity="3.6448383331298828e-01" nType="-99"/>
          <Node pos="r" depth="2" NCoef="0" IVar="-1" Cut="0.0000000000000000e+00" cType="1" res="-6.2878495082259178e-03" rms="4.4747957587242126e-01" purity="6.3449716567993164e-01" nType="-99"/>
        </Node>
      </Node>
    </BinaryTree>
    <BinaryTree type="DecisionTree" boostWeight="1.0000000000000000e+00" itree="795">
      <Node pos="s" depth="0" NCoef="0" IVar="1" Cut="4.8906760215759277e+00" cType="1" res="-7.4904359644278884e-04" rms="4.3234738707542419e-01" purity="4.9811798334121704e-01" nType="0">
        <Node pos="l" depth="1" NCoef="0" IVar="0" Cut="6.4201694726943970e-01" cType="1" res="1.3010092079639435e-03" rms="4.3743705749511719e-01" purity="5.0248640775680542e-01" nType="0">
          <Node pos="l" depth="2" NCoef="0" IVar="-1" Cut="0.0000000000000000e+00" cType="1" res="-2.6534746866673231e-03" rms="4.4002252817153931e-01" purity="6.6005373001098633e-01" nType="-99"/>
          <Node pos="r" depth="2" NCoef="0" IVar="-1" Cut="0.0000000000000000e+00" cType="1" res="7.3789549060165882e-04" rms="4.3705809116363525e-01" purity="4.8085275292396545e-01" nType="-99"/>
        </Node>
        <Node pos="r" depth="1" NCoef="0" IVar="2" Cut="2.1563768386840820e-01" cType="1" res="-6.4916615374386311e-03" rms="4.1770657896995544e-01" purity="4.8588111996650696e-01" nType="0">
          <Node pos="l" depth="2" NCoef="0" IVar="-1" Cut="0.0000000000000000e+00" cType="1" res="-3.4736222587525845e-03" rms="4.1970521211624146e-01" purity="4.8070231080055237e-01" nType="-99"/>
          <Node pos="r" depth="2" NCoef="0" IVar="-1" Cut="0.0000000000000000e+00" cType="1" res="-1.2758998491335660e-04" rms="4.1551211476325989e-01" purity="4.9131849408149719e-01" nType="-99"/>
        </Node>
      </Node>
    </BinaryTree>
    <BinaryTree type="DecisionTree" boostWeight="1.0000000000000000e+00" itree="796">
      <Node pos="s" depth="0" NCoef="0" IVar="3" Cut="8.0952382087707520e-01" cType="1" res="1.7970280023291707e-03" rms="4.3179219961166382e-01" purity="5.0223505496978760e-01" nType="0">
        <Node pos="l" depth="1" NCoef="0" IVar="8" Cut="-4.8772454261779785e-01" cType="1" res="2.4487527552992105e-03" rms="4.3059387803077698e-01" purity="5.0320917367935181e-01" nType="0">
          <Node pos="l" depth="2" NCoef="0" IVar="-1" Cut="0.0000000000000000e+00" cType="1" res="-7.3284620884805918e-04" rms="4.2676723003387451e-01" purity="5.4977065324783325e-01" nType="-99"/>
          <Node pos="r" depth="2" NCoef="0" IVar="-1" Cut="0.0000000000000000e+00" cType="1" res="1.2212519068270922e-03" rms="4.3217003345489502e-01" purity="4.8368537425994873e-01" nType="-99"/>
        </Node>
        <Node pos="r" depth="1" NCoef="0" IVar="-1" Cut="0.0000000000000000e+00" cType="1" res="-3.1494316644966602e-03" rms="4.5844730734825134e-01" purity="4.7964414954185486e-01" nType="-99"/>
      </Node>
    </BinaryTree>
    <BinaryTree type="DecisionTree" boostWeight="1.0000000000000000e+00" itree="797">
      <Node pos="s" depth="0" NCoef="0" IVar="0" Cut="1.1749670505523682e+00" cType="1" res="-3.0433636857196689e-04" rms="4.3134012818336487e-01" purity="4.9911287426948547e-01" nType="0">
        <Node pos="l" depth="1" NCoef="0" IVar="4" Cut="6.9857090711593628e-01" cType="1" res="1.3799457810819149e-03" rms="4.3835380673408508e-01" purity="5.7221758365631104e-01" nType="0">
          <Node pos="l" depth="2" NCoef="0" IVar="-1" Cut="0.0000000000000000e+00" cType="1" res="1.7681703902781010e-03" rms="4.3723174929618835e-01" purity="3.5313937067985535e-01" nType="-99"/>
          <Node pos="r" depth="2" NCoef="0" IVar="-1" Cut="0.0000000000000000e+00" cType="1" res="-3.8578451494686306e-04" rms="4.3892276287078857e-01" purity="6.8882727622985840e-01" nType="-99"/>
        </Node>
        <Node pos="r" depth="1" NCoef="0" IVar="10" Cut="2.4571428298950195e+01" cType="1" res="-5.0790011882781982e-03" rms="4.1076970100402832e-01" purity="2.9187303781509399e-01" nType="0">
          <Node pos="l" depth="2" NCoef="0" IVar="-1" Cut="0.0000000000000000e+00" cType="1" res="-3.5842461511492729e-04" rms="4.2804780602455139e-01" purity="3.2619065046310425e-01" nType="-99"/>
          <Node pos="r" depth="2" NCoef="0" IVar="-1" Cut="0.0000000000000000e+00" cType="1" res="-1.0732910595834255e-02" rms="3.0892866849899292e-01" purity="1.1932247132062912e-01" nType="-99"/>
        </Node>
      </Node>
    </BinaryTree>
    <BinaryTree type="DecisionTree" boostWeight="1.0000000000000000e+00" itree="798">
      <Node pos="s" depth="0" NCoef="0" IVar="4" Cut="3.5840407013893127e-01" cType="1" res="1.1929473839700222e-04" rms="4.3236684799194336e-01" purity="4.9988493323326111e-01" nType="0">
        <Node pos="l" depth="1" NCoef="0" IVar="-1" Cut="0.0000000000000000e+00" cType="1" res="-5.7124667800962925e-03" rms="2.6468741893768311e-01" purity="7.8750669956207275e-02" nType="-99"/>
        <Node pos="r" depth="1" NCoef="0" IVar="4" Cut="9.5897293090820312e-01" cType="1" res="6.8290845956653357e-04" rms="4.4074392318725586e-01" purity="5.2625775337219238e-01" nType="0">
          <Node pos="l" depth="2" NCoef="0" IVar="-1" Cut="0.0000000000000000e+00" cType="1" res="-1.5176071610767394e-04" rms="4.4497689604759216e-01" purity="4.8911139369010925e-01" nType="-99"/>
          <Node pos="r" depth="2" NCoef="0" IVar="-1" Cut="0.0000000000000000e+00" cType="1" res="2.2770303767174482e-03" rms="4.1532716155052185e-01" purity="7.4119222164154053e-01" nType="-99"/>
        </Node>
      </Node>
    </BinaryTree>
    <BinaryTree type="DecisionTree" boostWeight="1.0000000000000000e+00" itree="799">
      <Node pos="s" depth="0" NCoef="0" IVar="0" Cut="6.4332157373428345e-01" cType="1" res="8.1621961726341397e-05" rms="4.3168374896049500e-01" purity="4.9978160858154297e-01" nType="0">
        <Node pos="l" depth="1" NCoef="0" IVar="9" Cut="1.4285714924335480e-01" cType="1" res="-8.2612819969654083e-03" rms="4.3626883625984192e-01" purity="6.6857504844665527e-01" nType="0">
          <Node pos="l" depth="2" NCoef="0" IVar="-1" Cut="0.0000000000000000e+00" cType="1" res="-3.1681157997809350e-04" rms="4.3116119503974915e-01" purity="6.8311709165573120e-01" nType="-99"/>
          <Node pos="r" depth="2" NCoef="0" IVar="-1" Cut="0.0000000000000000e+00" cType="1" res="-5.1918309181928635e-03" rms="4.4387659430503845e-01" purity="6.4593780040740967e-01" nType="-99"/>
        </Node>
        <Node pos="r" depth="1" NCoef="0" IVar="8" Cut="-1.7210232019424438e+00" cType="1" res="1.0368252405896783e-03" rms="4.3114537000656128e-01" purity="4.8045590519905090e-01" nType="0">
          <Node pos="l" depth="2" NCoef="0" IVar="-1" Cut="0.0000000000000000e+00" cType="1" res="3.4092382993549109e-03" rms="4.1604948043823242e-01" purity="6.9750314950942993e-01" nType="-99"/>
          <Node pos="r" depth="2" NCoef="0" IVar="-1" Cut="0.0000000000000000e+00" cType="1" res="1.2168996181571856e-04" rms="4.3191826343536377e-01" purity="4.6902340650558472e-01" nType="-99"/>
        </Node>
      </Node>
    </BinaryTree>
    <BinaryTree type="DecisionTree" boostWeight="1.0000000000000000e+00" itree="800">
      <Node pos="s" depth="0" NCoef="0" IVar="9" Cut="4.7619048506021500e-02" cType="1" res="1.1874460615217686e-03" rms="4.3079054355621338e-01" purity="5.0199049711227417e-01" nType="0">
        <Node pos="l" depth="1" NCoef="0" IVar="6" Cut="-2.8571429848670959e-01" cType="1" res="-1.4769945992156863e-03" rms="4.3090921640396118e-01" purity="4.9836680293083191e-01" nType="0">
          <Node pos="l" depth="2" NCoef="0" IVar="-1" Cut="0.0000000000000000e+00" cType="1" res="-1.8822879064828157e-03" rms="4.2894941568374634e-01" purity="4.9049967527389526e-01" nType="-99"/>
          <Node pos="r" depth="2" NCoef="0" IVar="-1" Cut="0.0000000000000000e+00" cType="1" res="6.4539711456745863e-04" rms="4.3223756551742554e-01" purity="5.0389331579208374e-01" nType="-99"/>
        </Node>
        <Node pos="r" depth="1" NCoef="0" IVar="4" Cut="8.1807196140289307e-01" cType="1" res="4.3865190818905830e-03" rms="4.3062624335289001e-01" purity="5.0634127855300903e-01" nType="0">
          <Node pos="l" depth="2" NCoef="0" IVar="-1" Cut="0.0000000000000000e+00" cType="1" res="2.7507313643582165e-04" rms="4.2818868160247803e-01" purity="3.5722738504409790e-01" nType="-99"/>
          <Node pos="r" depth="2" NCoef="0" IVar="-1" Cut="0.0000000000000000e+00" cType="1" res="2.1401124540716410e-03" rms="4.3334814906120300e-01" purity="6.7581516504287720e-01" nType="-99"/>
        </Node>
      </Node>
    </BinaryTree>
    <BinaryTree type="DecisionTree" boostWeight="1.0000000000000000e+00" itree="801">
      <Node pos="s" depth="0" NCoef="0" IVar="3" Cut="-4.7619048506021500e-02" cType="1" res="9.9445949308574200e-04" rms="4.3223384022712708e-01" purity="5.0087064504623413e-01" nType="0">
        <Node pos="l" depth="1" NCoef="0" IVar="2" Cut="-6.9345772266387939e-01" cType="1" res="4.2759259231388569e-03" rms="4.3367403745651245e-01" purity="5.0527483224868774e-01" nType="0">
          <Node pos="l" depth="2" NCoef="0" IVar="-1" Cut="0.0000000000000000e+00" cType="1" res="1.2333822087384760e-04" rms="4.2788124084472656e-01" purity="5.0321739912033081e-01" nType="-99"/>
          <Node pos="r" depth="2" NCoef="0" IVar="-1" Cut="0.0000000000000000e+00" cType="1" res="1.6837993171066046e-03" rms="4.3695345520973206e-01" purity="5.0645732879638672e-01" nType="-99"/>
        </Node>
        <Node pos="r" depth="1" NCoef="0" IVar="9" Cut="1.4285714924335480e-01" cType="1" res="-1.7511021578684449e-03" rms="4.3100595474243164e-01" purity="4.9718573689460754e-01" nType="0">
          <Node pos="l" depth="2" NCoef="0" IVar="-1" Cut="0.0000000000000000e+00" cType="1" res="-1.1585692409425974e-03" rms="4.3025517463684082e-01" purity="4.9562910199165344e-01" nType="-99"/>
          <Node pos="r" depth="2" NCoef="0" IVar="-1" Cut="0.0000000000000000e+00" cType="1" res="7.9168705269694328e-04" rms="4.3232390284538269e-01" purity="5.0000834465026855e-01" nType="-99"/>
        </Node>
      </Node>
    </BinaryTree>
    <BinaryTree type="DecisionTree" boostWeight="1.0000000000000000e+00" itree="802">
      <Node pos="s" depth="0" NCoef="0" IVar="9" Cut="-5.2380955219268799e-01" cType="1" res="-9.7616139100864530e-04" rms="4.3216758966445923e-01" purity="4.9857872724533081e-01" nType="0">
        <Node pos="l" depth="1" NCoef="0" IVar="7" Cut="1.5175821781158447e+00" cType="1" res="4.7414302825927734e-03" rms="4.3860414624214172e-01" purity="4.3974158167839050e-01" nType="0">
          <Node pos="l" depth="2" NCoef="0" IVar="-1" Cut="0.0000000000000000e+00" cType="1" res="-2.6136175729334354e-03" rms="4.6314570307731628e-01" purity="3.8875994086265564e-01" nType="-99"/>
          <Node pos="r" depth="2" NCoef="0" IVar="-1" Cut="0.0000000000000000e+00" cType="1" res="4.4426159001886845e-03" rms="4.2008063197135925e-01" purity="4.7568997740745544e-01" nType="-99"/>
        </Node>
        <Node pos="r" depth="1" NCoef="0" IVar="4" Cut="9.0618407726287842e-01" cType="1" res="-1.6482111532241106e-03" rms="4.3139973282814026e-01" purity="5.0549447536468506e-01" nType="0">
          <Node pos="l" depth="2" NCoef="0" IVar="-1" Cut="0.0000000000000000e+00" cType="1" res="-8.2830130122601986e-04" rms="4.3539610505104065e-01" purity="4.1774073243141174e-01" nType="-99"/>
          <Node pos="r" depth="2" NCoef="0" IVar="-1" Cut="0.0000000000000000e+00" cType="1" res="5.9909850824624300e-04" rms="4.2113783955574036e-01" purity="7.2660756111145020e-01" nType="-99"/>
        </Node>
      </Node>
    </BinaryTree>
    <BinaryTree type="DecisionTree" boostWeight="1.0000000000000000e+00" itree="803">
      <Node pos="s" depth="0" NCoef="0" IVar="1" Cut="9.2813520431518555e+00" cType="1" res="8.4230396896600723e-04" rms="4.3078956007957458e-01" purity="5.0123089551925659e-01" nType="0">
        <Node pos="l" depth="1" NCoef="0" IVar="1" Cut="1.7544406652450562e+00" cType="1" res="-1.4174917851050850e-05" rms="4.3224158883094788e-01" purity="5.0082093477249146e-01" nType="0">
          <Node pos="l" depth="2" NCoef="0" IVar="-1" Cut="0.0000000000000000e+00" cType="1" res="1.3208072632551193e-03" rms="4.5487120747566223e-01" purity="5.1272720098495483e-01" nType="-99"/>
          <Node pos="r" depth="2" NCoef="0" IVar="-1" Cut="0.0000000000000000e+00" cType="1" res="-4.2514584492892027e-04" rms="4.2570325732231140e-01" purity="4.9750047922134399e-01" nType="-99"/>
        </Node>
        <Node pos="r" depth="1" NCoef="0" IVar="4" Cut="7.4097722768783569e-01" cType="1" res="1.0497485287487507e-02" rms="4.1394594311714172e-01" purity="5.0585269927978516e-01" nType="0">
          <Node pos="l" depth="2" NCoef="0" IVar="-1" Cut="0.0000000000000000e+00" cType="1" res="5.9675560332834721e-03" rms="4.0753552317619324e-01" purity="3.4903866052627563e-01" nType="-99"/>
          <Node pos="r" depth="2" NCoef="0" IVar="-1" Cut="0.0000000000000000e+00" cType="1" res="8.0410140799358487e-04" rms="4.1889584064483643e-01" purity="6.3240122795104980e-01" nType="-99"/>
        </Node>
      </Node>
    </BinaryTree>
    <BinaryTree type="DecisionTree" boostWeight="1.0000000000000000e+00" itree="804">
      <Node pos="s" depth="0" NCoef="0" IVar="8" Cut="-6.3515365123748779e-01" cType="1" res="-7.6853326754644513e-04" rms="4.3173030018806458e-01" purity="5.0035649538040161e-01" nType="0">
        <Node pos="l" depth="1" NCoef="0" IVar="4" Cut="6.9724076986312866e-01" cType="1" res="-4.3537644669413567e-03" rms="4.2563480138778687e-01" purity="5.6984943151473999e-01" nType="0">
          <Node pos="l" depth="2" NCoef="0" IVar="-1" Cut="0.0000000000000000e+00" cType="1" res="-5.1892604678869247e-03" rms="3.9740514755249023e-01" purity="2.8516718745231628e-01" nType="-99"/>
          <Node pos="r" depth="2" NCoef="0" IVar="-1" Cut="0.0000000000000000e+00" cType="1" res="3.8468417187687010e-05" rms="4.3518549203872681e-01" purity="6.7152762413024902e-01" nType="-99"/>
        </Node>
        <Node pos="r" depth="1" NCoef="0" IVar="4" Cut="6.9541865587234497e-01" cType="1" res="3.5860139178112149e-04" rms="4.3362280726432800e-01" purity="4.7850912809371948e-01" nType="0">
          <Node pos="l" depth="2" NCoef="0" IVar="-1" Cut="0.0000000000000000e+00" cType="1" res="1.2237202608957887e-03" rms="4.1721764206886292e-01" purity="2.9141819477081299e-01" nType="-99"/>
          <Node pos="r" depth="2" NCoef="0" IVar="-1" Cut="0.0000000000000000e+00" cType="1" res="-6.0686981305480003e-04" rms="4.4498953223228455e-01" purity="6.1262315511703491e-01" nType="-99"/>
        </Node>
      </Node>
    </BinaryTree>
    <BinaryTree type="DecisionTree" boostWeight="1.0000000000000000e+00" itree="805">
      <Node pos="s" depth="0" NCoef="0" IVar="0" Cut="1.9030244350433350e+00" cType="1" res="-1.0050567798316479e-03" rms="4.3167790770530701e-01" purity="4.9929863214492798e-01" nType="0">
        <Node pos="l" depth="1" NCoef="0" IVar="4" Cut="9.0355128049850464e-01" cType="1" res="-3.7911601248197258e-04" rms="4.3319171667098999e-01" purity="5.0944399833679199e-01" nType="0">
          <Node pos="l" depth="2" NCoef="0" IVar="-1" Cut="0.0000000000000000e+00" cType="1" res="3.6741539952345192e-04" rms="4.3609261512756348e-01" purity="4.2081442475318909e-01" nType="-99"/>
          <Node pos="r" depth="2" NCoef="0" IVar="-1" Cut="0.0000000000000000e+00" cType="1" res="-1.2291665188968182e-03" rms="4.2638793587684631e-01" purity="7.1413844823837280e-01" nType="-99"/>
        </Node>
        <Node pos="r" depth="1" NCoef="0" IVar="-1" Cut="0.0000000000000000e+00" cType="1" res="-5.4944087751209736e-03" rms="3.8724163174629211e-01" purity="2.1970264613628387e-01" nType="-99"/>
      </Node>
    </BinaryTree>
    <BinaryTree type="DecisionTree" boostWeight="1.0000000000000000e+00" itree="806">
      <Node pos="s" depth="0" NCoef="0" IVar="3" Cut="6.1904764175415039e-01" cType="1" res="-7.6579657616093755e-04" rms="4.3187808990478516e-01" purity="4.9962031841278076e-01" nType="0">
        <Node pos="l" depth="1" NCoef="0" IVar="0" Cut="6.1257404088973999e-01" cType="1" res="1.9229775352869183e-04" rms="4.2995607852935791e-01" purity="5.0036585330963135e-01" nType="0">
          <Node pos="l" depth="2" NCoef="0" IVar="-1" Cut="0.0000000000000000e+00" cType="1" res="2.6827361434698105e-03" rms="4.2795464396476746e-01" purity="6.8975257873535156e-01" nType="-99"/>
          <Node pos="r" depth="2" NCoef="0" IVar="-1" Cut="0.0000000000000000e+00" cType="1" res="-1.6601530660409480e-04" rms="4.3011462688446045e-01" purity="4.8438510298728943e-01" nType="-99"/>
        </Node>
        <Node pos="r" depth="1" NCoef="0" IVar="10" Cut="4.6666665077209473e+00" cType="1" res="-1.1754017323255539e-02" rms="4.5319429039955139e-01" purity="4.9106994271278381e-01" nType="0">
          <Node pos="l" depth="2" NCoef="0" IVar="-1" Cut="0.0000000000000000e+00" cType="1" res="1.3654407812282443e-03" rms="4.6252918243408203e-01" purity="4.6836179494857788e-01" nType="-99"/>
          <Node pos="r" depth="2" NCoef="0" IVar="-1" Cut="0.0000000000000000e+00" cType="1" res="-6.4181480556726456e-03" rms="4.4532069563865662e-01" purity="5.0872093439102173e-01" nType="-99"/>
        </Node>
      </Node>
    </BinaryTree>
    <BinaryTree type="DecisionTree" boostWeight="1.0000000000000000e+00" itree="807">
      <Node pos="s" depth="0" NCoef="0" IVar="8" Cut="-4.0452942252159119e-01" cType="1" res="-1.1840785155072808e-03" rms="4.3180274963378906e-01" purity="4.9802961945533752e-01" nType="0">
        <Node pos="l" depth="1" NCoef="0" IVar="0" Cut="1.0249052047729492e+00" cType="1" res="2.7999854646623135e-03" rms="4.3132337927818298e-01" purity="5.4400974512100220e-01" nType="0">
          <Node pos="l" depth="2" NCoef="0" IVar="-1" Cut="0.0000000000000000e+00" cType="1" res="-2.5909169926308095e-04" rms="4.3270525336265564e-01" purity="6.4784657955169678e-01" nType="-99"/>
          <Node pos="r" depth="2" NCoef="0" IVar="-1" Cut="0.0000000000000000e+00" cType="1" res="2.4116702843457460e-03" rms="4.2895784974098206e-01" purity="3.7242069840431213e-01" nType="-99"/>
        </Node>
        <Node pos="r" depth="1" NCoef="0" IVar="7" Cut="2.0486040115356445e+00" cType="1" res="-3.0667115934193134e-03" rms="4.3201631307601929e-01" purity="4.7630208730697632e-01" nType="0">
          <Node pos="l" depth="2" NCoef="0" IVar="-1" Cut="0.0000000000000000e+00" cType="1" res="-2.3605350870639086e-03" rms="4.4553923606872559e-01" purity="4.1415438055992126e-01" nType="-99"/>
          <Node pos="r" depth="2" NCoef="0" IVar="-1" Cut="0.0000000000000000e+00" cType="1" res="2.2342304873745888e-04" rms="4.2369359731674194e-01" purity="5.1338791847229004e-01" nType="-99"/>
        </Node>
      </Node>
    </BinaryTree>
    <BinaryTree type="DecisionTree" boostWeight="1.0000000000000000e+00" itree="808">
      <Node pos="s" depth="0" NCoef="0" IVar="8" Cut="-4.8772454261779785e-01" cType="1" res="2.7928457711823285e-04" rms="4.3132966756820679e-01" purity="4.9966162443161011e-01" nType="0">
        <Node pos="l" depth="1" NCoef="0" IVar="5" Cut="5.0892001390457153e-01" cType="1" res="5.2447449415922165e-03" rms="4.2898237705230713e-01" purity="5.5777060985565186e-01" nType="0">
          <Node pos="l" depth="2" NCoef="0" IVar="-1" Cut="0.0000000000000000e+00" cType="1" res="5.9263966977596283e-03" rms="4.4906249642372131e-01" purity="5.9202241897583008e-01" nType="-99"/>
          <Node pos="r" depth="2" NCoef="0" IVar="-1" Cut="0.0000000000000000e+00" cType="1" res="5.8539578458294272e-04" rms="4.2546868324279785e-01" purity="5.5206978321075439e-01" nType="-99"/>
        </Node>
        <Node pos="r" depth="1" NCoef="0" IVar="4" Cut="8.6284184455871582e-01" cType="1" res="-1.7652778187766671e-03" rms="4.3227589130401611e-01" purity="4.7573488950729370e-01" nType="0">
          <Node pos="l" depth="2" NCoef="0" IVar="-1" Cut="0.0000000000000000e+00" cType="1" res="-1.3263451401144266e-03" rms="4.3018966913223267e-01" purity="3.5749545693397522e-01" nType="-99"/>
          <Node pos="r" depth="2" NCoef="0" IVar="-1" Cut="0.0000000000000000e+00" cType="1" res="9.0080162044614553e-04" rms="4.3564224243164062e-01" purity="6.7065930366516113e-01" nType="-99"/>
        </Node>
      </Node>
    </BinaryTree>
    <BinaryTree type="DecisionTree" boostWeight="1.0000000000000000e+00" itree="809">
      <Node pos="s" depth="0" NCoef="0" IVar="8" Cut="2.3721729218959808e-01" cType="1" res="1.6460306942462921e-03" rms="4.3074801564216614e-01" purity="5.0238251686096191e-01" nType="0">
        <Node pos="l" depth="1" NCoef="0" IVar="9" Cut="2.3809523880481720e-01" cType="1" res="-2.1239116904325783e-04" rms="4.3168544769287109e-01" purity="4.8487675189971924e-01" nType="0">
          <Node pos="l" depth="2" NCoef="0" IVar="-1" Cut="0.0000000000000000e+00" cType="1" res="6.1973038828000426e-04" rms="4.3313038349151611e-01" purity="5.1312977075576782e-01" nType="-99"/>
          <Node pos="r" depth="2" NCoef="0" IVar="-1" Cut="0.0000000000000000e+00" cType="1" res="-2.6999393012374640e-03" rms="4.2602440714836121e-01" purity="3.7783136963844299e-01" nType="-99"/>
        </Node>
        <Node pos="r" depth="1" NCoef="0" IVar="4" Cut="8.6419618129730225e-01" cType="1" res="4.5950654894113541e-03" rms="4.2923969030380249e-01" purity="5.3016155958175659e-01" nType="0">
          <Node pos="l" depth="2" NCoef="0" IVar="-1" Cut="0.0000000000000000e+00" cType="1" res="2.5149800349026918e-03" rms="4.3238511681556702e-01" purity="4.1512274742126465e-01" nType="-99"/>
          <Node pos="r" depth="2" NCoef="0" IVar="-1" Cut="0.0000000000000000e+00" cType="1" res="-8.8709563715383410e-04" rms="4.2409062385559082e-01" purity="7.1245449781417847e-01" nType="-99"/>
        </Node>
      </Node>
    </BinaryTree>
    <BinaryTree type="DecisionTree" boostWeight="1.0000000000000000e+00" itree="810">
      <Node pos="s" depth="0" NCoef="0" IVar="10" Cut="2.7142856597900391e+01" cType="1" res="-2.2380843292921782e-03" rms="4.3052926659584045e-01" purity="4.9809306859970093e-01" nType="0">
        <Node pos="l" depth="1" NCoef="0" IVar="4" Cut="6.4720600843429565e-01" cType="1" res="-4.2744423262774944e-03" rms="4.3606558442115784e-01" purity="5.0141060352325439e-01" nType="0">
          <Node pos="l" depth="2" NCoef="0" IVar="-1" Cut="0.0000000000000000e+00" cType="1" res="-3.0274419113993645e-03" rms="4.0764713287353516e-01" purity="2.4861502647399902e-01" nType="-99"/>
          <Node pos="r" depth="2" NCoef="0" IVar="-1" Cut="0.0000000000000000e+00" cType="1" res="-3.4085143124684691e-04" rms="4.4914141297340393e-01" purity="6.2371724843978882e-01" nType="-99"/>
        </Node>
        <Node pos="r" depth="1" NCoef="0" IVar="0" Cut="9.6254581212997437e-01" cType="1" res="3.5491364542394876e-03" rms="4.1433712840080261e-01" purity="4.8866465687751770e-01" nType="0">
          <Node pos="l" depth="2" NCoef="0" IVar="-1" Cut="0.0000000000000000e+00" cType="1" res="3.5797362215816975e-03" rms="4.2707759141921997e-01" purity="6.4802563190460205e-01" nType="-99"/>
          <Node pos="r" depth="2" NCoef="0" IVar="-1" Cut="0.0000000000000000e+00" cType="1" res="-2.7286794502288103e-03" rms="3.9723250269889832e-01" purity="2.8648129105567932e-01" nType="-99"/>
        </Node>
      </Node>
    </BinaryTree>
    <BinaryTree type="DecisionTree" boostWeight="1.0000000000000000e+00" itree="811">
      <Node pos="s" depth="0" NCoef="0" IVar="9" Cut="-1.4285714924335480e-01" cType="1" res="7.1882276097312570e-04" rms="4.3131166696548462e-01" purity="5.0095194578170776e-01" nType="0">
        <Node pos="l" depth="1" NCoef="0" IVar="5" Cut="1.1294894218444824e+00" cType="1" res="6.1548547819256783e-03" rms="4.3113934993743896e-01" purity="4.9592211842536926e-01" nType="0">
          <Node pos="l" depth="2" NCoef="0" IVar="-1" Cut="0.0000000000000000e+00" cType="1" res="2.6266032364219427e-03" rms="4.4329002499580383e-01" purity="5.0596708059310913e-01" nType="-99"/>
          <Node pos="r" depth="2" NCoef="0" IVar="-1" Cut="0.0000000000000000e+00" cType="1" res="5.4456130601465702e-04" rms="4.1861918568611145e-01" purity="4.8589730262756348e-01" nType="-99"/>
        </Node>
        <Node pos="r" depth="1" NCoef="0" IVar="4" Cut="4.4959703087806702e-01" cType="1" res="-2.2790359798818827e-03" rms="4.3137738108634949e-01" purity="5.0372576713562012e-01" nType="0">
          <Node pos="l" depth="2" NCoef="0" IVar="-1" Cut="0.0000000000000000e+00" cType="1" res="2.6059148367494345e-03" rms="3.3249744772911072e-01" purity="1.3410301506519318e-01" nType="-99"/>
          <Node pos="r" depth="2" NCoef="0" IVar="-1" Cut="0.0000000000000000e+00" cType="1" res="-8.6808908963575959e-04" rms="4.4463804364204407e-01" purity="5.6062573194503784e-01" nType="-99"/>
        </Node>
      </Node>
    </BinaryTree>
    <BinaryTree type="DecisionTree" boostWeight="1.0000000000000000e+00" itree="812">
      <Node pos="s" depth="0" NCoef="0" IVar="3" Cut="-2.3809523880481720e-01" cType="1" res="-5.5367112508974969e-05" rms="4.3182879686355591e-01" purity="4.9827712774276733e-01" nType="0">
        <Node pos="l" depth="1" NCoef="0" IVar="1" Cut="2.8887588977813721e+00" cType="1" res="3.4143831580877304e-03" rms="4.3596169352531433e-01" purity="5.1101320981979370e-01" nType="0">
          <Node pos="l" depth="2" NCoef="0" IVar="-1" Cut="0.0000000000000000e+00" cType="1" res="-8.3610240835696459e-04" rms="4.4633057713508606e-01" purity="5.0673389434814453e-01" nType="-99"/>
          <Node pos="r" depth="2" NCoef="0" IVar="-1" Cut="0.0000000000000000e+00" cType="1" res="3.0824604909867048e-03" rms="4.2371064424514771e-01" purity="5.1588726043701172e-01" nType="-99"/>
        </Node>
        <Node pos="r" depth="1" NCoef="0" IVar="2" Cut="-1.2926723957061768e+00" cType="1" res="-1.4174098614603281e-03" rms="4.3018794059753418e-01" purity="4.9327760934829712e-01" nType="0">
          <Node pos="l" depth="2" NCoef="0" IVar="-1" Cut="0.0000000000000000e+00" cType="1" res="-3.7589801941066980e-03" rms="4.1402700543403625e-01" purity="4.7637492418289185e-01" nType="-99"/>
          <Node pos="r" depth="2" NCoef="0" IVar="-1" Cut="0.0000000000000000e+00" cType="1" res="-1.9191317551303655e-04" rms="4.3110969662666321e-01" purity="4.9427205324172974e-01" nType="-99"/>
        </Node>
      </Node>
    </BinaryTree>
    <BinaryTree type="DecisionTree" boostWeight="1.0000000000000000e+00" itree="813">
      <Node pos="s" depth="0" NCoef="0" IVar="9" Cut="-1.4285714924335480e-01" cType="1" res="7.1470742113888264e-04" rms="4.3146079778671265e-01" purity="5.0056391954421997e-01" nType="0">
        <Node pos="l" depth="1" NCoef="0" IVar="8" Cut="-1.3916268348693848e+00" cType="1" res="-2.3153941147029400e-03" rms="4.3278279900550842e-01" purity="4.8811388015747070e-01" nType="0">
          <Node pos="l" depth="2" NCoef="0" IVar="-1" Cut="0.0000000000000000e+00" cType="1" res="2.6840565260499716e-03" rms="4.0844199061393738e-01" purity="7.2244435548782349e-01" nType="-99"/>
          <Node pos="r" depth="2" NCoef="0" IVar="-1" Cut="0.0000000000000000e+00" cType="1" res="-1.0262629948556423e-03" rms="4.3604916334152222e-01" purity="4.5539554953575134e-01" nType="-99"/>
        </Node>
        <Node pos="r" depth="1" NCoef="0" IVar="3" Cut="4.2857143282890320e-01" cType="1" res="2.3591136559844017e-03" rms="4.3073272705078125e-01" purity="5.0732046365737915e-01" nType="0">
          <Node pos="l" depth="2" NCoef="0" IVar="-1" Cut="0.0000000000000000e+00" cType="1" res="2.8098630718886852e-04" rms="4.2816662788391113e-01" purity="5.0436687469482422e-01" nType="-99"/>
          <Node pos="r" depth="2" NCoef="0" IVar="-1" Cut="0.0000000000000000e+00" cType="1" res="2.5616115890443325e-03" rms="4.4555869698524475e-01" purity="5.2482545375823975e-01" nType="-99"/>
        </Node>
      </Node>
    </BinaryTree>
    <BinaryTree type="DecisionTree" boostWeight="1.0000000000000000e+00" itree="814">
      <Node pos="s" depth="0" NCoef="0" IVar="5" Cut="1.5621974468231201e+00" cType="1" res="4.3116664164699614e-04" rms="4.3141141533851624e-01" purity="4.9973446130752563e-01" nType="0">
        <Node pos="l" depth="1" NCoef="0" IVar="0" Cut="1.1749670505523682e+00" cType="1" res="-2.1961785387247801e-03" rms="4.3676617741584778e-01" purity="5.0508040189743042e-01" nType="0">
          <Node pos="l" depth="2" NCoef="0" IVar="-1" Cut="0.0000000000000000e+00" cType="1" res="-1.3241802807897329e-03" rms="4.4014155864715576e-01" purity="5.7990229129791260e-01" nType="-99"/>
          <Node pos="r" depth="2" NCoef="0" IVar="-1" Cut="0.0000000000000000e+00" cType="1" res="1.2271685991436243e-03" rms="4.2887112498283386e-01" purity="3.3399328589439392e-01" nType="-99"/>
        </Node>
        <Node pos="r" depth="1" NCoef="0" IVar="4" Cut="7.8051078319549561e-01" cType="1" res="5.1603084430098534e-03" rms="4.2156037688255310e-01" purity="4.9011182785034180e-01" nType="0">
          <Node pos="l" depth="2" NCoef="0" IVar="-1" Cut="0.0000000000000000e+00" cType="1" res="2.6608242187649012e-03" rms="4.1506472229957581e-01" purity="3.3900341391563416e-01" nType="-99"/>
          <Node pos="r" depth="2" NCoef="0" IVar="-1" Cut="0.0000000000000000e+00" cType="1" res="2.4565760395489633e-04" rms="4.2828780412673950e-01" purity="6.5005576610565186e-01" nType="-99"/>
        </Node>
      </Node>
    </BinaryTree>
    <BinaryTree type="DecisionTree" boostWeight="1.0000000000000000e+00" itree="815">
      <Node pos="s" depth="0" NCoef="0" IVar="10" Cut="1.0380952835083008e+01" cType="1" res="2.3057381622493267e-04" rms="4.3159499764442444e-01" purity="5.0097608566284180e-01" nType="0">
        <Node pos="l" depth="1" NCoef="0" IVar="10" Cut="3.1428570747375488e+00" cType="1" res="4.6413079835474491e-03" rms="4.5411646366119385e-01" purity="5.2554714679718018e-01" nType="0">
          <Node pos="l" depth="2" NCoef="0" IVar="-1" Cut="0.0000000000000000e+00" cType="1" res="-2.3461298551410437e-03" rms="4.7184702754020691e-01" purity="4.4341784715652466e-01" nType="-99"/>
          <Node pos="r" depth="2" NCoef="0" IVar="-1" Cut="0.0000000000000000e+00" cType="1" res="2.3429684806615114e-03" rms="4.4800472259521484e-01" purity="5.5264693498611450e-01" nType="-99"/>
        </Node>
        <Node pos="r" depth="1" NCoef="0" IVar="0" Cut="1.3447835445404053e+00" cType="1" res="-2.2028244566172361e-03" rms="4.1863176226615906e-01" purity="4.8742029070854187e-01" nType="0">
          <Node pos="l" depth="2" NCoef="0" IVar="-1" Cut="0.0000000000000000e+00" cType="1" res="-1.0741392907220870e-04" rms="4.2617815732955933e-01" purity="5.1918601989746094e-01" nType="-99"/>
          <Node pos="r" depth="2" NCoef="0" IVar="-1" Cut="0.0000000000000000e+00" cType="1" res="-9.4099128618836403e-03" rms="3.2280251383781433e-01" purity="1.3557741045951843e-01" nType="-99"/>
        </Node>
      </Node>
    </BinaryTree>
    <BinaryTree type="DecisionTree" boostWeight="1.0000000000000000e+00" itree="816">
      <Node pos="s" depth="0" NCoef="0" IVar="9" Cut="-5.2380955219268799e-01" cType="1" res="1.9246630836278200e-04" rms="4.3054625391960144e-01" purity="5.0044977664947510e-01" nType="0">
        <Node pos="l" depth="1" NCoef="0" IVar="8" Cut="-5.1845991611480713e-01" cType="1" res="-9.7121736034750938e-03" rms="4.3218782544136047e-01" purity="4.2891597747802734e-01" nType="0">
          <Node pos="l" depth="2" NCoef="0" IVar="-1" Cut="0.0000000000000000e+00" cType="1" res="3.5139890387654305e-03" rms="4.4144746661186218e-01" purity="6.1605942249298096e-01" nType="-99"/>
          <Node pos="r" depth="2" NCoef="0" IVar="-1" Cut="0.0000000000000000e+00" cType="1" res="-6.4477794803678989e-03" rms="4.2575138807296753e-01" purity="3.1401523947715759e-01" nType="-99"/>
        </Node>
        <Node pos="r" depth="1" NCoef="0" IVar="3" Cut="-7.1428573131561279e-01" cType="1" res="1.3531637378036976e-03" rms="4.3033856153488159e-01" purity="5.0883257389068604e-01" nType="0">
          <Node pos="l" depth="2" NCoef="0" IVar="-1" Cut="0.0000000000000000e+00" cType="1" res="3.3367276191711426e-03" rms="4.5078542828559875e-01" purity="5.2705967426300049e-01" nType="-99"/>
          <Node pos="r" depth="2" NCoef="0" IVar="-1" Cut="0.0000000000000000e+00" cType="1" res="1.7868907889351249e-04" rms="4.2917013168334961e-01" purity="5.0782567262649536e-01" nType="-99"/>
        </Node>
      </Node>
    </BinaryTree>
    <BinaryTree type="DecisionTree" boostWeight="1.0000000000000000e+00" itree="817">
      <Node pos="s" depth="0" NCoef="0" IVar="3" Cut="7.1428573131561279e-01" cType="1" res="7.5711890531238168e-05" rms="4.3195676803588867e-01" purity="4.9960142374038696e-01" nType="0">
        <Node pos="l" depth="1" NCoef="0" IVar="4" Cut="6.4720600843429565e-01" cType="1" res="7.1373913669958711e-04" rms="4.3034458160400391e-01" purity="5.0058460235595703e-01" nType="0">
          <Node pos="l" depth="2" NCoef="0" IVar="-1" Cut="0.0000000000000000e+00" cType="1" res="1.1778593761846423e-03" rms="4.0479445457458496e-01" purity="2.5797119736671448e-01" nType="-99"/>
          <Node pos="r" depth="2" NCoef="0" IVar="-1" Cut="0.0000000000000000e+00" cType="1" res="-2.1658690820913762e-04" rms="4.4263187050819397e-01" purity="6.2262976169586182e-01" nType="-99"/>
        </Node>
        <Node pos="r" depth="1" NCoef="0" IVar="-1" Cut="0.0000000000000000e+00" cType="1" res="-2.4847036693245173e-03" rms="4.5749190449714661e-01" purity="4.8345646262168884e-01" nType="-99"/>
      </Node>
    </BinaryTree>
    <BinaryTree type="DecisionTree" boostWeight="1.0000000000000000e+00" itree="818">
      <Node pos="s" depth="0" NCoef="0" IVar="2" Cut="1.8077197074890137e+00" cType="1" res="-8.7436620378866792e-04" rms="4.3176943063735962e-01" purity="4.9972468614578247e-01" nType="0">
        <Node pos="l" depth="1" NCoef="0" IVar="4" Cut="4.0043279528617859e-01" cType="1" res="-3.5576021764427423e-04" rms="4.3261393904685974e-01" purity="5.0027936697006226e-01" nType="0">
          <Node pos="l" depth="2" NCoef="0" IVar="-1" Cut="0.0000000000000000e+00" cType="1" res="3.5299442242830992e-03" rms="3.0675166845321655e-01" purity="1.1042454838752747e-01" nType="-99"/>
          <Node pos="r" depth="2" NCoef="0" IVar="-1" Cut="0.0000000000000000e+00" cType="1" res="-2.6281602913513780e-04" rms="4.4355082511901855e-01" purity="5.4044544696807861e-01" nType="-99"/>
        </Node>
        <Node pos="r" depth="1" NCoef="0" IVar="-1" Cut="0.0000000000000000e+00" cType="1" res="-2.7592009864747524e-03" rms="4.1690081357955933e-01" purity="4.9019980430603027e-01" nType="-99"/>
      </Node>
    </BinaryTree>
    <BinaryTree type="DecisionTree" boostWeight="1.0000000000000000e+00" itree="819">
      <Node pos="s" depth="0" NCoef="0" IVar="3" Cut="6.1904764175415039e-01" cType="1" res="3.9045116864144802e-04" rms="4.3081143498420715e-01" purity="5.0057840347290039e-01" nType="0">
        <Node pos="l" depth="1" NCoef="0" IVar="4" Cut="5.6858265399932861e-01" cType="1" res="-6.2878715107217431e-04" rms="4.2893314361572266e-01" purity="4.9944025278091431e-01" nType="0">
          <Node pos="l" depth="2" NCoef="0" IVar="-1" Cut="0.0000000000000000e+00" cType="1" res="-1.7005408881232142e-03" rms="3.7801352143287659e-01" purity="1.9766114652156830e-01" nType="-99"/>
          <Node pos="r" depth="2" NCoef="0" IVar="-1" Cut="0.0000000000000000e+00" cType="1" res="2.1745399862993509e-04" rms="4.4527676701545715e-01" purity="6.0444021224975586e-01" nType="-99"/>
        </Node>
        <Node pos="r" depth="1" NCoef="0" IVar="5" Cut="5.1216936111450195e-01" cType="1" res="1.2123532593250275e-02" rms="4.5170599222183228e-01" purity="5.1368010044097900e-01" nType="0">
          <Node pos="l" depth="2" NCoef="0" IVar="-1" Cut="0.0000000000000000e+00" cType="1" res="1.3156634522601962e-03" rms="4.5861148834228516e-01" purity="4.9031880497932434e-01" nType="-99"/>
          <Node pos="r" depth="2" NCoef="0" IVar="-1" Cut="0.0000000000000000e+00" cType="1" res="4.6464349143207073e-03" rms="4.4474908709526062e-01" purity="5.3654772043228149e-01" nType="-99"/>
        </Node>
      </Node>
    </BinaryTree>
    <BinaryTree type="DecisionTree" boostWeight="1.0000000000000000e+00" itree="820">
      <Node pos="s" depth="0" NCoef="0" IVar="2" Cut="-6.0533761978149414e-01" cType="1" res="8.9632667368277907e-04" rms="4.3138703703880310e-01" purity="5.0114536285400391e-01" nType="0">
        <Node pos="l" depth="1" NCoef="0" IVar="4" Cut="9.0599149465560913e-01" cType="1" res="-3.6712610162794590e-03" rms="4.2471784353256226e-01" purity="5.0215703248977661e-01" nType="0">
          <Node pos="l" depth="2" NCoef="0" IVar="-1" Cut="0.0000000000000000e+00" cType="1" res="-1.8761364044621587e-03" rms="4.3028974533081055e-01" purity="4.2165195941925049e-01" nType="-99"/>
          <Node pos="r" depth="2" NCoef="0" IVar="-1" Cut="0.0000000000000000e+00" cType="1" res="2.2459684405475855e-03" rms="4.0554788708686829e-01" purity="7.6835429668426514e-01" nType="-99"/>
        </Node>
        <Node pos="r" depth="1" NCoef="0" IVar="8" Cut="-4.8772454261779785e-01" cType="1" res="2.3260214366018772e-03" rms="4.3344357609748840e-01" purity="5.0082868337631226e-01" nType="0">
          <Node pos="l" depth="2" NCoef="0" IVar="-1" Cut="0.0000000000000000e+00" cType="1" res="-3.8017521728761494e-04" rms="4.2933171987533569e-01" purity="5.5207490921020508e-01" nType="-99"/>
          <Node pos="r" depth="2" NCoef="0" IVar="-1" Cut="0.0000000000000000e+00" cType="1" res="9.9500198848545551e-04" rms="4.3504744768142700e-01" purity="4.8059564828872681e-01" nType="-99"/>
        </Node>
      </Node>
    </BinaryTree>
    <BinaryTree type="DecisionTree" boostWeight="1.0000000000000000e+00" itree="821">
      <Node pos="s" depth="0" NCoef="0" IVar="4" Cut="6.5338999032974243e-01" cType="1" res="3.4287071321159601e-04" rms="4.3145811557769775e-01" purity="5.0030875205993652e-01" nType="0">
        <Node pos="l" depth="1" NCoef="0" IVar="10" Cut="2.7142856597900391e+01" cType="1" res="-3.8398706819862127e-03" rms="4.0478658676147461e-01" purity="2.5646346807479858e-01" nType="0">
          <Node pos="l" depth="2" NCoef="0" IVar="-1" Cut="0.0000000000000000e+00" cType="1" res="-2.8916844166815281e-03" rms="4.0985122323036194e-01" purity="2.5339967012405396e-01" nType="-99"/>
          <Node pos="r" depth="2" NCoef="0" IVar="-1" Cut="0.0000000000000000e+00" cType="1" res="4.4355387799441814e-03" rms="3.8942098617553711e-01" purity="2.6522687077522278e-01" nType="-99"/>
        </Node>
        <Node pos="r" depth="1" NCoef="0" IVar="0" Cut="9.1339153051376343e-01" cType="1" res="2.4452842772006989e-03" rms="4.4424515962600708e-01" purity="6.2287515401840210e-01" nType="0">
          <Node pos="l" depth="2" NCoef="0" IVar="-1" Cut="0.0000000000000000e+00" cType="1" res="-1.6217207303270698e-03" rms="4.2474365234375000e-01" purity="7.4075019359588623e-01" nType="-99"/>
          <Node pos="r" depth="2" NCoef="0" IVar="-1" Cut="0.0000000000000000e+00" cType="1" res="2.2937196772545576e-03" rms="4.6131891012191772e-01" purity="5.1449793577194214e-01" nType="-99"/>
        </Node>
      </Node>
    </BinaryTree>
    <BinaryTree type="DecisionTree" boostWeight="1.0000000000000000e+00" itree="822">
      <Node pos="s" depth="0" NCoef="0" IVar="4" Cut="9.4692862033843994e-01" cType="1" res="-3.7671934114769101e-04" rms="4.3202656507492065e-01" purity="5.0043672323226929e-01" nType="0">
        <Node pos="l" depth="1" NCoef="0" IVar="5" Cut="3.0348628759384155e-01" cType="1" res="-1.5672598965466022e-03" rms="4.3547910451889038e-01" purity="4.4861131906509399e-01" nType="0">
          <Node pos="l" depth="2" NCoef="0" IVar="-1" Cut="0.0000000000000000e+00" cType="1" res="-2.5597310159355402e-03" rms="4.5306912064552307e-01" purity="3.9150011539459229e-01" nType="-99"/>
          <Node pos="r" depth="2" NCoef="0" IVar="-1" Cut="0.0000000000000000e+00" cType="1" res="-1.4804933744017035e-04" rms="4.3343251943588257e-01" purity="4.5507279038429260e-01" nType="-99"/>
        </Node>
        <Node pos="r" depth="1" NCoef="0" IVar="4" Cut="9.7895771265029907e-01" cType="1" res="5.0813844427466393e-03" rms="4.1578778624534607e-01" purity="7.3803317546844482e-01" nType="0">
          <Node pos="l" depth="2" NCoef="0" IVar="-1" Cut="0.0000000000000000e+00" cType="1" res="-1.6367231728509068e-03" rms="4.1321444511413574e-01" purity="7.3789912462234497e-01" nType="-99"/>
          <Node pos="r" depth="2" NCoef="0" IVar="-1" Cut="0.0000000000000000e+00" cType="1" res="8.7058469653129578e-03" rms="4.2117491364479065e-01" purity="7.3838597536087036e-01" nType="-99"/>
        </Node>
      </Node>
    </BinaryTree>
    <BinaryTree type="DecisionTree" boostWeight="1.0000000000000000e+00" itree="823">
      <Node pos="s" depth="0" NCoef="0" IVar="9" Cut="7.1428573131561279e-01" cType="1" res="1.6731519717723131e-03" rms="4.3137711286544800e-01" purity="5.0251048803329468e-01" nType="0">
        <Node pos="l" depth="1" NCoef="0" IVar="3" Cut="8.0952382087707520e-01" cType="1" res="9.3800440663471818e-04" rms="4.3047279119491577e-01" purity="5.0726932287216187e-01" nType="0">
          <Node pos="l" depth="2" NCoef="0" IVar="-1" Cut="0.0000000000000000e+00" cType="1" res="9.6138108347076923e-05" rms="4.2965573072433472e-01" purity="5.0682920217514038e-01" nType="-99"/>
          <Node pos="r" depth="2" NCoef="0" IVar="-1" Cut="0.0000000000000000e+00" cType="1" res="3.6937315016984940e-03" rms="4.5039647817611694e-01" purity="5.1840007305145264e-01" nType="-99"/>
        </Node>
        <Node pos="r" depth="1" NCoef="0" IVar="-1" Cut="0.0000000000000000e+00" cType="1" res="4.0707932785153389e-03" rms="4.4843700528144836e-01" purity="4.0954267978668213e-01" nType="-99"/>
      </Node>
    </BinaryTree>
    <BinaryTree type="DecisionTree" boostWeight="1.0000000000000000e+00" itree="824">
      <Node pos="s" depth="0" NCoef="0" IVar="3" Cut="-4.2857143282890320e-01" cType="1" res="-5.4818182252347469e-04" rms="4.3127021193504333e-01" purity="4.9978515505790710e-01" nType="0">
        <Node pos="l" depth="1" NCoef="0" IVar="6" Cut="1.3809523582458496e+00" cType="1" res="-8.2184923812747002e-03" rms="4.4072741270065308e-01" purity="5.0096738338470459e-01" nType="0">
          <Node pos="l" depth="2" NCoef="0" IVar="-1" Cut="0.0000000000000000e+00" cType="1" res="-1.0141617385670543e-03" rms="4.4105118513107300e-01" purity="5.1033991575241089e-01" nType="-99"/>
          <Node pos="r" depth="2" NCoef="0" IVar="-1" Cut="0.0000000000000000e+00" cType="1" res="-4.8336624167859554e-03" rms="4.3974852561950684e-01" purity="4.7768014669418335e-01" nType="-99"/>
        </Node>
        <Node pos="r" depth="1" NCoef="0" IVar="8" Cut="1.6414833068847656e+00" cType="1" res="8.6084142094478011e-04" rms="4.2949542403221130e-01" purity="4.9956795573234558e-01" nType="0">
          <Node pos="l" depth="2" NCoef="0" IVar="-1" Cut="0.0000000000000000e+00" cType="1" res="3.8194932858459651e-04" rms="4.3081331253051758e-01" purity="4.8740217089653015e-01" nType="-99"/>
          <Node pos="r" depth="2" NCoef="0" IVar="-1" Cut="0.0000000000000000e+00" cType="1" res="-2.3458874784410000e-03" rms="4.0862163901329041e-01" purity="6.8639731407165527e-01" nType="-99"/>
        </Node>
      </Node>
    </BinaryTree>
    <BinaryTree type="DecisionTree" boostWeight="1.0000000000000000e+00" itree="825">
      <Node pos="s" depth="0" NCoef="0" IVar="5" Cut="1.5854575634002686e+00" cType="1" res="-4.3250445742160082e-04" rms="4.3107134103775024e-01" purity="4.9945539236068726e-01" nType="0">
        <Node pos="l" depth="1" NCoef="0" IVar="5" Cut="8.5555458068847656e-01" cType="1" res="-2.2722308058291674e-03" rms="4.3610259890556335e-01" purity="5.0472640991210938e-01" nType="0">
          <Node pos="l" depth="2" NCoef="0" IVar="-1" Cut="0.0000000000000000e+00" cType="1" res="5.7320325868204236e-04" rms="4.4492983818054199e-01" purity="5.0878876447677612e-01" nType="-99"/>
          <Node pos="r" depth="2" NCoef="0" IVar="-1" Cut="0.0000000000000000e+00" cType="1" res="-1.9053629366680980e-03" rms="4.2672228813171387e-01" purity="5.0052165985107422e-01" nType="-99"/>
        </Node>
        <Node pos="r" depth="1" NCoef="0" IVar="4" Cut="4.1130673885345459e-01" cType="1" res="2.9830536805093288e-03" rms="4.2155003547668457e-01" purity="4.8966953158378601e-01" nType="0">
          <Node pos="l" depth="2" NCoef="0" IVar="-1" Cut="0.0000000000000000e+00" cType="1" res="-6.5717212855815887e-03" rms="2.6813358068466187e-01" purity="8.0549329519271851e-02" nType="-99"/>
          <Node pos="r" depth="2" NCoef="0" IVar="-1" Cut="0.0000000000000000e+00" cType="1" res="1.2289119185879827e-03" rms="4.3773260712623596e-01" purity="5.4354077577590942e-01" nType="-99"/>
        </Node>
      </Node>
    </BinaryTree>
    <BinaryTree type="DecisionTree" boostWeight="1.0000000000000000e+00" itree="826">
      <Node pos="s" depth="0" NCoef="0" IVar="9" Cut="-4.2857143282890320e-01" cType="1" res="5.1227695075795054e-04" rms="4.3239673972129822e-01" purity="5.0162005424499512e-01" nType="0">
        <Node pos="l" depth="1" NCoef="0" IVar="4" Cut="9.0509134531021118e-01" cType="1" res="6.9904639385640621e-03" rms="4.3714427947998047e-01" purity="4.6178060770034790e-01" nType="0">
          <Node pos="l" depth="2" NCoef="0" IVar="-1" Cut="0.0000000000000000e+00" cType="1" res="3.6360386293381453e-03" rms="4.3262335658073425e-01" purity="3.7435102462768555e-01" nType="-99"/>
          <Node pos="r" depth="2" NCoef="0" IVar="-1" Cut="0.0000000000000000e+00" cType="1" res="-1.5517182182520628e-03" rms="4.4589456915855408e-01" purity="6.3940316438674927e-01" nType="-99"/>
        </Node>
        <Node pos="r" depth="1" NCoef="0" IVar="6" Cut="2.6666667461395264e+00" cType="1" res="-6.0317589668557048e-04" rms="4.3156421184539795e-01" purity="5.0847983360290527e-01" nType="0">
          <Node pos="l" depth="2" NCoef="0" IVar="-1" Cut="0.0000000000000000e+00" cType="1" res="1.9084686937276274e-04" rms="4.3229219317436218e-01" purity="5.1631557941436768e-01" nType="-99"/>
          <Node pos="r" depth="2" NCoef="0" IVar="-1" Cut="0.0000000000000000e+00" cType="1" res="-1.2932509416714311e-03" rms="4.2925575375556946e-01" purity="4.8400181531906128e-01" nType="-99"/>
        </Node>
      </Node>
    </BinaryTree>
    <BinaryTree type="DecisionTree" boostWeight="1.0000000000000000e+00" itree="827">
      <Node pos="s" depth="0" NCoef="0" IVar="3" Cut="-1.4285714924335480e-01" cType="1" res="-5.3581479005515575e-04" rms="4.3138083815574646e-01" purity="4.9940788745880127e-01" nType="0">
        <Node pos="l" depth="1" NCoef="0" IVar="9" Cut="4.7619048506021500e-02" cType="1" res="4.1044959798455238e-03" rms="4.3338096141815186e-01" purity="5.1012706756591797e-01" nType="0">
          <Node pos="l" depth="2" NCoef="0" IVar="-1" Cut="0.0000000000000000e+00" cType="1" res="2.0632313098758459e-03" rms="4.3370160460472107e-01" purity="5.1172262430191040e-01" nType="-99"/>
          <Node pos="r" depth="2" NCoef="0" IVar="-1" Cut="0.0000000000000000e+00" cType="1" res="-7.2597395046614110e-05" rms="4.3296128511428833e-01" purity="5.0824397802352905e-01" nType="-99"/>
        </Node>
        <Node pos="r" depth="1" NCoef="0" IVar="5" Cut="1.4342039823532104e+00" cType="1" res="-3.1886757351458073e-03" rms="4.3021070957183838e-01" purity="4.9327975511550903e-01" nType="0">
          <Node pos="l" depth="2" NCoef="0" IVar="-1" Cut="0.0000000000000000e+00" cType="1" res="3.1739171390654519e-05" rms="4.3695855140686035e-01" purity="5.0442785024642944e-01" nType="-99"/>
          <Node pos="r" depth="2" NCoef="0" IVar="-1" Cut="0.0000000000000000e+00" cType="1" res="-2.0735657308250666e-03" rms="4.2126679420471191e-01" purity="4.7883313894271851e-01" nType="-99"/>
        </Node>
      </Node>
    </BinaryTree>
    <BinaryTree type="DecisionTree" boostWeight="1.0000000000000000e+00" itree="828">
      <Node pos="s" depth="0" NCoef="0" IVar="9" Cut="7.1428573131561279e-01" cType="1" res="-1.5024535823613405e-03" rms="4.3070632219314575e-01" purity="4.9825873970985413e-01" nType="0">
        <Node pos="l" depth="1" NCoef="0" IVar="0" Cut="1.0932023525238037e+00" cType="1" res="-2.2002889309078455e-03" rms="4.2969188094139099e-01" purity="5.0289237499237061e-01" nType="0">
          <Node pos="l" depth="2" NCoef="0" IVar="-1" Cut="0.0000000000000000e+00" cType="1" res="-1.0365346679463983e-04" rms="4.3685480952262878e-01" purity="5.9789794683456421e-01" nType="-99"/>
          <Node pos="r" depth="2" NCoef="0" IVar="-1" Cut="0.0000000000000000e+00" cType="1" res="-1.6119210049510002e-03" rms="4.1501870751380920e-01" purity="3.1347537040710449e-01" nType="-99"/>
        </Node>
        <Node pos="r" depth="1" NCoef="0" IVar="-1" Cut="0.0000000000000000e+00" cType="1" res="3.1365354079753160e-03" rms="4.5015510916709900e-01" purity="4.0623790025711060e-01" nType="-99"/>
      </Node>
    </BinaryTree>
    <BinaryTree type="DecisionTree" boostWeight="1.0000000000000000e+00" itree="829">
      <Node pos="s" depth="0" NCoef="0" IVar="3" Cut="-2.3809523880481720e-01" cType="1" res="8.3296746015548706e-04" rms="4.3182203173637390e-01" purity="5.0095242261886597e-01" nType="0">
        <Node pos="l" depth="1" NCoef="0" IVar="8" Cut="-2.2446700930595398e-01" cType="1" res="-4.0622451342642307e-03" rms="4.3694061040878296e-01" purity="5.0592833757400513e-01" nType="0">
          <Node pos="l" depth="2" NCoef="0" IVar="-1" Cut="0.0000000000000000e+00" cType="1" res="-3.0160872265696526e-03" rms="4.3281856179237366e-01" purity="5.2557796239852905e-01" nType="-99"/>
          <Node pos="r" depth="2" NCoef="0" IVar="-1" Cut="0.0000000000000000e+00" cType="1" res="7.8981356637086719e-05" rms="4.3931052088737488e-01" purity="4.9426612257957458e-01" nType="-99"/>
        </Node>
        <Node pos="r" depth="1" NCoef="0" IVar="6" Cut="-2.1428570747375488e+00" cType="1" res="2.7384452987462282e-03" rms="4.2979806661605835e-01" purity="4.9901551008224487e-01" nType="0">
          <Node pos="l" depth="2" NCoef="0" IVar="-1" Cut="0.0000000000000000e+00" cType="1" res="2.4942702148109674e-03" rms="4.2475989460945129e-01" purity="4.8623758554458618e-01" nType="-99"/>
          <Node pos="r" depth="2" NCoef="0" IVar="-1" Cut="0.0000000000000000e+00" cType="1" res="2.6291256654076278e-04" rms="4.3116027116775513e-01" purity="5.0253832340240479e-01" nType="-99"/>
        </Node>
      </Node>
    </BinaryTree>
    <BinaryTree type="DecisionTree" boostWeight="1.0000000000000000e+00" itree="830">
      <Node pos="s" depth="0" NCoef="0" IVar="2" Cut="4.8395153880119324e-01" cType="1" res="-6.6782208159565926e-04" rms="4.3127018213272095e-01" purity="4.9983692169189453e-01" nType="0">
        <Node pos="l" depth="1" NCoef="0" IVar="0" Cut="5.9616494178771973e-01" cType="1" res="8.9776684762910008e-04" rms="4.3139627575874329e-01" purity="5.0068235397338867e-01" nType="0">
          <Node pos="l" depth="2" NCoef="0" IVar="-1" Cut="0.0000000000000000e+00" cType="1" res="2.9123309068381786e-03" rms="4.3380835652351379e-01" purity="6.8211919069290161e-01" nType="-99"/>
          <Node pos="r" depth="2" NCoef="0" IVar="-1" Cut="0.0000000000000000e+00" cType="1" res="9.3829567049397156e-07" rms="4.3117108941078186e-01" purity="4.8465159535408020e-01" nType="-99"/>
        </Node>
        <Node pos="r" depth="1" NCoef="0" IVar="5" Cut="1.3975329399108887e+00" cType="1" res="-4.4677108526229858e-03" rms="4.3094033002853394e-01" purity="4.9778506159782410e-01" nType="0">
          <Node pos="l" depth="2" NCoef="0" IVar="-1" Cut="0.0000000000000000e+00" cType="1" res="-2.5188461877405643e-03" rms="4.3728068470954895e-01" purity="5.0194603204727173e-01" nType="-99"/>
          <Node pos="r" depth="2" NCoef="0" IVar="-1" Cut="0.0000000000000000e+00" cType="1" res="3.2160108094103634e-04" rms="4.2382931709289551e-01" purity="4.9323651194572449e-01" nType="-99"/>
        </Node>
      </Node>
    </BinaryTree>
    <BinaryTree type="DecisionTree" boostWeight="1.0000000000000000e+00" itree="831">
      <Node pos="s" depth="0" NCoef="0" IVar="9" Cut="2.3809523880481720e-01" cType="1" res="-2.3619006387889385e-03" rms="4.3138223886489868e-01" purity="4.9867042899131775e-01" nType="0">
        <Node pos="l" depth="1" NCoef="0" IVar="6" Cut="-1.4285714924335480e-01" cType="1" res="-3.7766944151371717e-03" rms="4.3096777796745300e-01" purity="5.0101667642593384e-01" nType="0">
          <Node pos="l" depth="2" NCoef="0" IVar="-1" Cut="0.0000000000000000e+00" cType="1" res="-1.2826992315240204e-04" rms="4.3067669868469238e-01" purity="5.0381916761398315e-01" nType="-99"/>
          <Node pos="r" depth="2" NCoef="0" IVar="-1" Cut="0.0000000000000000e+00" cType="1" res="-1.6274390509352088e-03" rms="4.3116077780723572e-01" purity="4.9900814890861511e-01" nType="-99"/>
        </Node>
        <Node pos="r" depth="1" NCoef="0" IVar="4" Cut="9.4622778892517090e-01" cType="1" res="1.4227270148694515e-03" rms="4.3246623873710632e-01" purity="4.9239411950111389e-01" nType="0">
          <Node pos="l" depth="2" NCoef="0" IVar="-1" Cut="0.0000000000000000e+00" cType="1" res="1.3196081854403019e-03" rms="4.3318992853164673e-01" purity="4.3642121553421021e-01" nType="-99"/>
          <Node pos="r" depth="2" NCoef="0" IVar="-1" Cut="0.0000000000000000e+00" cType="1" res="-3.2523612026125193e-03" rms="4.2947006225585938e-01" purity="7.0279264450073242e-01" nType="-99"/>
        </Node>
      </Node>
    </BinaryTree>
    <BinaryTree type="DecisionTree" boostWeight="1.0000000000000000e+00" itree="832">
      <Node pos="s" depth="0" NCoef="0" IVar="4" Cut="9.0490841865539551e-01" cType="1" res="-1.6043969662860036e-03" rms="4.3093812465667725e-01" purity="4.9757075309753418e-01" nType="0">
        <Node pos="l" depth="1" NCoef="0" IVar="4" Cut="4.1044852137565613e-01" cType="1" res="-3.1819553114473820e-03" rms="4.3362697958946228e-01" purity="4.0853074193000793e-01" nType="0">
          <Node pos="l" depth="2" NCoef="0" IVar="-1" Cut="0.0000000000000000e+00" cType="1" res="2.1909524220973253e-03" rms="3.0666971206665039e-01" purity="1.1023670434951782e-01" nType="-99"/>
          <Node pos="r" depth="2" NCoef="0" IVar="-1" Cut="0.0000000000000000e+00" cType="1" res="-1.0696359677240252e-03" rms="4.5193350315093994e-01" purity="4.6001634001731873e-01" nType="-99"/>
        </Node>
        <Node pos="r" depth="1" NCoef="0" IVar="0" Cut="9.8518270254135132e-01" cType="1" res="2.2257729433476925e-03" rms="4.2431458830833435e-01" purity="7.1375191211700439e-01" nType="0">
          <Node pos="l" depth="2" NCoef="0" IVar="-1" Cut="0.0000000000000000e+00" cType="1" res="-1.3840820174664259e-03" rms="4.0577259659767151e-01" purity="7.6728290319442749e-01" nType="-99"/>
          <Node pos="r" depth="2" NCoef="0" IVar="-1" Cut="0.0000000000000000e+00" cType="1" res="3.5373631399124861e-03" rms="4.5843130350112915e-01" purity="6.0806292295455933e-01" nType="-99"/>
        </Node>
      </Node>
    </BinaryTree>
    <BinaryTree type="DecisionTree" boostWeight="1.0000000000000000e+00" itree="833">
      <Node pos="s" depth="0" NCoef="0" IVar="6" Cut="-5.1904764175415039e+00" cType="1" res="4.3787050526589155e-04" rms="4.3102335929870605e-01" purity="5.0069314241409302e-01" nType="0">
        <Node pos="l" depth="1" NCoef="0" IVar="-1" Cut="0.0000000000000000e+00" cType="1" res="-2.6825382374227047e-03" rms="4.1686755418777466e-01" purity="4.3697878718376160e-01" nType="-99"/>
        <Node pos="r" depth="1" NCoef="0" IVar="8" Cut="-1.2777493000030518e+00" cType="1" res="1.0774377733469009e-03" rms="4.3191072344779968e-01" purity="5.0479388236999512e-01" nType="0">
          <Node pos="l" depth="2" NCoef="0" IVar="-1" Cut="0.0000000000000000e+00" cType="1" res="2.5568602140992880e-03" rms="4.1574722528457642e-01" purity="6.6482108831405640e-01" nType="-99"/>
          <Node pos="r" depth="2" NCoef="0" IVar="-1" Cut="0.0000000000000000e+00" cType="1" res="5.5826283642090857e-05" rms="4.3362689018249512e-01" purity="4.8735573887825012e-01" nType="-99"/>
        </Node>
      </Node>
    </BinaryTree>
    <BinaryTree type="DecisionTree" boostWeight="1.0000000000000000e+00" itree="834">
      <Node pos="s" depth="0" NCoef="0" IVar="8" Cut="1.7010964155197144e+00" cType="1" res="9.1081392019987106e-04" rms="4.3096712231636047e-01" purity="4.9913010001182556e-01" nType="0">
        <Node pos="l" depth="1" NCoef="0" IVar="8" Cut="9.3641132116317749e-01" cType="1" res="1.4788159169256687e-03" rms="4.3219771981239319e-01" purity="4.8834085464477539e-01" nType="0">
          <Node pos="l" depth="2" NCoef="0" IVar="-1" Cut="0.0000000000000000e+00" cType="1" res="1.5655838069505990e-04" rms="4.3296337127685547e-01" purity="4.7667306661605835e-01" nType="-99"/>
          <Node pos="r" depth="2" NCoef="0" IVar="-1" Cut="0.0000000000000000e+00" cType="1" res="2.2320915013551712e-03" rms="4.2625969648361206e-01" purity="5.7722258567810059e-01" nType="-99"/>
        </Node>
        <Node pos="r" depth="1" NCoef="0" IVar="-1" Cut="0.0000000000000000e+00" cType="1" res="-2.8010720852762461e-03" rms="4.0789452195167542e-01" purity="6.9459152221679688e-01" nType="-99"/>
      </Node>
    </BinaryTree>
    <BinaryTree type="DecisionTree" boostWeight="1.0000000000000000e+00" itree="835">
      <Node pos="s" depth="0" NCoef="0" IVar="4" Cut="6.8992149829864502e-01" cType="1" res="-1.6613793559372425e-03" rms="4.3195110559463501e-01" purity="4.9777206778526306e-01" nType="0">
        <Node pos="l" depth="1" NCoef="0" IVar="7" Cut="4.0778779983520508e+00" cType="1" res="1.1826595291495323e-03" rms="4.1286489367485046e-01" purity="2.8601720929145813e-01" nType="0">
          <Node pos="l" depth="2" NCoef="0" IVar="-1" Cut="0.0000000000000000e+00" cType="1" res="1.3711315114051104e-03" rms="4.1844326257705688e-01" purity="2.9033768177032471e-01" nType="-99"/>
          <Node pos="r" depth="2" NCoef="0" IVar="-1" Cut="0.0000000000000000e+00" cType="1" res="-5.5887964554131031e-03" rms="3.8267561793327332e-01" purity="2.6401796936988831e-01" nType="-99"/>
        </Node>
        <Node pos="r" depth="1" NCoef="0" IVar="4" Cut="9.7474557161331177e-01" cType="1" res="-3.3575710840523243e-03" rms="4.4293412566184998e-01" purity="6.2406319379806519e-01" nType="0">
          <Node pos="l" depth="2" NCoef="0" IVar="-1" Cut="0.0000000000000000e+00" cType="1" res="-1.4165051979944110e-03" rms="4.4598725438117981e-01" purity="6.0923111438751221e-01" nType="-99"/>
          <Node pos="r" depth="2" NCoef="0" IVar="-1" Cut="0.0000000000000000e+00" cType="1" res="4.0475632995367050e-03" rms="4.1781431436538696e-01" purity="7.4019914865493774e-01" nType="-99"/>
        </Node>
      </Node>
    </BinaryTree>
    <BinaryTree type="DecisionTree" boostWeight="1.0000000000000000e+00" itree="836">
      <Node pos="s" depth="0" NCoef="0" IVar="3" Cut="-3.3333334326744080e-01" cType="1" res="3.1758844852447510e-04" rms="4.3142861127853394e-01" purity="4.9956992268562317e-01" nType="0">
        <Node pos="l" depth="1" NCoef="0" IVar="5" Cut="2.2365403175354004e-01" cType="1" res="-4.0655783377587795e-03" rms="4.3947350978851318e-01" purity="5.0469833612442017e-01" nType="0">
          <Node pos="l" depth="2" NCoef="0" IVar="-1" Cut="0.0000000000000000e+00" cType="1" res="2.0033298060297966e-03" rms="4.5682621002197266e-01" purity="4.9895679950714111e-01" nType="-99"/>
          <Node pos="r" depth="2" NCoef="0" IVar="-1" Cut="0.0000000000000000e+00" cType="1" res="-1.9890505354851484e-03" rms="4.3445247411727905e-01" purity="5.0629764795303345e-01" nType="-99"/>
        </Node>
        <Node pos="r" depth="1" NCoef="0" IVar="9" Cut="3.3333334326744080e-01" cType="1" res="1.4921752735972404e-03" rms="4.2923954129219055e-01" purity="4.9819564819335938e-01" nType="0">
          <Node pos="l" depth="2" NCoef="0" IVar="-1" Cut="0.0000000000000000e+00" cType="1" res="7.8775029396638274e-04" rms="4.2847278714179993e-01" purity="5.0455987453460693e-01" nType="-99"/>
          <Node pos="r" depth="2" NCoef="0" IVar="-1" Cut="0.0000000000000000e+00" cType="1" res="-1.2197095202282071e-03" rms="4.3237197399139404e-01" purity="4.7163802385330200e-01" nType="-99"/>
        </Node>
      </Node>
    </BinaryTree>
    <BinaryTree type="DecisionTree" boostWeight="1.0000000000000000e+00" itree="837">
      <Node pos="s" depth="0" NCoef="0" IVar="2" Cut="8.7501966953277588e-01" cType="1" res="-1.5839135448914021e-04" rms="4.3213978409767151e-01" purity="4.9935889244079590e-01" nType="0">
        <Node pos="l" depth="1" NCoef="0" IVar="0" Cut="1.1551470756530762e+00" cType="1" res="5.8414129307493567e-04" rms="4.3369838595390320e-01" purity="4.9970212578773499e-01" nType="0">
          <Node pos="l" depth="2" NCoef="0" IVar="-1" Cut="0.0000000000000000e+00" cType="1" res="-1.9611525931395590e-04" rms="4.3993440270423889e-01" purity="5.7586961984634399e-01" nType="-99"/>
          <Node pos="r" depth="2" NCoef="0" IVar="-1" Cut="0.0000000000000000e+00" cType="1" res="1.0837418958544731e-03" rms="4.1800457239151001e-01" purity="3.1304183602333069e-01" nType="-99"/>
        </Node>
        <Node pos="r" depth="1" NCoef="0" IVar="6" Cut="-2.2857143878936768e+00" cType="1" res="-3.6243495997041464e-03" rms="4.2477187514305115e-01" purity="4.9775639176368713e-01" nType="0">
          <Node pos="l" depth="2" NCoef="0" IVar="-1" Cut="0.0000000000000000e+00" cType="1" res="1.6107943374663591e-03" rms="4.2161360383033752e-01" purity="4.9658727645874023e-01" nType="-99"/>
          <Node pos="r" depth="2" NCoef="0" IVar="-1" Cut="0.0000000000000000e+00" cType="1" res="-1.8152331467717886e-03" rms="4.2574903368949890e-01" purity="4.9813660979270935e-01" nType="-99"/>
        </Node>
      </Node>
    </BinaryTree>
    <BinaryTree type="DecisionTree" boostWeight="1.0000000000000000e+00" itree="838">
      <Node pos="s" depth="0" NCoef="0" IVar="6" Cut="3.4285714626312256e+00" cType="1" res="-6.3030613819137216e-04" rms="4.3254497647285461e-01" purity="4.9839645624160767e-01" nType="0">
        <Node pos="l" depth="1" NCoef="0" IVar="3" Cut="3.3333334326744080e-01" cType="1" res="-1.9596961792558432e-03" rms="4.3425026535987854e-01" purity="5.0244373083114624e-01" nType="0">
          <Node pos="l" depth="2" NCoef="0" IVar="-1" Cut="0.0000000000000000e+00" cType="1" res="-1.1268931120866910e-04" rms="4.3152299523353577e-01" purity="5.0235253572463989e-01" nType="-99"/>
          <Node pos="r" depth="2" NCoef="0" IVar="-1" Cut="0.0000000000000000e+00" cType="1" res="-1.8941597081720829e-03" rms="4.4381216168403625e-01" purity="5.0276958942413330e-01" nType="-99"/>
        </Node>
        <Node pos="r" depth="1" NCoef="0" IVar="5" Cut="1.8488636016845703e+00" cType="1" res="6.2725660391151905e-03" rms="4.2351275682449341e-01" purity="4.7738072276115417e-01" nType="0">
          <Node pos="l" depth="2" NCoef="0" IVar="-1" Cut="0.0000000000000000e+00" cType="1" res="3.0423107091337442e-03" rms="4.2355468869209290e-01" purity="4.8357072472572327e-01" nType="-99"/>
          <Node pos="r" depth="2" NCoef="0" IVar="-1" Cut="0.0000000000000000e+00" cType="1" res="-5.2660517394542694e-04" rms="4.2331618070602417e-01" purity="4.6681463718414307e-01" nType="-99"/>
        </Node>
      </Node>
    </BinaryTree>
    <BinaryTree type="DecisionTree" boostWeight="1.0000000000000000e+00" itree="839">
      <Node pos="s" depth="0" NCoef="0" IVar="5" Cut="1.5430004596710205e+00" cType="1" res="-7.3491828516125679e-04" rms="4.3208190798759460e-01" purity="4.9865260720252991e-01" nType="0">
        <Node pos="l" depth="1" NCoef="0" IVar="5" Cut="1.3990150690078735e+00" cType="1" res="-2.9154550284147263e-03" rms="4.3690675497055054e-01" purity="5.0376474857330322e-01" nType="0">
          <Node pos="l" depth="2" NCoef="0" IVar="-1" Cut="0.0000000000000000e+00" cType="1" res="-4.6326513984240592e-04" rms="4.3799367547035217e-01" purity="5.0600939989089966e-01" nType="-99"/>
          <Node pos="r" depth="2" NCoef="0" IVar="-1" Cut="0.0000000000000000e+00" cType="1" res="-3.7141924258321524e-03" rms="4.2628988623619080e-01" purity="4.8242637515068054e-01" nType="-99"/>
        </Node>
        <Node pos="r" depth="1" NCoef="0" IVar="4" Cut="4.4298887252807617e-01" cType="1" res="2.9967275913804770e-03" rms="4.2367145419120789e-01" purity="4.8990395665168762e-01" nType="0">
          <Node pos="l" depth="2" NCoef="0" IVar="-1" Cut="0.0000000000000000e+00" cType="1" res="-5.5602388456463814e-03" rms="2.9163751006126404e-01" purity="9.7897596657276154e-02" nType="-99"/>
          <Node pos="r" depth="2" NCoef="0" IVar="-1" Cut="0.0000000000000000e+00" cType="1" res="1.3499135384336114e-03" rms="4.4262254238128662e-01" purity="5.5819386243820190e-01" nType="-99"/>
        </Node>
      </Node>
    </BinaryTree>
    <BinaryTree type="DecisionTree" boostWeight="1.0000000000000000e+00" itree="840">
      <Node pos="s" depth="0" NCoef="0" IVar="6" Cut="1.7142857313156128e+00" cType="1" res="1.5130785759538412e-03" rms="4.3099495768547058e-01" purity="5.0030148029327393e-01" nType="0">
        <Node pos="l" depth="1" NCoef="0" IVar="3" Cut="-4.2857143282890320e-01" cType="1" res="-6.9758173776790500e-04" rms="4.3280559778213501e-01" purity="5.0461685657501221e-01" nType="0">
          <Node pos="l" depth="2" NCoef="0" IVar="-1" Cut="0.0000000000000000e+00" cType="1" res="1.6602254472672939e-03" rms="4.4172587990760803e-01" purity="5.1853257417678833e-01" nType="-99"/>
          <Node pos="r" depth="2" NCoef="0" IVar="-1" Cut="0.0000000000000000e+00" cType="1" res="-5.7494669454172254e-04" rms="4.3098324537277222e-01" purity="5.0183176994323730e-01" nType="-99"/>
        </Node>
        <Node pos="r" depth="1" NCoef="0" IVar="0" Cut="1.0766470432281494e+00" cType="1" res="5.9403530322015285e-03" rms="4.2731139063835144e-01" purity="4.9165910482406616e-01" nType="0">
          <Node pos="l" depth="2" NCoef="0" IVar="-1" Cut="0.0000000000000000e+00" cType="1" res="2.3808185942471027e-03" rms="4.3647584319114685e-01" purity="5.9389311075210571e-01" nType="-99"/>
          <Node pos="r" depth="2" NCoef="0" IVar="-1" Cut="0.0000000000000000e+00" cType="1" res="-4.6152039431035519e-05" rms="4.0914639830589294e-01" purity="2.9616233706474304e-01" nType="-99"/>
        </Node>
      </Node>
    </BinaryTree>
    <BinaryTree type="DecisionTree" boostWeight="1.0000000000000000e+00" itree="841">
      <Node pos="s" depth="0" NCoef="0" IVar="9" Cut="1.4285714924335480e-01" cType="1" res="7.8439671779051423e-04" rms="4.3132969737052917e-01" purity="4.9985322356224060e-01" nType="0">
        <Node pos="l" depth="1" NCoef="0" IVar="3" Cut="2.3809523880481720e-01" cType="1" res="2.8210622258484364e-03" rms="4.3093323707580566e-01" purity="5.0358289480209351e-01" nType="0">
          <Node pos="l" depth="2" NCoef="0" IVar="-1" Cut="0.0000000000000000e+00" cType="1" res="1.4373965677805245e-04" rms="4.2831116914749146e-01" purity="4.9940237402915955e-01" nType="-99"/>
          <Node pos="r" depth="2" NCoef="0" IVar="-1" Cut="0.0000000000000000e+00" cType="1" res="2.3804551456123590e-03" rms="4.3809431791305542e-01" purity="5.1523232460021973e-01" nType="-99"/>
        </Node>
        <Node pos="r" depth="1" NCoef="0" IVar="9" Cut="2.2449614107608795e-01" cType="1" res="-2.8793548699468374e-03" rms="4.3201777338981628e-01" purity="4.9314397573471069e-01" nType="0">
          <Node pos="l" depth="2" NCoef="0" IVar="-1" Cut="0.0000000000000000e+00" cType="1" res="-2.9267400968819857e-03" rms="4.3213891983032227e-01" purity="5.0934404134750366e-01" nType="-99"/>
          <Node pos="r" depth="2" NCoef="0" IVar="-1" Cut="0.0000000000000000e+00" cType="1" res="-2.2874517890159041e-04" rms="4.3196395039558411e-01" purity="4.8908659815788269e-01" nType="-99"/>
        </Node>
      </Node>
    </BinaryTree>
    <BinaryTree type="DecisionTree" boostWeight="1.0000000000000000e+00" itree="842">
      <Node pos="s" depth="0" NCoef="0" IVar="4" Cut="5.6949084997177124e-01" cType="1" res="-4.4158555101603270e-04" rms="4.3243589997291565e-01" purity="4.9921011924743652e-01" nType="0">
        <Node pos="l" depth="1" NCoef="0" IVar="7" Cut="2.0803632736206055e+00" cType="1" res="4.7999201342463493e-03" rms="3.8677251338958740e-01" purity="2.1010556817054749e-01" nType="0">
          <Node pos="l" depth="2" NCoef="0" IVar="-1" Cut="0.0000000000000000e+00" cType="1" res="4.9425177276134491e-03" rms="4.1792398691177368e-01" purity="2.5044646859169006e-01" nType="-99"/>
          <Node pos="r" depth="2" NCoef="0" IVar="-1" Cut="0.0000000000000000e+00" cType="1" res="-1.0592099279165268e-03" rms="3.6496314406394958e-01" purity="1.8396009504795074e-01" nType="-99"/>
        </Node>
        <Node pos="r" depth="1" NCoef="0" IVar="4" Cut="9.6897691488265991e-01" cType="1" res="-2.2277522366493940e-03" rms="4.4691818952560425e-01" purity="5.9772932529449463e-01" nType="0">
          <Node pos="l" depth="2" NCoef="0" IVar="-1" Cut="0.0000000000000000e+00" cType="1" res="-1.0582209797576070e-03" rms="4.5206138491630554e-01" purity="5.7489150762557983e-01" nType="-99"/>
          <Node pos="r" depth="2" NCoef="0" IVar="-1" Cut="0.0000000000000000e+00" cType="1" res="3.1985177192837000e-03" rms="4.1213828325271606e-01" purity="7.4424052238464355e-01" nType="-99"/>
        </Node>
      </Node>
    </BinaryTree>
    <BinaryTree type="DecisionTree" boostWeight="1.0000000000000000e+00" itree="843">
      <Node pos="s" depth="0" NCoef="0" IVar="1" Cut="1.0303617477416992e+01" cType="1" res="7.4698490789160132e-04" rms="4.3121990561485291e-01" purity="5.0022941827774048e-01" nType="0">
        <Node pos="l" depth="1" NCoef="0" IVar="6" Cut="1.7142857313156128e+00" cType="1" res="-2.9541880940087140e-04" rms="4.3231761455535889e-01" purity="4.9967673420906067e-01" nType="0">
          <Node pos="l" depth="2" NCoef="0" IVar="-1" Cut="0.0000000000000000e+00" cType="1" res="6.1086134519428015e-04" rms="4.3410280346870422e-01" purity="5.0823634862899780e-01" nType="-99"/>
          <Node pos="r" depth="2" NCoef="0" IVar="-1" Cut="0.0000000000000000e+00" cType="1" res="-1.5098657459020615e-03" rms="4.2861974239349365e-01" purity="4.8229321837425232e-01" nType="-99"/>
        </Node>
        <Node pos="r" depth="1" NCoef="0" IVar="-1" Cut="0.0000000000000000e+00" cType="1" res="4.5444844290614128e-03" rms="4.1447108983993530e-01" purity="5.0834149122238159e-01" nType="-99"/>
      </Node>
    </BinaryTree>
    <BinaryTree type="DecisionTree" boostWeight="1.0000000000000000e+00" itree="844">
      <Node pos="s" depth="0" NCoef="0" IVar="4" Cut="9.4627553224563599e-01" cType="1" res="6.1481044394895434e-04" rms="4.3230700492858887e-01" purity="5.0000923871994019e-01" nType="0">
        <Node pos="l" depth="1" NCoef="0" IVar="3" Cut="-7.1428573131561279e-01" cType="1" res="1.9869266543537378e-03" rms="4.3505853414535522e-01" purity="4.5003113150596619e-01" nType="0">
          <Node pos="l" depth="2" NCoef="0" IVar="-1" Cut="0.0000000000000000e+00" cType="1" res="4.5225657522678375e-03" rms="4.5583972334861755e-01" purity="4.3375492095947266e-01" nType="-99"/>
          <Node pos="r" depth="2" NCoef="0" IVar="-1" Cut="0.0000000000000000e+00" cType="1" res="3.0253556906245649e-04" rms="4.3395119905471802e-01" purity="4.5086443424224854e-01" nType="-99"/>
        </Node>
        <Node pos="r" depth="1" NCoef="0" IVar="4" Cut="9.7882807254791260e-01" cType="1" res="-5.6704506278038025e-03" rms="4.1941511631011963e-01" purity="7.2894448041915894e-01" nType="0">
          <Node pos="l" depth="2" NCoef="0" IVar="-1" Cut="0.0000000000000000e+00" cType="1" res="-4.2347954586148262e-03" rms="4.1906100511550903e-01" purity="7.2683566808700562e-01" nType="-99"/>
          <Node pos="r" depth="2" NCoef="0" IVar="-1" Cut="0.0000000000000000e+00" cType="1" res="4.7714593820273876e-03" rms="4.1941586136817932e-01" purity="7.3440420627593994e-01" nType="-99"/>
        </Node>
      </Node>
    </BinaryTree>
    <BinaryTree type="DecisionTree" boostWeight="1.0000000000000000e+00" itree="845">
      <Node pos="s" depth="0" NCoef="0" IVar="9" Cut="-6.1904764175415039e-01" cType="1" res="-2.0745303481817245e-03" rms="4.3191301822662354e-01" purity="4.9780231714248657e-01" nType="0">
        <Node pos="l" depth="1" NCoef="0" IVar="4" Cut="7.8154313564300537e-01" cType="1" res="-1.2710194103419781e-02" rms="4.3900632858276367e-01" purity="4.0439471602439880e-01" nType="0">
          <Node pos="l" depth="2" NCoef="0" IVar="-1" Cut="0.0000000000000000e+00" cType="1" res="-9.5871288795024157e-04" rms="4.1596570611000061e-01" purity="2.7458071708679199e-01" nType="-99"/>
          <Node pos="r" depth="2" NCoef="0" IVar="-1" Cut="0.0000000000000000e+00" cType="1" res="-5.0831944681704044e-03" rms="4.6018368005752563e-01" purity="5.3100144863128662e-01" nType="-99"/>
        </Node>
        <Node pos="r" depth="1" NCoef="0" IVar="6" Cut="2.5714285373687744e+00" cType="1" res="-1.2392931384965777e-03" rms="4.3133991956710815e-01" purity="5.0513780117034912e-01" nType="0">
          <Node pos="l" depth="2" NCoef="0" IVar="-1" Cut="0.0000000000000000e+00" cType="1" res="-7.2307209484279156e-04" rms="4.3264722824096680e-01" purity="5.1019090414047241e-01" nType="-99"/>
          <Node pos="r" depth="2" NCoef="0" IVar="-1" Cut="0.0000000000000000e+00" cType="1" res="9.3890668358653784e-04" rms="4.2719069123268127e-01" purity="4.8933064937591553e-01" nType="-99"/>
        </Node>
      </Node>
    </BinaryTree>
    <BinaryTree type="DecisionTree" boostWeight="1.0000000000000000e+00" itree="846">
      <Node pos="s" depth="0" NCoef="0" IVar="9" Cut="1.4285714924335480e-01" cType="1" res="-1.0169274173676968e-03" rms="4.3113222718238831e-01" purity="4.9809598922729492e-01" nType="0">
        <Node pos="l" depth="1" NCoef="0" IVar="8" Cut="-1.2043129205703735e+00" cType="1" res="5.0417106831446290e-04" rms="4.3088662624359131e-01" purity="5.0134998559951782e-01" nType="0">
          <Node pos="l" depth="2" NCoef="0" IVar="-1" Cut="0.0000000000000000e+00" cType="1" res="2.7481215074658394e-03" rms="4.1680371761322021e-01" purity="6.7876154184341431e-01" nType="-99"/>
          <Node pos="r" depth="2" NCoef="0" IVar="-1" Cut="0.0000000000000000e+00" cType="1" res="-2.7642221539281309e-04" rms="4.3318715691566467e-01" purity="4.7155871987342834e-01" nType="-99"/>
        </Node>
        <Node pos="r" depth="1" NCoef="0" IVar="6" Cut="3.4285714626312256e+00" cType="1" res="-3.7295122165232897e-03" rms="4.3155658245086670e-01" purity="4.9229317903518677e-01" nType="0">
          <Node pos="l" depth="2" NCoef="0" IVar="-1" Cut="0.0000000000000000e+00" cType="1" res="-1.4719963073730469e-03" rms="4.3234515190124512e-01" purity="4.9586015939712524e-01" nType="-99"/>
          <Node pos="r" depth="2" NCoef="0" IVar="-1" Cut="0.0000000000000000e+00" cType="1" res="2.0489764865487814e-03" rms="4.2670693993568420e-01" purity="4.7124347090721130e-01" nType="-99"/>
        </Node>
      </Node>
    </BinaryTree>
    <BinaryTree type="DecisionTree" boostWeight="1.0000000000000000e+00" itree="847">
      <Node pos="s" depth="0" NCoef="0" IVar="3" Cut="2.3809523880481720e-01" cType="1" res="9.8425698524806648e-05" rms="4.3181303143501282e-01" purity="4.9939170479774475e-01" nType="0">
        <Node pos="l" depth="1" NCoef="0" IVar="5" Cut="1.0485352277755737e+00" cType="1" res="-1.5045176260173321e-03" rms="4.2957592010498047e-01" purity="4.9570882320404053e-01" nType="0">
          <Node pos="l" depth="2" NCoef="0" IVar="-1" Cut="0.0000000000000000e+00" cType="1" res="-1.7431952292099595e-03" rms="4.4074010848999023e-01" purity="5.0190091133117676e-01" nType="-99"/>
          <Node pos="r" depth="2" NCoef="0" IVar="-1" Cut="0.0000000000000000e+00" cType="1" res="4.8778273048810661e-04" rms="4.2257317900657654e-01" purity="4.9192392826080322e-01" nType="-99"/>
        </Node>
        <Node pos="r" depth="1" NCoef="0" IVar="2" Cut="1.0958474874496460e+00" cType="1" res="4.3388674966990948e-03" rms="4.3764767050743103e-01" purity="5.0913429260253906e-01" nType="0">
          <Node pos="l" depth="2" NCoef="0" IVar="-1" Cut="0.0000000000000000e+00" cType="1" res="1.6988650895655155e-03" rms="4.4100362062454224e-01" purity="5.1064753532409668e-01" nType="-99"/>
          <Node pos="r" depth="2" NCoef="0" IVar="-1" Cut="0.0000000000000000e+00" cType="1" res="-5.1170191727578640e-04" rms="4.2853322625160217e-01" purity="5.0511014461517334e-01" nType="-99"/>
        </Node>
      </Node>
    </BinaryTree>
    <BinaryTree type="DecisionTree" boostWeight="1.0000000000000000e+00" itree="848">
      <Node pos="s" depth="0" NCoef="0" IVar="10" Cut="3.3238094329833984e+01" cType="1" res="3.1940807821229100e-04" rms="4.3069875240325928e-01" purity="4.9985322356224060e-01" nType="0">
        <Node pos="l" depth="1" NCoef="0" IVar="10" Cut="3.4761905670166016e+00" cType="1" res="1.7478246008977294e-03" rms="4.3374910950660706e-01" purity="5.0731134414672852e-01" nType="0">
          <Node pos="l" depth="2" NCoef="0" IVar="-1" Cut="0.0000000000000000e+00" cType="1" res="-1.9917550962418318e-03" rms="4.6912041306495667e-01" purity="4.4664072990417480e-01" nType="-99"/>
          <Node pos="r" depth="2" NCoef="0" IVar="-1" Cut="0.0000000000000000e+00" cType="1" res="8.0276408698409796e-04" rms="4.2924398183822632e-01" purity="5.1466989517211914e-01" nType="-99"/>
        </Node>
        <Node pos="r" depth="1" NCoef="0" IVar="0" Cut="8.9468675851821899e-01" cType="1" res="-5.9624710120260715e-03" rms="4.1696098446846008e-01" purity="4.6705377101898193e-01" nType="0">
          <Node pos="l" depth="2" NCoef="0" IVar="-1" Cut="0.0000000000000000e+00" cType="1" res="3.5256948322057724e-03" rms="4.2644160985946655e-01" purity="6.7869096994400024e-01" nType="-99"/>
          <Node pos="r" depth="2" NCoef="0" IVar="-1" Cut="0.0000000000000000e+00" cType="1" res="-5.4987599141895771e-03" rms="4.0973839163780212e-01" purity="3.2031834125518799e-01" nType="-99"/>
        </Node>
      </Node>
    </BinaryTree>
    <BinaryTree type="DecisionTree" boostWeight="1.0000000000000000e+00" itree="849">
      <Node pos="s" depth="0" NCoef="0" IVar="5" Cut="3.1645905971527100e+00" cType="1" res="4.1697294363984838e-05" rms="4.3147474527359009e-01" purity="4.9958339333534241e-01" nType="0">
        <Node pos="l" depth="1" NCoef="0" IVar="9" Cut="-5.2380955219268799e-01" cType="1" res="-6.7109294468536973e-04" rms="4.3235245347023010e-01" purity="4.9742972850799561e-01" nType="0">
          <Node pos="l" depth="2" NCoef="0" IVar="-1" Cut="0.0000000000000000e+00" cType="1" res="2.2739279083907604e-03" rms="4.3857336044311523e-01" purity="4.4593670964241028e-01" nType="-99"/>
          <Node pos="r" depth="2" NCoef="0" IVar="-1" Cut="0.0000000000000000e+00" cType="1" res="-4.9142388161271811e-04" rms="4.3155351281166077e-01" purity="5.0387054681777954e-01" nType="-99"/>
        </Node>
        <Node pos="r" depth="1" NCoef="0" IVar="-1" Cut="0.0000000000000000e+00" cType="1" res="3.7127945106476545e-03" rms="4.1463381052017212e-01" purity="5.3953480720520020e-01" nType="-99"/>
      </Node>
    </BinaryTree>
    <BinaryTree type="DecisionTree" boostWeight="1.0000000000000000e+00" itree="850">
      <Node pos="s" depth="0" NCoef="0" IVar="6" Cut="2.8571429848670959e-01" cType="1" res="6.2032253481447697e-04" rms="4.3214038014411926e-01" purity="5.0087672472000122e-01" nType="0">
        <Node pos="l" depth="1" NCoef="0" IVar="8" Cut="-9.1737622022628784e-01" cType="1" res="3.0835897196084261e-03" rms="4.3294522166252136e-01" purity="5.0553059577941895e-01" nType="0">
          <Node pos="l" depth="2" NCoef="0" IVar="-1" Cut="0.0000000000000000e+00" cType="1" res="-1.6422901535406709e-03" rms="4.2322990298271179e-01" purity="6.0783320665359497e-01" nType="-99"/>
          <Node pos="r" depth="2" NCoef="0" IVar="-1" Cut="0.0000000000000000e+00" cType="1" res="1.2601859634742141e-03" rms="4.3476244807243347e-01" purity="4.8591101169586182e-01" nType="-99"/>
        </Node>
        <Node pos="r" depth="1" NCoef="0" IVar="3" Cut="-3.3333334326744080e-01" cType="1" res="-2.3833278100937605e-03" rms="4.3113788962364197e-01" purity="4.9520176649093628e-01" nType="0">
          <Node pos="l" depth="2" NCoef="0" IVar="-1" Cut="0.0000000000000000e+00" cType="1" res="-3.0308577697724104e-03" rms="4.3936434388160706e-01" purity="4.9245554208755493e-01" nType="-99"/>
          <Node pos="r" depth="2" NCoef="0" IVar="-1" Cut="0.0000000000000000e+00" cType="1" res="-2.8134050808148459e-05" rms="4.2906248569488525e-01" purity="4.9587634205818176e-01" nType="-99"/>
        </Node>
      </Node>
    </BinaryTree>
    <BinaryTree type="DecisionTree" boostWeight="1.0000000000000000e+00" itree="851">
      <Node pos="s" depth="0" NCoef="0" IVar="8" Cut="5.0316482782363892e-01" cType="1" res="8.0319697735831141e-04" rms="4.3129581212997437e-01" purity="5.0006365776062012e-01" nType="0">
        <Node pos="l" depth="1" NCoef="0" IVar="7" Cut="2.7690470218658447e+00" cType="1" res="-5.3897639736533165e-04" rms="4.3275502324104309e-01" purity="4.7648376226425171e-01" nType="0">
          <Node pos="l" depth="2" NCoef="0" IVar="-1" Cut="0.0000000000000000e+00" cType="1" res="-1.0256409877911210e-03" rms="4.4063726067543030e-01" purity="4.1683661937713623e-01" nType="-99"/>
          <Node pos="r" depth="2" NCoef="0" IVar="-1" Cut="0.0000000000000000e+00" cType="1" res="1.0001539485529065e-03" rms="4.2316186428070068e-01" purity="5.4734861850738525e-01" nType="-99"/>
        </Node>
        <Node pos="r" depth="1" NCoef="0" IVar="7" Cut="2.7612752914428711e+00" cType="1" res="4.1760010644793510e-03" rms="4.2758834362030029e-01" purity="5.5931860208511353e-01" nType="0">
          <Node pos="l" depth="2" NCoef="0" IVar="-1" Cut="0.0000000000000000e+00" cType="1" res="3.9905551820993423e-03" rms="4.5137378573417664e-01" purity="5.1765865087509155e-01" nType="-99"/>
          <Node pos="r" depth="2" NCoef="0" IVar="-1" Cut="0.0000000000000000e+00" cType="1" res="-1.1657226423267275e-04" rms="4.1789147257804871e-01" purity="5.7550555467605591e-01" nType="-99"/>
        </Node>
      </Node>
    </BinaryTree>
    <BinaryTree type="DecisionTree" boostWeight="1.0000000000000000e+00" itree="852">
      <Node pos="s" depth="0" NCoef="0" IVar="9" Cut="5.2380955219268799e-01" cType="1" res="-9.2991656856611371e-04" rms="4.3115788698196411e-01" purity="4.9958688020706177e-01" nType="0">
        <Node pos="l" depth="1" NCoef="0" IVar="4" Cut="8.6284792423248291e-01" cType="1" res="-1.8528689397498965e-03" rms="4.2982602119445801e-01" purity="5.0519222021102905e-01" nType="0">
          <Node pos="l" depth="2" NCoef="0" IVar="-1" Cut="0.0000000000000000e+00" cType="1" res="-1.2189629487693310e-03" rms="4.3012133240699768e-01" purity="3.8413032889366150e-01" nType="-99"/>
          <Node pos="r" depth="2" NCoef="0" IVar="-1" Cut="0.0000000000000000e+00" cType="1" res="6.7211751593276858e-04" rms="4.2932072281837463e-01" purity="6.9740349054336548e-01" nType="-99"/>
        </Node>
        <Node pos="r" depth="1" NCoef="0" IVar="8" Cut="3.7181743979454041e-01" cType="1" res="6.8185115233063698e-03" rms="4.4210517406463623e-01" purity="4.5252898335456848e-01" nType="0">
          <Node pos="l" depth="2" NCoef="0" IVar="-1" Cut="0.0000000000000000e+00" cType="1" res="-1.9807560602203012e-04" rms="4.3527388572692871e-01" purity="3.3968254923820496e-01" nType="-99"/>
          <Node pos="r" depth="2" NCoef="0" IVar="-1" Cut="0.0000000000000000e+00" cType="1" res="3.9729620330035686e-03" rms="4.5003372430801392e-01" purity="5.8856755495071411e-01" nType="-99"/>
        </Node>
      </Node>
    </BinaryTree>
    <BinaryTree type="DecisionTree" boostWeight="1.0000000000000000e+00" itree="853">
      <Node pos="s" depth="0" NCoef="0" IVar="3" Cut="-2.3809523880481720e-01" cType="1" res="8.6481112521141768e-04" rms="4.3148353695869446e-01" purity="4.9958130717277527e-01" nType="0">
        <Node pos="l" depth="1" NCoef="0" IVar="9" Cut="1.4285714924335480e-01" cType="1" res="3.8412821013480425e-03" rms="4.3593472242355347e-01" purity="5.1058411598205566e-01" nType="0">
          <Node pos="l" depth="2" NCoef="0" IVar="-1" Cut="0.0000000000000000e+00" cType="1" res="4.5077176764607430e-05" rms="4.3580996990203857e-01" purity="5.0798809528350830e-01" nType="-99"/>
          <Node pos="r" depth="2" NCoef="0" IVar="-1" Cut="0.0000000000000000e+00" cType="1" res="2.5621436070650816e-03" rms="4.3607228994369507e-01" purity="5.1483380794525146e-01" nType="-99"/>
        </Node>
        <Node pos="r" depth="1" NCoef="0" IVar="4" Cut="7.3728287220001221e-01" cType="1" res="-2.9999602702446282e-04" rms="4.2972344160079956e-01" purity="4.9527549743652344e-01" nType="0">
          <Node pos="l" depth="2" NCoef="0" IVar="-1" Cut="0.0000000000000000e+00" cType="1" res="1.0753308888524771e-03" rms="4.1739764809608459e-01" purity="3.1208175420761108e-01" nType="-99"/>
          <Node pos="r" depth="2" NCoef="0" IVar="-1" Cut="0.0000000000000000e+00" cType="1" res="-8.8010355830192566e-04" rms="4.3898212909698486e-01" purity="6.3678729534149170e-01" nType="-99"/>
        </Node>
      </Node>
    </BinaryTree>
    <BinaryTree type="DecisionTree" boostWeight="1.0000000000000000e+00" itree="854">
      <Node pos="s" depth="0" NCoef="0" IVar="9" Cut="3.3333334326744080e-01" cType="1" res="2.6915804482996464e-03" rms="4.3151280283927917e-01" purity="5.0195682048797607e-01" nType="0">
        <Node pos="l" depth="1" NCoef="0" IVar="8" Cut="1.3353401422500610e+00" cType="1" res="3.9033624343574047e-03" rms="4.3092426657676697e-01" purity="5.0876265764236450e-01" nType="0">
          <Node pos="l" depth="2" NCoef="0" IVar="-1" Cut="0.0000000000000000e+00" cType="1" res="1.2405152665451169e-03" rms="4.3205568194389343e-01" purity="4.9837717413902283e-01" nType="-99"/>
          <Node pos="r" depth="2" NCoef="0" IVar="-1" Cut="0.0000000000000000e+00" cType="1" res="-1.3706929748877883e-03" rms="4.1795960068702698e-01" purity="6.2493497133255005e-01" nType="-99"/>
        </Node>
        <Node pos="r" depth="1" NCoef="0" IVar="7" Cut="1.6456664800643921e+00" cType="1" res="-2.0341025665402412e-03" rms="4.3376797437667847e-01" purity="4.7541537880897522e-01" nType="0">
          <Node pos="l" depth="2" NCoef="0" IVar="-1" Cut="0.0000000000000000e+00" cType="1" res="1.6587401041761041e-03" rms="4.6133011579513550e-01" purity="4.3785753846168518e-01" nType="-99"/>
          <Node pos="r" depth="2" NCoef="0" IVar="-1" Cut="0.0000000000000000e+00" cType="1" res="-1.8809570465236902e-03" rms="4.1880458593368530e-01" purity="4.9473968148231506e-01" nType="-99"/>
        </Node>
      </Node>
    </BinaryTree>
    <BinaryTree type="DecisionTree" boostWeight="1.0000000000000000e+00" itree="855">
      <Node pos="s" depth="0" NCoef="0" IVar="10" Cut="9.5714282989501953e+00" cType="1" res="-8.6913665290921926e-04" rms="4.3110188841819763e-01" purity="4.9764207005500793e-01" nType="0">
        <Node pos="l" depth="1" NCoef="0" IVar="4" Cut="7.4528634548187256e-01" cType="1" res="-4.9601858481764793e-03" rms="4.5396617054939270e-01" purity="5.1834845542907715e-01" nType="0">
          <Node pos="l" depth="2" NCoef="0" IVar="-1" Cut="0.0000000000000000e+00" cType="1" res="-4.3307761661708355e-03" rms="4.5038551092147827e-01" purity="3.3307927846908569e-01" nType="-99"/>
          <Node pos="r" depth="2" NCoef="0" IVar="-1" Cut="0.0000000000000000e+00" cType="1" res="4.2512841173447669e-04" rms="4.5570069551467896e-01" purity="6.1614567041397095e-01" nType="-99"/>
        </Node>
        <Node pos="r" depth="1" NCoef="0" IVar="4" Cut="4.4780260324478149e-01" cType="1" res="1.0545128025114536e-03" rms="4.1990703344345093e-01" purity="4.8790568113327026e-01" nType="0">
          <Node pos="l" depth="2" NCoef="0" IVar="-1" Cut="0.0000000000000000e+00" cType="1" res="-4.4782739132642746e-03" rms="3.0590632557868958e-01" purity="1.0955186933279037e-01" nType="-99"/>
          <Node pos="r" depth="2" NCoef="0" IVar="-1" Cut="0.0000000000000000e+00" cType="1" res="8.0487423110753298e-04" rms="4.4013947248458862e-01" purity="5.6758886575698853e-01" nType="-99"/>
        </Node>
      </Node>
    </BinaryTree>
    <BinaryTree type="DecisionTree" boostWeight="1.0000000000000000e+00" itree="856">
      <Node pos="s" depth="0" NCoef="0" IVar="9" Cut="-3.3333334326744080e-01" cType="1" res="-5.8183440705761313e-04" rms="4.3035742640495300e-01" purity="4.9929088354110718e-01" nType="0">
        <Node pos="l" depth="1" NCoef="0" IVar="10" Cut="7.9047617912292480e+00" cType="1" res="-6.5032849088311195e-03" rms="4.3175819516181946e-01" purity="4.6528485417366028e-01" nType="0">
          <Node pos="l" depth="2" NCoef="0" IVar="-1" Cut="0.0000000000000000e+00" cType="1" res="3.4264661371707916e-04" rms="4.5557734370231628e-01" purity="4.9322140216827393e-01" nType="-99"/>
          <Node pos="r" depth="2" NCoef="0" IVar="-1" Cut="0.0000000000000000e+00" cType="1" res="-3.4139521885663271e-03" rms="4.1465631127357483e-01" purity="4.4624736905097961e-01" nType="-99"/>
        </Node>
        <Node pos="r" depth="1" NCoef="0" IVar="8" Cut="-2.3551963269710541e-02" cType="1" res="9.1645406791940331e-04" rms="4.2998933792114258e-01" purity="5.0789535045623779e-01" nType="0">
          <Node pos="l" depth="2" NCoef="0" IVar="-1" Cut="0.0000000000000000e+00" cType="1" res="9.2910038074478507e-04" rms="4.2540076375007629e-01" purity="4.9258980154991150e-01" nType="-99"/>
          <Node pos="r" depth="2" NCoef="0" IVar="-1" Cut="0.0000000000000000e+00" cType="1" res="-2.5305553572252393e-04" rms="4.3339136242866516e-01" purity="5.1938128471374512e-01" nType="-99"/>
        </Node>
      </Node>
    </BinaryTree>
    <BinaryTree type="DecisionTree" boostWeight="1.0000000000000000e+00" itree="857">
      <Node pos="s" depth="0" NCoef="0" IVar="4" Cut="9.4626301527023315e-01" cType="1" res="-1.1094321962445974e-04" rms="4.3155896663665771e-01" purity="4.9913150072097778e-01" nType="0">
        <Node pos="l" depth="1" NCoef="0" IVar="0" Cut="1.2480497360229492e+00" cType="1" res="1.2475439580157399e-03" rms="4.3391793966293335e-01" purity="4.4929555058479309e-01" nType="0">
          <Node pos="l" depth="2" NCoef="0" IVar="-1" Cut="0.0000000000000000e+00" cType="1" res="8.7560870451852679e-04" rms="4.4373753666877747e-01" purity="5.0837665796279907e-01" nType="-99"/>
          <Node pos="r" depth="2" NCoef="0" IVar="-1" Cut="0.0000000000000000e+00" cType="1" res="-1.9127363339066505e-03" rms="3.9855945110321045e-01" purity="2.4801197648048401e-01" nType="-99"/>
        </Node>
        <Node pos="r" depth="1" NCoef="0" IVar="0" Cut="8.9379841089248657e-01" cType="1" res="-6.3346102833747864e-03" rms="4.2052644491195679e-01" purity="7.2744613885879517e-01" nType="0">
          <Node pos="l" depth="2" NCoef="0" IVar="-1" Cut="0.0000000000000000e+00" cType="1" res="-4.7855861485004425e-03" rms="4.0479120612144470e-01" purity="7.6397025585174561e-01" nType="-99"/>
          <Node pos="r" depth="2" NCoef="0" IVar="-1" Cut="0.0000000000000000e+00" cType="1" res="1.8607787787914276e-03" rms="4.4351169466972351e-01" purity="6.7068636417388916e-01" nType="-99"/>
        </Node>
      </Node>
    </BinaryTree>
    <BinaryTree type="DecisionTree" boostWeight="1.0000000000000000e+00" itree="858">
      <Node pos="s" depth="0" NCoef="0" IVar="9" Cut="5.2380955219268799e-01" cType="1" res="-9.2157068138476461e-05" rms="4.3143048882484436e-01" purity="4.9974063038825989e-01" nType="0">
        <Node pos="l" depth="1" NCoef="0" IVar="10" Cut="1.7809524536132812e+01" cType="1" res="8.8222487829625607e-04" rms="4.3058344721794128e-01" purity="5.0698900222778320e-01" nType="0">
          <Node pos="l" depth="2" NCoef="0" IVar="-1" Cut="0.0000000000000000e+00" cType="1" res="-4.2809580918401480e-04" rms="4.4398540258407593e-01" purity="5.1463651657104492e-01" nType="-99"/>
          <Node pos="r" depth="2" NCoef="0" IVar="-1" Cut="0.0000000000000000e+00" cType="1" res="1.0360087035223842e-03" rms="4.1571596264839172e-01" purity="4.9878904223442078e-01" nType="-99"/>
        </Node>
        <Node pos="r" depth="1" NCoef="0" IVar="1" Cut="2.1133162975311279e+00" cType="1" res="-8.3878841251134872e-03" rms="4.3848818540573120e-01" purity="4.3802934885025024e-01" nType="0">
          <Node pos="l" depth="2" NCoef="0" IVar="-1" Cut="0.0000000000000000e+00" cType="1" res="1.8465082393959165e-04" rms="4.5642536878585815e-01" purity="4.6299469470977783e-01" nType="-99"/>
          <Node pos="r" depth="2" NCoef="0" IVar="-1" Cut="0.0000000000000000e+00" cType="1" res="-5.4246373474597931e-03" rms="4.1616415977478027e-01" purity="4.0868952870368958e-01" nType="-99"/>
        </Node>
      </Node>
    </BinaryTree>
    <BinaryTree type="DecisionTree" boostWeight="1.0000000000000000e+00" itree="859">
      <Node pos="s" depth="0" NCoef="0" IVar="8" Cut="-6.3515365123748779e-01" cType="1" res="1.0353036486776546e-04" rms="4.3077096343040466e-01" purity="4.9962139129638672e-01" nType="0">
        <Node pos="l" depth="1" NCoef="0" IVar="7" Cut="3.4839830398559570e+00" cType="1" res="5.3614326752722263e-03" rms="4.2392149567604065e-01" purity="5.7946211099624634e-01" nType="0">
          <Node pos="l" depth="2" NCoef="0" IVar="-1" Cut="0.0000000000000000e+00" cType="1" res="3.8110800087451935e-03" rms="4.3620845675468445e-01" purity="5.4479044675827026e-01" nType="-99"/>
          <Node pos="r" depth="2" NCoef="0" IVar="-1" Cut="0.0000000000000000e+00" cType="1" res="6.5857697336468846e-05" rms="4.1690102219581604e-01" purity="5.9858524799346924e-01" nType="-99"/>
        </Node>
        <Node pos="r" depth="1" NCoef="0" IVar="6" Cut="5.3333334922790527e+00" cType="1" res="-1.5303634572774172e-03" rms="4.3286433815956116e-01" purity="4.7481086850166321e-01" nType="0">
          <Node pos="l" depth="2" NCoef="0" IVar="-1" Cut="0.0000000000000000e+00" cType="1" res="-6.3286675140261650e-04" rms="4.3411567807197571e-01" purity="4.7715851664543152e-01" nType="-99"/>
          <Node pos="r" depth="2" NCoef="0" IVar="-1" Cut="0.0000000000000000e+00" cType="1" res="2.8885828796774149e-03" rms="4.1565558314323425e-01" purity="4.4353586435317993e-01" nType="-99"/>
        </Node>
      </Node>
    </BinaryTree>
    <BinaryTree type="DecisionTree" boostWeight="1.0000000000000000e+00" itree="860">
      <Node pos="s" depth="0" NCoef="0" IVar="0" Cut="5.9454470872879028e-01" cType="1" res="-5.8696500491350889e-04" rms="4.3111261725425720e-01" purity="4.9963730573654175e-01" nType="0">
        <Node pos="l" depth="1" NCoef="0" IVar="-1" Cut="0.0000000000000000e+00" cType="1" res="-2.6378682814538479e-03" rms="4.3740186095237732e-01" purity="6.6185218095779419e-01" nType="-99"/>
        <Node pos="r" depth="1" NCoef="0" IVar="3" Cut="7.1428573131561279e-01" cType="1" res="1.6179851081687957e-04" rms="4.3059459328651428e-01" purity="4.8660525679588318e-01" nType="0">
          <Node pos="l" depth="2" NCoef="0" IVar="-1" Cut="0.0000000000000000e+00" cType="1" res="2.2705923765897751e-04" rms="4.2936950922012329e-01" purity="4.8812091350555420e-01" nType="-99"/>
          <Node pos="r" depth="2" NCoef="0" IVar="-1" Cut="0.0000000000000000e+00" cType="1" res="-2.9518005903810263e-03" rms="4.5199143886566162e-01" purity="4.5920157432556152e-01" nType="-99"/>
        </Node>
      </Node>
    </BinaryTree>
    <BinaryTree type="DecisionTree" boostWeight="1.0000000000000000e+00" itree="861">
      <Node pos="s" depth="0" NCoef="0" IVar="3" Cut="8.0952382087707520e-01" cType="1" res="1.8708689603954554e-03" rms="4.3103161454200745e-01" purity="5.0205749273300171e-01" nType="0">
        <Node pos="l" depth="1" NCoef="0" IVar="8" Cut="1.5123679637908936e+00" cType="1" res="1.2374282814562321e-03" rms="4.2983588576316833e-01" purity="5.0172603130340576e-01" nType="0">
          <Node pos="l" depth="2" NCoef="0" IVar="-1" Cut="0.0000000000000000e+00" cType="1" res="1.5262028318829834e-04" rms="4.3144860863685608e-01" purity="4.8703852295875549e-01" nType="-99"/>
          <Node pos="r" depth="2" NCoef="0" IVar="-1" Cut="0.0000000000000000e+00" cType="1" res="2.7746113482862711e-03" rms="4.0886780619621277e-01" purity="6.8688434362411499e-01" nType="-99"/>
        </Node>
        <Node pos="r" depth="1" NCoef="0" IVar="-1" Cut="0.0000000000000000e+00" cType="1" res="3.9020041003823280e-03" rms="4.5742154121398926e-01" purity="5.0967794656753540e-01" nType="-99"/>
      </Node>
    </BinaryTree>
    <BinaryTree type="DecisionTree" boostWeight="1.0000000000000000e+00" itree="862">
      <Node pos="s" depth="0" NCoef="0" IVar="2" Cut="-1.2926723957061768e+00" cType="1" res="-1.3269572809804231e-04" rms="4.3066874146461487e-01" purity="5.0066822767257690e-01" nType="0">
        <Node pos="l" depth="1" NCoef="0" IVar="3" Cut="-2.8408467769622803e-01" cType="1" res="-7.7799651771783829e-03" rms="4.1936367750167847e-01" purity="4.9300077557563782e-01" nType="0">
          <Node pos="l" depth="2" NCoef="0" IVar="-1" Cut="0.0000000000000000e+00" cType="1" res="-1.6161247913260013e-04" rms="4.2371103167533875e-01" purity="5.1183521747589111e-01" nType="-99"/>
          <Node pos="r" depth="2" NCoef="0" IVar="-1" Cut="0.0000000000000000e+00" cType="1" res="-4.4701443985104561e-03" rms="4.1434711217880249e-01" purity="4.7213014960289001e-01" nType="-99"/>
        </Node>
        <Node pos="r" depth="1" NCoef="0" IVar="6" Cut="-1.0952380895614624e+00" cType="1" res="7.2080246172845364e-04" rms="4.3190371990203857e-01" purity="5.0152397155761719e-01" nType="0">
          <Node pos="l" depth="2" NCoef="0" IVar="-1" Cut="0.0000000000000000e+00" cType="1" res="1.1889121960848570e-03" rms="4.2721876502037048e-01" purity="4.9755856394767761e-01" nType="-99"/>
          <Node pos="r" depth="2" NCoef="0" IVar="-1" Cut="0.0000000000000000e+00" cType="1" res="-2.2759153216611594e-04" rms="4.3388643860816956e-01" purity="5.0322353839874268e-01" nType="-99"/>
        </Node>
      </Node>
    </BinaryTree>
    <BinaryTree type="DecisionTree" boostWeight="1.0000000000000000e+00" itree="863">
      <Node pos="s" depth="0" NCoef="0" IVar="2" Cut="-1.9145736694335938e+00" cType="1" res="-7.6763040851801634e-04" rms="4.3077620863914490e-01" purity="4.9959352612495422e-01" nType="0">
        <Node pos="l" depth="1" NCoef="0" IVar="-1" Cut="0.0000000000000000e+00" cType="1" res="3.4514358267188072e-03" rms="4.1780295968055725e-01" purity="5.1361119747161865e-01" nType="-99"/>
        <Node pos="r" depth="1" NCoef="0" IVar="1" Cut="7.4248371124267578e+00" cType="1" res="-1.4035459607839584e-03" rms="4.3139386177062988e-01" purity="4.9890452623367310e-01" nType="0">
          <Node pos="l" depth="2" NCoef="0" IVar="-1" Cut="0.0000000000000000e+00" cType="1" res="-2.3266556672751904e-04" rms="4.3271175026893616e-01" purity="5.0082188844680786e-01" nType="-99"/>
          <Node pos="r" depth="2" NCoef="0" IVar="-1" Cut="0.0000000000000000e+00" cType="1" res="-1.9429994281381369e-03" rms="4.1726478934288025e-01" purity="4.7876998782157898e-01" nType="-99"/>
        </Node>
      </Node>
    </BinaryTree>
    <BinaryTree type="DecisionTree" boostWeight="1.0000000000000000e+00" itree="864">
      <Node pos="s" depth="0" NCoef="0" IVar="3" Cut="-6.1904764175415039e-01" cType="1" res="-1.6447528032585979e-03" rms="4.3080654740333557e-01" purity="4.9820813536643982e-01" nType="0">
        <Node pos="l" depth="1" NCoef="0" IVar="3" Cut="-8.3674436807632446e-01" cType="1" res="6.5292282961308956e-03" rms="4.4756171107292175e-01" purity="5.0348633527755737e-01" nType="0">
          <Node pos="l" depth="2" NCoef="0" IVar="-1" Cut="0.0000000000000000e+00" cType="1" res="-8.3380250725895166e-04" rms="4.5383715629577637e-01" purity="4.7594889998435974e-01" nType="-99"/>
          <Node pos="r" depth="2" NCoef="0" IVar="-1" Cut="0.0000000000000000e+00" cType="1" res="3.9778230711817741e-03" rms="4.4159749150276184e-01" purity="5.2845650911331177e-01" nType="-99"/>
        </Node>
        <Node pos="r" depth="1" NCoef="0" IVar="0" Cut="6.1076790094375610e-01" cType="1" res="-2.4069214705377817e-03" rms="4.2920297384262085e-01" purity="4.9771603941917419e-01" nType="0">
          <Node pos="l" depth="2" NCoef="0" IVar="-1" Cut="0.0000000000000000e+00" cType="1" res="-2.9523349367082119e-03" rms="4.3422898650169373e-01" purity="6.6823333501815796e-01" nType="-99"/>
          <Node pos="r" depth="2" NCoef="0" IVar="-1" Cut="0.0000000000000000e+00" cType="1" res="-4.5377717469818890e-04" rms="4.2876732349395752e-01" purity="4.8328551650047302e-01" nType="-99"/>
        </Node>
      </Node>
    </BinaryTree>
    <BinaryTree type="DecisionTree" boostWeight="1.0000000000000000e+00" itree="865">
      <Node pos="s" depth="0" NCoef="0" IVar="4" Cut="4.8574993014335632e-01" cType="1" res="-3.7592503940686584e-04" rms="4.3137180805206299e-01" purity="4.9913603067398071e-01" nType="0">
        <Node pos="l" depth="1" NCoef="0" IVar="10" Cut="1.6857143402099609e+01" cType="1" res="4.7038774937391281e-03" rms="3.4823146462440491e-01" purity="1.5214487910270691e-01" nType="0">
          <Node pos="l" depth="2" NCoef="0" IVar="-1" Cut="0.0000000000000000e+00" cType="1" res="5.6587327271699905e-03" rms="3.8489311933517456e-01" purity="1.9040426611900330e-01" nType="-99"/>
          <Node pos="r" depth="2" NCoef="0" IVar="-1" Cut="0.0000000000000000e+00" cType="1" res="-1.8697945633903146e-03" rms="3.1631100177764893e-01" purity="1.2218649685382843e-01" nType="-99"/>
        </Node>
        <Node pos="r" depth="1" NCoef="0" IVar="4" Cut="9.6502304077148438e-01" cType="1" res="-1.4405570691451430e-03" rms="4.4683265686035156e-01" purity="5.7185900211334229e-01" nType="0">
          <Node pos="l" depth="2" NCoef="0" IVar="-1" Cut="0.0000000000000000e+00" cType="1" res="-8.8491413043811917e-04" rms="4.5229017734527588e-01" purity="5.4291218519210815e-01" nType="-99"/>
          <Node pos="r" depth="2" NCoef="0" IVar="-1" Cut="0.0000000000000000e+00" cType="1" res="3.3855896908789873e-03" rms="4.1186389327049255e-01" purity="7.4774903059005737e-01" nType="-99"/>
        </Node>
      </Node>
    </BinaryTree>
    <BinaryTree type="DecisionTree" boostWeight="1.0000000000000000e+00" itree="866">
      <Node pos="s" depth="0" NCoef="0" IVar="8" Cut="1.6414833068847656e+00" cType="1" res="9.0009352425113320e-04" rms="4.3129816651344299e-01" purity="4.9960708618164062e-01" nType="0">
        <Node pos="l" depth="1" NCoef="0" IVar="2" Cut="1.0585216283798218e+00" cType="1" res="1.5708020655438304e-03" rms="4.3249240517616272e-01" purity="4.8804014921188354e-01" nType="0">
          <Node pos="l" depth="2" NCoef="0" IVar="-1" Cut="0.0000000000000000e+00" cType="1" res="1.4865311095491052e-04" rms="4.3331381678581238e-01" purity="4.8756870627403259e-01" nType="-99"/>
          <Node pos="r" depth="2" NCoef="0" IVar="-1" Cut="0.0000000000000000e+00" cType="1" res="2.1372488699853420e-03" rms="4.2729666829109192e-01" purity="4.9097123742103577e-01" nType="-99"/>
        </Node>
        <Node pos="r" depth="1" NCoef="0" IVar="-1" Cut="0.0000000000000000e+00" cType="1" res="-2.9697197023779154e-03" rms="4.1119039058685303e-01" purity="6.8813705444335938e-01" nType="-99"/>
      </Node>
    </BinaryTree>
    <BinaryTree type="DecisionTree" boostWeight="1.0000000000000000e+00" itree="867">
      <Node pos="s" depth="0" NCoef="0" IVar="5" Cut="2.1332952976226807e+00" cType="1" res="1.6595037886872888e-03" rms="4.3181312084197998e-01" purity="5.0073844194412231e-01" nType="0">
        <Node pos="l" depth="1" NCoef="0" IVar="10" Cut="1.7619047164916992e+01" cType="1" res="2.9237044509500265e-03" rms="4.3382716178894043e-01" purity="5.0477886199951172e-01" nType="0">
          <Node pos="l" depth="2" NCoef="0" IVar="-1" Cut="0.0000000000000000e+00" cType="1" res="1.0633048077579588e-04" rms="4.4517841935157776e-01" purity="5.0847727060317993e-01" nType="-99"/>
          <Node pos="r" depth="2" NCoef="0" IVar="-1" Cut="0.0000000000000000e+00" cType="1" res="2.0982059650123119e-03" rms="4.1303858160972595e-01" purity="4.9826455116271973e-01" nType="-99"/>
        </Node>
        <Node pos="r" depth="1" NCoef="0" IVar="0" Cut="9.9100375175476074e-01" cType="1" res="-4.2980397120118141e-03" rms="4.2214173078536987e-01" purity="4.8169770836830139e-01" nType="0">
          <Node pos="l" depth="2" NCoef="0" IVar="-1" Cut="0.0000000000000000e+00" cType="1" res="-2.3769722320139408e-03" rms="4.3487602472305298e-01" purity="6.1322015523910522e-01" nType="-99"/>
          <Node pos="r" depth="2" NCoef="0" IVar="-1" Cut="0.0000000000000000e+00" cType="1" res="6.8064237711951137e-04" rms="4.0332740545272827e-01" purity="2.9541936516761780e-01" nType="-99"/>
        </Node>
      </Node>
    </BinaryTree>
    <BinaryTree type="DecisionTree" boostWeight="1.0000000000000000e+00" itree="868">
      <Node pos="s" depth="0" NCoef="0" IVar="9" Cut="-7.1428573131561279e-01" cType="1" res="4.5169537770561874e-04" rms="4.3092721700668335e-01" purity="5.0008720159530640e-01" nType="0">
        <Node pos="l" depth="1" NCoef="0" IVar="-1" Cut="0.0000000000000000e+00" cType="1" res="3.1088781543076038e-03" rms="4.4082769751548767e-01" purity="4.0184426307678223e-01" nType="-99"/>
        <Node pos="r" depth="1" NCoef="0" IVar="8" Cut="-7.5469535589218140e-01" cType="1" res="-1.2555789726320654e-04" rms="4.3042379617691040e-01" purity="5.0494235754013062e-01" nType="0">
          <Node pos="l" depth="2" NCoef="0" IVar="-1" Cut="0.0000000000000000e+00" cType="1" res="-1.2355649378150702e-03" rms="4.2303159832954407e-01" purity="5.8405852317810059e-01" nType="-99"/>
          <Node pos="r" depth="2" NCoef="0" IVar="-1" Cut="0.0000000000000000e+00" cType="1" res="2.6347755920141935e-04" rms="4.3231391906738281e-01" purity="4.8441585898399353e-01" nType="-99"/>
        </Node>
      </Node>
    </BinaryTree>
    <BinaryTree type="DecisionTree" boostWeight="1.0000000000000000e+00" itree="869">
      <Node pos="s" depth="0" NCoef="0" IVar="1" Cut="9.2813520431518555e+00" cType="1" res="7.2497659130021930e-04" rms="4.3163710832595825e-01" purity="5.0114679336547852e-01" nType="0">
        <Node pos="l" depth="1" NCoef="0" IVar="0" Cut="1.2770150899887085e+00" cType="1" res="-1.8610984261613339e-04" rms="4.3314087390899658e-01" purity="5.0033378601074219e-01" nType="0">
          <Node pos="l" depth="2" NCoef="0" IVar="-1" Cut="0.0000000000000000e+00" cType="1" res="-3.7365028401836753e-04" rms="4.3815377354621887e-01" purity="5.5217385292053223e-01" nType="-99"/>
          <Node pos="r" depth="2" NCoef="0" IVar="-1" Cut="0.0000000000000000e+00" cType="1" res="1.4111908385530114e-03" rms="4.1228732466697693e-01" purity="2.9146274924278259e-01" nType="-99"/>
        </Node>
        <Node pos="r" depth="1" NCoef="0" IVar="2" Cut="-4.4670963287353516e-01" cType="1" res="1.1226934380829334e-02" rms="4.1376438736915588e-01" purity="5.1051813364028931e-01" nType="0">
          <Node pos="l" depth="2" NCoef="0" IVar="-1" Cut="0.0000000000000000e+00" cType="1" res="5.5138417519629002e-03" rms="4.1514411568641663e-01" purity="5.2103346586227417e-01" nType="-99"/>
          <Node pos="r" depth="2" NCoef="0" IVar="-1" Cut="0.0000000000000000e+00" cType="1" res="1.0006615193560719e-03" rms="4.1230341792106628e-01" purity="5.0054085254669189e-01" nType="-99"/>
        </Node>
      </Node>
    </BinaryTree>
    <BinaryTree type="DecisionTree" boostWeight="1.0000000000000000e+00" itree="870">
      <Node pos="s" depth="0" NCoef="0" IVar="6" Cut="-4.5714287757873535e+00" cType="1" res="2.6508695445954800e-03" rms="4.3044874072074890e-01" purity="5.0250160694122314e-01" nType="0">
        <Node pos="l" depth="1" NCoef="0" IVar="4" Cut="7.7818024158477783e-01" cType="1" res="-8.3998823538422585e-03" rms="4.1477984189987183e-01" purity="4.5219370722770691e-01" nType="0">
          <Node pos="l" depth="2" NCoef="0" IVar="-1" Cut="0.0000000000000000e+00" cType="1" res="-6.2924833036959171e-04" rms="4.0020227432250977e-01" purity="3.0727213621139526e-01" nType="-99"/>
          <Node pos="r" depth="2" NCoef="0" IVar="-1" Cut="0.0000000000000000e+00" cType="1" res="-4.1850428096950054e-03" rms="4.3115800619125366e-01" purity="6.2243539094924927e-01" nType="-99"/>
        </Node>
        <Node pos="r" depth="1" NCoef="0" IVar="9" Cut="-5.2380955219268799e-01" cType="1" res="3.7581017240881920e-03" rms="4.3197175860404968e-01" purity="5.0754225254058838e-01" nType="0">
          <Node pos="l" depth="2" NCoef="0" IVar="-1" Cut="0.0000000000000000e+00" cType="1" res="-9.8839891143143177e-04" rms="4.3831849098205566e-01" purity="4.3586498498916626e-01" nType="-99"/>
          <Node pos="r" depth="2" NCoef="0" IVar="-1" Cut="0.0000000000000000e+00" cType="1" res="1.2502596946433187e-03" rms="4.3115714192390442e-01" purity="5.1656103134155273e-01" nType="-99"/>
        </Node>
      </Node>
    </BinaryTree>
    <BinaryTree type="DecisionTree" boostWeight="1.0000000000000000e+00" itree="871">
      <Node pos="s" depth="0" NCoef="0" IVar="6" Cut="1.7142857313156128e+00" cType="1" res="-2.5397681165486574e-03" rms="4.3175929784774780e-01" purity="4.9809214472770691e-01" nType="0">
        <Node pos="l" depth="1" NCoef="0" IVar="3" Cut="-6.1904764175415039e-01" cType="1" res="-4.6729513996979222e-05" rms="4.3332287669181824e-01" purity="5.0660043954849243e-01" nType="0">
          <Node pos="l" depth="2" NCoef="0" IVar="-1" Cut="0.0000000000000000e+00" cType="1" res="2.9268218204379082e-03" rms="4.4644454121589661e-01" purity="5.1981812715530396e-01" nType="-99"/>
          <Node pos="r" depth="2" NCoef="0" IVar="-1" Cut="0.0000000000000000e+00" cType="1" res="-3.3863793942146003e-04" rms="4.3193843960762024e-01" purity="5.0524747371673584e-01" nType="-99"/>
        </Node>
        <Node pos="r" depth="1" NCoef="0" IVar="4" Cut="5.1901370286941528e-01" cType="1" res="-7.5253415852785110e-03" rms="4.2857179045677185e-01" purity="4.8107734322547913e-01" nType="0">
          <Node pos="l" depth="2" NCoef="0" IVar="-1" Cut="0.0000000000000000e+00" cType="1" res="4.7256969264708459e-04" rms="3.5854211449623108e-01" purity="1.6767862439155579e-01" nType="-99"/>
          <Node pos="r" depth="2" NCoef="0" IVar="-1" Cut="0.0000000000000000e+00" cType="1" res="-2.4929323699325323e-03" rms="4.4671812653541565e-01" purity="5.7154506444931030e-01" nType="-99"/>
        </Node>
      </Node>
    </BinaryTree>
    <BinaryTree type="DecisionTree" boostWeight="1.0000000000000000e+00" itree="872">
      <Node pos="s" depth="0" NCoef="0" IVar="1" Cut="1.0423699378967285e+01" cType="1" res="-8.5408857557922602e-04" rms="4.3116238713264465e-01" purity="5.0049030780792236e-01" nType="0">
        <Node pos="l" depth="1" NCoef="0" IVar="1" Cut="8.0606384277343750e+00" cType="1" res="-1.8952693790197372e-04" rms="4.3232461810112000e-01" purity="5.0140631198883057e-01" nType="0">
          <Node pos="l" depth="2" NCoef="0" IVar="-1" Cut="0.0000000000000000e+00" cType="1" res="7.5972064223606139e-05" rms="4.3302044272422791e-01" purity="5.0239592790603638e-01" nType="-99"/>
          <Node pos="r" depth="2" NCoef="0" IVar="-1" Cut="0.0000000000000000e+00" cType="1" res="-2.8615498449653387e-03" rms="4.1755992174148560e-01" purity="4.8095172643661499e-01" nType="-99"/>
        </Node>
        <Node pos="r" depth="1" NCoef="0" IVar="-1" Cut="0.0000000000000000e+00" cType="1" res="-3.0864456202834845e-03" rms="4.1322106122970581e-01" purity="4.8675882816314697e-01" nType="-99"/>
      </Node>
    </BinaryTree>
    <BinaryTree type="DecisionTree" boostWeight="1.0000000000000000e+00" itree="873">
      <Node pos="s" depth="0" NCoef="0" IVar="9" Cut="5.2380955219268799e-01" cType="1" res="4.1940651135519147e-04" rms="4.3247333168983459e-01" purity="5.0068330764770508e-01" nType="0">
        <Node pos="l" depth="1" NCoef="0" IVar="9" Cut="-4.9206468462944031e-01" cType="1" res="-8.4790494292974472e-04" rms="4.3134093284606934e-01" purity="5.0598818063735962e-01" nType="0">
          <Node pos="l" depth="2" NCoef="0" IVar="-1" Cut="0.0000000000000000e+00" cType="1" res="-3.0325769912451506e-03" rms="4.3653246760368347e-01" purity="4.3232321739196777e-01" nType="-99"/>
          <Node pos="r" depth="2" NCoef="0" IVar="-1" Cut="0.0000000000000000e+00" cType="1" res="2.0989167387597263e-04" rms="4.3052676320075989e-01" purity="5.1712894439697266e-01" nType="-99"/>
        </Node>
        <Node pos="r" depth="1" NCoef="0" IVar="4" Cut="6.2148982286453247e-01" cType="1" res="1.1261012405157089e-02" rms="4.4189381599426270e-01" purity="4.5530137419700623e-01" nType="0">
          <Node pos="l" depth="2" NCoef="0" IVar="-1" Cut="0.0000000000000000e+00" cType="1" res="8.7352469563484192e-03" rms="4.0669214725494385e-01" purity="2.4874705076217651e-01" nType="-99"/>
          <Node pos="r" depth="2" NCoef="0" IVar="-1" Cut="0.0000000000000000e+00" cType="1" res="7.1930693229660392e-04" rms="4.5877143740653992e-01" purity="5.6177979707717896e-01" nType="-99"/>
        </Node>
      </Node>
    </BinaryTree>
    <BinaryTree type="DecisionTree" boostWeight="1.0000000000000000e+00" itree="874">
      <Node pos="s" depth="0" NCoef="0" IVar="9" Cut="-3.3333334326744080e-01" cType="1" res="-5.5804732255637646e-04" rms="4.3138444423675537e-01" purity="5.0016140937805176e-01" nType="0">
        <Node pos="l" depth="1" NCoef="0" IVar="10" Cut="1.7142856597900391e+01" cType="1" res="4.4865706004202366e-03" rms="4.3339380621910095e-01" purity="4.7448506951332092e-01" nType="0">
          <Node pos="l" depth="2" NCoef="0" IVar="-1" Cut="0.0000000000000000e+00" cType="1" res="1.9477973692119122e-03" rms="4.4634932279586792e-01" purity="4.8635241389274597e-01" nType="-99"/>
          <Node pos="r" depth="2" NCoef="0" IVar="-1" Cut="0.0000000000000000e+00" cType="1" res="-1.7651161178946495e-03" rms="3.9002212882041931e-01" purity="4.3744292855262756e-01" nType="-99"/>
        </Node>
        <Node pos="r" depth="1" NCoef="0" IVar="9" Cut="4.7620765864849091e-02" cType="1" res="-1.8418971449136734e-03" rms="4.3086212873458862e-01" purity="5.0669604539871216e-01" nType="0">
          <Node pos="l" depth="2" NCoef="0" IVar="-1" Cut="0.0000000000000000e+00" cType="1" res="-1.6140260268002748e-03" rms="4.3001756072044373e-01" purity="5.1086068153381348e-01" nType="-99"/>
          <Node pos="r" depth="2" NCoef="0" IVar="-1" Cut="0.0000000000000000e+00" cType="1" res="3.5534190828911960e-04" rms="4.3147379159927368e-01" purity="5.0354003906250000e-01" nType="-99"/>
        </Node>
      </Node>
    </BinaryTree>
    <BinaryTree type="DecisionTree" boostWeight="1.0000000000000000e+00" itree="875">
      <Node pos="s" depth="0" NCoef="0" IVar="4" Cut="9.0602004528045654e-01" cType="1" res="-1.5123448101803660e-03" rms="4.3102097511291504e-01" purity="4.9814179539680481e-01" nType="0">
        <Node pos="l" depth="1" NCoef="0" IVar="9" Cut="6.1904764175415039e-01" cType="1" res="-3.2443711534142494e-03" rms="4.3335944414138794e-01" purity="4.0880304574966431e-01" nType="0">
          <Node pos="l" depth="2" NCoef="0" IVar="-1" Cut="0.0000000000000000e+00" cType="1" res="-1.1073686182498932e-03" rms="4.3316242098808289e-01" purity="4.1354131698608398e-01" nType="-99"/>
          <Node pos="r" depth="2" NCoef="0" IVar="-1" Cut="0.0000000000000000e+00" cType="1" res="2.7005341835319996e-03" rms="4.3584713339805603e-01" purity="3.4352397918701172e-01" nType="-99"/>
        </Node>
        <Node pos="r" depth="1" NCoef="0" IVar="0" Cut="9.6518534421920776e-01" cType="1" res="2.6913962792605162e-03" rms="4.2526251077651978e-01" purity="7.1497255563735962e-01" nType="0">
          <Node pos="l" depth="2" NCoef="0" IVar="-1" Cut="0.0000000000000000e+00" cType="1" res="-1.3239135732874274e-03" rms="4.0568777918815613e-01" purity="7.6957976818084717e-01" nType="-99"/>
          <Node pos="r" depth="2" NCoef="0" IVar="-1" Cut="0.0000000000000000e+00" cType="1" res="3.4848533105105162e-03" rms="4.5792594552040100e-01" purity="6.1729270219802856e-01" nType="-99"/>
        </Node>
      </Node>
    </BinaryTree>
    <BinaryTree type="DecisionTree" boostWeight="1.0000000000000000e+00" itree="876">
      <Node pos="s" depth="0" NCoef="0" IVar="5" Cut="3.2548889517784119e-01" cType="1" res="-2.1269310673233122e-04" rms="4.3072119355201721e-01" purity="5.0092977285385132e-01" nType="0">
        <Node pos="l" depth="1" NCoef="0" IVar="4" Cut="7.8402423858642578e-01" cType="1" res="5.6590684689581394e-03" rms="4.5088565349578857e-01" purity="5.0590884685516357e-01" nType="0">
          <Node pos="l" depth="2" NCoef="0" IVar="-1" Cut="0.0000000000000000e+00" cType="1" res="-1.4968848554417491e-03" rms="4.4606193900108337e-01" purity="3.3363896608352661e-01" nType="-99"/>
          <Node pos="r" depth="2" NCoef="0" IVar="-1" Cut="0.0000000000000000e+00" cType="1" res="2.8198638465255499e-03" rms="4.5337465405464172e-01" purity="6.0003423690795898e-01" nType="-99"/>
        </Node>
        <Node pos="r" depth="1" NCoef="0" IVar="0" Cut="7.4360883235931396e-01" cType="1" res="-1.2448685010895133e-03" rms="4.2706984281539917e-01" purity="5.0005459785461426e-01" nType="0">
          <Node pos="l" depth="2" NCoef="0" IVar="-1" Cut="0.0000000000000000e+00" cType="1" res="1.4928762102499604e-03" rms="4.1717070341110229e-01" purity="6.9164431095123291e-01" nType="-99"/>
          <Node pos="r" depth="2" NCoef="0" IVar="-1" Cut="0.0000000000000000e+00" cType="1" res="-7.2423228994011879e-04" rms="4.2926955223083496e-01" purity="4.5660376548767090e-01" nType="-99"/>
        </Node>
      </Node>
    </BinaryTree>
    <BinaryTree type="DecisionTree" boostWeight="1.0000000000000000e+00" itree="877">
      <Node pos="s" depth="0" NCoef="0" IVar="7" Cut="8.0305709838867188e+00" cType="1" res="-1.3890753034502268e-03" rms="4.3151950836181641e-01" purity="4.9848768115043640e-01" nType="0">
        <Node pos="l" depth="1" NCoef="0" IVar="5" Cut="2.9953444004058838e+00" cType="1" res="-6.3644675537943840e-04" rms="4.3305084109306335e-01" purity="4.8405352234840393e-01" nType="0">
          <Node pos="l" depth="2" NCoef="0" IVar="-1" Cut="0.0000000000000000e+00" cType="1" res="1.2501829587563407e-05" rms="4.3378400802612305e-01" purity="4.8535397648811340e-01" nType="-99"/>
          <Node pos="r" depth="2" NCoef="0" IVar="-1" Cut="0.0000000000000000e+00" cType="1" res="-3.8672140799462795e-03" rms="4.1854530572891235e-01" purity="4.5914572477340698e-01" nType="-99"/>
        </Node>
        <Node pos="r" depth="1" NCoef="0" IVar="6" Cut="2.8571429848670959e-01" cType="1" res="-1.0014277882874012e-02" rms="4.1346755623817444e-01" purity="6.6390448808670044e-01" nType="0">
          <Node pos="l" depth="2" NCoef="0" IVar="-1" Cut="0.0000000000000000e+00" cType="1" res="-4.3854443356394768e-03" rms="4.1175755858421326e-01" purity="6.6298907995223999e-01" nType="-99"/>
          <Node pos="r" depth="2" NCoef="0" IVar="-1" Cut="0.0000000000000000e+00" cType="1" res="-1.3867183588445187e-03" rms="4.1518574953079224e-01" purity="6.6486263275146484e-01" nType="-99"/>
        </Node>
      </Node>
    </BinaryTree>
    <BinaryTree type="DecisionTree" boostWeight="1.0000000000000000e+00" itree="878">
      <Node pos="s" depth="0" NCoef="0" IVar="6" Cut="-2.6666667461395264e+00" cType="1" res="1.6301663126796484e-03" rms="4.3158289790153503e-01" purity="5.0277787446975708e-01" nType="0">
        <Node pos="l" depth="1" NCoef="0" IVar="0" Cut="9.2126715183258057e-01" cType="1" res="8.0046309158205986e-03" rms="4.2519077658653259e-01" purity="4.9134904146194458e-01" nType="0">
          <Node pos="l" depth="2" NCoef="0" IVar="-1" Cut="0.0000000000000000e+00" cType="1" res="8.4386451635509729e-04" rms="4.2587915062904358e-01" purity="6.3990026712417603e-01" nType="-99"/>
          <Node pos="r" depth="2" NCoef="0" IVar="-1" Cut="0.0000000000000000e+00" cType="1" res="3.2883586827665567e-03" rms="4.2458999156951904e-01" purity="3.7079444527626038e-01" nType="-99"/>
        </Node>
        <Node pos="r" depth="1" NCoef="0" IVar="9" Cut="6.1904764175415039e-01" cType="1" res="-1.9138953575748019e-05" rms="4.3320617079734802e-01" purity="5.0573498010635376e-01" nType="0">
          <Node pos="l" depth="2" NCoef="0" IVar="-1" Cut="0.0000000000000000e+00" cType="1" res="2.0967809541616589e-04" rms="4.3209666013717651e-01" purity="5.1283913850784302e-01" nType="-99"/>
          <Node pos="r" depth="2" NCoef="0" IVar="-1" Cut="0.0000000000000000e+00" cType="1" res="-2.3378739133477211e-03" rms="4.4556477665901184e-01" purity="4.2468288540840149e-01" nType="-99"/>
        </Node>
      </Node>
    </BinaryTree>
    <BinaryTree type="DecisionTree" boostWeight="1.0000000000000000e+00" itree="879">
      <Node pos="s" depth="0" NCoef="0" IVar="7" Cut="5.1556496620178223e+00" cType="1" res="-8.6557242320850492e-04" rms="4.2986235022544861e-01" purity="4.9796560406684875e-01" nType="0">
        <Node pos="l" depth="1" NCoef="0" IVar="8" Cut="-6.7658567428588867e-01" cType="1" res="-2.5106749963015318e-03" rms="4.3424931168556213e-01" purity="4.6233230829238892e-01" nType="0">
          <Node pos="l" depth="2" NCoef="0" IVar="-1" Cut="0.0000000000000000e+00" cType="1" res="1.2678147759288549e-03" rms="4.3218973278999329e-01" purity="5.4411286115646362e-01" nType="-99"/>
          <Node pos="r" depth="2" NCoef="0" IVar="-1" Cut="0.0000000000000000e+00" cType="1" res="-1.0544043034315109e-03" rms="4.3466809391975403e-01" purity="4.4503706693649292e-01" nType="-99"/>
        </Node>
        <Node pos="r" depth="1" NCoef="0" IVar="4" Cut="7.4496686458587646e-01" cType="1" res="4.8727230168879032e-03" rms="4.1414549946784973e-01" purity="6.2225842475891113e-01" nType="0">
          <Node pos="l" depth="2" NCoef="0" IVar="-1" Cut="0.0000000000000000e+00" cType="1" res="-5.4494701325893402e-03" rms="3.9258277416229248e-01" purity="3.1293404102325439e-01" nType="-99"/>
          <Node pos="r" depth="2" NCoef="0" IVar="-1" Cut="0.0000000000000000e+00" cType="1" res="2.6502732653170824e-03" rms="4.1831964254379272e-01" purity="6.8632811307907104e-01" nType="-99"/>
        </Node>
      </Node>
    </BinaryTree>
    <BinaryTree type="DecisionTree" boostWeight="1.0000000000000000e+00" itree="880">
      <Node pos="s" depth="0" NCoef="0" IVar="3" Cut="4.2857143282890320e-01" cType="1" res="-1.2595072621479630e-03" rms="4.3021503090858459e-01" purity="4.9864464998245239e-01" nType="0">
        <Node pos="l" depth="1" NCoef="0" IVar="10" Cut="1.8761905670166016e+01" cType="1" res="-1.0632460180204362e-04" rms="4.2766085267066956e-01" purity="4.9802070856094360e-01" nType="0">
          <Node pos="l" depth="2" NCoef="0" IVar="-1" Cut="0.0000000000000000e+00" cType="1" res="7.3079409776255488e-04" rms="4.4039645791053772e-01" purity="5.0763112306594849e-01" nType="-99"/>
          <Node pos="r" depth="2" NCoef="0" IVar="-1" Cut="0.0000000000000000e+00" cType="1" res="-9.9252967629581690e-04" rms="4.1273480653762817e-01" purity="4.8713487386703491e-01" nType="-99"/>
        </Node>
        <Node pos="r" depth="1" NCoef="0" IVar="10" Cut="1.4428571701049805e+01" cType="1" res="-7.6499222777783871e-03" rms="4.4404870271682739e-01" purity="5.0210219621658325e-01" nType="0">
          <Node pos="l" depth="2" NCoef="0" IVar="-1" Cut="0.0000000000000000e+00" cType="1" res="-2.7753782924264669e-03" rms="4.5291888713836670e-01" purity="4.9977096915245056e-01" nType="-99"/>
          <Node pos="r" depth="2" NCoef="0" IVar="-1" Cut="0.0000000000000000e+00" cType="1" res="1.3033531140536070e-03" rms="4.1322278976440430e-01" purity="5.0978761911392212e-01" nType="-99"/>
        </Node>
      </Node>
    </BinaryTree>
    <BinaryTree type="DecisionTree" boostWeight="1.0000000000000000e+00" itree="881">
      <Node pos="s" depth="0" NCoef="0" IVar="5" Cut="9.1570109128952026e-01" cType="1" res="-3.3217511372640729e-04" rms="4.3074700236320496e-01" purity="4.9887931346893311e-01" nType="0">
        <Node pos="l" depth="1" NCoef="0" IVar="4" Cut="4.4958972930908203e-01" cType="1" res="-2.9970530886203051e-03" rms="4.4374424219131470e-01" purity="5.0575178861618042e-01" nType="0">
          <Node pos="l" depth="2" NCoef="0" IVar="-1" Cut="0.0000000000000000e+00" cType="1" res="7.0621436461806297e-03" rms="3.6925187706947327e-01" purity="1.7530147731304169e-01" nType="-99"/>
          <Node pos="r" depth="2" NCoef="0" IVar="-1" Cut="0.0000000000000000e+00" cType="1" res="-1.3027024688199162e-03" rms="4.5151683688163757e-01" purity="5.4402852058410645e-01" nType="-99"/>
        </Node>
        <Node pos="r" depth="1" NCoef="0" IVar="0" Cut="7.2878068685531616e-01" cType="1" res="1.1351862922310829e-03" rms="4.2341291904449463e-01" purity="4.9509510397911072e-01" nType="0">
          <Node pos="l" depth="2" NCoef="0" IVar="-1" Cut="0.0000000000000000e+00" cType="1" res="2.6177202817052603e-03" rms="4.1071349382400513e-01" purity="7.0472371578216553e-01" nType="-99"/>
          <Node pos="r" depth="2" NCoef="0" IVar="-1" Cut="0.0000000000000000e+00" cType="1" res="-6.4323801780119538e-05" rms="4.2560699582099915e-01" purity="4.5798340439796448e-01" nType="-99"/>
        </Node>
      </Node>
    </BinaryTree>
    <BinaryTree type="DecisionTree" boostWeight="1.0000000000000000e+00" itree="882">
      <Node pos="s" depth="0" NCoef="0" IVar="3" Cut="-3.3333334326744080e-01" cType="1" res="7.1734457742422819e-04" rms="4.3261983990669250e-01" purity="4.9898779392242432e-01" nType="0">
        <Node pos="l" depth="1" NCoef="0" IVar="0" Cut="1.0133831501007080e+00" cType="1" res="6.9471541792154312e-03" rms="4.3909427523612976e-01" purity="5.1357710361480713e-01" nType="0">
          <Node pos="l" depth="2" NCoef="0" IVar="-1" Cut="0.0000000000000000e+00" cType="1" res="2.5629877927713096e-04" rms="4.3924409151077271e-01" purity="6.2108969688415527e-01" nType="-99"/>
          <Node pos="r" depth="2" NCoef="0" IVar="-1" Cut="0.0000000000000000e+00" cType="1" res="3.4861920867115259e-03" rms="4.3882676959037781e-01" purity="3.9181625843048096e-01" nType="-99"/>
        </Node>
        <Node pos="r" depth="1" NCoef="0" IVar="4" Cut="6.9541311264038086e-01" cType="1" res="-9.6485251560807228e-04" rms="4.3083944916725159e-01" purity="4.9504834413528442e-01" nType="0">
          <Node pos="l" depth="2" NCoef="0" IVar="-1" Cut="0.0000000000000000e+00" cType="1" res="9.2272722395136952e-04" rms="4.1257974505424500e-01" purity="2.8934875130653381e-01" nType="-99"/>
          <Node pos="r" depth="2" NCoef="0" IVar="-1" Cut="0.0000000000000000e+00" cType="1" res="-8.9621328515931964e-04" rms="4.4187152385711670e-01" purity="6.2387257814407349e-01" nType="-99"/>
        </Node>
      </Node>
    </BinaryTree>
    <BinaryTree type="DecisionTree" boostWeight="1.0000000000000000e+00" itree="883">
      <Node pos="s" depth="0" NCoef="0" IVar="7" Cut="2.4958834648132324e+00" cType="1" res="5.3133722394704819e-04" rms="4.3240818381309509e-01" purity="5.0062686204910278e-01" nType="0">
        <Node pos="l" depth="1" NCoef="0" IVar="4" Cut="7.0053666830062866e-01" cType="1" res="3.9673289284110069e-03" rms="4.4524514675140381e-01" purity="4.3718567490577698e-01" nType="0">
          <Node pos="l" depth="2" NCoef="0" IVar="-1" Cut="0.0000000000000000e+00" cType="1" res="2.8550152201205492e-03" rms="4.2981612682342529e-01" purity="2.9972219467163086e-01" nType="-99"/>
          <Node pos="r" depth="2" NCoef="0" IVar="-1" Cut="0.0000000000000000e+00" cType="1" res="-5.3374707931652665e-04" rms="4.5962116122245789e-01" purity="5.7044231891632080e-01" nType="-99"/>
        </Node>
        <Node pos="r" depth="1" NCoef="0" IVar="10" Cut="2.9714284896850586e+01" cType="1" res="-1.8969036173075438e-03" rms="4.2308455705642700e-01" purity="5.4546117782592773e-01" nType="0">
          <Node pos="l" depth="2" NCoef="0" IVar="-1" Cut="0.0000000000000000e+00" cType="1" res="1.9465771038085222e-04" rms="4.2482230067253113e-01" purity="5.7794123888015747e-01" nType="-99"/>
          <Node pos="r" depth="2" NCoef="0" IVar="-1" Cut="0.0000000000000000e+00" cType="1" res="-1.7250260571017861e-03" rms="4.2017078399658203e-01" purity="4.9194937944412231e-01" nType="-99"/>
        </Node>
      </Node>
    </BinaryTree>
    <BinaryTree type="DecisionTree" boostWeight="1.0000000000000000e+00" itree="884">
      <Node pos="s" depth="0" NCoef="0" IVar="8" Cut="-1.7210232019424438e+00" cType="1" res="5.4659391753375530e-04" rms="4.3158620595932007e-01" purity="5.0032031536102295e-01" nType="0">
        <Node pos="l" depth="1" NCoef="0" IVar="-1" Cut="0.0000000000000000e+00" cType="1" res="-3.6644118372350931e-03" rms="4.1060829162597656e-01" purity="6.9409936666488647e-01" nType="-99"/>
        <Node pos="r" depth="1" NCoef="0" IVar="2" Cut="-1.6877174377441406e+00" cType="1" res="1.2352928752079606e-03" rms="4.3266385793685913e-01" purity="4.9000212550163269e-01" nType="0">
          <Node pos="l" depth="2" NCoef="0" IVar="-1" Cut="0.0000000000000000e+00" cType="1" res="-2.6933329645544291e-03" rms="4.2142590880393982e-01" purity="4.8047554492950439e-01" nType="-99"/>
          <Node pos="r" depth="2" NCoef="0" IVar="-1" Cut="0.0000000000000000e+00" cType="1" res="5.0743948668241501e-04" rms="4.3336269259452820e-01" purity="4.9061083793640137e-01" nType="-99"/>
        </Node>
      </Node>
    </BinaryTree>
    <BinaryTree type="DecisionTree" boostWeight="1.0000000000000000e+00" itree="885">
      <Node pos="s" depth="0" NCoef="0" IVar="3" Cut="4.7619048506021500e-02" cType="1" res="1.6228324966505170e-03" rms="4.3124979734420776e-01" purity="5.0135838985443115e-01" nType="0">
        <Node pos="l" depth="1" NCoef="0" IVar="3" Cut="-5.2169490605592728e-02" cType="1" res="4.2210989631712437e-03" rms="4.3089604377746582e-01" purity="5.0352162122726440e-01" nType="0">
          <Node pos="l" depth="2" NCoef="0" IVar="-1" Cut="0.0000000000000000e+00" cType="1" res="7.5683073373511434e-04" rms="4.3285709619522095e-01" purity="5.0511592626571655e-01" nType="-99"/>
          <Node pos="r" depth="2" NCoef="0" IVar="-1" Cut="0.0000000000000000e+00" cType="1" res="2.8113008011132479e-03" rms="4.2203330993652344e-01" purity="4.9644851684570312e-01" nType="-99"/>
        </Node>
        <Node pos="r" depth="1" NCoef="0" IVar="3" Cut="7.7324646711349487e-01" cType="1" res="-1.6044554067775607e-03" rms="4.3166700005531311e-01" purity="4.9867156147956848e-01" nType="0">
          <Node pos="l" depth="2" NCoef="0" IVar="-1" Cut="0.0000000000000000e+00" cType="1" res="-7.3582149343565106e-04" rms="4.2887720465660095e-01" purity="4.9835512042045593e-01" nType="-99"/>
          <Node pos="r" depth="2" NCoef="0" IVar="-1" Cut="0.0000000000000000e+00" cType="1" res="1.9086030079051852e-03" rms="4.5445293188095093e-01" purity="5.0134634971618652e-01" nType="-99"/>
        </Node>
      </Node>
    </BinaryTree>
    <BinaryTree type="DecisionTree" boostWeight="1.0000000000000000e+00" itree="886">
      <Node pos="s" depth="0" NCoef="0" IVar="9" Cut="6.1904764175415039e-01" cType="1" res="4.1037698974832892e-04" rms="4.3073552846908569e-01" purity="5.0099354982376099e-01" nType="0">
        <Node pos="l" depth="1" NCoef="0" IVar="4" Cut="4.8575556278228760e-01" cType="1" res="1.3010069960728288e-03" rms="4.3014639616012573e-01" purity="5.0756180286407471e-01" nType="0">
          <Node pos="l" depth="2" NCoef="0" IVar="-1" Cut="0.0000000000000000e+00" cType="1" res="-2.2769093047827482e-03" rms="3.4051328897476196e-01" purity="1.4439626038074493e-01" nType="-99"/>
          <Node pos="r" depth="2" NCoef="0" IVar="-1" Cut="0.0000000000000000e+00" cType="1" res="6.6675100242719054e-04" rms="4.4634658098220825e-01" purity="5.8227318525314331e-01" nType="-99"/>
        </Node>
        <Node pos="r" depth="1" NCoef="0" IVar="4" Cut="7.8192239999771118e-01" cType="1" res="-1.0961043648421764e-02" rms="4.3802872300148010e-01" purity="4.1713133454322815e-01" nType="0">
          <Node pos="l" depth="2" NCoef="0" IVar="-1" Cut="0.0000000000000000e+00" cType="1" res="-2.9284734046086669e-04" rms="4.1625955700874329e-01" purity="2.8434428572654724e-01" nType="-99"/>
          <Node pos="r" depth="2" NCoef="0" IVar="-1" Cut="0.0000000000000000e+00" cType="1" res="-4.8924153670668602e-03" rms="4.5872014760971069e-01" purity="5.5104404687881470e-01" nType="-99"/>
        </Node>
      </Node>
    </BinaryTree>
    <BinaryTree type="DecisionTree" boostWeight="1.0000000000000000e+00" itree="887">
      <Node pos="s" depth="0" NCoef="0" IVar="3" Cut="-7.1428573131561279e-01" cType="1" res="1.2704017572104931e-03" rms="4.3157073855400085e-01" purity="5.0178748369216919e-01" nType="0">
        <Node pos="l" depth="1" NCoef="0" IVar="-1" Cut="0.0000000000000000e+00" cType="1" res="-3.1053763814270496e-03" rms="4.5476734638214111e-01" purity="4.8676130175590515e-01" nType="-99"/>
        <Node pos="r" depth="1" NCoef="0" IVar="4" Cut="4.3356773257255554e-01" cType="1" res="2.1781004033982754e-03" rms="4.3001386523246765e-01" purity="5.0275790691375732e-01" nType="0">
          <Node pos="l" depth="2" NCoef="0" IVar="-1" Cut="0.0000000000000000e+00" cType="1" res="-2.4387682788074017e-03" rms="3.1096571683883667e-01" purity="1.1539609730243683e-01" nType="-99"/>
          <Node pos="r" depth="2" NCoef="0" IVar="-1" Cut="0.0000000000000000e+00" cType="1" res="8.0505531514063478e-04" rms="4.4481503963470459e-01" purity="5.5965536832809448e-01" nType="-99"/>
        </Node>
      </Node>
    </BinaryTree>
    <BinaryTree type="DecisionTree" boostWeight="1.0000000000000000e+00" itree="888">
      <Node pos="s" depth="0" NCoef="0" IVar="10" Cut="6.0666667938232422e+01" cType="1" res="1.0976791381835938e-03" rms="4.3128493428230286e-01" purity="5.0075960159301758e-01" nType="0">
        <Node pos="l" depth="1" NCoef="0" IVar="7" Cut="7.6403403282165527e+00" cType="1" res="1.5786149306222796e-03" rms="4.3164253234863281e-01" purity="5.0710713863372803e-01" nType="0">
          <Node pos="l" depth="2" NCoef="0" IVar="-1" Cut="0.0000000000000000e+00" cType="1" res="2.2334224195219576e-04" rms="4.3400305509567261e-01" purity="4.8860064148902893e-01" nType="-99"/>
          <Node pos="r" depth="2" NCoef="0" IVar="-1" Cut="0.0000000000000000e+00" cType="1" res="2.8985301032662392e-03" rms="4.0415680408477783e-01" purity="7.1451163291931152e-01" nType="-99"/>
        </Node>
        <Node pos="r" depth="1" NCoef="0" IVar="-1" Cut="0.0000000000000000e+00" cType="1" res="-3.2083778642117977e-03" rms="4.2146217823028564e-01" purity="3.3195450901985168e-01" nType="-99"/>
      </Node>
    </BinaryTree>
    <BinaryTree type="DecisionTree" boostWeight="1.0000000000000000e+00" itree="889">
      <Node pos="s" depth="0" NCoef="0" IVar="3" Cut="4.7619048506021500e-02" cType="1" res="-6.6776719177141786e-04" rms="4.3204283714294434e-01" purity="4.9972829222679138e-01" nType="0">
        <Node pos="l" depth="1" NCoef="0" IVar="5" Cut="9.1828876733779907e-01" cType="1" res="-3.1750607304275036e-03" rms="4.3213263154029846e-01" purity="4.9651083350181580e-01" nType="0">
          <Node pos="l" depth="2" NCoef="0" IVar="-1" Cut="0.0000000000000000e+00" cType="1" res="-2.3694899864494801e-03" rms="4.4416439533233643e-01" purity="4.9966570734977722e-01" nType="-99"/>
          <Node pos="r" depth="2" NCoef="0" IVar="-1" Cut="0.0000000000000000e+00" cType="1" res="2.9080667445668951e-05" rms="4.2565447092056274e-01" purity="4.9485746026039124e-01" nType="-99"/>
        </Node>
        <Node pos="r" depth="1" NCoef="0" IVar="9" Cut="-4.2857143282890320e-01" cType="1" res="2.3949209135025740e-03" rms="4.3191337585449219e-01" purity="5.0365847349166870e-01" nType="0">
          <Node pos="l" depth="2" NCoef="0" IVar="-1" Cut="0.0000000000000000e+00" cType="1" res="-1.2518747244030237e-03" rms="4.3838053941726685e-01" purity="4.4835403561592102e-01" nType="-99"/>
          <Node pos="r" depth="2" NCoef="0" IVar="-1" Cut="0.0000000000000000e+00" cType="1" res="9.7968988120555878e-04" rms="4.3072760105133057e-01" purity="5.1360130310058594e-01" nType="-99"/>
        </Node>
      </Node>
    </BinaryTree>
    <BinaryTree type="DecisionTree" boostWeight="1.0000000000000000e+00" itree="890">
      <Node pos="s" depth="0" NCoef="0" IVar="6" Cut="3.0000000000000000e+00" cType="1" res="1.3886701781302691e-03" rms="4.3137490749359131e-01" purity="5.0143802165985107e-01" nType="0">
        <Node pos="l" depth="1" NCoef="0" IVar="2" Cut="8.8938891887664795e-01" cType="1" res="2.6195754762738943e-03" rms="4.3239417672157288e-01" purity="5.0777041912078857e-01" nType="0">
          <Node pos="l" depth="2" NCoef="0" IVar="-1" Cut="0.0000000000000000e+00" cType="1" res="9.8697806242853403e-04" rms="4.3411859869956970e-01" purity="5.0844299793243408e-01" nType="-99"/>
          <Node pos="r" depth="2" NCoef="0" IVar="-1" Cut="0.0000000000000000e+00" cType="1" res="-8.4655871614813805e-04" rms="4.2368236184120178e-01" purity="5.0443112850189209e-01" nType="-99"/>
        </Node>
        <Node pos="r" depth="1" NCoef="0" IVar="8" Cut="-4.5331209897994995e-01" cType="1" res="-2.6479386724531651e-03" rms="4.2799046635627747e-01" purity="4.8067191243171692e-01" nType="0">
          <Node pos="l" depth="2" NCoef="0" IVar="-1" Cut="0.0000000000000000e+00" cType="1" res="-3.3866364974528551e-03" rms="4.2171093821525574e-01" purity="5.1299709081649780e-01" nType="-99"/>
          <Node pos="r" depth="2" NCoef="0" IVar="-1" Cut="0.0000000000000000e+00" cType="1" res="5.6702498113736510e-04" rms="4.3095663189888000e-01" purity="4.6482488512992859e-01" nType="-99"/>
        </Node>
      </Node>
    </BinaryTree>
    <BinaryTree type="DecisionTree" boostWeight="1.0000000000000000e+00" itree="891">
      <Node pos="s" depth="0" NCoef="0" IVar="3" Cut="-5.2380955219268799e-01" cType="1" res="1.1680698953568935e-03" rms="4.3134051561355591e-01" purity="5.0112897157669067e-01" nType="0">
        <Node pos="l" depth="1" NCoef="0" IVar="4" Cut="9.0829026699066162e-01" cType="1" res="1.0844862088561058e-02" rms="4.4692885875701904e-01" purity="5.1727509498596191e-01" nType="0">
          <Node pos="l" depth="2" NCoef="0" IVar="-1" Cut="0.0000000000000000e+00" cType="1" res="5.1202406175434589e-03" rms="4.4712015986442566e-01" purity="4.3548974394798279e-01" nType="-99"/>
          <Node pos="r" depth="2" NCoef="0" IVar="-1" Cut="0.0000000000000000e+00" cType="1" res="-1.2151191476732492e-03" rms="4.4616746902465820e-01" purity="6.5158498287200928e-01" nType="-99"/>
        </Node>
        <Node pos="r" depth="1" NCoef="0" IVar="9" Cut="-5.2380955219268799e-01" cType="1" res="-8.1410667917225510e-05" rms="4.2927056550979614e-01" purity="4.9904417991638184e-01" nType="0">
          <Node pos="l" depth="2" NCoef="0" IVar="-1" Cut="0.0000000000000000e+00" cType="1" res="-1.8376889638602734e-03" rms="4.3315166234970093e-01" purity="4.2725038528442383e-01" nType="-99"/>
          <Node pos="r" depth="2" NCoef="0" IVar="-1" Cut="0.0000000000000000e+00" cType="1" res="1.7054258205462247e-04" rms="4.2885845899581909e-01" purity="5.0651270151138306e-01" nType="-99"/>
        </Node>
      </Node>
    </BinaryTree>
    <BinaryTree type="DecisionTree" boostWeight="1.0000000000000000e+00" itree="892">
      <Node pos="s" depth="0" NCoef="0" IVar="2" Cut="3.9560779929161072e-01" cType="1" res="2.0057125948369503e-03" rms="4.3115988373756409e-01" purity="5.0239354372024536e-01" nType="0">
        <Node pos="l" depth="1" NCoef="0" IVar="10" Cut="9.8095235824584961e+00" cType="1" res="4.2317327461205423e-04" rms="4.3182924389839172e-01" purity="4.9984794855117798e-01" nType="0">
          <Node pos="l" depth="2" NCoef="0" IVar="-1" Cut="0.0000000000000000e+00" cType="1" res="1.0370491072535515e-03" rms="4.5325866341590881e-01" purity="5.2317911386489868e-01" nType="-99"/>
          <Node pos="r" depth="2" NCoef="0" IVar="-1" Cut="0.0000000000000000e+00" cType="1" res="-4.6809224295429885e-04" rms="4.1972473263740540e-01" purity="4.8718401789665222e-01" nType="-99"/>
        </Node>
        <Node pos="r" depth="1" NCoef="0" IVar="8" Cut="3.4669235348701477e-01" cType="1" res="5.2809021435678005e-03" rms="4.2975270748138428e-01" purity="5.0766199827194214e-01" nType="0">
          <Node pos="l" depth="2" NCoef="0" IVar="-1" Cut="0.0000000000000000e+00" cType="1" res="7.1719882544130087e-04" rms="4.2914313077926636e-01" purity="4.8528632521629333e-01" nType="-99"/>
          <Node pos="r" depth="2" NCoef="0" IVar="-1" Cut="0.0000000000000000e+00" cType="1" res="2.6411188300698996e-03" rms="4.3076586723327637e-01" purity="5.4627335071563721e-01" nType="-99"/>
        </Node>
      </Node>
    </BinaryTree>
    <BinaryTree type="DecisionTree" boostWeight="1.0000000000000000e+00" itree="893">
      <Node pos="s" depth="0" NCoef="0" IVar="8" Cut="-6.5994396805763245e-02" cType="1" res="-7.7630212763324380e-04" rms="4.3040928244590759e-01" purity="4.9932616949081421e-01" nType="0">
        <Node pos="l" depth="1" NCoef="0" IVar="3" Cut="1.4285714924335480e-01" cType="1" res="2.4732924066483974e-03" rms="4.3088796734809875e-01" purity="5.1103591918945312e-01" nType="0">
          <Node pos="l" depth="2" NCoef="0" IVar="-1" Cut="0.0000000000000000e+00" cType="1" res="1.3034419389441609e-03" rms="4.2914217710494995e-01" purity="5.1080763339996338e-01" nType="-99"/>
          <Node pos="r" depth="2" NCoef="0" IVar="-1" Cut="0.0000000000000000e+00" cType="1" res="-5.1613547839224339e-04" rms="4.3411865830421448e-01" purity="5.1146548986434937e-01" nType="-99"/>
        </Node>
        <Node pos="r" depth="1" NCoef="0" IVar="4" Cut="9.4703894853591919e-01" cType="1" res="-3.4315316006541252e-03" rms="4.2999953031539917e-01" purity="4.8975819349288940e-01" nType="0">
          <Node pos="l" depth="2" NCoef="0" IVar="-1" Cut="0.0000000000000000e+00" cType="1" res="-1.3929809210821986e-03" rms="4.3119746446609497e-01" purity="4.3506592512130737e-01" nType="-99"/>
          <Node pos="r" depth="2" NCoef="0" IVar="-1" Cut="0.0000000000000000e+00" cType="1" res="1.1487037409096956e-03" rms="4.2491739988327026e-01" purity="7.1620869636535645e-01" nType="-99"/>
        </Node>
      </Node>
    </BinaryTree>
    <BinaryTree type="DecisionTree" boostWeight="1.0000000000000000e+00" itree="894">
      <Node pos="s" depth="0" NCoef="0" IVar="10" Cut="5.2285713195800781e+01" cType="1" res="4.6260337694548070e-04" rms="4.3121403455734253e-01" purity="5.0150579214096069e-01" nType="0">
        <Node pos="l" depth="1" NCoef="0" IVar="10" Cut="4.3809523582458496e+00" cType="1" res="-4.7133487532846630e-04" rms="4.3160456418991089e-01" purity="5.0771433115005493e-01" nType="0">
          <Node pos="l" depth="2" NCoef="0" IVar="-1" Cut="0.0000000000000000e+00" cType="1" res="1.9646531436592340e-03" rms="4.5661711692810059e-01" purity="4.9482640624046326e-01" nType="-99"/>
          <Node pos="r" depth="2" NCoef="0" IVar="-1" Cut="0.0000000000000000e+00" cType="1" res="-5.0458504119887948e-04" rms="4.2754036188125610e-01" purity="5.0973165035247803e-01" nType="-99"/>
        </Node>
        <Node pos="r" depth="1" NCoef="0" IVar="-1" Cut="0.0000000000000000e+00" cType="1" res="4.1639255359768867e-03" rms="4.2468330264091492e-01" purity="4.0282684564590454e-01" nType="-99"/>
      </Node>
    </BinaryTree>
    <BinaryTree type="DecisionTree" boostWeight="1.0000000000000000e+00" itree="895">
      <Node pos="s" depth="0" NCoef="0" IVar="9" Cut="4.2857143282890320e-01" cType="1" res="-1.0775802365969867e-04" rms="4.3199852108955383e-01" purity="5.0053960084915161e-01" nType="0">
        <Node pos="l" depth="1" NCoef="0" IVar="3" Cut="7.1428573131561279e-01" cType="1" res="1.1638372670859098e-03" rms="4.3121910095214844e-01" purity="5.0801384449005127e-01" nType="0">
          <Node pos="l" depth="2" NCoef="0" IVar="-1" Cut="0.0000000000000000e+00" cType="1" res="5.4126180475577712e-04" rms="4.3001443147659302e-01" purity="5.0862646102905273e-01" nType="-99"/>
          <Node pos="r" depth="2" NCoef="0" IVar="-1" Cut="0.0000000000000000e+00" cType="1" res="-3.5657682456076145e-03" rms="4.5291948318481445e-01" purity="4.9652406573295593e-01" nType="-99"/>
        </Node>
        <Node pos="r" depth="1" NCoef="0" IVar="8" Cut="5.6687182188034058e-01" cType="1" res="-7.4270074255764484e-03" rms="4.3638569116592407e-01" purity="4.5751819014549255e-01" nType="0">
          <Node pos="l" depth="2" NCoef="0" IVar="-1" Cut="0.0000000000000000e+00" cType="1" res="-3.4569345880299807e-03" rms="4.3525838851928711e-01" purity="3.6047378182411194e-01" nType="-99"/>
          <Node pos="r" depth="2" NCoef="0" IVar="-1" Cut="0.0000000000000000e+00" cType="1" res="7.3163909837603569e-04" rms="4.3815806508064270e-01" purity="6.2685275077819824e-01" nType="-99"/>
        </Node>
      </Node>
    </BinaryTree>
    <BinaryTree type="DecisionTree" boostWeight="1.0000000000000000e+00" itree="896">
      <Node pos="s" depth="0" NCoef="0" IVar="9" Cut="-7.1428573131561279e-01" cType="1" res="1.1806118709500879e-04" rms="4.3157255649566650e-01" purity="5.0051271915435791e-01" nType="0">
        <Node pos="l" depth="1" NCoef="0" IVar="-1" Cut="0.0000000000000000e+00" cType="1" res="2.5363892782479525e-03" rms="4.4584631919860840e-01" purity="4.0168103575706482e-01" nType="-99"/>
        <Node pos="r" depth="1" NCoef="0" IVar="9" Cut="-3.8775232434272766e-01" cType="1" res="-3.6898531834594905e-04" rms="4.3084269762039185e-01" purity="5.0544035434722900e-01" nType="0">
          <Node pos="l" depth="2" NCoef="0" IVar="-1" Cut="0.0000000000000000e+00" cType="1" res="-1.5559083549305797e-03" rms="4.3040108680725098e-01" purity="4.8608893156051636e-01" nType="-99"/>
          <Node pos="r" depth="2" NCoef="0" IVar="-1" Cut="0.0000000000000000e+00" cType="1" res="1.1377524788258597e-04" rms="4.3090090155601501e-01" purity="5.0824642181396484e-01" nType="-99"/>
        </Node>
      </Node>
    </BinaryTree>
    <BinaryTree type="DecisionTree" boostWeight="1.0000000000000000e+00" itree="897">
      <Node pos="s" depth="0" NCoef="0" IVar="4" Cut="8.6079174280166626e-01" cType="1" res="1.9763950258493423e-03" rms="4.3171125650405884e-01" purity="5.0275278091430664e-01" nType="0">
        <Node pos="l" depth="1" NCoef="0" IVar="8" Cut="-1.1712383031845093e+00" cType="1" res="3.8277425337582827e-03" rms="4.3197602033615112e-01" purity="3.8645210862159729e-01" nType="0">
          <Node pos="l" depth="2" NCoef="0" IVar="-1" Cut="0.0000000000000000e+00" cType="1" res="5.3726788610219955e-03" rms="4.3080753087997437e-01" purity="5.3319305181503296e-01" nType="-99"/>
          <Node pos="r" depth="2" NCoef="0" IVar="-1" Cut="0.0000000000000000e+00" cType="1" res="5.7278561871498823e-04" rms="4.3205806612968445e-01" purity="3.7166342139244080e-01" nType="-99"/>
        </Node>
        <Node pos="r" depth="1" NCoef="0" IVar="10" Cut="4.0333332061767578e+01" cType="1" res="-9.2122447676956654e-04" rms="4.3128058314323425e-01" purity="6.8477976322174072e-01" nType="0">
          <Node pos="l" depth="2" NCoef="0" IVar="-1" Cut="0.0000000000000000e+00" cType="1" res="5.4735271260142326e-04" rms="4.3011459708213806e-01" purity="6.9862997531890869e-01" nType="-99"/>
          <Node pos="r" depth="2" NCoef="0" IVar="-1" Cut="0.0000000000000000e+00" cType="1" res="-6.1345854774117470e-03" rms="4.3948313593864441e-01" purity="5.7808876037597656e-01" nType="-99"/>
        </Node>
      </Node>
    </BinaryTree>
    <BinaryTree type="DecisionTree" boostWeight="1.0000000000000000e+00" itree="898">
      <Node pos="s" depth="0" NCoef="0" IVar="3" Cut="8.0952382087707520e-01" cType="1" res="1.4253937406465411e-03" rms="4.3175160884857178e-01" purity="5.0196856260299683e-01" nType="0">
        <Node pos="l" depth="1" NCoef="0" IVar="9" Cut="-6.1904764175415039e-01" cType="1" res="2.2402920294553041e-03" rms="4.3075183033943176e-01" purity="5.0314986705780029e-01" nType="0">
          <Node pos="l" depth="2" NCoef="0" IVar="-1" Cut="0.0000000000000000e+00" cType="1" res="-2.0633882377296686e-03" rms="4.3701589107513428e-01" purity="4.1091814637184143e-01" nType="-99"/>
          <Node pos="r" depth="2" NCoef="0" IVar="-1" Cut="0.0000000000000000e+00" cType="1" res="7.9775974154472351e-04" rms="4.3028032779693604e-01" purity="5.0990194082260132e-01" nType="-99"/>
        </Node>
        <Node pos="r" depth="1" NCoef="0" IVar="-1" Cut="0.0000000000000000e+00" cType="1" res="-4.1564935818314552e-03" rms="4.5396524667739868e-01" purity="4.7450146079063416e-01" nType="-99"/>
      </Node>
    </BinaryTree>
    <BinaryTree type="DecisionTree" boostWeight="1.0000000000000000e+00" itree="899">
      <Node pos="s" depth="0" NCoef="0" IVar="4" Cut="7.3264509439468384e-01" cType="1" res="4.8605044139549136e-04" rms="4.3019807338714600e-01" purity="5.0125336647033691e-01" nType="0">
        <Node pos="l" depth="1" NCoef="0" IVar="10" Cut="3.5523811340332031e+01" cType="1" res="-3.3536499831825495e-03" rms="4.1883403062820435e-01" purity="3.0591747164726257e-01" nType="0">
          <Node pos="l" depth="2" NCoef="0" IVar="-1" Cut="0.0000000000000000e+00" cType="1" res="-1.8511920934543014e-03" rms="4.2227289080619812e-01" purity="3.0254924297332764e-01" nType="-99"/>
          <Node pos="r" depth="2" NCoef="0" IVar="-1" Cut="0.0000000000000000e+00" cType="1" res="4.1208649054169655e-03" rms="4.0052223205566406e-01" purity="3.2299754023551941e-01" nType="-99"/>
        </Node>
        <Node pos="r" depth="1" NCoef="0" IVar="4" Cut="9.7678035497665405e-01" cType="1" res="3.2738791778683662e-03" rms="4.3824332952499390e-01" purity="6.4307767152786255e-01" nType="0">
          <Node pos="l" depth="2" NCoef="0" IVar="-1" Cut="0.0000000000000000e+00" cType="1" res="2.9817566974088550e-04" rms="4.4091731309890747e-01" purity="6.3096964359283447e-01" nType="-99"/>
          <Node pos="r" depth="2" NCoef="0" IVar="-1" Cut="0.0000000000000000e+00" cType="1" res="5.7333013974130154e-03" rms="4.1444641351699829e-01" purity="7.4577343463897705e-01" nType="-99"/>
        </Node>
      </Node>
    </BinaryTree>
    <BinaryTree type="DecisionTree" boostWeight="1.0000000000000000e+00" itree="900">
      <Node pos="s" depth="0" NCoef="0" IVar="10" Cut="4.3904762268066406e+01" cType="1" res="-1.4374358579516411e-03" rms="4.3137091398239136e-01" purity="4.9909263849258423e-01" nType="0">
        <Node pos="l" depth="1" NCoef="0" IVar="5" Cut="2.9202513694763184e+00" cType="1" res="-2.3238891735672951e-03" rms="4.3252131342887878e-01" purity="5.0533640384674072e-01" nType="0">
          <Node pos="l" depth="2" NCoef="0" IVar="-1" Cut="0.0000000000000000e+00" cType="1" res="-4.0511600673198700e-04" rms="4.3331697583198547e-01" purity="5.0458145141601562e-01" nType="-99"/>
          <Node pos="r" depth="2" NCoef="0" IVar="-1" Cut="0.0000000000000000e+00" cType="1" res="-5.7542701251804829e-03" rms="4.1411566734313965e-01" purity="5.2206385135650635e-01" nType="-99"/>
        </Node>
        <Node pos="r" depth="1" NCoef="0" IVar="0" Cut="9.4720566272735596e-01" cType="1" res="6.2220492400228977e-03" rms="4.2122220993041992e-01" purity="4.4514256715774536e-01" nType="0">
          <Node pos="l" depth="2" NCoef="0" IVar="-1" Cut="0.0000000000000000e+00" cType="1" res="3.8533790502697229e-03" rms="4.4651231169700623e-01" purity="6.1307173967361450e-01" nType="-99"/>
          <Node pos="r" depth="2" NCoef="0" IVar="-1" Cut="0.0000000000000000e+00" cType="1" res="-1.4855039771646261e-03" rms="3.8962849974632263e-01" purity="2.5083085894584656e-01" nType="-99"/>
        </Node>
      </Node>
    </BinaryTree>
    <BinaryTree type="DecisionTree" boostWeight="1.0000000000000000e+00" itree="901">
      <Node pos="s" depth="0" NCoef="0" IVar="4" Cut="9.0355128049850464e-01" cType="1" res="4.6890365774743259e-04" rms="4.3172022700309753e-01" purity="5.0162971019744873e-01" nType="0">
        <Node pos="l" depth="1" NCoef="0" IVar="0" Cut="6.7828577756881714e-01" cType="1" res="2.3057546932250261e-03" rms="4.3363749980926514e-01" purity="4.1410505771636963e-01" nType="0">
          <Node pos="l" depth="2" NCoef="0" IVar="-1" Cut="0.0000000000000000e+00" cType="1" res="3.3904206939041615e-03" rms="4.4957563281059265e-01" purity="6.0629570484161377e-01" nType="-99"/>
          <Node pos="r" depth="2" NCoef="0" IVar="-1" Cut="0.0000000000000000e+00" cType="1" res="2.7330478769727051e-04" rms="4.3178802728652954e-01" purity="3.9247170090675354e-01" nType="-99"/>
        </Node>
        <Node pos="r" depth="1" NCoef="0" IVar="4" Cut="9.6865707635879517e-01" cType="1" res="-3.8626007735729218e-03" rms="4.2713373899459839e-01" purity="7.0802301168441772e-01" nType="0">
          <Node pos="l" depth="2" NCoef="0" IVar="-1" Cut="0.0000000000000000e+00" cType="1" res="-2.5938733015209436e-03" rms="4.3494027853012085e-01" purity="6.8929868936538696e-01" nType="-99"/>
          <Node pos="r" depth="2" NCoef="0" IVar="-1" Cut="0.0000000000000000e+00" cType="1" res="2.1633689757436514e-03" rms="4.1113218665122986e-01" purity="7.4478667974472046e-01" nType="-99"/>
        </Node>
      </Node>
    </BinaryTree>
    <BinaryTree type="DecisionTree" boostWeight="1.0000000000000000e+00" itree="902">
      <Node pos="s" depth="0" NCoef="0" IVar="3" Cut="-7.1428573131561279e-01" cType="1" res="6.2369264196604490e-04" rms="4.3115922808647156e-01" purity="5.0126504898071289e-01" nType="0">
        <Node pos="l" depth="1" NCoef="0" IVar="-1" Cut="0.0000000000000000e+00" cType="1" res="-4.3146735988557339e-03" rms="4.5050472021102905e-01" purity="4.8386713862419128e-01" nType="-99"/>
        <Node pos="r" depth="1" NCoef="0" IVar="6" Cut="-5.1428570747375488e+00" cType="1" res="1.8188783433288336e-03" rms="4.2984089255332947e-01" purity="5.0239908695220947e-01" nType="0">
          <Node pos="l" depth="2" NCoef="0" IVar="-1" Cut="0.0000000000000000e+00" cType="1" res="-1.9448149250820279e-03" rms="4.1409328579902649e-01" purity="4.3438443541526794e-01" nType="-99"/>
          <Node pos="r" depth="2" NCoef="0" IVar="-1" Cut="0.0000000000000000e+00" cType="1" res="6.3855142798274755e-04" rms="4.3086707592010498e-01" purity="5.0694668292999268e-01" nType="-99"/>
        </Node>
      </Node>
    </BinaryTree>
    <BinaryTree type="DecisionTree" boostWeight="1.0000000000000000e+00" itree="903">
      <Node pos="s" depth="0" NCoef="0" IVar="3" Cut="-7.1428573131561279e-01" cType="1" res="-3.0023867730051279e-03" rms="4.3177691102027893e-01" purity="4.9707698822021484e-01" nType="0">
        <Node pos="l" depth="1" NCoef="0" IVar="-1" Cut="0.0000000000000000e+00" cType="1" res="-3.3653778955340385e-03" rms="4.5503154397010803e-01" purity="4.8331463336944580e-01" nType="-99"/>
        <Node pos="r" depth="1" NCoef="0" IVar="4" Cut="6.5265405178070068e-01" cType="1" res="-2.2955865133553743e-03" rms="4.3021655082702637e-01" purity="4.9796915054321289e-01" nType="0">
          <Node pos="l" depth="2" NCoef="0" IVar="-1" Cut="0.0000000000000000e+00" cType="1" res="2.7866169693879783e-04" rms="4.0467369556427002e-01" purity="2.6001140475273132e-01" nType="-99"/>
          <Node pos="r" depth="2" NCoef="0" IVar="-1" Cut="0.0000000000000000e+00" cType="1" res="-1.0002098279073834e-03" rms="4.4290131330490112e-01" purity="6.2164252996444702e-01" nType="-99"/>
        </Node>
      </Node>
    </BinaryTree>
    <BinaryTree type="DecisionTree" boostWeight="1.0000000000000000e+00" itree="904">
      <Node pos="s" depth="0" NCoef="0" IVar="3" Cut="6.1904764175415039e-01" cType="1" res="1.6610683815088123e-04" rms="4.3102034926414490e-01" purity="5.0119185447692871e-01" nType="0">
        <Node pos="l" depth="1" NCoef="0" IVar="9" Cut="-6.1904764175415039e-01" cType="1" res="-6.3913507619872689e-04" rms="4.2876037955284119e-01" purity="5.0056952238082886e-01" nType="0">
          <Node pos="l" depth="2" NCoef="0" IVar="-1" Cut="0.0000000000000000e+00" cType="1" res="-3.3098470885306597e-03" rms="4.3193647265434265e-01" purity="4.0371277928352356e-01" nType="-99"/>
          <Node pos="r" depth="2" NCoef="0" IVar="-1" Cut="0.0000000000000000e+00" cType="1" res="5.0327613280387595e-05" rms="4.2852771282196045e-01" purity="5.0726175308227539e-01" nType="-99"/>
        </Node>
        <Node pos="r" depth="1" NCoef="0" IVar="4" Cut="8.6645847558975220e-01" cType="1" res="9.3266181647777557e-03" rms="4.5584207773208618e-01" purity="5.0827181339263916e-01" nType="0">
          <Node pos="l" depth="2" NCoef="0" IVar="-1" Cut="0.0000000000000000e+00" cType="1" res="4.4171516783535480e-03" rms="4.5772045850753784e-01" purity="4.0879511833190918e-01" nType="-99"/>
          <Node pos="r" depth="2" NCoef="0" IVar="-1" Cut="0.0000000000000000e+00" cType="1" res="-7.9180754255503416e-05" rms="4.5351809263229370e-01" purity="6.2058264017105103e-01" nType="-99"/>
        </Node>
      </Node>
    </BinaryTree>
    <BinaryTree type="DecisionTree" boostWeight="1.0000000000000000e+00" itree="905">
      <Node pos="s" depth="0" NCoef="0" IVar="5" Cut="2.7479763031005859e+00" cType="1" res="-6.0468120500445366e-04" rms="4.3149390816688538e-01" purity="4.9985751509666443e-01" nType="0">
        <Node pos="l" depth="1" NCoef="0" IVar="3" Cut="-4.7619048506021500e-02" cType="1" res="-1.3817662838846445e-03" rms="4.3237832188606262e-01" purity="4.9832546710968018e-01" nType="0">
          <Node pos="l" depth="2" NCoef="0" IVar="-1" Cut="0.0000000000000000e+00" cType="1" res="2.9540571267716587e-04" rms="4.3321713805198669e-01" purity="5.0215429067611694e-01" nType="-99"/>
          <Node pos="r" depth="2" NCoef="0" IVar="-1" Cut="0.0000000000000000e+00" cType="1" res="-9.2681776732206345e-04" rms="4.3165791034698486e-01" purity="4.9509429931640625e-01" nType="-99"/>
        </Node>
        <Node pos="r" depth="1" NCoef="0" IVar="2" Cut="1.8856307864189148e-01" cType="1" res="8.0919237807393074e-03" rms="4.2137184739112854e-01" purity="5.1700294017791748e-01" nType="0">
          <Node pos="l" depth="2" NCoef="0" IVar="-1" Cut="0.0000000000000000e+00" cType="1" res="-5.2543473429977894e-04" rms="4.2245236039161682e-01" purity="5.0317364931106567e-01" nType="-99"/>
          <Node pos="r" depth="2" NCoef="0" IVar="-1" Cut="0.0000000000000000e+00" cType="1" res="5.7347933761775494e-03" rms="4.1967460513114929e-01" purity="5.3437167406082153e-01" nType="-99"/>
        </Node>
      </Node>
    </BinaryTree>
    <BinaryTree type="DecisionTree" boostWeight="1.0000000000000000e+00" itree="906">
      <Node pos="s" depth="0" NCoef="0" IVar="6" Cut="-3.4285714626312256e+00" cType="1" res="-4.8885709838941693e-04" rms="4.3188628554344177e-01" purity="5.0025975704193115e-01" nType="0">
        <Node pos="l" depth="1" NCoef="0" IVar="4" Cut="7.3905307054519653e-01" cType="1" res="5.4457103833556175e-03" rms="4.2311638593673706e-01" purity="4.7623819112777710e-01" nType="0">
          <Node pos="l" depth="2" NCoef="0" IVar="-1" Cut="0.0000000000000000e+00" cType="1" res="3.8978841621428728e-03" rms="4.1324910521507263e-01" purity="3.1269377470016479e-01" nType="-99"/>
          <Node pos="r" depth="2" NCoef="0" IVar="-1" Cut="0.0000000000000000e+00" cType="1" res="-4.7547044232487679e-04" rms="4.3216556310653687e-01" purity="6.3176989555358887e-01" nType="-99"/>
        </Node>
        <Node pos="r" depth="1" NCoef="0" IVar="0" Cut="1.7269641160964966e+00" cType="1" res="-1.4435549965128303e-03" rms="4.3327292799949646e-01" purity="5.0412410497665405e-01" nType="0">
          <Node pos="l" depth="2" NCoef="0" IVar="-1" Cut="0.0000000000000000e+00" cType="1" res="-5.6881038472056389e-04" rms="4.3487444519996643e-01" purity="5.1869946718215942e-01" nType="-99"/>
          <Node pos="r" depth="2" NCoef="0" IVar="-1" Cut="0.0000000000000000e+00" cType="1" res="3.1106411479413509e-03" rms="4.0562331676483154e-01" purity="2.6256477832794189e-01" nType="-99"/>
        </Node>
      </Node>
    </BinaryTree>
    <BinaryTree type="DecisionTree" boostWeight="1.0000000000000000e+00" itree="907">
      <Node pos="s" depth="0" NCoef="0" IVar="3" Cut="-5.2380955219268799e-01" cType="1" res="1.1645168997347355e-03" rms="4.3109396100044250e-01" purity="5.0179576873779297e-01" nType="0">
        <Node pos="l" depth="1" NCoef="0" IVar="2" Cut="-6.8889135122299194e-01" cType="1" res="-8.5852723568677902e-03" rms="4.4191932678222656e-01" purity="4.9907100200653076e-01" nType="0">
          <Node pos="l" depth="2" NCoef="0" IVar="-1" Cut="0.0000000000000000e+00" cType="1" res="9.2825479805469513e-04" rms="4.3165171146392822e-01" purity="5.2384650707244873e-01" nType="-99"/>
          <Node pos="r" depth="2" NCoef="0" IVar="-1" Cut="0.0000000000000000e+00" cType="1" res="-4.0164329111576080e-03" rms="4.4831264019012451e-01" purity="4.8291110992431641e-01" nType="-99"/>
        </Node>
        <Node pos="r" depth="1" NCoef="0" IVar="9" Cut="4.2857143282890320e-01" cType="1" res="2.4290326982736588e-03" rms="4.2965376377105713e-01" purity="5.0214922428131104e-01" nType="0">
          <Node pos="l" depth="2" NCoef="0" IVar="-1" Cut="0.0000000000000000e+00" cType="1" res="3.6654050927609205e-04" rms="4.2865142226219177e-01" purity="5.0711363554000854e-01" nType="-99"/>
          <Node pos="r" depth="2" NCoef="0" IVar="-1" Cut="0.0000000000000000e+00" cType="1" res="2.4008934851735830e-03" rms="4.3585792183876038e-01" purity="4.7086364030838013e-01" nType="-99"/>
        </Node>
      </Node>
    </BinaryTree>
    <BinaryTree type="DecisionTree" boostWeight="1.0000000000000000e+00" itree="908">
      <Node pos="s" depth="0" NCoef="0" IVar="3" Cut="4.7619048506021500e-02" cType="1" res="1.2797877425327897e-03" rms="4.3160012364387512e-01" purity="5.0181537866592407e-01" nType="0">
        <Node pos="l" depth="1" NCoef="0" IVar="0" Cut="1.4726017713546753e+00" cType="1" res="4.4459798373281956e-03" rms="4.3082249164581299e-01" purity="5.0347185134887695e-01" nType="0">
          <Node pos="l" depth="2" NCoef="0" IVar="-1" Cut="0.0000000000000000e+00" cType="1" res="1.4910529134795070e-03" rms="4.3426162004470825e-01" purity="5.3024953603744507e-01" nType="-99"/>
          <Node pos="r" depth="2" NCoef="0" IVar="-1" Cut="0.0000000000000000e+00" cType="1" res="-1.9800337031483650e-03" rms="3.9756432175636292e-01" purity="2.5672993063926697e-01" nType="-99"/>
        </Node>
        <Node pos="r" depth="1" NCoef="0" IVar="5" Cut="1.6909061670303345e+00" cType="1" res="-2.6750490069389343e-03" rms="4.3253692984580994e-01" purity="4.9974635243415833e-01" nType="0">
          <Node pos="l" depth="2" NCoef="0" IVar="-1" Cut="0.0000000000000000e+00" cType="1" res="7.2754664870444685e-05" rms="4.3819960951805115e-01" purity="5.0783228874206543e-01" nType="-99"/>
          <Node pos="r" depth="2" NCoef="0" IVar="-1" Cut="0.0000000000000000e+00" cType="1" res="-2.6756746228784323e-03" rms="4.1884133219718933e-01" purity="4.8073765635490417e-01" nType="-99"/>
        </Node>
      </Node>
    </BinaryTree>
    <BinaryTree type="DecisionTree" boostWeight="1.0000000000000000e+00" itree="909">
      <Node pos="s" depth="0" NCoef="0" IVar="3" Cut="-6.1904764175415039e-01" cType="1" res="2.6244150940328836e-03" rms="4.3120524287223816e-01" purity="5.0400513410568237e-01" nType="0">
        <Node pos="l" depth="1" NCoef="0" IVar="4" Cut="8.2762980461120605e-01" cType="1" res="1.0230043902993202e-02" rms="4.4970753788948059e-01" purity="5.1136445999145508e-01" nType="0">
          <Node pos="l" depth="2" NCoef="0" IVar="-1" Cut="0.0000000000000000e+00" cType="1" res="4.7363652847707272e-03" rms="4.5033168792724609e-01" purity="3.8511788845062256e-01" nType="-99"/>
          <Node pos="r" depth="2" NCoef="0" IVar="-1" Cut="0.0000000000000000e+00" cType="1" res="6.5539387287572026e-04" rms="4.4902160763740540e-01" purity="6.2294232845306396e-01" nType="-99"/>
        </Node>
        <Node pos="r" depth="1" NCoef="0" IVar="3" Cut="6.1452376842498779e-01" cType="1" res="1.9318833947181702e-03" rms="4.2947423458099365e-01" purity="5.0333511829376221e-01" nType="0">
          <Node pos="l" depth="2" NCoef="0" IVar="-1" Cut="0.0000000000000000e+00" cType="1" res="2.9931031167507172e-04" rms="4.2700424790382385e-01" purity="5.0238484144210815e-01" nType="-99"/>
          <Node pos="r" depth="2" NCoef="0" IVar="-1" Cut="0.0000000000000000e+00" cType="1" res="2.4713324382901192e-03" rms="4.5325025916099548e-01" purity="5.1279556751251221e-01" nType="-99"/>
        </Node>
      </Node>
    </BinaryTree>
    <BinaryTree type="DecisionTree" boostWeight="1.0000000000000000e+00" itree="910">
      <Node pos="s" depth="0" NCoef="0" IVar="9" Cut="4.7619048506021500e-02" cType="1" res="-9.0265419567003846e-04" rms="4.3055126070976257e-01" purity="4.9982327222824097e-01" nType="0">
        <Node pos="l" depth="1" NCoef="0" IVar="8" Cut="-4.0452942252159119e-01" cType="1" res="2.4633647408336401e-03" rms="4.3002948164939880e-01" purity="5.0175327062606812e-01" nType="0">
          <Node pos="l" depth="2" NCoef="0" IVar="-1" Cut="0.0000000000000000e+00" cType="1" res="1.8083469476550817e-03" rms="4.3403401970863342e-01" purity="5.9100472927093506e-01" nType="-99"/>
          <Node pos="r" depth="2" NCoef="0" IVar="-1" Cut="0.0000000000000000e+00" cType="1" res="-1.5540629101451486e-04" rms="4.2719796299934387e-01" purity="4.3972828984260559e-01" nType="-99"/>
        </Node>
        <Node pos="r" depth="1" NCoef="0" IVar="3" Cut="-3.3333334326744080e-01" cType="1" res="-4.9769021570682526e-03" rms="4.3114683032035828e-01" purity="4.9748718738555908e-01" nType="0">
          <Node pos="l" depth="2" NCoef="0" IVar="-1" Cut="0.0000000000000000e+00" cType="1" res="-3.7019527517259121e-03" rms="4.3908610939979553e-01" purity="4.9736151099205017e-01" nType="-99"/>
          <Node pos="r" depth="2" NCoef="0" IVar="-1" Cut="0.0000000000000000e+00" cType="1" res="-6.3747173408046365e-04" rms="4.2890417575836182e-01" purity="4.9752166867256165e-01" nType="-99"/>
        </Node>
      </Node>
    </BinaryTree>
    <BinaryTree type="DecisionTree" boostWeight="1.0000000000000000e+00" itree="911">
      <Node pos="s" depth="0" NCoef="0" IVar="3" Cut="-7.1428573131561279e-01" cType="1" res="-4.6667928108945489e-04" rms="4.3157437443733215e-01" purity="4.9996444582939148e-01" nType="0">
        <Node pos="l" depth="1" NCoef="0" IVar="-1" Cut="0.0000000000000000e+00" cType="1" res="-2.9620947316288948e-03" rms="4.5330867171287537e-01" purity="4.8081544041633606e-01" nType="-99"/>
        <Node pos="r" depth="1" NCoef="0" IVar="5" Cut="1.6705849766731262e-01" cType="1" res="3.0434472137130797e-04" rms="4.3009981513023376e-01" purity="5.0121992826461792e-01" nType="0">
          <Node pos="l" depth="2" NCoef="0" IVar="-1" Cut="0.0000000000000000e+00" cType="1" res="-1.8849618500098586e-03" rms="4.5082986354827881e-01" purity="4.9340724945068359e-01" nType="-99"/>
          <Node pos="r" depth="2" NCoef="0" IVar="-1" Cut="0.0000000000000000e+00" cType="1" res="3.2147517777048051e-04" rms="4.2779475450515747e-01" purity="5.0206255912780762e-01" nType="-99"/>
        </Node>
      </Node>
    </BinaryTree>
    <BinaryTree type="DecisionTree" boostWeight="1.0000000000000000e+00" itree="912">
      <Node pos="s" depth="0" NCoef="0" IVar="3" Cut="4.7619048506021500e-02" cType="1" res="-1.6871913103386760e-03" rms="4.3050986528396606e-01" purity="4.9840143322944641e-01" nType="0">
        <Node pos="l" depth="1" NCoef="0" IVar="6" Cut="-2.1428570747375488e+00" cType="1" res="-4.5439307577908039e-03" rms="4.2989084124565125e-01" purity="4.9517953395843506e-01" nType="0">
          <Node pos="l" depth="2" NCoef="0" IVar="-1" Cut="0.0000000000000000e+00" cType="1" res="-3.4327213652431965e-03" rms="4.2522752285003662e-01" purity="4.6690785884857178e-01" nType="-99"/>
          <Node pos="r" depth="2" NCoef="0" IVar="-1" Cut="0.0000000000000000e+00" cType="1" res="-6.6426052944734693e-04" rms="4.3105673789978027e-01" purity="5.0244081020355225e-01" nType="-99"/>
        </Node>
        <Node pos="r" depth="1" NCoef="0" IVar="9" Cut="4.2857143282890320e-01" cType="1" res="1.8464685417711735e-03" rms="4.3124821782112122e-01" purity="5.0238680839538574e-01" nType="0">
          <Node pos="l" depth="2" NCoef="0" IVar="-1" Cut="0.0000000000000000e+00" cType="1" res="9.4347813865169883e-04" rms="4.3013086915016174e-01" purity="5.0988471508026123e-01" nType="-99"/>
          <Node pos="r" depth="2" NCoef="0" IVar="-1" Cut="0.0000000000000000e+00" cType="1" res="-1.9666508305817842e-03" rms="4.3725287914276123e-01" purity="4.6094161272048950e-01" nType="-99"/>
        </Node>
      </Node>
    </BinaryTree>
    <BinaryTree type="DecisionTree" boostWeight="1.0000000000000000e+00" itree="913">
      <Node pos="s" depth="0" NCoef="0" IVar="2" Cut="3.8316226005554199e-01" cType="1" res="1.4507902087643743e-03" rms="4.3218898773193359e-01" purity="5.0298923254013062e-01" nType="0">
        <Node pos="l" depth="1" NCoef="0" IVar="9" Cut="-4.2857143282890320e-01" cType="1" res="3.7903033662587404e-03" rms="4.3270832300186157e-01" purity="5.0432378053665161e-01" nType="0">
          <Node pos="l" depth="2" NCoef="0" IVar="-1" Cut="0.0000000000000000e+00" cType="1" res="2.6147763710469007e-03" rms="4.3877971172332764e-01" purity="4.6113246679306030e-01" nType="-99"/>
          <Node pos="r" depth="2" NCoef="0" IVar="-1" Cut="0.0000000000000000e+00" cType="1" res="7.0273736491799355e-04" rms="4.3158420920372009e-01" purity="5.1218569278717041e-01" nType="-99"/>
        </Node>
        <Node pos="r" depth="1" NCoef="0" IVar="3" Cut="1.4285714924335480e-01" cType="1" res="-3.3477507531642914e-03" rms="4.3108209967613220e-01" purity="5.0025200843811035e-01" nType="0">
          <Node pos="l" depth="2" NCoef="0" IVar="-1" Cut="0.0000000000000000e+00" cType="1" res="-2.5374316610395908e-03" rms="4.2925310134887695e-01" purity="4.9218720197677612e-01" nType="-99"/>
          <Node pos="r" depth="2" NCoef="0" IVar="-1" Cut="0.0000000000000000e+00" cType="1" res="2.0195913384668529e-04" rms="4.3228235840797424e-01" purity="5.0577592849731445e-01" nType="-99"/>
        </Node>
      </Node>
    </BinaryTree>
    <BinaryTree type="DecisionTree" boostWeight="1.0000000000000000e+00" itree="914">
      <Node pos="s" depth="0" NCoef="0" IVar="3" Cut="-4.2857143282890320e-01" cType="1" res="6.0237071011215448e-04" rms="4.3131947517395020e-01" purity="5.0154846906661987e-01" nType="0">
        <Node pos="l" depth="1" NCoef="0" IVar="3" Cut="-5.6462961435317993e-01" cType="1" res="-8.0277575179934502e-03" rms="4.4331547617912292e-01" purity="5.0339949131011963e-01" nType="0">
          <Node pos="l" depth="2" NCoef="0" IVar="-1" Cut="0.0000000000000000e+00" cType="1" res="-1.1434171028668061e-04" rms="4.4798463582992554e-01" purity="5.0830262899398804e-01" nType="-99"/>
          <Node pos="r" depth="2" NCoef="0" IVar="-1" Cut="0.0000000000000000e+00" cType="1" res="-5.7619703002274036e-03" rms="4.3439000844955444e-01" purity="4.9451351165771484e-01" nType="-99"/>
        </Node>
        <Node pos="r" depth="1" NCoef="0" IVar="10" Cut="4.3904762268066406e+01" cType="1" res="2.2050442639738321e-03" rms="4.2903569340705872e-01" purity="5.0120472908020020e-01" nType="0">
          <Node pos="l" depth="2" NCoef="0" IVar="-1" Cut="0.0000000000000000e+00" cType="1" res="8.1207335460931063e-04" rms="4.3021258711814880e-01" purity="5.1126348972320557e-01" nType="-99"/>
          <Node pos="r" depth="2" NCoef="0" IVar="-1" Cut="0.0000000000000000e+00" cType="1" res="-1.0661009000614285e-03" rms="4.2026528716087341e-01" purity="4.2753088474273682e-01" nType="-99"/>
        </Node>
      </Node>
    </BinaryTree>
    <BinaryTree type="DecisionTree" boostWeight="1.0000000000000000e+00" itree="915">
      <Node pos="s" depth="0" NCoef="0" IVar="3" Cut="3.3333334326744080e-01" cType="1" res="-1.8788093002513051e-03" rms="4.3160945177078247e-01" purity="4.9976047873497009e-01" nType="0">
        <Node pos="l" depth="1" NCoef="0" IVar="2" Cut="1.5580569505691528e+00" cType="1" res="-6.5842457115650177e-04" rms="4.2910107970237732e-01" purity="4.9817955493927002e-01" nType="0">
          <Node pos="l" depth="2" NCoef="0" IVar="-1" Cut="0.0000000000000000e+00" cType="1" res="5.7624238252174109e-06" rms="4.2979282140731812e-01" purity="4.9905452132225037e-01" nType="-99"/>
          <Node pos="r" depth="2" NCoef="0" IVar="-1" Cut="0.0000000000000000e+00" cType="1" res="-3.6763253156095743e-03" rms="4.1609078645706177e-01" purity="4.8222410678863525e-01" nType="-99"/>
        </Node>
        <Node pos="r" depth="1" NCoef="0" IVar="0" Cut="1.1551470756530762e+00" cType="1" res="-6.6188075579702854e-03" rms="4.4118472933769226e-01" purity="5.0590109825134277e-01" nType="0">
          <Node pos="l" depth="2" NCoef="0" IVar="-1" Cut="0.0000000000000000e+00" cType="1" res="-2.5486305821686983e-03" rms="4.4488513469696045e-01" purity="5.8387696743011475e-01" nType="-99"/>
          <Node pos="r" depth="2" NCoef="0" IVar="-1" Cut="0.0000000000000000e+00" cType="1" res="1.3035212759859860e-04" rms="4.3330368399620056e-01" purity="3.4378674626350403e-01" nType="-99"/>
        </Node>
      </Node>
    </BinaryTree>
    <BinaryTree type="DecisionTree" boostWeight="1.0000000000000000e+00" itree="916">
      <Node pos="s" depth="0" NCoef="0" IVar="10" Cut="5.2285713195800781e+01" cType="1" res="-3.6522265872918069e-04" rms="4.3184712529182434e-01" purity="4.9949914216995239e-01" nType="0">
        <Node pos="l" depth="1" NCoef="0" IVar="10" Cut="4.3809523582458496e+00" cType="1" res="-9.5748930471017957e-04" rms="4.3222597241401672e-01" purity="5.0625646114349365e-01" nType="0">
          <Node pos="l" depth="2" NCoef="0" IVar="-1" Cut="0.0000000000000000e+00" cType="1" res="1.4656297862529755e-03" rms="4.6031892299652100e-01" purity="4.9213606119155884e-01" nType="-99"/>
          <Node pos="r" depth="2" NCoef="0" IVar="-1" Cut="0.0000000000000000e+00" cType="1" res="-5.6719803251326084e-04" rms="4.2762744426727295e-01" purity="5.0847786664962769e-01" nType="-99"/>
        </Node>
        <Node pos="r" depth="1" NCoef="0" IVar="-1" Cut="0.0000000000000000e+00" cType="1" res="2.4607542436569929e-03" rms="4.2566591501235962e-01" purity="3.9203134179115295e-01" nType="-99"/>
      </Node>
    </BinaryTree>
    <BinaryTree type="DecisionTree" boostWeight="1.0000000000000000e+00" itree="917">
      <Node pos="s" depth="0" NCoef="0" IVar="6" Cut="-2.3809523880481720e-01" cType="1" res="1.1285298969596624e-03" rms="4.3168210983276367e-01" purity="5.0159168243408203e-01" nType="0">
        <Node pos="l" depth="1" NCoef="0" IVar="9" Cut="4.2857143282890320e-01" cType="1" res="-2.4313214235007763e-03" rms="4.3051534891128540e-01" purity="4.9670487642288208e-01" nType="0">
          <Node pos="l" depth="2" NCoef="0" IVar="-1" Cut="0.0000000000000000e+00" cType="1" res="-3.1908373784972355e-05" rms="4.3014618754386902e-01" purity="5.0441813468933105e-01" nType="-99"/>
          <Node pos="r" depth="2" NCoef="0" IVar="-1" Cut="0.0000000000000000e+00" cType="1" res="-4.4183279387652874e-03" rms="4.3252757191658020e-01" purity="4.4871422648429871e-01" nType="-99"/>
        </Node>
        <Node pos="r" depth="1" NCoef="0" IVar="5" Cut="1.7047619819641113e-01" cType="1" res="3.6263554356992245e-03" rms="4.3248140811920166e-01" purity="5.0502055883407593e-01" nType="0">
          <Node pos="l" depth="2" NCoef="0" IVar="-1" Cut="0.0000000000000000e+00" cType="1" res="4.6090856194496155e-03" rms="4.5553031563758850e-01" purity="5.0796461105346680e-01" nType="-99"/>
          <Node pos="r" depth="2" NCoef="0" IVar="-1" Cut="0.0000000000000000e+00" cType="1" res="3.3412306220270693e-04" rms="4.2883440852165222e-01" purity="5.0457495450973511e-01" nType="-99"/>
        </Node>
      </Node>
    </BinaryTree>
    <BinaryTree type="DecisionTree" boostWeight="1.0000000000000000e+00" itree="918">
      <Node pos="s" depth="0" NCoef="0" IVar="8" Cut="-4.4145792722702026e-01" cType="1" res="4.4554824125953019e-04" rms="4.3222302198410034e-01" purity="5.0086194276809692e-01" nType="0">
        <Node pos="l" depth="1" NCoef="0" IVar="0" Cut="1.2042590379714966e+00" cType="1" res="-4.3599973432719707e-03" rms="4.3017482757568359e-01" purity="5.4340404272079468e-01" nType="0">
          <Node pos="l" depth="2" NCoef="0" IVar="-1" Cut="0.0000000000000000e+00" cType="1" res="-2.3591567296534777e-03" rms="4.3425312638282776e-01" purity="5.9635764360427856e-01" nType="-99"/>
          <Node pos="r" depth="2" NCoef="0" IVar="-1" Cut="0.0000000000000000e+00" cType="1" res="4.1879019699990749e-03" rms="4.1212415695190430e-01" purity="3.2164907455444336e-01" nType="-99"/>
        </Node>
        <Node pos="r" depth="1" NCoef="0" IVar="7" Cut="3.7232375144958496e+00" cType="1" res="2.5662542320787907e-03" rms="4.3310686945915222e-01" purity="4.8208796977996826e-01" nType="0">
          <Node pos="l" depth="2" NCoef="0" IVar="-1" Cut="0.0000000000000000e+00" cType="1" res="8.1164820585399866e-05" rms="4.3866741657257080e-01" purity="4.3482071161270142e-01" nType="-99"/>
          <Node pos="r" depth="2" NCoef="0" IVar="-1" Cut="0.0000000000000000e+00" cType="1" res="2.0632885862141848e-03" rms="4.2073807120323181e-01" purity="5.8472585678100586e-01" nType="-99"/>
        </Node>
      </Node>
    </BinaryTree>
    <BinaryTree type="DecisionTree" boostWeight="1.0000000000000000e+00" itree="919">
      <Node pos="s" depth="0" NCoef="0" IVar="8" Cut="3.5971477627754211e-01" cType="1" res="-1.4010089216753840e-03" rms="4.3088871240615845e-01" purity="5.0045555830001831e-01" nType="0">
        <Node pos="l" depth="1" NCoef="0" IVar="4" Cut="5.7408237457275391e-01" cType="1" res="-3.2294655684381723e-03" rms="4.3309941887855530e-01" purity="4.7813558578491211e-01" nType="0">
          <Node pos="l" depth="2" NCoef="0" IVar="-1" Cut="0.0000000000000000e+00" cType="1" res="8.8378851069137454e-04" rms="3.9237853884696960e-01" purity="2.1919728815555573e-01" nType="-99"/>
          <Node pos="r" depth="2" NCoef="0" IVar="-1" Cut="0.0000000000000000e+00" cType="1" res="-1.3661015545949340e-03" rms="4.4817110896110535e-01" purity="5.8060175180435181e-01" nType="-99"/>
        </Node>
        <Node pos="r" depth="1" NCoef="0" IVar="4" Cut="5.2635061740875244e-01" cType="1" res="2.1709636785089970e-03" rms="4.2651426792144775e-01" purity="5.4405844211578369e-01" nType="0">
          <Node pos="l" depth="2" NCoef="0" IVar="-1" Cut="0.0000000000000000e+00" cType="1" res="-6.3598649576306343e-03" rms="3.4132152795791626e-01" purity="1.4627377688884735e-01" nType="-99"/>
          <Node pos="r" depth="2" NCoef="0" IVar="-1" Cut="0.0000000000000000e+00" cType="1" res="1.4881705865263939e-03" rms="4.4208616018295288e-01" purity="6.2680101394653320e-01" nType="-99"/>
        </Node>
      </Node>
    </BinaryTree>
    <BinaryTree type="DecisionTree" boostWeight="1.0000000000000000e+00" itree="920">
      <Node pos="s" depth="0" NCoef="0" IVar="4" Cut="8.2273066043853760e-01" cType="1" res="-1.6225988510996103e-03" rms="4.3106988072395325e-01" purity="4.9902644753456116e-01" nType="0">
        <Node pos="l" depth="1" NCoef="0" IVar="7" Cut="1.3944694995880127e+00" cType="1" res="-3.9493613876402378e-03" rms="4.2847642302513123e-01" purity="3.5602453351020813e-01" nType="0">
          <Node pos="l" depth="2" NCoef="0" IVar="-1" Cut="0.0000000000000000e+00" cType="1" res="1.8987758085131645e-03" rms="4.5367643237113953e-01" purity="3.3898016810417175e-01" nType="-99"/>
          <Node pos="r" depth="2" NCoef="0" IVar="-1" Cut="0.0000000000000000e+00" cType="1" res="-1.4882782706990838e-03" rms="4.2509749531745911e-01" purity="3.5822075605392456e-01" nType="-99"/>
        </Node>
        <Node pos="r" depth="1" NCoef="0" IVar="0" Cut="1.0615246295928955e+00" cType="1" res="1.1469675227999687e-03" rms="4.3412041664123535e-01" purity="6.6924291849136353e-01" nType="0">
          <Node pos="l" depth="2" NCoef="0" IVar="-1" Cut="0.0000000000000000e+00" cType="1" res="-9.6885277889668941e-04" rms="4.2187559604644775e-01" purity="7.3676717281341553e-01" nType="-99"/>
          <Node pos="r" depth="2" NCoef="0" IVar="-1" Cut="0.0000000000000000e+00" cType="1" res="2.7544840704649687e-03" rms="4.6203395724296570e-01" purity="5.0697016716003418e-01" nType="-99"/>
        </Node>
      </Node>
    </BinaryTree>
    <BinaryTree type="DecisionTree" boostWeight="1.0000000000000000e+00" itree="921">
      <Node pos="s" depth="0" NCoef="0" IVar="3" Cut="6.1904764175415039e-01" cType="1" res="-4.5632294495590031e-04" rms="4.3062412738800049e-01" purity="4.9933812022209167e-01" nType="0">
        <Node pos="l" depth="1" NCoef="0" IVar="2" Cut="1.6673802137374878e+00" cType="1" res="5.4008024744689465e-04" rms="4.2873984575271606e-01" purity="5.0008094310760498e-01" nType="0">
          <Node pos="l" depth="2" NCoef="0" IVar="-1" Cut="0.0000000000000000e+00" cType="1" res="-7.2699629527051002e-05" rms="4.2970532178878784e-01" purity="4.9970236420631409e-01" nType="-99"/>
          <Node pos="r" depth="2" NCoef="0" IVar="-1" Cut="0.0000000000000000e+00" cType="1" res="3.5941107198596001e-03" rms="4.1374957561492920e-01" purity="5.0577670335769653e-01" nType="-99"/>
        </Node>
        <Node pos="r" depth="1" NCoef="0" IVar="10" Cut="5.0952382087707520e+00" cType="1" res="-1.1628892272710800e-02" rms="4.5106291770935059e-01" purity="4.9100893735885620e-01" nType="0">
          <Node pos="l" depth="2" NCoef="0" IVar="-1" Cut="0.0000000000000000e+00" cType="1" res="-1.0918495245277882e-03" rms="4.5885303616523743e-01" purity="4.8135489225387573e-01" nType="-99"/>
          <Node pos="r" depth="2" NCoef="0" IVar="-1" Cut="0.0000000000000000e+00" cType="1" res="-5.0200568512082100e-03" rms="4.4172811508178711e-01" purity="5.0219458341598511e-01" nType="-99"/>
        </Node>
      </Node>
    </BinaryTree>
    <BinaryTree type="DecisionTree" boostWeight="1.0000000000000000e+00" itree="922">
      <Node pos="s" depth="0" NCoef="0" IVar="6" Cut="-6.7142858505249023e+00" cType="1" res="7.5431173900142312e-04" rms="4.3090596795082092e-01" purity="5.0125795602798462e-01" nType="0">
        <Node pos="l" depth="1" NCoef="0" IVar="-1" Cut="0.0000000000000000e+00" cType="1" res="4.1713858954608440e-03" rms="4.1419941186904907e-01" purity="4.5284104347229004e-01" nType="-99"/>
        <Node pos="r" depth="1" NCoef="0" IVar="5" Cut="1.6705849766731262e-01" cType="1" res="1.8467211339157075e-04" rms="4.3156987428665161e-01" purity="5.0324976444244385e-01" nType="0">
          <Node pos="l" depth="2" NCoef="0" IVar="-1" Cut="0.0000000000000000e+00" cType="1" res="-1.3200027169659734e-03" rms="4.5178744196891785e-01" purity="4.9069434404373169e-01" nType="-99"/>
          <Node pos="r" depth="2" NCoef="0" IVar="-1" Cut="0.0000000000000000e+00" cType="1" res="2.5968911359086633e-04" rms="4.2874506115913391e-01" purity="5.0495463609695435e-01" nType="-99"/>
        </Node>
      </Node>
    </BinaryTree>
    <BinaryTree type="DecisionTree" boostWeight="1.0000000000000000e+00" itree="923">
      <Node pos="s" depth="0" NCoef="0" IVar="3" Cut="1.4285714924335480e-01" cType="1" res="1.7099947435781360e-03" rms="4.3154349923133850e-01" purity="5.0174635648727417e-01" nType="0">
        <Node pos="l" depth="1" NCoef="0" IVar="3" Cut="3.3999305218458176e-02" cType="1" res="3.7344666197896004e-03" rms="4.2962265014648438e-01" purity="5.0278651714324951e-01" nType="0">
          <Node pos="l" depth="2" NCoef="0" IVar="-1" Cut="0.0000000000000000e+00" cType="1" res="5.4440391249954700e-04" rms="4.3083637952804565e-01" purity="5.0102084875106812e-01" nType="-99"/>
          <Node pos="r" depth="2" NCoef="0" IVar="-1" Cut="0.0000000000000000e+00" cType="1" res="3.3516893163323402e-03" rms="4.2333260178565979e-01" purity="5.1170915365219116e-01" nType="-99"/>
        </Node>
        <Node pos="r" depth="1" NCoef="0" IVar="3" Cut="1.8367744982242584e-01" cType="1" res="-1.9944179803133011e-03" rms="4.3501195311546326e-01" purity="4.9984303116798401e-01" nType="0">
          <Node pos="l" depth="2" NCoef="0" IVar="-1" Cut="0.0000000000000000e+00" cType="1" res="-4.5238952152431011e-03" rms="4.2761576175689697e-01" purity="4.6805620193481445e-01" nType="-99"/>
          <Node pos="r" depth="2" NCoef="0" IVar="-1" Cut="0.0000000000000000e+00" cType="1" res="-7.4677089287433773e-05" rms="4.3583539128303528e-01" purity="5.0355470180511475e-01" nType="-99"/>
        </Node>
      </Node>
    </BinaryTree>
    <BinaryTree type="DecisionTree" boostWeight="1.0000000000000000e+00" itree="924">
      <Node pos="s" depth="0" NCoef="0" IVar="10" Cut="5.2285713195800781e+01" cType="1" res="-1.1430254671722651e-03" rms="4.3091630935668945e-01" purity="5.0062680244445801e-01" nType="0">
        <Node pos="l" depth="1" NCoef="0" IVar="5" Cut="2.9221603870391846e+00" cType="1" res="-4.2480733827687800e-04" rms="4.3143135309219360e-01" purity="5.0818097591400146e-01" nType="0">
          <Node pos="l" depth="2" NCoef="0" IVar="-1" Cut="0.0000000000000000e+00" cType="1" res="8.6744672444183379e-05" rms="4.3224075436592102e-01" purity="5.0709807872772217e-01" nType="-99"/>
          <Node pos="r" depth="2" NCoef="0" IVar="-1" Cut="0.0000000000000000e+00" cType="1" res="-4.1474411264061928e-03" rms="4.1593089699745178e-01" purity="5.2821087837219238e-01" nType="-99"/>
        </Node>
        <Node pos="r" depth="1" NCoef="0" IVar="-1" Cut="0.0000000000000000e+00" cType="1" res="-3.3853619825094938e-03" rms="4.2250236868858337e-01" purity="3.8083854317665100e-01" nType="-99"/>
      </Node>
    </BinaryTree>
    <BinaryTree type="DecisionTree" boostWeight="1.0000000000000000e+00" itree="925">
      <Node pos="s" depth="0" NCoef="0" IVar="6" Cut="-4.0000000000000000e+00" cType="1" res="-2.4926897604018450e-03" rms="4.3070012331008911e-01" purity="4.9808561801910400e-01" nType="0">
        <Node pos="l" depth="1" NCoef="0" IVar="9" Cut="5.6457072496414185e-02" cType="1" res="8.2275122404098511e-03" rms="4.1659834980964661e-01" purity="4.6478152275085449e-01" nType="0">
          <Node pos="l" depth="2" NCoef="0" IVar="-1" Cut="0.0000000000000000e+00" cType="1" res="4.4962222455069423e-04" rms="4.1457027196884155e-01" purity="4.5580333471298218e-01" nType="-99"/>
          <Node pos="r" depth="2" NCoef="0" IVar="-1" Cut="0.0000000000000000e+00" cType="1" res="4.8488420434296131e-03" rms="4.1917634010314941e-01" purity="4.7701147198677063e-01" nType="-99"/>
        </Node>
        <Node pos="r" depth="1" NCoef="0" IVar="1" Cut="3.5618274211883545e+00" cType="1" res="-3.5819504410028458e-03" rms="4.3209236860275269e-01" purity="5.0146961212158203e-01" nType="0">
          <Node pos="l" depth="2" NCoef="0" IVar="-1" Cut="0.0000000000000000e+00" cType="1" res="-1.3628510059788823e-03" rms="4.4093686342239380e-01" purity="5.0497710704803467e-01" nType="-99"/>
          <Node pos="r" depth="2" NCoef="0" IVar="-1" Cut="0.0000000000000000e+00" cType="1" res="-2.7310999576002359e-04" rms="4.1873380541801453e-01" purity="4.9631178379058838e-01" nType="-99"/>
        </Node>
      </Node>
    </BinaryTree>
    <BinaryTree type="DecisionTree" boostWeight="1.0000000000000000e+00" itree="926">
      <Node pos="s" depth="0" NCoef="0" IVar="9" Cut="5.2380955219268799e-01" cType="1" res="1.2996701989322901e-03" rms="4.2996904253959656e-01" purity="5.0145643949508667e-01" nType="0">
        <Node pos="l" depth="1" NCoef="0" IVar="9" Cut="-4.1951337456703186e-01" cType="1" res="2.1728563588112593e-03" rms="4.2869529128074646e-01" purity="5.0866436958312988e-01" nType="0">
          <Node pos="l" depth="2" NCoef="0" IVar="-1" Cut="0.0000000000000000e+00" cType="1" res="-1.0333900572732091e-03" rms="4.3427896499633789e-01" purity="4.5292541384696960e-01" nType="-99"/>
          <Node pos="r" depth="2" NCoef="0" IVar="-1" Cut="0.0000000000000000e+00" cType="1" res="9.1652898117899895e-04" rms="4.2753297090530396e-01" purity="5.2007025480270386e-01" nType="-99"/>
        </Node>
        <Node pos="r" depth="1" NCoef="0" IVar="4" Cut="9.0348857641220093e-01" cType="1" res="-6.0854344628751278e-03" rms="4.4052556157112122e-01" purity="4.4049397110939026e-01" nType="0">
          <Node pos="l" depth="2" NCoef="0" IVar="-1" Cut="0.0000000000000000e+00" cType="1" res="6.0254434356465936e-04" rms="4.3211215734481812e-01" purity="3.5092669725418091e-01" nType="-99"/>
          <Node pos="r" depth="2" NCoef="0" IVar="-1" Cut="0.0000000000000000e+00" cType="1" res="-5.2472990937530994e-03" rms="4.5545178651809692e-01" purity="6.0818958282470703e-01" nType="-99"/>
        </Node>
      </Node>
    </BinaryTree>
    <BinaryTree type="DecisionTree" boostWeight="1.0000000000000000e+00" itree="927">
      <Node pos="s" depth="0" NCoef="0" IVar="6" Cut="0.0000000000000000e+00" cType="1" res="-4.7458644257858396e-04" rms="4.3136814236640930e-01" purity="5.0041294097900391e-01" nType="0">
        <Node pos="l" depth="1" NCoef="0" IVar="8" Cut="1.3127985596656799e-01" cType="1" res="-3.2983240671455860e-03" rms="4.3095844984054565e-01" purity="4.9673715233802795e-01" nType="0">
          <Node pos="l" depth="2" NCoef="0" IVar="-1" Cut="0.0000000000000000e+00" cType="1" res="-1.9665465224534273e-03" rms="4.3189305067062378e-01" purity="4.8188877105712891e-01" nType="-99"/>
          <Node pos="r" depth="2" NCoef="0" IVar="-1" Cut="0.0000000000000000e+00" cType="1" res="5.5105803767219186e-04" rms="4.2968860268592834e-01" purity="5.1592892408370972e-01" nType="-99"/>
        </Node>
        <Node pos="r" depth="1" NCoef="0" IVar="2" Cut="-1.4857789278030396e+00" cType="1" res="1.4992094365879893e-03" rms="4.3164333701133728e-01" purity="5.0298225879669189e-01" nType="0">
          <Node pos="l" depth="2" NCoef="0" IVar="-1" Cut="0.0000000000000000e+00" cType="1" res="-3.2364404760301113e-03" rms="4.1771703958511353e-01" purity="4.9156615138053894e-01" nType="-99"/>
          <Node pos="r" depth="2" NCoef="0" IVar="-1" Cut="0.0000000000000000e+00" cType="1" res="6.9186993641778827e-04" rms="4.3281272053718567e-01" purity="5.0397324562072754e-01" nType="-99"/>
        </Node>
      </Node>
    </BinaryTree>
    <BinaryTree type="DecisionTree" boostWeight="1.0000000000000000e+00" itree="928">
      <Node pos="s" depth="0" NCoef="0" IVar="4" Cut="5.2656292915344238e-01" cType="1" res="-3.9103769813664258e-04" rms="4.3256410956382751e-01" purity="4.9934908747673035e-01" nType="0">
        <Node pos="l" depth="1" NCoef="0" IVar="7" Cut="3.9448535442352295e+00" cType="1" res="4.8588276840746403e-03" rms="3.7191587686538696e-01" purity="1.8437226116657257e-01" nType="0">
          <Node pos="l" depth="2" NCoef="0" IVar="-1" Cut="0.0000000000000000e+00" cType="1" res="2.6315529830753803e-03" rms="3.8119381666183472e-01" purity="1.9477503001689911e-01" nType="-99"/>
          <Node pos="r" depth="2" NCoef="0" IVar="-1" Cut="0.0000000000000000e+00" cType="1" res="-3.1766055617481470e-03" rms="3.2518041133880615e-01" purity="1.3612049818038940e-01" nType="-99"/>
        </Node>
        <Node pos="r" depth="1" NCoef="0" IVar="4" Cut="9.6697890758514404e-01" cType="1" res="-1.8343633273616433e-03" rms="4.4778987765312195e-01" purity="5.8594453334808350e-01" nType="0">
          <Node pos="l" depth="2" NCoef="0" IVar="-1" Cut="0.0000000000000000e+00" cType="1" res="-8.6776493117213249e-04" rms="4.5311659574508667e-01" purity="5.6031191349029541e-01" nType="-99"/>
          <Node pos="r" depth="2" NCoef="0" IVar="-1" Cut="0.0000000000000000e+00" cType="1" res="2.5724053848534822e-03" rms="4.1292789578437805e-01" purity="7.4547827243804932e-01" nType="-99"/>
        </Node>
      </Node>
    </BinaryTree>
    <BinaryTree type="DecisionTree" boostWeight="1.0000000000000000e+00" itree="929">
      <Node pos="s" depth="0" NCoef="0" IVar="10" Cut="1.8761905670166016e+01" cType="1" res="-1.0249888291582465e-03" rms="4.3099951744079590e-01" purity="4.9847343564033508e-01" nType="0">
        <Node pos="l" depth="1" NCoef="0" IVar="10" Cut="3.5238094329833984e+00" cType="1" res="-3.0842558480799198e-03" rms="4.4305321574211121e-01" purity="5.0313037633895874e-01" nType="0">
          <Node pos="l" depth="2" NCoef="0" IVar="-1" Cut="0.0000000000000000e+00" cType="1" res="-3.7754217628389597e-03" rms="4.6828138828277588e-01" purity="4.3889197707176208e-01" nType="-99"/>
          <Node pos="r" depth="2" NCoef="0" IVar="-1" Cut="0.0000000000000000e+00" cType="1" res="-1.8627831013873219e-04" rms="4.3834435939788818e-01" purity="5.1462411880493164e-01" nType="-99"/>
        </Node>
        <Node pos="r" depth="1" NCoef="0" IVar="0" Cut="1.2075079679489136e+00" cType="1" res="1.8129964591935277e-03" rms="4.1379591822624207e-01" purity="4.9205544590950012e-01" nType="0">
          <Node pos="l" depth="2" NCoef="0" IVar="-1" Cut="0.0000000000000000e+00" cType="1" res="1.0485000675544143e-03" rms="4.2561447620391846e-01" purity="5.4656416177749634e-01" nType="-99"/>
          <Node pos="r" depth="2" NCoef="0" IVar="-1" Cut="0.0000000000000000e+00" cType="1" res="-5.1020029932260513e-03" rms="3.2690051198005676e-01" purity="1.3954925537109375e-01" nType="-99"/>
        </Node>
      </Node>
    </BinaryTree>
    <BinaryTree type="DecisionTree" boostWeight="1.0000000000000000e+00" itree="930">
      <Node pos="s" depth="0" NCoef="0" IVar="4" Cut="8.6284524202346802e-01" cType="1" res="-2.3215814144350588e-04" rms="4.3238139152526855e-01" purity="4.9959480762481689e-01" nType="0">
        <Node pos="l" depth="1" NCoef="0" IVar="10" Cut="3.3047618865966797e+01" cType="1" res="2.5225386489182711e-03" rms="4.3189477920532227e-01" purity="3.8592100143432617e-01" nType="0">
          <Node pos="l" depth="2" NCoef="0" IVar="-1" Cut="0.0000000000000000e+00" cType="1" res="-3.8074213080108166e-05" rms="4.3599948287010193e-01" purity="3.8374143838882446e-01" nType="-99"/>
          <Node pos="r" depth="2" NCoef="0" IVar="-1" Cut="0.0000000000000000e+00" cType="1" res="3.7710035685449839e-03" rms="4.1466993093490601e-01" purity="3.9475327730178833e-01" nType="-99"/>
        </Node>
        <Node pos="r" depth="1" NCoef="0" IVar="4" Cut="9.7694778442382812e-01" cType="1" res="-4.6251625753939152e-03" rms="4.3312007188796997e-01" purity="6.8087410926818848e-01" nType="0">
          <Node pos="l" depth="2" NCoef="0" IVar="-1" Cut="0.0000000000000000e+00" cType="1" res="-2.1146731451153755e-03" rms="4.3590623140335083e-01" purity="6.7019957304000854e-01" nType="-99"/>
          <Node pos="r" depth="2" NCoef="0" IVar="-1" Cut="0.0000000000000000e+00" cType="1" res="3.7279857788234949e-03" rms="4.1741323471069336e-01" purity="7.3802036046981812e-01" nType="-99"/>
        </Node>
      </Node>
    </BinaryTree>
    <BinaryTree type="DecisionTree" boostWeight="1.0000000000000000e+00" itree="931">
      <Node pos="s" depth="0" NCoef="0" IVar="9" Cut="-5.2380955219268799e-01" cType="1" res="1.7825055401772261e-03" rms="4.3180590867996216e-01" purity="5.0099217891693115e-01" nType="0">
        <Node pos="l" depth="1" NCoef="0" IVar="3" Cut="2.3809523880481720e-01" cType="1" res="-6.2102945521473885e-03" rms="4.3715038895606995e-01" purity="4.2908301949501038e-01" nType="0">
          <Node pos="l" depth="2" NCoef="0" IVar="-1" Cut="0.0000000000000000e+00" cType="1" res="-2.9116735095158219e-04" rms="4.3386924266815186e-01" purity="4.3229040503501892e-01" nType="-99"/>
          <Node pos="r" depth="2" NCoef="0" IVar="-1" Cut="0.0000000000000000e+00" cType="1" res="-4.0983106009662151e-03" rms="4.4335266947746277e-01" purity="4.2278364300727844e-01" nType="-99"/>
        </Node>
        <Node pos="r" depth="1" NCoef="0" IVar="8" Cut="-1.3204643726348877e+00" cType="1" res="2.7281311340630054e-03" rms="4.3115940690040588e-01" purity="5.0949966907501221e-01" nType="0">
          <Node pos="l" depth="2" NCoef="0" IVar="-1" Cut="0.0000000000000000e+00" cType="1" res="-1.8822485581040382e-03" rms="4.1719701886177063e-01" purity="6.4229846000671387e-01" nType="-99"/>
          <Node pos="r" depth="2" NCoef="0" IVar="-1" Cut="0.0000000000000000e+00" cType="1" res="9.7416125936433673e-04" rms="4.3254399299621582e-01" purity="4.9598190188407898e-01" nType="-99"/>
        </Node>
      </Node>
    </BinaryTree>
    <BinaryTree type="DecisionTree" boostWeight="1.0000000000000000e+00" itree="932">
      <Node pos="s" depth="0" NCoef="0" IVar="10" Cut="1.0380952835083008e+01" cType="1" res="-1.3372297398746014e-03" rms="4.3123087286949158e-01" purity="4.9958980083465576e-01" nType="0">
        <Node pos="l" depth="1" NCoef="0" IVar="6" Cut="2.3809523582458496e+00" cType="1" res="-5.2895792759954929e-03" rms="4.5328539609909058e-01" purity="5.1650625467300415e-01" nType="0">
          <Node pos="l" depth="2" NCoef="0" IVar="-1" Cut="0.0000000000000000e+00" cType="1" res="-5.2582891657948494e-04" rms="4.5275855064392090e-01" purity="5.2123445272445679e-01" nType="-99"/>
          <Node pos="r" depth="2" NCoef="0" IVar="-1" Cut="0.0000000000000000e+00" cType="1" res="-6.8771247752010822e-03" rms="4.5647636055946350e-01" purity="4.8186689615249634e-01" nType="-99"/>
        </Node>
        <Node pos="r" depth="1" NCoef="0" IVar="0" Cut="6.9187331199645996e-01" cType="1" res="8.1397296162322164e-04" rms="4.1872334480285645e-01" purity="4.9038243293762207e-01" nType="0">
          <Node pos="l" depth="2" NCoef="0" IVar="-1" Cut="0.0000000000000000e+00" cType="1" res="4.4290614314377308e-03" rms="3.9682620763778687e-01" purity="7.1275198459625244e-01" nType="-99"/>
          <Node pos="r" depth="2" NCoef="0" IVar="-1" Cut="0.0000000000000000e+00" cType="1" res="-2.0014033361803740e-04" rms="4.2107218503952026e-01" purity="4.6552807092666626e-01" nType="-99"/>
        </Node>
      </Node>
    </BinaryTree>
    <BinaryTree type="DecisionTree" boostWeight="1.0000000000000000e+00" itree="933">
      <Node pos="s" depth="0" NCoef="0" IVar="9" Cut="-5.2380955219268799e-01" cType="1" res="1.5061620797496289e-04" rms="4.3119961023330688e-01" purity="4.9990260601043701e-01" nType="0">
        <Node pos="l" depth="1" NCoef="0" IVar="10" Cut="5.9047617912292480e+00" cType="1" res="8.0083170905709267e-03" rms="4.3763181567192078e-01" purity="4.4216120243072510e-01" nType="0">
          <Node pos="l" depth="2" NCoef="0" IVar="-1" Cut="0.0000000000000000e+00" cType="1" res="3.6707159597426653e-03" rms="4.6036022901535034e-01" purity="4.6321740746498108e-01" nType="-99"/>
          <Node pos="r" depth="2" NCoef="0" IVar="-1" Cut="0.0000000000000000e+00" cType="1" res="8.3992781583219767e-04" rms="4.2204120755195618e-01" purity="4.2839980125427246e-01" nType="-99"/>
        </Node>
        <Node pos="r" depth="1" NCoef="0" IVar="4" Cut="8.6600124835968018e-01" cType="1" res="-7.8028545249253511e-04" rms="4.3042171001434326e-01" purity="5.0674319267272949e-01" nType="0">
          <Node pos="l" depth="2" NCoef="0" IVar="-1" Cut="0.0000000000000000e+00" cType="1" res="-8.7980704847723246e-04" rms="4.3256539106369019e-01" purity="3.8871040940284729e-01" nType="-99"/>
          <Node pos="r" depth="2" NCoef="0" IVar="-1" Cut="0.0000000000000000e+00" cType="1" res="9.0356933651492000e-04" rms="4.2686530947685242e-01" purity="6.9950091838836670e-01" nType="-99"/>
        </Node>
      </Node>
    </BinaryTree>
    <BinaryTree type="DecisionTree" boostWeight="1.0000000000000000e+00" itree="934">
      <Node pos="s" depth="0" NCoef="0" IVar="8" Cut="-6.5994396805763245e-02" cType="1" res="-2.0188663620501757e-04" rms="4.3163540959358215e-01" purity="5.0025820732116699e-01" nType="0">
        <Node pos="l" depth="1" NCoef="0" IVar="5" Cut="1.3975329399108887e+00" cType="1" res="2.5719231925904751e-03" rms="4.3160384893417358e-01" purity="5.1158899068832397e-01" nType="0">
          <Node pos="l" depth="2" NCoef="0" IVar="-1" Cut="0.0000000000000000e+00" cType="1" res="1.4798562042415142e-03" rms="4.3684348464012146e-01" purity="5.2519404888153076e-01" nType="-99"/>
          <Node pos="r" depth="2" NCoef="0" IVar="-1" Cut="0.0000000000000000e+00" cType="1" res="-3.5120057873427868e-04" rms="4.2504623532295227e-01" purity="4.9487322568893433e-01" nType="-99"/>
        </Node>
        <Node pos="r" depth="1" NCoef="0" IVar="0" Cut="6.4893990755081177e-01" cType="1" res="-2.4893595837056637e-03" rms="4.3164798617362976e-01" purity="4.9091401696205139e-01" nType="0">
          <Node pos="l" depth="2" NCoef="0" IVar="-1" Cut="0.0000000000000000e+00" cType="1" res="2.2396272979676723e-03" rms="4.3140766024589539e-01" purity="6.7783719301223755e-01" nType="-99"/>
          <Node pos="r" depth="2" NCoef="0" IVar="-1" Cut="0.0000000000000000e+00" cType="1" res="-1.0162246180698276e-03" rms="4.3165883421897888e-01" purity="4.6758052706718445e-01" nType="-99"/>
        </Node>
      </Node>
    </BinaryTree>
    <BinaryTree type="DecisionTree" boostWeight="1.0000000000000000e+00" itree="935">
      <Node pos="s" depth="0" NCoef="0" IVar="2" Cut="-1.3764443397521973e+00" cType="1" res="2.5674959761090577e-04" rms="4.3145510554313660e-01" purity="4.9938189983367920e-01" nType="0">
        <Node pos="l" depth="1" NCoef="0" IVar="4" Cut="7.0030599832534790e-01" cType="1" res="-8.1619797274470329e-03" rms="4.2259761691093445e-01" purity="4.9531778693199158e-01" nType="0">
          <Node pos="l" depth="2" NCoef="0" IVar="-1" Cut="0.0000000000000000e+00" cType="1" res="1.3301393482834101e-03" rms="4.0995606780052185e-01" purity="3.0135184526443481e-01" nType="-99"/>
          <Node pos="r" depth="2" NCoef="0" IVar="-1" Cut="0.0000000000000000e+00" cType="1" res="-4.6294615603983402e-03" rms="4.3137511610984802e-01" purity="6.3715213537216187e-01" nType="-99"/>
        </Node>
        <Node pos="r" depth="1" NCoef="0" IVar="2" Cut="1.5803186893463135e+00" cType="1" res="1.0877797612920403e-03" rms="4.3231070041656494e-01" purity="4.9978303909301758e-01" nType="0">
          <Node pos="l" depth="2" NCoef="0" IVar="-1" Cut="0.0000000000000000e+00" cType="1" res="9.1854213678743690e-05" rms="4.3354025483131409e-01" purity="4.9868273735046387e-01" nType="-99"/>
          <Node pos="r" depth="2" NCoef="0" IVar="-1" Cut="0.0000000000000000e+00" cType="1" res="2.6360985357314348e-03" rms="4.1810399293899536e-01" purity="5.1219213008880615e-01" nType="-99"/>
        </Node>
      </Node>
    </BinaryTree>
    <BinaryTree type="DecisionTree" boostWeight="1.0000000000000000e+00" itree="936">
      <Node pos="s" depth="0" NCoef="0" IVar="9" Cut="4.7619048506021500e-02" cType="1" res="1.0152263566851616e-03" rms="4.3064036965370178e-01" purity="5.0176942348480225e-01" nType="0">
        <Node pos="l" depth="1" NCoef="0" IVar="8" Cut="-1.5543092489242554e+00" cType="1" res="3.7141139619052410e-03" rms="4.3018648028373718e-01" purity="5.0335425138473511e-01" nType="0">
          <Node pos="l" depth="2" NCoef="0" IVar="-1" Cut="0.0000000000000000e+00" cType="1" res="5.5578914470970631e-03" rms="4.0207308530807495e-01" purity="7.2723954916000366e-01" nType="-99"/>
          <Node pos="r" depth="2" NCoef="0" IVar="-1" Cut="0.0000000000000000e+00" cType="1" res="5.7429401203989983e-04" rms="4.3286681175231934e-01" purity="4.8097193241119385e-01" nType="-99"/>
        </Node>
        <Node pos="r" depth="1" NCoef="0" IVar="8" Cut="-9.1286087036132812e-01" cType="1" res="-2.2933918517082930e-03" rms="4.3117311596870422e-01" purity="4.9982663989067078e-01" nType="0">
          <Node pos="l" depth="2" NCoef="0" IVar="-1" Cut="0.0000000000000000e+00" cType="1" res="-4.2531513608992100e-03" rms="4.1479775309562683e-01" purity="4.9127578735351562e-01" nType="-99"/>
          <Node pos="r" depth="2" NCoef="0" IVar="-1" Cut="0.0000000000000000e+00" cType="1" res="-2.3264922492671758e-04" rms="4.3293097615242004e-01" purity="5.0077652931213379e-01" nType="-99"/>
        </Node>
      </Node>
    </BinaryTree>
    <BinaryTree type="DecisionTree" boostWeight="1.0000000000000000e+00" itree="937">
      <Node pos="s" depth="0" NCoef="0" IVar="6" Cut="-1.2857142686843872e+00" cType="1" res="-8.4231770597398281e-04" rms="4.3139460682868958e-01" purity="4.9982824921607971e-01" nType="0">
        <Node pos="l" depth="1" NCoef="0" IVar="1" Cut="8.2179327011108398e+00" cType="1" res="3.5034404136240482e-03" rms="4.2777764797210693e-01" purity="4.9714794754981995e-01" nType="0">
          <Node pos="l" depth="2" NCoef="0" IVar="-1" Cut="0.0000000000000000e+00" cType="1" res="4.1899800999090075e-04" rms="4.2996814846992493e-01" purity="4.9548947811126709e-01" nType="-99"/>
          <Node pos="r" depth="2" NCoef="0" IVar="-1" Cut="0.0000000000000000e+00" cType="1" res="5.0145937129855156e-03" rms="4.1139265894889832e-01" purity="5.0908893346786499e-01" nType="-99"/>
        </Node>
        <Node pos="r" depth="1" NCoef="0" IVar="5" Cut="2.3107841610908508e-01" cType="1" res="-2.7214649599045515e-03" rms="4.3293577432632446e-01" purity="5.0098723173141479e-01" nType="0">
          <Node pos="l" depth="2" NCoef="0" IVar="-1" Cut="0.0000000000000000e+00" cType="1" res="9.7920093685388565e-04" rms="4.5549982786178589e-01" purity="5.0013673305511475e-01" nType="-99"/>
          <Node pos="r" depth="2" NCoef="0" IVar="-1" Cut="0.0000000000000000e+00" cType="1" res="-1.0399703169241548e-03" rms="4.2900887131690979e-01" purity="5.0113046169281006e-01" nType="-99"/>
        </Node>
      </Node>
    </BinaryTree>
    <BinaryTree type="DecisionTree" boostWeight="1.0000000000000000e+00" itree="938">
      <Node pos="s" depth="0" NCoef="0" IVar="3" Cut="6.1904764175415039e-01" cType="1" res="1.9510617712512612e-03" rms="4.3063750863075256e-01" purity="5.0225800275802612e-01" nType="0">
        <Node pos="l" depth="1" NCoef="0" IVar="3" Cut="3.1061321496963501e-01" cType="1" res="8.8775454787537456e-04" rms="4.2865774035453796e-01" purity="5.0109350681304932e-01" nType="0">
          <Node pos="l" depth="2" NCoef="0" IVar="-1" Cut="0.0000000000000000e+00" cType="1" res="6.6671118838712573e-04" rms="4.2827633023262024e-01" purity="4.9982944130897522e-01" nType="-99"/>
          <Node pos="r" depth="2" NCoef="0" IVar="-1" Cut="0.0000000000000000e+00" cType="1" res="-2.1545123308897018e-03" rms="4.3069323897361755e-01" purity="5.0822710990905762e-01" nType="-99"/>
        </Node>
        <Node pos="r" depth="1" NCoef="0" IVar="2" Cut="4.6765682101249695e-01" cType="1" res="1.3758039101958275e-02" rms="4.5187035202980042e-01" purity="5.1518863439559937e-01" nType="0">
          <Node pos="l" depth="2" NCoef="0" IVar="-1" Cut="0.0000000000000000e+00" cType="1" res="1.8912999657914042e-03" rms="4.5533871650695801e-01" purity="5.0241017341613770e-01" nType="-99"/>
          <Node pos="r" depth="2" NCoef="0" IVar="-1" Cut="0.0000000000000000e+00" cType="1" res="5.0559481605887413e-03" rms="4.4784450531005859e-01" purity="5.2956300973892212e-01" nType="-99"/>
        </Node>
      </Node>
    </BinaryTree>
    <BinaryTree type="DecisionTree" boostWeight="1.0000000000000000e+00" itree="939">
      <Node pos="s" depth="0" NCoef="0" IVar="6" Cut="6.0000000000000000e+00" cType="1" res="-2.1874002413824201e-04" rms="4.3117088079452515e-01" purity="5.0099515914916992e-01" nType="0">
        <Node pos="l" depth="1" NCoef="0" IVar="9" Cut="-4.7619048506021500e-02" cType="1" res="3.9042517892085016e-04" rms="4.3202915787696838e-01" purity="5.0513303279876709e-01" nType="0">
          <Node pos="l" depth="2" NCoef="0" IVar="-1" Cut="0.0000000000000000e+00" cType="1" res="1.0087271220982075e-03" rms="4.3179273605346680e-01" purity="5.0271344184875488e-01" nType="-99"/>
          <Node pos="r" depth="2" NCoef="0" IVar="-1" Cut="0.0000000000000000e+00" cType="1" res="-6.3307455275207758e-04" rms="4.3220201134681702e-01" purity="5.0710761547088623e-01" nType="-99"/>
        </Node>
        <Node pos="r" depth="1" NCoef="0" IVar="4" Cut="7.3813897371292114e-01" cType="1" res="-7.8373085707426071e-03" rms="4.2021423578262329e-01" purity="4.4924506545066833e-01" nType="0">
          <Node pos="l" depth="2" NCoef="0" IVar="-1" Cut="0.0000000000000000e+00" cType="1" res="-1.9901926862075925e-04" rms="4.0305265784263611e-01" purity="2.9485014081001282e-01" nType="-99"/>
          <Node pos="r" depth="2" NCoef="0" IVar="-1" Cut="0.0000000000000000e+00" cType="1" res="-3.8540773093700409e-03" rms="4.3620920181274414e-01" purity="6.0003042221069336e-01" nType="-99"/>
        </Node>
      </Node>
    </BinaryTree>
    <BinaryTree type="DecisionTree" boostWeight="1.0000000000000000e+00" itree="940">
      <Node pos="s" depth="0" NCoef="0" IVar="5" Cut="2.7913410663604736e+00" cType="1" res="6.9931917823851109e-04" rms="4.3008500337600708e-01" purity="5.0165528059005737e-01" nType="0">
        <Node pos="l" depth="1" NCoef="0" IVar="2" Cut="-2.1271800994873047e-01" cType="1" res="-5.0240138079971075e-04" rms="4.3089452385902405e-01" purity="4.9947607517242432e-01" nType="0">
          <Node pos="l" depth="2" NCoef="0" IVar="-1" Cut="0.0000000000000000e+00" cType="1" res="9.7842898685485125e-04" rms="4.2845004796981812e-01" purity="5.0663280487060547e-01" nType="-99"/>
          <Node pos="r" depth="2" NCoef="0" IVar="-1" Cut="0.0000000000000000e+00" cType="1" res="-8.2244101213291287e-04" rms="4.3241080641746521e-01" purity="4.9495565891265869e-01" nType="-99"/>
        </Node>
        <Node pos="r" depth="1" NCoef="0" IVar="3" Cut="-1.8055070191621780e-02" cType="1" res="1.4702678658068180e-02" rms="4.2028358578681946e-01" purity="5.2704912424087524e-01" nType="0">
          <Node pos="l" depth="2" NCoef="0" IVar="-1" Cut="0.0000000000000000e+00" cType="1" res="5.9179775416851044e-03" rms="4.2429599165916443e-01" purity="5.3143560886383057e-01" nType="-99"/>
          <Node pos="r" depth="2" NCoef="0" IVar="-1" Cut="0.0000000000000000e+00" cType="1" res="2.4440914858132601e-03" rms="4.1653949022293091e-01" purity="5.2309012413024902e-01" nType="-99"/>
        </Node>
      </Node>
    </BinaryTree>
    <BinaryTree type="DecisionTree" boostWeight="1.0000000000000000e+00" itree="941">
      <Node pos="s" depth="0" NCoef="0" IVar="2" Cut="2.1563768386840820e-01" cType="1" res="-1.4745752559974790e-03" rms="4.3203875422477722e-01" purity="4.9848896265029907e-01" nType="0">
        <Node pos="l" depth="1" NCoef="0" IVar="4" Cut="4.8450908064842224e-01" cType="1" res="-3.7223014514893293e-03" rms="4.3306696414947510e-01" purity="4.9476405978202820e-01" nType="0">
          <Node pos="l" depth="2" NCoef="0" IVar="-1" Cut="0.0000000000000000e+00" cType="1" res="3.0890507623553276e-03" rms="3.5106924176216125e-01" purity="1.5688171982765198e-01" nType="-99"/>
          <Node pos="r" depth="2" NCoef="0" IVar="-1" Cut="0.0000000000000000e+00" cType="1" res="-1.4652819372713566e-03" rms="4.4763454794883728e-01" purity="5.6233936548233032e-01" nType="-99"/>
        </Node>
        <Node pos="r" depth="1" NCoef="0" IVar="9" Cut="-5.2380955219268799e-01" cType="1" res="1.9853815902024508e-03" rms="4.3042826652526855e-01" purity="5.0422269105911255e-01" nType="0">
          <Node pos="l" depth="2" NCoef="0" IVar="-1" Cut="0.0000000000000000e+00" cType="1" res="-2.7460902929306030e-03" rms="4.3775394558906555e-01" purity="4.3826350569725037e-01" nType="-99"/>
          <Node pos="r" depth="2" NCoef="0" IVar="-1" Cut="0.0000000000000000e+00" cType="1" res="8.7005371460691094e-04" rms="4.2965927720069885e-01" purity="5.1090329885482788e-01" nType="-99"/>
        </Node>
      </Node>
    </BinaryTree>
    <BinaryTree type="DecisionTree" boostWeight="1.0000000000000000e+00" itree="942">
      <Node pos="s" depth="0" NCoef="0" IVar="8" Cut="1.5679434537887573e+00" cType="1" res="-6.4919627038761973e-04" rms="4.3142122030258179e-01" purity="4.9842140078544617e-01" nType="0">
        <Node pos="l" depth="1" NCoef="0" IVar="9" Cut="6.1904764175415039e-01" cType="1" res="-7.0806054282002151e-05" rms="4.3253144621849060e-01" purity="4.8572215437889099e-01" nType="0">
          <Node pos="l" depth="2" NCoef="0" IVar="-1" Cut="0.0000000000000000e+00" cType="1" res="1.2456873082555830e-04" rms="4.3155258893966675e-01" purity="4.9250134825706482e-01" nType="-99"/>
          <Node pos="r" depth="2" NCoef="0" IVar="-1" Cut="0.0000000000000000e+00" cType="1" res="-1.7321442719548941e-03" rms="4.4451805949211121e-01" purity="4.0106567740440369e-01" nType="-99"/>
        </Node>
        <Node pos="r" depth="1" NCoef="0" IVar="-1" Cut="0.0000000000000000e+00" cType="1" res="-2.6310924440622330e-03" rms="4.1504263877868652e-01" purity="6.8099552392959595e-01" nType="-99"/>
      </Node>
    </BinaryTree>
    <BinaryTree type="DecisionTree" boostWeight="1.0000000000000000e+00" itree="943">
      <Node pos="s" depth="0" NCoef="0" IVar="2" Cut="-1.9145736694335938e+00" cType="1" res="6.5354153048247099e-04" rms="4.3159669637680054e-01" purity="5.0138443708419800e-01" nType="0">
        <Node pos="l" depth="1" NCoef="0" IVar="-1" Cut="0.0000000000000000e+00" cType="1" res="3.0941034201532602e-03" rms="4.1989463567733765e-01" purity="5.1657718420028687e-01" nType="-99"/>
        <Node pos="r" depth="1" NCoef="0" IVar="10" Cut="4.3904762268066406e+01" cType="1" res="1.4443273539654911e-04" rms="4.3216043710708618e-01" purity="5.0063365697860718e-01" nType="0">
          <Node pos="l" depth="2" NCoef="0" IVar="-1" Cut="0.0000000000000000e+00" cType="1" res="2.3923997650854290e-04" rms="4.3357118964195251e-01" purity="5.0825732946395874e-01" nType="-99"/>
          <Node pos="r" depth="2" NCoef="0" IVar="-1" Cut="0.0000000000000000e+00" cType="1" res="-1.8822002457454801e-03" rms="4.1882541775703430e-01" purity="4.3014165759086609e-01" nType="-99"/>
        </Node>
      </Node>
    </BinaryTree>
    <BinaryTree type="DecisionTree" boostWeight="1.0000000000000000e+00" itree="944">
      <Node pos="s" depth="0" NCoef="0" IVar="4" Cut="6.1515879631042480e-01" cType="1" res="3.5652477527037263e-04" rms="4.2966371774673462e-01" purity="5.0119012594223022e-01" nType="0">
        <Node pos="l" depth="1" NCoef="0" IVar="8" Cut="5.6883162260055542e-01" cType="1" res="-4.8907250165939331e-03" rms="3.9476555585861206e-01" purity="2.3324215412139893e-01" nType="0">
          <Node pos="l" depth="2" NCoef="0" IVar="-1" Cut="0.0000000000000000e+00" cType="1" res="-5.4307986283674836e-04" rms="4.0144479274749756e-01" purity="2.4153091013431549e-01" nType="-99"/>
          <Node pos="r" depth="2" NCoef="0" IVar="-1" Cut="0.0000000000000000e+00" cType="1" res="-6.9091725163161755e-03" rms="3.6151131987571716e-01" purity="1.9444832205772400e-01" nType="-99"/>
        </Node>
        <Node pos="r" depth="1" NCoef="0" IVar="10" Cut="5.5666667938232422e+01" cType="1" res="2.5594744365662336e-03" rms="4.4347876310348511e-01" purity="6.1368262767791748e-01" nType="0">
          <Node pos="l" depth="2" NCoef="0" IVar="-1" Cut="0.0000000000000000e+00" cType="1" res="8.6987210670486093e-04" rms="4.4366660714149475e-01" purity="6.2380594015121460e-01" nType="-99"/>
          <Node pos="r" depth="2" NCoef="0" IVar="-1" Cut="0.0000000000000000e+00" cType="1" res="-3.6619249731302261e-03" rms="4.3957701325416565e-01" purity="4.2378300428390503e-01" nType="-99"/>
        </Node>
      </Node>
    </BinaryTree>
    <BinaryTree type="DecisionTree" boostWeight="1.0000000000000000e+00" itree="945">
      <Node pos="s" depth="0" NCoef="0" IVar="9" Cut="3.3333334326744080e-01" cType="1" res="-1.1723149800673127e-03" rms="4.3147179484367371e-01" purity="5.0042188167572021e-01" nType="0">
        <Node pos="l" depth="1" NCoef="0" IVar="8" Cut="-6.3515365123748779e-01" cType="1" res="-2.7961980085819960e-03" rms="4.3125063180923462e-01" purity="5.0494128465652466e-01" nType="0">
          <Node pos="l" depth="2" NCoef="0" IVar="-1" Cut="0.0000000000000000e+00" cType="1" res="-2.1212466526776552e-03" rms="4.2875525355339050e-01" purity="5.8750087022781372e-01" nType="-99"/>
          <Node pos="r" depth="2" NCoef="0" IVar="-1" Cut="0.0000000000000000e+00" cType="1" res="-2.3695096024312079e-04" rms="4.3217122554779053e-01" purity="4.7385460138320923e-01" nType="-99"/>
        </Node>
        <Node pos="r" depth="1" NCoef="0" IVar="2" Cut="7.2571706771850586e-01" cType="1" res="5.2578239701688290e-03" rms="4.3228656053543091e-01" purity="4.8252630233764648e-01" nType="0">
          <Node pos="l" depth="2" NCoef="0" IVar="-1" Cut="0.0000000000000000e+00" cType="1" res="2.0734209101647139e-03" rms="4.3463072180747986e-01" purity="4.8463612794876099e-01" nType="-99"/>
          <Node pos="r" depth="2" NCoef="0" IVar="-1" Cut="0.0000000000000000e+00" cType="1" res="-1.9078868208453059e-03" rms="4.2127227783203125e-01" purity="4.7295337915420532e-01" nType="-99"/>
        </Node>
      </Node>
    </BinaryTree>
    <BinaryTree type="DecisionTree" boostWeight="1.0000000000000000e+00" itree="946">
      <Node pos="s" depth="0" NCoef="0" IVar="3" Cut="4.2857143282890320e-01" cType="1" res="3.8750475505366921e-04" rms="4.3090808391571045e-01" purity="5.0103312730789185e-01" nType="0">
        <Node pos="l" depth="1" NCoef="0" IVar="10" Cut="2.7142856597900391e+01" cType="1" res="-3.5566004225984216e-04" rms="4.2853081226348877e-01" purity="4.9912744760513306e-01" nType="0">
          <Node pos="l" depth="2" NCoef="0" IVar="-1" Cut="0.0000000000000000e+00" cType="1" res="-4.6724826097488403e-04" rms="4.3441346287727356e-01" purity="5.0290769338607788e-01" nType="-99"/>
          <Node pos="r" depth="2" NCoef="0" IVar="-1" Cut="0.0000000000000000e+00" cType="1" res="8.5767521522939205e-04" rms="4.1409924626350403e-01" purity="4.9008405208587646e-01" nType="-99"/>
        </Node>
        <Node pos="r" depth="1" NCoef="0" IVar="9" Cut="3.3333334326744080e-01" cType="1" res="4.5326491817831993e-03" rms="4.4391143321990967e-01" purity="5.1166260242462158e-01" nType="0">
          <Node pos="l" depth="2" NCoef="0" IVar="-1" Cut="0.0000000000000000e+00" cType="1" res="2.0497513469308615e-03" rms="4.4288796186447144e-01" purity="5.2502852678298950e-01" nType="-99"/>
          <Node pos="r" depth="2" NCoef="0" IVar="-1" Cut="0.0000000000000000e+00" cType="1" res="-1.2760704848915339e-03" rms="4.4652867317199707e-01" purity="4.7546023130416870e-01" nType="-99"/>
        </Node>
      </Node>
    </BinaryTree>
    <BinaryTree type="DecisionTree" boostWeight="1.0000000000000000e+00" itree="947">
      <Node pos="s" depth="0" NCoef="0" IVar="2" Cut="-2.0822694301605225e+00" cType="1" res="1.4849993167445064e-03" rms="4.2977818846702576e-01" purity="5.0249826908111572e-01" nType="0">
        <Node pos="l" depth="1" NCoef="0" IVar="-1" Cut="0.0000000000000000e+00" cType="1" res="-3.9664362557232380e-03" rms="4.1514751315116882e-01" purity="4.9092608690261841e-01" nType="-99"/>
        <Node pos="r" depth="1" NCoef="0" IVar="8" Cut="7.3393678665161133e-01" cType="1" res="2.0854284521192312e-03" rms="4.3033161759376526e-01" purity="5.0295287370681763e-01" nType="0">
          <Node pos="l" depth="2" NCoef="0" IVar="-1" Cut="0.0000000000000000e+00" cType="1" res="1.5631828864570707e-04" rms="4.3272304534912109e-01" purity="4.7801709175109863e-01" nType="-99"/>
          <Node pos="r" depth="2" NCoef="0" IVar="-1" Cut="0.0000000000000000e+00" cType="1" res="2.1108435466885567e-03" rms="4.2121413350105286e-01" purity="5.9627926349639893e-01" nType="-99"/>
        </Node>
      </Node>
    </BinaryTree>
    <BinaryTree type="DecisionTree" boostWeight="1.0000000000000000e+00" itree="948">
      <Node pos="s" depth="0" NCoef="0" IVar="9" Cut="7.1428573131561279e-01" cType="1" res="-2.8255914803594351e-03" rms="4.3063595890998840e-01" purity="4.9818634986877441e-01" nType="0">
        <Node pos="l" depth="1" NCoef="0" IVar="7" Cut="9.8112993240356445e+00" cType="1" res="-3.3846278674900532e-03" rms="4.2987295985221863e-01" purity="5.0277525186538696e-01" nType="0">
          <Node pos="l" depth="2" NCoef="0" IVar="-1" Cut="0.0000000000000000e+00" cType="1" res="-1.0528728598728776e-03" rms="4.3134930729866028e-01" purity="4.9284800887107849e-01" nType="-99"/>
          <Node pos="r" depth="2" NCoef="0" IVar="-1" Cut="0.0000000000000000e+00" cType="1" res="2.5273920036852360e-03" rms="3.9827126264572144e-01" purity="7.0594829320907593e-01" nType="-99"/>
        </Node>
        <Node pos="r" depth="1" NCoef="0" IVar="-1" Cut="0.0000000000000000e+00" cType="1" res="2.1520492155104876e-03" rms="4.4565996527671814e-01" purity="4.0522876381874084e-01" nType="-99"/>
      </Node>
    </BinaryTree>
    <BinaryTree type="DecisionTree" boostWeight="1.0000000000000000e+00" itree="949">
      <Node pos="s" depth="0" NCoef="0" IVar="10" Cut="5.2285713195800781e+01" cType="1" res="2.0192612428218126e-03" rms="4.3100854754447937e-01" purity="5.0301140546798706e-01" nType="0">
        <Node pos="l" depth="1" NCoef="0" IVar="6" Cut="-2.0000000000000000e+00" cType="1" res="1.1920640245079994e-03" rms="4.3140640854835510e-01" purity="5.0939089059829712e-01" nType="0">
          <Node pos="l" depth="2" NCoef="0" IVar="-1" Cut="0.0000000000000000e+00" cType="1" res="-1.2456985423341393e-03" rms="4.2449393868446350e-01" purity="4.8949772119522095e-01" nType="-99"/>
          <Node pos="r" depth="2" NCoef="0" IVar="-1" Cut="0.0000000000000000e+00" cType="1" res="6.8601249950006604e-04" rms="4.3307250738143921e-01" purity="5.1426762342453003e-01" nType="-99"/>
        </Node>
        <Node pos="r" depth="1" NCoef="0" IVar="-1" Cut="0.0000000000000000e+00" cType="1" res="4.0294378995895386e-03" rms="4.2457416653633118e-01" purity="4.0392312407493591e-01" nType="-99"/>
      </Node>
    </BinaryTree>
    <BinaryTree type="DecisionTree" boostWeight="1.0000000000000000e+00" itree="950">
      <Node pos="s" depth="0" NCoef="0" IVar="10" Cut="1.0380952835083008e+01" cType="1" res="-1.4863546239212155e-03" rms="4.3151852488517761e-01" purity="4.9816390872001648e-01" nType="0">
        <Node pos="l" depth="1" NCoef="0" IVar="8" Cut="-8.4916990995407104e-01" cType="1" res="-5.0872489809989929e-03" rms="4.5351535081863403e-01" purity="5.1620233058929443e-01" nType="0">
          <Node pos="l" depth="2" NCoef="0" IVar="-1" Cut="0.0000000000000000e+00" cType="1" res="4.1659944690763950e-03" rms="4.4104978442192078e-01" purity="6.5794169902801514e-01" nType="-99"/>
          <Node pos="r" depth="2" NCoef="0" IVar="-1" Cut="0.0000000000000000e+00" cType="1" res="-1.8955966224893928e-03" rms="4.5504733920097351e-01" purity="4.9765917658805847e-01" nType="-99"/>
        </Node>
        <Node pos="r" depth="1" NCoef="0" IVar="0" Cut="1.2763535976409912e+00" cType="1" res="5.0475157331675291e-04" rms="4.1884642839431763e-01" purity="4.8818957805633545e-01" nType="0">
          <Node pos="l" depth="2" NCoef="0" IVar="-1" Cut="0.0000000000000000e+00" cType="1" res="6.1749911401420832e-04" rms="4.2862743139266968e-01" purity="5.3336495161056519e-01" nType="-99"/>
          <Node pos="r" depth="2" NCoef="0" IVar="-1" Cut="0.0000000000000000e+00" cType="1" res="-5.0673088990151882e-03" rms="3.3861771225929260e-01" purity="1.5805110335350037e-01" nType="-99"/>
        </Node>
      </Node>
    </BinaryTree>
    <BinaryTree type="DecisionTree" boostWeight="1.0000000000000000e+00" itree="951">
      <Node pos="s" depth="0" NCoef="0" IVar="9" Cut="-6.1904764175415039e-01" cType="1" res="-1.2287289137020707e-03" rms="4.3059292435646057e-01" purity="4.9801194667816162e-01" nType="0">
        <Node pos="l" depth="1" NCoef="0" IVar="9" Cut="-7.6420521736145020e-01" cType="1" res="-1.0715252719819546e-02" rms="4.3221211433410645e-01" purity="4.0084564685821533e-01" nType="0">
          <Node pos="l" depth="2" NCoef="0" IVar="-1" Cut="0.0000000000000000e+00" cType="1" res="-3.8494274485856295e-03" rms="4.3631988763809204e-01" purity="3.6065104603767395e-01" nType="-99"/>
          <Node pos="r" depth="2" NCoef="0" IVar="-1" Cut="0.0000000000000000e+00" cType="1" res="-1.7340929480269551e-03" rms="4.2806819081306458e-01" purity="4.4061985611915588e-01" nType="-99"/>
        </Node>
        <Node pos="r" depth="1" NCoef="0" IVar="3" Cut="-1.4285714924335480e-01" cType="1" res="-4.6992974239401519e-04" rms="4.3045410513877869e-01" purity="5.0578397512435913e-01" nType="0">
          <Node pos="l" depth="2" NCoef="0" IVar="-1" Cut="0.0000000000000000e+00" cType="1" res="1.0068855481222272e-03" rms="4.3108212947845459e-01" purity="5.1722371578216553e-01" nType="-99"/>
          <Node pos="r" depth="2" NCoef="0" IVar="-1" Cut="0.0000000000000000e+00" cType="1" res="-7.6535792322829366e-04" rms="4.3008461594581604e-01" purity="4.9939805269241333e-01" nType="-99"/>
        </Node>
      </Node>
    </BinaryTree>
    <BinaryTree type="DecisionTree" boostWeight="1.0000000000000000e+00" itree="952">
      <Node pos="s" depth="0" NCoef="0" IVar="3" Cut="-4.2857143282890320e-01" cType="1" res="-9.5919659361243248e-04" rms="4.3104457855224609e-01" purity="4.9896106123924255e-01" nType="0">
        <Node pos="l" depth="1" NCoef="0" IVar="4" Cut="9.0727442502975464e-01" cType="1" res="5.7638757862150669e-03" rms="4.4201478362083435e-01" purity="5.1464408636093140e-01" nType="0">
          <Node pos="l" depth="2" NCoef="0" IVar="-1" Cut="0.0000000000000000e+00" cType="1" res="2.8414584230631590e-03" rms="4.4371268153190613e-01" purity="4.3061015009880066e-01" nType="-99"/>
          <Node pos="r" depth="2" NCoef="0" IVar="-1" Cut="0.0000000000000000e+00" cType="1" res="-1.0500072967261076e-03" rms="4.3872630596160889e-01" purity="6.6801691055297852e-01" nType="-99"/>
        </Node>
        <Node pos="r" depth="1" NCoef="0" IVar="5" Cut="9.4603115320205688e-01" cType="1" res="-2.2009564563632011e-03" rms="4.2897614836692810e-01" purity="4.9606439471244812e-01" nType="0">
          <Node pos="l" depth="2" NCoef="0" IVar="-1" Cut="0.0000000000000000e+00" cType="1" res="6.0151284560561180e-04" rms="4.4339895248413086e-01" purity="5.1037627458572388e-01" nType="-99"/>
          <Node pos="r" depth="2" NCoef="0" IVar="-1" Cut="0.0000000000000000e+00" cType="1" res="-1.2378272367641330e-03" rms="4.2161035537719727e-01" purity="4.8895546793937683e-01" nType="-99"/>
        </Node>
      </Node>
    </BinaryTree>
    <BinaryTree type="DecisionTree" boostWeight="1.0000000000000000e+00" itree="953">
      <Node pos="s" depth="0" NCoef="0" IVar="6" Cut="1.2857142686843872e+00" cType="1" res="-1.2221855577081442e-03" rms="4.3091550469398499e-01" purity="4.9769881367683411e-01" nType="0">
        <Node pos="l" depth="1" NCoef="0" IVar="1" Cut="1.0303617477416992e+01" cType="1" res="-3.2849300187081099e-03" rms="4.3193596601486206e-01" purity="5.0179022550582886e-01" nType="0">
          <Node pos="l" depth="2" NCoef="0" IVar="-1" Cut="0.0000000000000000e+00" cType="1" res="-6.2921096105128527e-04" rms="4.3311598896980286e-01" purity="5.0304639339447021e-01" nType="-99"/>
          <Node pos="r" depth="2" NCoef="0" IVar="-1" Cut="0.0000000000000000e+00" cType="1" res="-5.2007846534252167e-03" rms="4.1140136122703552e-01" purity="4.8077067732810974e-01" nType="-99"/>
        </Node>
        <Node pos="r" depth="1" NCoef="0" IVar="10" Cut="2.4857143402099609e+01" cType="1" res="2.8818987775593996e-03" rms="4.2884847521781921e-01" purity="4.8955842852592468e-01" nType="0">
          <Node pos="l" depth="2" NCoef="0" IVar="-1" Cut="0.0000000000000000e+00" cType="1" res="-1.0997380741173401e-04" rms="4.3658334016799927e-01" purity="4.8929360508918762e-01" nType="-99"/>
          <Node pos="r" depth="2" NCoef="0" IVar="-1" Cut="0.0000000000000000e+00" cType="1" res="2.3858875501900911e-03" rms="4.1553908586502075e-01" purity="4.9000099301338196e-01" nType="-99"/>
        </Node>
      </Node>
    </BinaryTree>
    <BinaryTree type="DecisionTree" boostWeight="1.0000000000000000e+00" itree="954">
      <Node pos="s" depth="0" NCoef="0" IVar="5" Cut="3.1446883082389832e-01" cType="1" res="1.1908212909474969e-03" rms="4.3172949552536011e-01" purity="5.0063431262969971e-01" nType="0">
        <Node pos="l" depth="1" NCoef="0" IVar="4" Cut="8.6286938190460205e-01" cType="1" res="-6.0832141898572445e-03" rms="4.5302969217300415e-01" purity="4.9036595225334167e-01" nType="0">
          <Node pos="l" depth="2" NCoef="0" IVar="-1" Cut="0.0000000000000000e+00" cType="1" res="-4.1741440072655678e-03" rms="4.4926235079765320e-01" purity="3.5371175408363342e-01" nType="-99"/>
          <Node pos="r" depth="2" NCoef="0" IVar="-1" Cut="0.0000000000000000e+00" cType="1" res="5.2664772374555469e-04" rms="4.5578789710998535e-01" purity="5.9748840332031250e-01" nType="-99"/>
        </Node>
        <Node pos="r" depth="1" NCoef="0" IVar="2" Cut="-1.6877174377441406e+00" cType="1" res="2.4486414622515440e-03" rms="4.2792624235153198e-01" purity="5.0240999460220337e-01" nType="0">
          <Node pos="l" depth="2" NCoef="0" IVar="-1" Cut="0.0000000000000000e+00" cType="1" res="3.5948157310485840e-03" rms="4.1703668236732483e-01" purity="5.1340484619140625e-01" nType="-99"/>
          <Node pos="r" depth="2" NCoef="0" IVar="-1" Cut="0.0000000000000000e+00" cType="1" res="4.4782515033148229e-04" rms="4.2874577641487122e-01" purity="5.0156062841415405e-01" nType="-99"/>
        </Node>
      </Node>
    </BinaryTree>
    <BinaryTree type="DecisionTree" boostWeight="1.0000000000000000e+00" itree="955">
      <Node pos="s" depth="0" NCoef="0" IVar="10" Cut="3.3047618865966797e+01" cType="1" res="-1.4725732617080212e-03" rms="4.3098059296607971e-01" purity="4.9860990047454834e-01" nType="0">
        <Node pos="l" depth="1" NCoef="0" IVar="8" Cut="-1.1906241178512573e+00" cType="1" res="-1.9942861399613321e-04" rms="4.3367871642112732e-01" purity="5.0598579645156860e-01" nType="0">
          <Node pos="l" depth="2" NCoef="0" IVar="-1" Cut="0.0000000000000000e+00" cType="1" res="3.9893174543976784e-03" rms="4.1242292523384094e-01" purity="6.8372792005538940e-01" nType="-99"/>
          <Node pos="r" depth="2" NCoef="0" IVar="-1" Cut="0.0000000000000000e+00" cType="1" res="-4.7145746066235006e-04" rms="4.3599531054496765e-01" purity="4.8582342267036438e-01" nType="-99"/>
        </Node>
        <Node pos="r" depth="1" NCoef="0" IVar="0" Cut="1.0054014921188354e+00" cType="1" res="-7.0462855510413647e-03" rms="4.1891846060752869e-01" purity="4.6631902456283569e-01" nType="0">
          <Node pos="l" depth="2" NCoef="0" IVar="-1" Cut="0.0000000000000000e+00" cType="1" res="6.0849840519949794e-04" rms="4.4147959351539612e-01" purity="6.0462242364883423e-01" nType="-99"/>
          <Node pos="r" depth="2" NCoef="0" IVar="-1" Cut="0.0000000000000000e+00" cType="1" res="-8.0786980688571930e-03" rms="3.7341052293777466e-01" purity="2.1270404756069183e-01" nType="-99"/>
        </Node>
      </Node>
    </BinaryTree>
    <BinaryTree type="DecisionTree" boostWeight="1.0000000000000000e+00" itree="956">
      <Node pos="s" depth="0" NCoef="0" IVar="9" Cut="4.7619048506021500e-02" cType="1" res="1.5567280352115631e-03" rms="4.3125149607658386e-01" purity="5.0131905078887939e-01" nType="0">
        <Node pos="l" depth="1" NCoef="0" IVar="4" Cut="6.5265649557113647e-01" cType="1" res="3.8489394355565310e-03" rms="4.3041101098060608e-01" purity="5.0328814983367920e-01" nType="0">
          <Node pos="l" depth="2" NCoef="0" IVar="-1" Cut="0.0000000000000000e+00" cType="1" res="-5.3556985221803188e-04" rms="4.0500956773757935e-01" purity="2.5739046931266785e-01" nType="-99"/>
          <Node pos="r" depth="2" NCoef="0" IVar="-1" Cut="0.0000000000000000e+00" cType="1" res="1.6643299022689462e-03" rms="4.4244781136512756e-01" purity="6.2530297040939331e-01" nType="-99"/>
        </Node>
        <Node pos="r" depth="1" NCoef="0" IVar="3" Cut="2.3809523880481720e-01" cType="1" res="-1.2218988267704844e-03" rms="4.3225184082984924e-01" purity="4.9893200397491455e-01" nType="0">
          <Node pos="l" depth="2" NCoef="0" IVar="-1" Cut="0.0000000000000000e+00" cType="1" res="3.3057920518331230e-04" rms="4.2992046475410461e-01" purity="4.9774610996246338e-01" nType="-99"/>
          <Node pos="r" depth="2" NCoef="0" IVar="-1" Cut="0.0000000000000000e+00" cType="1" res="-1.9889548420906067e-03" rms="4.3827193975448608e-01" purity="5.0205808877944946e-01" nType="-99"/>
        </Node>
      </Node>
    </BinaryTree>
    <BinaryTree type="DecisionTree" boostWeight="1.0000000000000000e+00" itree="957">
      <Node pos="s" depth="0" NCoef="0" IVar="4" Cut="3.6597076058387756e-01" cType="1" res="1.9697952666319907e-04" rms="4.3018457293510437e-01" purity="5.0110340118408203e-01" nType="0">
        <Node pos="l" depth="1" NCoef="0" IVar="-1" Cut="0.0000000000000000e+00" cType="1" res="-6.6569191403687000e-03" rms="2.6509988307952881e-01" purity="7.9198770225048065e-02" nType="-99"/>
        <Node pos="r" depth="1" NCoef="0" IVar="4" Cut="9.5933228731155396e-01" cType="1" res="9.4390136655420065e-04" rms="4.3935281038284302e-01" purity="5.3043836355209351e-01" nType="0">
          <Node pos="l" depth="2" NCoef="0" IVar="-1" Cut="0.0000000000000000e+00" cType="1" res="-7.0155161665752530e-05" rms="4.4433525204658508e-01" purity="4.9281990528106689e-01" nType="-99"/>
          <Node pos="r" depth="2" NCoef="0" IVar="-1" Cut="0.0000000000000000e+00" cType="1" res="2.2572344169020653e-03" rms="4.0957278013229370e-01" purity="7.4594640731811523e-01" nType="-99"/>
        </Node>
      </Node>
    </BinaryTree>
    <BinaryTree type="DecisionTree" boostWeight="1.0000000000000000e+00" itree="958">
      <Node pos="s" depth="0" NCoef="0" IVar="10" Cut="6.0666667938232422e+01" cType="1" res="-2.1396751981228590e-03" rms="4.3191108107566833e-01" purity="4.9691528081893921e-01" nType="0">
        <Node pos="l" depth="1" NCoef="0" IVar="10" Cut="3.2380950927734375e+01" cType="1" res="-2.7764216065406799e-03" rms="4.3210753798484802e-01" purity="5.0188797712326050e-01" nType="0">
          <Node pos="l" depth="2" NCoef="0" IVar="-1" Cut="0.0000000000000000e+00" cType="1" res="-3.5612203646451235e-04" rms="4.3502661585807800e-01" purity="5.0324237346649170e-01" nType="-99"/>
          <Node pos="r" depth="2" NCoef="0" IVar="-1" Cut="0.0000000000000000e+00" cType="1" res="-2.7882142458111048e-03" rms="4.1706427931785583e-01" purity="4.9508541822433472e-01" nType="-99"/>
        </Node>
        <Node pos="r" depth="1" NCoef="0" IVar="-1" Cut="0.0000000000000000e+00" cType="1" res="4.0704258717596531e-03" rms="4.2625826597213745e-01" purity="3.6365270614624023e-01" nType="-99"/>
      </Node>
    </BinaryTree>
    <BinaryTree type="DecisionTree" boostWeight="1.0000000000000000e+00" itree="959">
      <Node pos="s" depth="0" NCoef="0" IVar="3" Cut="7.1428573131561279e-01" cType="1" res="-1.2871962971985340e-03" rms="4.3098127841949463e-01" purity="4.9757930636405945e-01" nType="0">
        <Node pos="l" depth="1" NCoef="0" IVar="4" Cut="4.0171968936920166e-01" cType="1" res="-1.9397654104977846e-03" rms="4.2940559983253479e-01" purity="4.9712386727333069e-01" nType="0">
          <Node pos="l" depth="2" NCoef="0" IVar="-1" Cut="0.0000000000000000e+00" cType="1" res="2.8062860947102308e-03" rms="3.0175852775573730e-01" purity="1.0664249211549759e-01" nType="-99"/>
          <Node pos="r" depth="2" NCoef="0" IVar="-1" Cut="0.0000000000000000e+00" cType="1" res="-6.8556284531950951e-04" rms="4.4133850932121277e-01" purity="5.4062062501907349e-01" nType="-99"/>
        </Node>
        <Node pos="r" depth="1" NCoef="0" IVar="-1" Cut="0.0000000000000000e+00" cType="1" res="2.1959282457828522e-03" rms="4.5529633760452271e-01" purity="5.0485646724700928e-01" nType="-99"/>
      </Node>
    </BinaryTree>
    <BinaryTree type="DecisionTree" boostWeight="1.0000000000000000e+00" itree="960">
      <Node pos="s" depth="0" NCoef="0" IVar="6" Cut="1.7142857313156128e+00" cType="1" res="2.8815553523600101e-03" rms="4.3093240261077881e-01" purity="5.0190961360931396e-01" nType="0">
        <Node pos="l" depth="1" NCoef="0" IVar="3" Cut="-6.1904764175415039e-01" cType="1" res="9.6043205121532083e-04" rms="4.3290686607360840e-01" purity="5.0560748577117920e-01" nType="0">
          <Node pos="l" depth="2" NCoef="0" IVar="-1" Cut="0.0000000000000000e+00" cType="1" res="2.9427662957459688e-03" rms="4.4593405723571777e-01" purity="5.1775074005126953e-01" nType="-99"/>
          <Node pos="r" depth="2" NCoef="0" IVar="-1" Cut="0.0000000000000000e+00" cType="1" res="-4.7878278564894572e-05" rms="4.3151980638504028e-01" purity="5.0435042381286621e-01" nType="-99"/>
        </Node>
        <Node pos="r" depth="1" NCoef="0" IVar="9" Cut="1.4285714924335480e-01" cType="1" res="6.6906390711665154e-03" rms="4.2696499824523926e-01" purity="4.9457776546478271e-01" nType="0">
          <Node pos="l" depth="2" NCoef="0" IVar="-1" Cut="0.0000000000000000e+00" cType="1" res="8.1206153845414519e-04" rms="4.2618823051452637e-01" purity="4.9382552504539490e-01" nType="-99"/>
          <Node pos="r" depth="2" NCoef="0" IVar="-1" Cut="0.0000000000000000e+00" cType="1" res="3.6941927392035723e-03" rms="4.2834594845771790e-01" purity="4.9600273370742798e-01" nType="-99"/>
        </Node>
      </Node>
    </BinaryTree>
    <BinaryTree type="DecisionTree" boostWeight="1.0000000000000000e+00" itree="961">
      <Node pos="s" depth="0" NCoef="0" IVar="4" Cut="7.7880120277404785e-01" cType="1" res="6.6504318965598941e-04" rms="4.3103438615798950e-01" purity="5.0041025876998901e-01" nType="0">
        <Node pos="l" depth="1" NCoef="0" IVar="10" Cut="1.0380952835083008e+01" cType="1" res="3.1061409972608089e-03" rms="4.2437598109245300e-01" purity="3.3716571331024170e-01" nType="0">
          <Node pos="l" depth="2" NCoef="0" IVar="-1" Cut="0.0000000000000000e+00" cType="1" res="-1.5004379674792290e-03" rms="4.5497480034828186e-01" purity="3.5306602716445923e-01" nType="-99"/>
          <Node pos="r" depth="2" NCoef="0" IVar="-1" Cut="0.0000000000000000e+00" cType="1" res="2.0596310496330261e-03" rms="4.1058358550071716e-01" purity="3.3039122819900513e-01" nType="-99"/>
        </Node>
        <Node pos="r" depth="1" NCoef="0" IVar="0" Cut="1.1176146268844604e+00" cType="1" res="-1.5956899151206017e-03" rms="4.3709823489189148e-01" purity="6.5159320831298828e-01" nType="0">
          <Node pos="l" depth="2" NCoef="0" IVar="-1" Cut="0.0000000000000000e+00" cType="1" res="-1.1749591212719679e-03" rms="4.3024310469627380e-01" purity="7.1576809883117676e-01" nType="-99"/>
          <Node pos="r" depth="2" NCoef="0" IVar="-1" Cut="0.0000000000000000e+00" cType="1" res="1.5136860311031342e-03" rms="4.5679858326911926e-01" purity="4.6054515242576599e-01" nType="-99"/>
        </Node>
      </Node>
    </BinaryTree>
    <BinaryTree type="DecisionTree" boostWeight="1.0000000000000000e+00" itree="962">
      <Node pos="s" depth="0" NCoef="0" IVar="3" Cut="-1.4285714924335480e-01" cType="1" res="2.3479782976210117e-04" rms="4.3155917525291443e-01" purity="5.0014412403106689e-01" nType="0">
        <Node pos="l" depth="1" NCoef="0" IVar="2" Cut="1.0355901718139648e-01" cType="1" res="-3.7618228234350681e-03" rms="4.3408122658729553e-01" purity="5.0242316722869873e-01" nType="0">
          <Node pos="l" depth="2" NCoef="0" IVar="-1" Cut="0.0000000000000000e+00" cType="1" res="-4.7135652857832611e-04" rms="4.3294906616210938e-01" purity="5.0249826908111572e-01" nType="-99"/>
          <Node pos="r" depth="2" NCoef="0" IVar="-1" Cut="0.0000000000000000e+00" cType="1" res="-3.0991646926850080e-03" rms="4.3860271573066711e-01" purity="5.0211507081985474e-01" nType="-99"/>
        </Node>
        <Node pos="r" depth="1" NCoef="0" IVar="3" Cut="2.3809987306594849e-01" cType="1" res="2.5112680159509182e-03" rms="4.3009942770004272e-01" purity="4.9884599447250366e-01" nType="0">
          <Node pos="l" depth="2" NCoef="0" IVar="-1" Cut="0.0000000000000000e+00" cType="1" res="1.4921788824722171e-03" rms="4.2584690451622009e-01" purity="4.9523711204528809e-01" nType="-99"/>
          <Node pos="r" depth="2" NCoef="0" IVar="-1" Cut="0.0000000000000000e+00" cType="1" res="-3.7007522769272327e-04" rms="4.3567895889282227e-01" purity="5.0366228818893433e-01" nType="-99"/>
        </Node>
      </Node>
    </BinaryTree>
    <BinaryTree type="DecisionTree" boostWeight="1.0000000000000000e+00" itree="963">
      <Node pos="s" depth="0" NCoef="0" IVar="4" Cut="9.4624412059783936e-01" cType="1" res="1.3969289138913155e-03" rms="4.3124815821647644e-01" purity="5.0176036357879639e-01" nType="0">
        <Node pos="l" depth="1" NCoef="0" IVar="0" Cut="1.3161877393722534e+00" cType="1" res="2.7362802065908909e-03" rms="4.3386656045913696e-01" purity="4.5141547918319702e-01" nType="0">
          <Node pos="l" depth="2" NCoef="0" IVar="-1" Cut="0.0000000000000000e+00" cType="1" res="1.0860932525247335e-03" rms="4.4133022427558899e-01" purity="4.9788409471511841e-01" nType="-99"/>
          <Node pos="r" depth="2" NCoef="0" IVar="-1" Cut="0.0000000000000000e+00" cType="1" res="-1.2757582589983940e-03" rms="3.9848500490188599e-01" purity="2.4232715368270874e-01" nType="-99"/>
        </Node>
        <Node pos="r" depth="1" NCoef="0" IVar="4" Cut="9.5845365524291992e-01" cType="1" res="-4.6931533142924309e-03" rms="4.1908195614814758e-01" purity="7.3068046569824219e-01" nType="0">
          <Node pos="l" depth="2" NCoef="0" IVar="-1" Cut="0.0000000000000000e+00" cType="1" res="-6.1489916406571865e-03" rms="4.2998889088630676e-01" purity="7.0703530311584473e-01" nType="-99"/>
          <Node pos="r" depth="2" NCoef="0" IVar="-1" Cut="0.0000000000000000e+00" cType="1" res="1.4076896150072571e-05" rms="4.1594156622886658e-01" purity="7.3710709810256958e-01" nType="-99"/>
        </Node>
      </Node>
    </BinaryTree>
    <BinaryTree type="DecisionTree" boostWeight="1.0000000000000000e+00" itree="964">
      <Node pos="s" depth="0" NCoef="0" IVar="9" Cut="4.2857143282890320e-01" cType="1" res="-1.9186960707884282e-04" rms="4.3130534887313843e-01" purity="4.9886801838874817e-01" nType="0">
        <Node pos="l" depth="1" NCoef="0" IVar="3" Cut="-6.1904764175415039e-01" cType="1" res="-1.5565938083454967e-03" rms="4.3046399950981140e-01" purity="5.0428831577301025e-01" nType="0">
          <Node pos="l" depth="2" NCoef="0" IVar="-1" Cut="0.0000000000000000e+00" cType="1" res="-2.6094596832990646e-03" rms="4.4902455806732178e-01" purity="5.0037169456481934e-01" nType="-99"/>
          <Node pos="r" depth="2" NCoef="0" IVar="-1" Cut="0.0000000000000000e+00" cType="1" res="-2.2453212295658886e-04" rms="4.2893549799919128e-01" purity="5.0460183620452881e-01" nType="-99"/>
        </Node>
        <Node pos="r" depth="1" NCoef="0" IVar="0" Cut="1.0259990692138672e+00" cType="1" res="7.6147979125380516e-03" rms="4.3600487709045410e-01" purity="4.6786206960678101e-01" nType="0">
          <Node pos="l" depth="2" NCoef="0" IVar="-1" Cut="0.0000000000000000e+00" cType="1" res="1.9991945009678602e-04" rms="4.4017112255096436e-01" purity="5.6331831216812134e-01" nType="-99"/>
          <Node pos="r" depth="2" NCoef="0" IVar="-1" Cut="0.0000000000000000e+00" cType="1" res="4.1066110134124756e-03" rms="4.3107631802558899e-01" purity="3.5909265279769897e-01" nType="-99"/>
        </Node>
      </Node>
    </BinaryTree>
    <BinaryTree type="DecisionTree" boostWeight="1.0000000000000000e+00" itree="965">
      <Node pos="s" depth="0" NCoef="0" IVar="5" Cut="9.1114413738250732e-01" cType="1" res="-2.6134631480090320e-04" rms="4.3165865540504456e-01" purity="5.0028312206268311e-01" nType="0">
        <Node pos="l" depth="1" NCoef="0" IVar="4" Cut="7.3976457118988037e-01" cType="1" res="2.7105947956442833e-03" rms="4.4469848275184631e-01" purity="5.1037853956222534e-01" nType="0">
          <Node pos="l" depth="2" NCoef="0" IVar="-1" Cut="0.0000000000000000e+00" cType="1" res="-1.3089101994410157e-03" rms="4.3735134601593018e-01" purity="3.1391263008117676e-01" nType="-99"/>
          <Node pos="r" depth="2" NCoef="0" IVar="-1" Cut="0.0000000000000000e+00" cType="1" res="1.7858473584055901e-03" rms="4.4898560643196106e-01" purity="6.2825471162796021e-01" nType="-99"/>
        </Node>
        <Node pos="r" depth="1" NCoef="0" IVar="4" Cut="7.7861070632934570e-01" cType="1" res="-1.9110731082037091e-03" rms="4.2423829436302185e-01" purity="4.9467921257019043e-01" nType="0">
          <Node pos="l" depth="2" NCoef="0" IVar="-1" Cut="0.0000000000000000e+00" cType="1" res="9.3417905736714602e-04" rms="4.1671028733253479e-01" purity="3.3687743544578552e-01" nType="-99"/>
          <Node pos="r" depth="2" NCoef="0" IVar="-1" Cut="0.0000000000000000e+00" cType="1" res="-1.9590714946389198e-03" rms="4.3190813064575195e-01" purity="6.5980112552642822e-01" nType="-99"/>
        </Node>
      </Node>
    </BinaryTree>
    <BinaryTree type="DecisionTree" boostWeight="1.0000000000000000e+00" itree="966">
      <Node pos="s" depth="0" NCoef="0" IVar="10" Cut="3.5523811340332031e+01" cType="1" res="-9.3937531346455216e-04" rms="4.3049961328506470e-01" purity="4.9918010830879211e-01" nType="0">
        <Node pos="l" depth="1" NCoef="0" IVar="10" Cut="3.5714285373687744e+00" cType="1" res="6.0430978192016482e-04" rms="4.3268993496894836e-01" purity="5.0673842430114746e-01" nType="0">
          <Node pos="l" depth="2" NCoef="0" IVar="-1" Cut="0.0000000000000000e+00" cType="1" res="-3.4999458584934473e-03" rms="4.6921139955520630e-01" purity="4.3928924202919006e-01" nType="-99"/>
          <Node pos="r" depth="2" NCoef="0" IVar="-1" Cut="0.0000000000000000e+00" cType="1" res="6.5899663604795933e-04" rms="4.2812499403953552e-01" purity="5.1471871137619019e-01" nType="-99"/>
        </Node>
        <Node pos="r" depth="1" NCoef="0" IVar="4" Cut="6.7277681827545166e-01" cType="1" res="-8.7320208549499512e-03" rms="4.1918131709098816e-01" purity="4.6102526783943176e-01" nType="0">
          <Node pos="l" depth="2" NCoef="0" IVar="-1" Cut="0.0000000000000000e+00" cType="1" res="1.4227960491552949e-03" rms="3.8977414369583130e-01" purity="2.8169497847557068e-01" nType="-99"/>
          <Node pos="r" depth="2" NCoef="0" IVar="-1" Cut="0.0000000000000000e+00" cType="1" res="-4.0507004596292973e-03" rms="4.3357211351394653e-01" purity="5.5456852912902832e-01" nType="-99"/>
        </Node>
      </Node>
    </BinaryTree>
    <BinaryTree type="DecisionTree" boostWeight="1.0000000000000000e+00" itree="967">
      <Node pos="s" depth="0" NCoef="0" IVar="3" Cut="-7.1428573131561279e-01" cType="1" res="-6.5276894019916654e-04" rms="4.3128398060798645e-01" purity="4.9847024679183960e-01" nType="0">
        <Node pos="l" depth="1" NCoef="0" IVar="-1" Cut="0.0000000000000000e+00" cType="1" res="2.9102510306984186e-03" rms="4.5479851961135864e-01" purity="5.0613129138946533e-01" nType="-99"/>
        <Node pos="r" depth="1" NCoef="0" IVar="7" Cut="2.8278248310089111e+00" cType="1" res="-1.4769072877243161e-03" rms="4.2968827486038208e-01" purity="4.9796912074089050e-01" nType="0">
          <Node pos="l" depth="2" NCoef="0" IVar="-1" Cut="0.0000000000000000e+00" cType="1" res="-1.3909345725551248e-03" rms="4.3861559033393860e-01" purity="4.2445945739746094e-01" nType="-99"/>
          <Node pos="r" depth="2" NCoef="0" IVar="-1" Cut="0.0000000000000000e+00" cType="1" res="5.0645082956179976e-04" rms="4.2207491397857666e-01" purity="5.5923861265182495e-01" nType="-99"/>
        </Node>
      </Node>
    </BinaryTree>
    <BinaryTree type="DecisionTree" boostWeight="1.0000000000000000e+00" itree="968">
      <Node pos="s" depth="0" NCoef="0" IVar="0" Cut="1.7566940784454346e+00" cType="1" res="-5.6065042736008763e-04" rms="4.3148830533027649e-01" purity="4.9859577417373657e-01" nType="0">
        <Node pos="l" depth="1" NCoef="0" IVar="4" Cut="7.3261862993240356e-01" cType="1" res="-1.3110389700159431e-03" rms="4.3275403976440430e-01" purity="5.1090574264526367e-01" nType="0">
          <Node pos="l" depth="2" NCoef="0" IVar="-1" Cut="0.0000000000000000e+00" cType="1" res="4.8609988880343735e-04" rms="4.2324316501617432e-01" purity="3.1928303837776184e-01" nType="-99"/>
          <Node pos="r" depth="2" NCoef="0" IVar="-1" Cut="0.0000000000000000e+00" cType="1" res="-8.8951754150912166e-04" rms="4.3939965963363647e-01" purity="6.4759528636932373e-01" nType="-99"/>
        </Node>
        <Node pos="r" depth="1" NCoef="0" IVar="-1" Cut="0.0000000000000000e+00" cType="1" res="4.2288820259273052e-03" rms="4.0573978424072266e-01" purity="2.5854322314262390e-01" nType="-99"/>
      </Node>
    </BinaryTree>
    <BinaryTree type="DecisionTree" boostWeight="1.0000000000000000e+00" itree="969">
      <Node pos="s" depth="0" NCoef="0" IVar="0" Cut="1.0259990692138672e+00" cType="1" res="-2.3719073215033859e-04" rms="4.3167018890380859e-01" purity="4.9987730383872986e-01" nType="0">
        <Node pos="l" depth="1" NCoef="0" IVar="10" Cut="1.7523809432983398e+01" cType="1" res="-2.5489460676908493e-03" rms="4.3625050783157349e-01" purity="6.1050349473953247e-01" nType="0">
          <Node pos="l" depth="2" NCoef="0" IVar="-1" Cut="0.0000000000000000e+00" cType="1" res="-2.2393895778805017e-03" rms="4.4530498981475830e-01" purity="6.0621792078018188e-01" nType="-99"/>
          <Node pos="r" depth="2" NCoef="0" IVar="-1" Cut="0.0000000000000000e+00" cType="1" res="1.0425912914797664e-03" rms="4.2664551734924316e-01" purity="6.1490982770919800e-01" nType="-99"/>
        </Node>
        <Node pos="r" depth="1" NCoef="0" IVar="10" Cut="9.5238094329833984e+00" cType="1" res="3.0087276827543974e-03" rms="4.2513453960418701e-01" purity="3.4454786777496338e-01" nType="0">
          <Node pos="l" depth="2" NCoef="0" IVar="-1" Cut="0.0000000000000000e+00" cType="1" res="2.7417039964348078e-03" rms="4.5448973774909973e-01" purity="4.2811226844787598e-01" nType="-99"/>
          <Node pos="r" depth="2" NCoef="0" IVar="-1" Cut="0.0000000000000000e+00" cType="1" res="-7.1470916736871004e-04" rms="4.0534046292304993e-01" purity="2.9159322381019592e-01" nType="-99"/>
        </Node>
      </Node>
    </BinaryTree>
    <BinaryTree type="DecisionTree" boostWeight="1.0000000000000000e+00" itree="970">
      <Node pos="s" depth="0" NCoef="0" IVar="3" Cut="7.1428573131561279e-01" cType="1" res="5.6469731498509645e-04" rms="4.3132525682449341e-01" purity="5.0075042247772217e-01" nType="0">
        <Node pos="l" depth="1" NCoef="0" IVar="2" Cut="1.5933357477188110e+00" cType="1" res="1.2950516538694501e-03" rms="4.2977356910705566e-01" purity="5.0168472528457642e-01" nType="0">
          <Node pos="l" depth="2" NCoef="0" IVar="-1" Cut="0.0000000000000000e+00" cType="1" res="1.1446991265984252e-04" rms="4.3084374070167542e-01" purity="5.0054711103439331e-01" nType="-99"/>
          <Node pos="r" depth="2" NCoef="0" IVar="-1" Cut="0.0000000000000000e+00" cType="1" res="3.5214286763221025e-03" rms="4.1555282473564148e-01" purity="5.1636743545532227e-01" nType="-99"/>
        </Node>
        <Node pos="r" depth="1" NCoef="0" IVar="-1" Cut="0.0000000000000000e+00" cType="1" res="-2.6812478899955750e-03" rms="4.5544356107711792e-01" purity="4.8569166660308838e-01" nType="-99"/>
      </Node>
    </BinaryTree>
    <BinaryTree type="DecisionTree" boostWeight="1.0000000000000000e+00" itree="971">
      <Node pos="s" depth="0" NCoef="0" IVar="2" Cut="1.8077197074890137e+00" cType="1" res="1.5109893865883350e-03" rms="4.3063369393348694e-01" purity="5.0090223550796509e-01" nType="0">
        <Node pos="l" depth="1" NCoef="0" IVar="0" Cut="1.2054123878479004e+00" cType="1" res="2.1391946356743574e-03" rms="4.3148729205131531e-01" purity="5.0148832798004150e-01" nType="0">
          <Node pos="l" depth="2" NCoef="0" IVar="-1" Cut="0.0000000000000000e+00" cType="1" res="9.0536329662427306e-04" rms="4.3820673227310181e-01" purity="5.6718695163726807e-01" nType="-99"/>
          <Node pos="r" depth="2" NCoef="0" IVar="-1" Cut="0.0000000000000000e+00" cType="1" res="-6.1943847686052322e-04" rms="4.0952295064926147e-01" purity="2.9409068822860718e-01" nType="-99"/>
        </Node>
        <Node pos="r" depth="1" NCoef="0" IVar="-1" Cut="0.0000000000000000e+00" cType="1" res="-2.5660409592092037e-03" rms="4.1576850414276123e-01" purity="4.9097633361816406e-01" nType="-99"/>
      </Node>
    </BinaryTree>
    <BinaryTree type="DecisionTree" boostWeight="1.0000000000000000e+00" itree="972">
      <Node pos="s" depth="0" NCoef="0" IVar="4" Cut="3.4812560677528381e-01" cType="1" res="1.0474957525730133e-03" rms="4.3147626519203186e-01" purity="5.0140690803527832e-01" nType="0">
        <Node pos="l" depth="1" NCoef="0" IVar="-1" Cut="0.0000000000000000e+00" cType="1" res="-6.6259917803108692e-03" rms="2.5941389799118042e-01" purity="7.5215697288513184e-02" nType="-99"/>
        <Node pos="r" depth="1" NCoef="0" IVar="4" Cut="9.2793029546737671e-01" cType="1" res="1.6393058467656374e-03" rms="4.3875819444656372e-01" purity="5.2415096759796143e-01" nType="0">
          <Node pos="l" depth="2" NCoef="0" IVar="-1" Cut="0.0000000000000000e+00" cType="1" res="-8.0893762060441077e-05" rms="4.4519165158271790e-01" purity="4.5685866475105286e-01" nType="-99"/>
          <Node pos="r" depth="2" NCoef="0" IVar="-1" Cut="0.0000000000000000e+00" cType="1" res="2.1055706311017275e-03" rms="4.1841062903404236e-01" purity="7.2996962070465088e-01" nType="-99"/>
        </Node>
      </Node>
    </BinaryTree>
    <BinaryTree type="DecisionTree" boostWeight="1.0000000000000000e+00" itree="973">
      <Node pos="s" depth="0" NCoef="0" IVar="2" Cut="1.3408100605010986e+00" cType="1" res="-8.8772136950865388e-04" rms="4.3121090531349182e-01" purity="4.9900579452514648e-01" nType="0">
        <Node pos="l" depth="1" NCoef="0" IVar="2" Cut="4.7532233595848083e-01" cType="1" res="4.8844496632227674e-05" rms="4.3229731917381287e-01" purity="4.9980840086936951e-01" nType="0">
          <Node pos="l" depth="2" NCoef="0" IVar="-1" Cut="0.0000000000000000e+00" cType="1" res="-5.0540157826617360e-04" rms="4.3247127532958984e-01" purity="4.9713143706321716e-01" nType="-99"/>
          <Node pos="r" depth="2" NCoef="0" IVar="-1" Cut="0.0000000000000000e+00" cType="1" res="1.8653626320883632e-03" rms="4.3160253763198853e-01" purity="5.0937235355377197e-01" nType="-99"/>
        </Node>
        <Node pos="r" depth="1" NCoef="0" IVar="5" Cut="1.8246673345565796e+00" cType="1" res="-9.6516981720924377e-03" rms="4.2080807685852051e-01" purity="4.9149566888809204e-01" nType="0">
          <Node pos="l" depth="2" NCoef="0" IVar="-1" Cut="0.0000000000000000e+00" cType="1" res="-1.8183198990300298e-03" rms="4.2556238174438477e-01" purity="4.9801769852638245e-01" nType="-99"/>
          <Node pos="r" depth="2" NCoef="0" IVar="-1" Cut="0.0000000000000000e+00" cType="1" res="-4.2030555196106434e-03" rms="4.1274550557136536e-01" purity="4.8067048192024231e-01" nType="-99"/>
        </Node>
      </Node>
    </BinaryTree>
    <BinaryTree type="DecisionTree" boostWeight="1.0000000000000000e+00" itree="974">
      <Node pos="s" depth="0" NCoef="0" IVar="3" Cut="8.0952382087707520e-01" cType="1" res="1.2949359370395541e-04" rms="4.3200221657752991e-01" purity="5.0067979097366333e-01" nType="0">
        <Node pos="l" depth="1" NCoef="0" IVar="6" Cut="-4.2857141494750977e+00" cType="1" res="-5.9395009884610772e-04" rms="4.3087846040725708e-01" purity="5.0042796134948730e-01" nType="0">
          <Node pos="l" depth="2" NCoef="0" IVar="-1" Cut="0.0000000000000000e+00" cType="1" res="-2.5868208613246679e-03" rms="4.1866227984428406e-01" purity="4.4836115837097168e-01" nType="-99"/>
          <Node pos="r" depth="2" NCoef="0" IVar="-1" Cut="0.0000000000000000e+00" cType="1" res="8.2116770499851555e-05" rms="4.3213510513305664e-01" purity="5.0591176748275757e-01" nType="-99"/>
        </Node>
        <Node pos="r" depth="1" NCoef="0" IVar="-1" Cut="0.0000000000000000e+00" cType="1" res="4.0197144262492657e-03" rms="4.5707327127456665e-01" purity="5.0654447078704834e-01" nType="-99"/>
      </Node>
    </BinaryTree>
    <BinaryTree type="DecisionTree" boostWeight="1.0000000000000000e+00" itree="975">
      <Node pos="s" depth="0" NCoef="0" IVar="3" Cut="-8.0952382087707520e-01" cType="1" res="-4.6330224722623825e-04" rms="4.3083938956260681e-01" purity="4.9996548891067505e-01" nType="0">
        <Node pos="l" depth="1" NCoef="0" IVar="-1" Cut="0.0000000000000000e+00" cType="1" res="3.5245120525360107e-03" rms="4.5501869916915894e-01" purity="4.9962154030799866e-01" nType="-99"/>
        <Node pos="r" depth="1" NCoef="0" IVar="5" Cut="2.7399104833602905e-01" cType="1" res="-1.1475220089778304e-03" rms="4.2970347404479980e-01" purity="4.9998101592063904e-01" nType="0">
          <Node pos="l" depth="2" NCoef="0" IVar="-1" Cut="0.0000000000000000e+00" cType="1" res="-1.7322396161034703e-03" rms="4.5205941796302795e-01" purity="4.9667102098464966e-01" nType="-99"/>
          <Node pos="r" depth="2" NCoef="0" IVar="-1" Cut="0.0000000000000000e+00" cType="1" res="-8.9502093032933772e-05" rms="4.2657932639122009e-01" purity="5.0042927265167236e-01" nType="-99"/>
        </Node>
      </Node>
    </BinaryTree>
    <BinaryTree type="DecisionTree" boostWeight="1.0000000000000000e+00" itree="976">
      <Node pos="s" depth="0" NCoef="0" IVar="3" Cut="1.4285714924335480e-01" cType="1" res="2.9527037986554205e-04" rms="4.3069919943809509e-01" purity="4.9998059868812561e-01" nType="0">
        <Node pos="l" depth="1" NCoef="0" IVar="4" Cut="6.1063486337661743e-01" cType="1" res="3.0143642798066139e-03" rms="4.2832791805267334e-01" purity="5.0139611959457397e-01" nType="0">
          <Node pos="l" depth="2" NCoef="0" IVar="-1" Cut="0.0000000000000000e+00" cType="1" res="-8.3806540351361036e-04" rms="3.9228138327598572e-01" purity="2.2812603414058685e-01" nType="-99"/>
          <Node pos="r" depth="2" NCoef="0" IVar="-1" Cut="0.0000000000000000e+00" cType="1" res="1.3349156361073256e-03" rms="4.4239944219589233e-01" purity="6.1475890874862671e-01" nType="-99"/>
        </Node>
        <Node pos="r" depth="1" NCoef="0" IVar="6" Cut="-4.7619048506021500e-02" cType="1" res="-4.6463683247566223e-03" rms="4.3493211269378662e-01" purity="4.9740806221961975e-01" nType="0">
          <Node pos="l" depth="2" NCoef="0" IVar="-1" Cut="0.0000000000000000e+00" cType="1" res="2.7218615286983550e-04" rms="4.3711408972740173e-01" purity="5.0121545791625977e-01" nType="-99"/>
          <Node pos="r" depth="2" NCoef="0" IVar="-1" Cut="0.0000000000000000e+00" cType="1" res="-2.2514828015118837e-03" rms="4.3336302042007446e-01" purity="4.9475806951522827e-01" nType="-99"/>
        </Node>
      </Node>
    </BinaryTree>
    <BinaryTree type="DecisionTree" boostWeight="1.0000000000000000e+00" itree="977">
      <Node pos="s" depth="0" NCoef="0" IVar="4" Cut="8.6311960220336914e-01" cType="1" res="-2.1910327486693859e-03" rms="4.3046951293945312e-01" purity="4.9739250540733337e-01" nType="0">
        <Node pos="l" depth="1" NCoef="0" IVar="7" Cut="1.8017778396606445e+00" cType="1" res="-4.1728327050805092e-03" rms="4.3061491847038269e-01" purity="3.7852674722671509e-01" nType="0">
          <Node pos="l" depth="2" NCoef="0" IVar="-1" Cut="0.0000000000000000e+00" cType="1" res="9.2796050012111664e-04" rms="4.4953116774559021e-01" purity="3.3141982555389404e-01" nType="-99"/>
          <Node pos="r" depth="2" NCoef="0" IVar="-1" Cut="0.0000000000000000e+00" cType="1" res="-1.7584138549864292e-03" rms="4.2483142018318176e-01" purity="3.9245867729187012e-01" nType="-99"/>
        </Node>
        <Node pos="r" depth="1" NCoef="0" IVar="4" Cut="8.8109952211380005e-01" cType="1" res="9.6853921422734857e-04" rms="4.3021872639656067e-01" purity="6.8689954280853271e-01" nType="0">
          <Node pos="l" depth="2" NCoef="0" IVar="-1" Cut="0.0000000000000000e+00" cType="1" res="-4.0044742636382580e-03" rms="4.4943794608116150e-01" purity="5.8094459772109985e-01" nType="-99"/>
          <Node pos="r" depth="2" NCoef="0" IVar="-1" Cut="0.0000000000000000e+00" cType="1" res="7.4630189919844270e-04" rms="4.2810431122779846e-01" purity="6.9805526733398438e-01" nType="-99"/>
        </Node>
      </Node>
    </BinaryTree>
    <BinaryTree type="DecisionTree" boostWeight="1.0000000000000000e+00" itree="978">
      <Node pos="s" depth="0" NCoef="0" IVar="2" Cut="-1.7345371842384338e-01" cType="1" res="1.5317974612116814e-03" rms="4.3151146173477173e-01" purity="5.0145131349563599e-01" nType="0">
        <Node pos="l" depth="1" NCoef="0" IVar="9" Cut="-2.3809523880481720e-01" cType="1" res="-1.7246411880478263e-03" rms="4.2993411421775818e-01" purity="5.0144821405410767e-01" nType="0">
          <Node pos="l" depth="2" NCoef="0" IVar="-1" Cut="0.0000000000000000e+00" cType="1" res="-2.6578484103083611e-03" rms="4.2980089783668518e-01" purity="4.7773537039756775e-01" nType="-99"/>
          <Node pos="r" depth="2" NCoef="0" IVar="-1" Cut="0.0000000000000000e+00" cType="1" res="2.9228598577901721e-04" rms="4.2994430661201477e-01" purity="5.0964486598968506e-01" nType="-99"/>
        </Node>
        <Node pos="r" depth="1" NCoef="0" IVar="8" Cut="4.2282167077064514e-01" cType="1" res="3.7484262138605118e-03" rms="4.3256783485412598e-01" purity="5.0145345926284790e-01" nType="0">
          <Node pos="l" depth="2" NCoef="0" IVar="-1" Cut="0.0000000000000000e+00" cType="1" res="2.8800923610106111e-04" rms="4.3379992246627808e-01" purity="4.7716209292411804e-01" nType="-99"/>
          <Node pos="r" depth="2" NCoef="0" IVar="-1" Cut="0.0000000000000000e+00" cType="1" res="2.6656622067093849e-03" rms="4.2966848611831665e-01" purity="5.5714148283004761e-01" nType="-99"/>
        </Node>
      </Node>
    </BinaryTree>
    <BinaryTree type="DecisionTree" boostWeight="1.0000000000000000e+00" itree="979">
      <Node pos="s" depth="0" NCoef="0" IVar="3" Cut="-8.0952382087707520e-01" cType="1" res="4.7077023191377521e-04" rms="4.3107196688652039e-01" purity="5.0013244152069092e-01" nType="0">
        <Node pos="l" depth="1" NCoef="0" IVar="-1" Cut="0.0000000000000000e+00" cType="1" res="-2.9590025078505278e-03" rms="4.5447865128517151e-01" purity="4.7374531626701355e-01" nType="-99"/>
        <Node pos="r" depth="1" NCoef="0" IVar="5" Cut="5.4632563143968582e-02" cType="1" res="1.0456138988956809e-03" rms="4.2998141050338745e-01" purity="5.0131809711456299e-01" nType="0">
          <Node pos="l" depth="2" NCoef="0" IVar="-1" Cut="0.0000000000000000e+00" cType="1" res="2.3383952211588621e-03" rms="4.5520731806755066e-01" purity="5.0510978698730469e-01" nType="-99"/>
          <Node pos="r" depth="2" NCoef="0" IVar="-1" Cut="0.0000000000000000e+00" cType="1" res="6.3679348386358470e-05" rms="4.2756929993629456e-01" purity="5.0096815824508667e-01" nType="-99"/>
        </Node>
      </Node>
    </BinaryTree>
    <BinaryTree type="DecisionTree" boostWeight="1.0000000000000000e+00" itree="980">
      <Node pos="s" depth="0" NCoef="0" IVar="3" Cut="4.7619048506021500e-02" cType="1" res="2.4897844996303320e-03" rms="4.3024328351020813e-01" purity="5.0156980752944946e-01" nType="0">
        <Node pos="l" depth="1" NCoef="0" IVar="4" Cut="6.4719790220260620e-01" cType="1" res="-6.6261552274227142e-04" rms="4.2873197793960571e-01" purity="4.9697157740592957e-01" nType="0">
          <Node pos="l" depth="2" NCoef="0" IVar="-1" Cut="0.0000000000000000e+00" cType="1" res="-2.0278608426451683e-03" rms="3.9882546663284302e-01" purity="2.4557186663150787e-01" nType="-99"/>
          <Node pos="r" depth="2" NCoef="0" IVar="-1" Cut="0.0000000000000000e+00" cType="1" res="5.5922154569998384e-04" rms="4.4262233376502991e-01" purity="6.2017422914505005e-01" nType="-99"/>
        </Node>
        <Node pos="r" depth="1" NCoef="0" IVar="1" Cut="8.2179327011108398e+00" cType="1" res="6.3393013551831245e-03" rms="4.3205043673515320e-01" purity="5.0718480348587036e-01" nType="0">
          <Node pos="l" depth="2" NCoef="0" IVar="-1" Cut="0.0000000000000000e+00" cType="1" res="1.2897626729682088e-03" rms="4.3407925963401794e-01" purity="5.0628262758255005e-01" nType="-99"/>
          <Node pos="r" depth="2" NCoef="0" IVar="-1" Cut="0.0000000000000000e+00" cType="1" res="5.3904978558421135e-03" rms="4.1340097784996033e-01" purity="5.1518732309341431e-01" nType="-99"/>
        </Node>
      </Node>
    </BinaryTree>
    <BinaryTree type="DecisionTree" boostWeight="1.0000000000000000e+00" itree="981">
      <Node pos="s" depth="0" NCoef="0" IVar="3" Cut="2.3809523880481720e-01" cType="1" res="-3.0960570438764989e-04" rms="4.3131577968597412e-01" purity="4.9932792782783508e-01" nType="0">
        <Node pos="l" depth="1" NCoef="0" IVar="8" Cut="-9.7485107183456421e-01" cType="1" res="-2.1089809015393257e-03" rms="4.2865765094757080e-01" purity="4.9570852518081665e-01" nType="0">
          <Node pos="l" depth="2" NCoef="0" IVar="-1" Cut="0.0000000000000000e+00" cType="1" res="1.1796473991125822e-03" rms="4.1998666524887085e-01" purity="6.1244708299636841e-01" nType="-99"/>
          <Node pos="r" depth="2" NCoef="0" IVar="-1" Cut="0.0000000000000000e+00" cType="1" res="-8.8053965009748936e-04" rms="4.3026661872863770e-01" purity="4.7364181280136108e-01" nType="-99"/>
        </Node>
        <Node pos="r" depth="1" NCoef="0" IVar="9" Cut="-4.7619048506021500e-02" cType="1" res="4.4813565909862518e-03" rms="4.3827867507934570e-01" purity="5.0896483659744263e-01" nType="0">
          <Node pos="l" depth="2" NCoef="0" IVar="-1" Cut="0.0000000000000000e+00" cType="1" res="-4.1241204598918557e-04" rms="4.3845260143280029e-01" purity="4.9868625402450562e-01" nType="-99"/>
          <Node pos="r" depth="2" NCoef="0" IVar="-1" Cut="0.0000000000000000e+00" cType="1" res="2.5076842866837978e-03" rms="4.3806481361389160e-01" purity="5.1769292354583740e-01" nType="-99"/>
        </Node>
      </Node>
    </BinaryTree>
    <BinaryTree type="DecisionTree" boostWeight="1.0000000000000000e+00" itree="982">
      <Node pos="s" depth="0" NCoef="0" IVar="6" Cut="3.8571429252624512e+00" cType="1" res="1.2785944854840636e-03" rms="4.3055152893066406e-01" purity="5.0063431262969971e-01" nType="0">
        <Node pos="l" depth="1" NCoef="0" IVar="9" Cut="3.3333334326744080e-01" cType="1" res="2.4359915405511856e-03" rms="4.3187060952186584e-01" purity="5.0654888153076172e-01" nType="0">
          <Node pos="l" depth="2" NCoef="0" IVar="-1" Cut="0.0000000000000000e+00" cType="1" res="1.0370353702455759e-03" rms="4.3130993843078613e-01" purity="5.1446479558944702e-01" nType="-99"/>
          <Node pos="r" depth="2" NCoef="0" IVar="-1" Cut="0.0000000000000000e+00" cType="1" res="-7.7298440737649798e-04" rms="4.3387925624847412e-01" purity="4.7749915719032288e-01" nType="-99"/>
        </Node>
        <Node pos="r" depth="1" NCoef="0" IVar="5" Cut="2.3072187900543213e+00" cType="1" res="-4.7547118738293648e-03" rms="4.2355778813362122e-01" purity="4.6980276703834534e-01" nType="0">
          <Node pos="l" depth="2" NCoef="0" IVar="-1" Cut="0.0000000000000000e+00" cType="1" res="-2.3423123639076948e-03" rms="4.2317771911621094e-01" purity="4.6490335464477539e-01" nType="-99"/>
          <Node pos="r" depth="2" NCoef="0" IVar="-1" Cut="0.0000000000000000e+00" cType="1" res="2.3565297015011311e-03" rms="4.2464360594749451e-01" purity="4.8723551630973816e-01" nType="-99"/>
        </Node>
      </Node>
    </BinaryTree>
    <BinaryTree type="DecisionTree" boostWeight="1.0000000000000000e+00" itree="983">
      <Node pos="s" depth="0" NCoef="0" IVar="0" Cut="6.4494174718856812e-01" cType="1" res="-7.0659603807143867e-05" rms="4.3177124857902527e-01" purity="5.0133836269378662e-01" nType="0">
        <Node pos="l" depth="1" NCoef="0" IVar="10" Cut="6.6190476417541504e+00" cType="1" res="-7.5405044481158257e-03" rms="4.3334758281707764e-01" purity="6.7181229591369629e-01" nType="0">
          <Node pos="l" depth="2" NCoef="0" IVar="-1" Cut="0.0000000000000000e+00" cType="1" res="-4.5791910961270332e-03" rms="4.6392560005187988e-01" purity="6.3654786348342896e-01" nType="-99"/>
          <Node pos="r" depth="2" NCoef="0" IVar="-1" Cut="0.0000000000000000e+00" cType="1" res="5.7470344472676516e-05" rms="4.1091722249984741e-01" purity="6.9596302509307861e-01" nType="-99"/>
        </Node>
        <Node pos="r" depth="1" NCoef="0" IVar="10" Cut="1.7619047164916992e+01" cType="1" res="8.1831030547618866e-04" rms="4.3157464265823364e-01" purity="4.8105064034461975e-01" nType="0">
          <Node pos="l" depth="2" NCoef="0" IVar="-1" Cut="0.0000000000000000e+00" cType="1" res="1.0555409826338291e-03" rms="4.4395002722740173e-01" purity="4.8582637310028076e-01" nType="-99"/>
          <Node pos="r" depth="2" NCoef="0" IVar="-1" Cut="0.0000000000000000e+00" cType="1" res="-8.4622896974906325e-04" rms="4.1725778579711914e-01" purity="4.7570621967315674e-01" nType="-99"/>
        </Node>
      </Node>
    </BinaryTree>
    <BinaryTree type="DecisionTree" boostWeight="1.0000000000000000e+00" itree="984">
      <Node pos="s" depth="0" NCoef="0" IVar="8" Cut="1.3708847761154175e+00" cType="1" res="6.8767828634008765e-04" rms="4.3204957246780396e-01" purity="5.0139945745468140e-01" nType="0">
        <Node pos="l" depth="1" NCoef="0" IVar="2" Cut="-6.0533761978149414e-01" cType="1" res="1.2646054383367300e-03" rms="4.3355864286422729e-01" purity="4.8556387424468994e-01" nType="0">
          <Node pos="l" depth="2" NCoef="0" IVar="-1" Cut="0.0000000000000000e+00" cType="1" res="1.2806148733943701e-03" rms="4.2785370349884033e-01" purity="4.9098435044288635e-01" nType="-99"/>
          <Node pos="r" depth="2" NCoef="0" IVar="-1" Cut="0.0000000000000000e+00" cType="1" res="4.8075820814119652e-05" rms="4.3531551957130432e-01" purity="4.8387473821640015e-01" nType="-99"/>
        </Node>
        <Node pos="r" depth="1" NCoef="0" IVar="4" Cut="8.6024433374404907e-01" cType="1" res="-5.2252835594117641e-03" rms="4.1622173786163330e-01" purity="6.6369909048080444e-01" nType="0">
          <Node pos="l" depth="2" NCoef="0" IVar="-1" Cut="0.0000000000000000e+00" cType="1" res="-5.8736896608024836e-04" rms="4.2841520905494690e-01" purity="5.3194469213485718e-01" nType="-99"/>
          <Node pos="r" depth="2" NCoef="0" IVar="-1" Cut="0.0000000000000000e+00" cType="1" res="-2.2465668153017759e-03" rms="4.0762728452682495e-01" purity="7.5414562225341797e-01" nType="-99"/>
        </Node>
      </Node>
    </BinaryTree>
    <BinaryTree type="DecisionTree" boostWeight="1.0000000000000000e+00" itree="985">
      <Node pos="s" depth="0" NCoef="0" IVar="1" Cut="4.3589663505554199e+00" cType="1" res="-8.5183576447889209e-04" rms="4.3071135878562927e-01" purity="4.9850100278854370e-01" nType="0">
        <Node pos="l" depth="1" NCoef="0" IVar="10" Cut="3.7142856597900391e+01" cType="1" res="-3.0434853397309780e-03" rms="4.3647864460945129e-01" purity="4.9957805871963501e-01" nType="0">
          <Node pos="l" depth="2" NCoef="0" IVar="-1" Cut="0.0000000000000000e+00" cType="1" res="-5.3873169235885143e-04" rms="4.3733438849449158e-01" purity="5.0350087881088257e-01" nType="-99"/>
          <Node pos="r" depth="2" NCoef="0" IVar="-1" Cut="0.0000000000000000e+00" cType="1" res="-5.1733586005866528e-03" rms="4.2181193828582764e-01" purity="4.3492928147315979e-01" nType="-99"/>
        </Node>
        <Node pos="r" depth="1" NCoef="0" IVar="8" Cut="-8.0986732244491577e-01" cType="1" res="3.8759149610996246e-03" rms="4.1796031594276428e-01" purity="4.9617776274681091e-01" nType="0">
          <Node pos="l" depth="2" NCoef="0" IVar="-1" Cut="0.0000000000000000e+00" cType="1" res="-1.6605161363258958e-03" rms="4.1338205337524414e-01" purity="5.7246261835098267e-01" nType="-99"/>
          <Node pos="r" depth="2" NCoef="0" IVar="-1" Cut="0.0000000000000000e+00" cType="1" res="1.9381229067221284e-03" rms="4.1931182146072388e-01" purity="4.7273674607276917e-01" nType="-99"/>
        </Node>
      </Node>
    </BinaryTree>
    <BinaryTree type="DecisionTree" boostWeight="1.0000000000000000e+00" itree="986">
      <Node pos="s" depth="0" NCoef="0" IVar="10" Cut="2.5714284896850586e+01" cType="1" res="1.0703330626711249e-03" rms="4.3124687671661377e-01" purity="5.0099474191665649e-01" nType="0">
        <Node pos="l" depth="1" NCoef="0" IVar="4" Cut="6.4719790220260620e-01" cType="1" res="2.4344509001821280e-03" rms="4.3671903014183044e-01" purity="5.0738954544067383e-01" nType="0">
          <Node pos="l" depth="2" NCoef="0" IVar="-1" Cut="0.0000000000000000e+00" cType="1" res="-1.6660651890560985e-03" rms="4.1164526343345642e-01" purity="2.5478604435920715e-01" nType="-99"/>
          <Node pos="r" depth="2" NCoef="0" IVar="-1" Cut="0.0000000000000000e+00" cType="1" res="1.5689776046201587e-03" rms="4.4832292199134827e-01" purity="6.2990951538085938e-01" nType="-99"/>
        </Node>
        <Node pos="r" depth="1" NCoef="0" IVar="4" Cut="7.4580061435699463e-01" cType="1" res="-2.2869925014674664e-03" rms="4.1745454072952271e-01" purity="4.8525577783584595e-01" nType="0">
          <Node pos="l" depth="2" NCoef="0" IVar="-1" Cut="0.0000000000000000e+00" cType="1" res="3.1140353530645370e-03" rms="4.0318468213081360e-01" purity="3.2539314031600952e-01" nType="-99"/>
          <Node pos="r" depth="2" NCoef="0" IVar="-1" Cut="0.0000000000000000e+00" cType="1" res="-3.2957911025732756e-03" rms="4.2837351560592651e-01" purity="6.1440831422805786e-01" nType="-99"/>
        </Node>
      </Node>
    </BinaryTree>
    <BinaryTree type="DecisionTree" boostWeight="1.0000000000000000e+00" itree="987">
      <Node pos="s" depth="0" NCoef="0" IVar="8" Cut="-9.4027388095855713e-01" cType="1" res="1.1464498238638043e-03" rms="4.3166762590408325e-01" purity="5.0172650814056396e-01" nType="0">
        <Node pos="l" depth="1" NCoef="0" IVar="8" Cut="-1.3703441619873047e+00" cType="1" res="-8.0336676910519600e-03" rms="4.2255547642707825e-01" purity="6.0477828979492188e-01" nType="0">
          <Node pos="l" depth="2" NCoef="0" IVar="-1" Cut="0.0000000000000000e+00" cType="1" res="-6.3150061760097742e-04" rms="4.1440695524215698e-01" purity="6.6238886117935181e-01" nType="-99"/>
          <Node pos="r" depth="2" NCoef="0" IVar="-1" Cut="0.0000000000000000e+00" cType="1" res="-4.0634567849338055e-03" rms="4.3210965394973755e-01" purity="5.3503268957138062e-01" nType="-99"/>
        </Node>
        <Node pos="r" depth="1" NCoef="0" IVar="3" Cut="6.1904764175415039e-01" cType="1" res="2.9078691732138395e-03" rms="4.3337187170982361e-01" purity="4.8195359110832214e-01" nType="0">
          <Node pos="l" depth="2" NCoef="0" IVar="-1" Cut="0.0000000000000000e+00" cType="1" res="4.6954839490354061e-04" rms="4.3129664659500122e-01" purity="4.7967615723609924e-01" nType="-99"/>
          <Node pos="r" depth="2" NCoef="0" IVar="-1" Cut="0.0000000000000000e+00" cType="1" res="3.5558633971959352e-03" rms="4.5401397347450256e-01" purity="5.0539624691009521e-01" nType="-99"/>
        </Node>
      </Node>
    </BinaryTree>
    <BinaryTree type="DecisionTree" boostWeight="1.0000000000000000e+00" itree="988">
      <Node pos="s" depth="0" NCoef="0" IVar="7" Cut="5.0380940437316895e+00" cType="1" res="-1.0768306674435735e-03" rms="4.3027970194816589e-01" purity="4.9877628684043884e-01" nType="0">
        <Node pos="l" depth="1" NCoef="0" IVar="8" Cut="-8.5180664062500000e-01" cType="1" res="-2.6212646625936031e-03" rms="4.3534743785858154e-01" purity="4.6174556016921997e-01" nType="0">
          <Node pos="l" depth="2" NCoef="0" IVar="-1" Cut="0.0000000000000000e+00" cType="1" res="2.0646464545279741e-03" rms="4.3432545661926270e-01" purity="5.7477557659149170e-01" nType="-99"/>
          <Node pos="r" depth="2" NCoef="0" IVar="-1" Cut="0.0000000000000000e+00" cType="1" res="-1.0598371736705303e-03" rms="4.3546932935714722e-01" purity="4.4609692692756653e-01" nType="-99"/>
        </Node>
        <Node pos="r" depth="1" NCoef="0" IVar="4" Cut="7.0417207479476929e-01" cType="1" res="3.9808624424040318e-03" rms="4.1320881247520447e-01" purity="6.2004399299621582e-01" nType="0">
          <Node pos="l" depth="2" NCoef="0" IVar="-1" Cut="0.0000000000000000e+00" cType="1" res="-4.1728378273546696e-03" rms="3.8885468244552612e-01" purity="2.8139874339103699e-01" nType="-99"/>
          <Node pos="r" depth="2" NCoef="0" IVar="-1" Cut="0.0000000000000000e+00" cType="1" res="1.9247372401878238e-03" rms="4.1729900240898132e-01" purity="6.7996215820312500e-01" nType="-99"/>
        </Node>
      </Node>
    </BinaryTree>
    <BinaryTree type="DecisionTree" boostWeight="1.0000000000000000e+00" itree="989">
      <Node pos="s" depth="0" NCoef="0" IVar="10" Cut="5.2285713195800781e+01" cType="1" res="-7.5918890070170164e-04" rms="4.3038108944892883e-01" purity="4.9912697076797485e-01" nType="0">
        <Node pos="l" depth="1" NCoef="0" IVar="4" Cut="8.1809222698211670e-01" cType="1" res="-1.5987354563549161e-03" rms="4.3059408664703369e-01" purity="5.0556695461273193e-01" nType="0">
          <Node pos="l" depth="2" NCoef="0" IVar="-1" Cut="0.0000000000000000e+00" cType="1" res="-9.5778878312557936e-04" rms="4.2803958058357239e-01" purity="3.5556450486183167e-01" nType="-99"/>
          <Node pos="r" depth="2" NCoef="0" IVar="-1" Cut="0.0000000000000000e+00" cType="1" res="1.6933819279074669e-04" rms="4.3350422382354736e-01" purity="6.7818182706832886e-01" nType="-99"/>
        </Node>
        <Node pos="r" depth="1" NCoef="0" IVar="-1" Cut="0.0000000000000000e+00" cType="1" res="3.3564942423254251e-03" rms="4.2682904005050659e-01" purity="3.9861655235290527e-01" nType="-99"/>
      </Node>
    </BinaryTree>
    <BinaryTree type="DecisionTree" boostWeight="1.0000000000000000e+00" itree="990">
      <Node pos="s" depth="0" NCoef="0" IVar="4" Cut="9.4627553224563599e-01" cType="1" res="5.8329591411165893e-05" rms="4.3145292997360229e-01" purity="5.0159043073654175e-01" nType="0">
        <Node pos="l" depth="1" NCoef="0" IVar="8" Cut="3.7697026133537292e-01" cType="1" res="2.1034104283899069e-03" rms="4.3382051587104797e-01" purity="4.5210188627243042e-01" nType="0">
          <Node pos="l" depth="2" NCoef="0" IVar="-1" Cut="0.0000000000000000e+00" cType="1" res="-9.8418968264013529e-05" rms="4.3369361758232117e-01" purity="4.2595472931861877e-01" nType="-99"/>
          <Node pos="r" depth="2" NCoef="0" IVar="-1" Cut="0.0000000000000000e+00" cType="1" res="1.8024333985522389e-03" rms="4.3402338027954102e-01" purity="5.0201886892318726e-01" nType="-99"/>
        </Node>
        <Node pos="r" depth="1" NCoef="0" IVar="4" Cut="9.6458727121353149e-01" cType="1" res="-9.2526050284504890e-03" rms="4.2037945985794067e-01" purity="7.2690433263778687e-01" nType="0">
          <Node pos="l" depth="2" NCoef="0" IVar="-1" Cut="0.0000000000000000e+00" cType="1" res="-8.0991312861442566e-03" rms="4.3141233921051025e-01" purity="7.0075029134750366e-01" nType="-99"/>
          <Node pos="r" depth="2" NCoef="0" IVar="-1" Cut="0.0000000000000000e+00" cType="1" res="2.1141025354154408e-04" rms="4.1435897350311279e-01" purity="7.4005949497222900e-01" nType="-99"/>
        </Node>
      </Node>
    </BinaryTree>
    <BinaryTree type="DecisionTree" boostWeight="1.0000000000000000e+00" itree="991">
      <Node pos="s" depth="0" NCoef="0" IVar="3" Cut="3.3333334326744080e-01" cType="1" res="-1.5476010739803314e-03" rms="4.3069788813591003e-01" purity="4.9882817268371582e-01" nType="0">
        <Node pos="l" depth="1" NCoef="0" IVar="9" Cut="-6.1904764175415039e-01" cType="1" res="2.1007153554819524e-04" rms="4.2873191833496094e-01" purity="4.9873286485671997e-01" nType="0">
          <Node pos="l" depth="2" NCoef="0" IVar="-1" Cut="0.0000000000000000e+00" cType="1" res="3.5989684984087944e-03" rms="4.3375834822654724e-01" purity="4.1832244396209717e-01" nType="-99"/>
          <Node pos="r" depth="2" NCoef="0" IVar="-1" Cut="0.0000000000000000e+00" cType="1" res="-1.8659104534890503e-04" rms="4.2837455868721008e-01" purity="5.0417596101760864e-01" nType="-99"/>
        </Node>
        <Node pos="r" depth="1" NCoef="0" IVar="4" Cut="7.4594748020172119e-01" cType="1" res="-8.4361955523490906e-03" rms="4.3824976682662964e-01" purity="4.9920156598091125e-01" nType="0">
          <Node pos="l" depth="2" NCoef="0" IVar="-1" Cut="0.0000000000000000e+00" cType="1" res="-5.1239728927612305e-03" rms="4.2864540219306946e-01" purity="3.0958849191665649e-01" nType="-99"/>
          <Node pos="r" depth="2" NCoef="0" IVar="-1" Cut="0.0000000000000000e+00" cType="1" res="-1.8504352192394435e-04" rms="4.4483971595764160e-01" purity="6.3496196269989014e-01" nType="-99"/>
        </Node>
      </Node>
    </BinaryTree>
    <BinaryTree type="DecisionTree" boostWeight="1.0000000000000000e+00" itree="992">
      <Node pos="s" depth="0" NCoef="0" IVar="10" Cut="1.0380952835083008e+01" cType="1" res="-1.0208779713138938e-03" rms="4.3154668807983398e-01" purity="4.9797013401985168e-01" nType="0">
        <Node pos="l" depth="1" NCoef="0" IVar="8" Cut="3.2149288058280945e-01" cType="1" res="1.8355455249547958e-03" rms="4.5294025540351868e-01" purity="5.2295881509780884e-01" nType="0">
          <Node pos="l" depth="2" NCoef="0" IVar="-1" Cut="0.0000000000000000e+00" cType="1" res="-5.1685987273231149e-04" rms="4.5328602194786072e-01" purity="4.9847277998924255e-01" nType="-99"/>
          <Node pos="r" depth="2" NCoef="0" IVar="-1" Cut="0.0000000000000000e+00" cType="1" res="2.7372592594474554e-03" rms="4.5199981331825256e-01" purity="5.7992225885391235e-01" nType="-99"/>
        </Node>
        <Node pos="r" depth="1" NCoef="0" IVar="4" Cut="4.4169020652770996e-01" cType="1" res="-2.6221042498946190e-03" rms="4.1906812787055969e-01" purity="4.8396223783493042e-01" nType="0">
          <Node pos="l" depth="2" NCoef="0" IVar="-1" Cut="0.0000000000000000e+00" cType="1" res="-5.1239123567938805e-03" rms="2.9801091551780701e-01" purity="1.0217865556478500e-01" nType="-99"/>
          <Node pos="r" depth="2" NCoef="0" IVar="-1" Cut="0.0000000000000000e+00" cType="1" res="-3.0658190371468663e-04" rms="4.3944570422172546e-01" purity="5.6095713376998901e-01" nType="-99"/>
        </Node>
      </Node>
    </BinaryTree>
    <BinaryTree type="DecisionTree" boostWeight="1.0000000000000000e+00" itree="993">
      <Node pos="s" depth="0" NCoef="0" IVar="0" Cut="1.9041986465454102e+00" cType="1" res="-1.8342552939429879e-03" rms="4.3131741881370544e-01" purity="4.9718901515007019e-01" nType="0">
        <Node pos="l" depth="1" NCoef="0" IVar="4" Cut="7.3265445232391357e-01" cType="1" res="-1.1133464286103845e-03" rms="4.3304848670959473e-01" purity="5.0748997926712036e-01" nType="0">
          <Node pos="l" depth="2" NCoef="0" IVar="-1" Cut="0.0000000000000000e+00" cType="1" res="1.0853857966139913e-03" rms="4.2270174622535706e-01" purity="3.1865257024765015e-01" nType="-99"/>
          <Node pos="r" depth="2" NCoef="0" IVar="-1" Cut="0.0000000000000000e+00" cType="1" res="-1.1998097179457545e-03" rms="4.4033506512641907e-01" purity="6.4387518167495728e-01" nType="-99"/>
        </Node>
        <Node pos="r" depth="1" NCoef="0" IVar="-1" Cut="0.0000000000000000e+00" cType="1" res="-6.5065971575677395e-03" rms="3.8062715530395508e-01" purity="2.1659401059150696e-01" nType="-99"/>
      </Node>
    </BinaryTree>
    <BinaryTree type="DecisionTree" boostWeight="1.0000000000000000e+00" itree="994">
      <Node pos="s" depth="0" NCoef="0" IVar="5" Cut="1.1033926904201508e-01" cType="1" res="8.4569980390369892e-04" rms="4.3043470382690430e-01" purity="5.0116509199142456e-01" nType="0">
        <Node pos="l" depth="1" NCoef="0" IVar="10" Cut="3.2857143878936768e+00" cType="1" res="-6.7255534231662750e-03" rms="4.5378512144088745e-01" purity="4.8335283994674683e-01" nType="0">
          <Node pos="l" depth="2" NCoef="0" IVar="-1" Cut="0.0000000000000000e+00" cType="1" res="-3.3583203330636024e-03" rms="4.6058085560798645e-01" purity="4.3173503875732422e-01" nType="-99"/>
          <Node pos="r" depth="2" NCoef="0" IVar="-1" Cut="0.0000000000000000e+00" cType="1" res="8.5012451745569706e-04" rms="4.4442969560623169e-01" purity="5.5164140462875366e-01" nType="-99"/>
        </Node>
        <Node pos="r" depth="1" NCoef="0" IVar="9" Cut="-6.1904764175415039e-01" cType="1" res="1.7508716555312276e-03" rms="4.2754879593849182e-01" purity="5.0329458713531494e-01" nType="0">
          <Node pos="l" depth="2" NCoef="0" IVar="-1" Cut="0.0000000000000000e+00" cType="1" res="4.3056537397205830e-03" rms="4.3194973468780518e-01" purity="4.3268823623657227e-01" nType="-99"/>
          <Node pos="r" depth="2" NCoef="0" IVar="-1" Cut="0.0000000000000000e+00" cType="1" res="2.3506017168983817e-04" rms="4.2725798487663269e-01" purity="5.0768703222274780e-01" nType="-99"/>
        </Node>
      </Node>
    </BinaryTree>
    <BinaryTree type="DecisionTree" boostWeight="1.0000000000000000e+00" itree="995">
      <Node pos="s" depth="0" NCoef="0" IVar="9" Cut="-7.1428573131561279e-01" cType="1" res="1.7271477263420820e-03" rms="4.3131893873214722e-01" purity="5.0265723466873169e-01" nType="0">
        <Node pos="l" depth="1" NCoef="0" IVar="-1" Cut="0.0000000000000000e+00" cType="1" res="4.2825774289667606e-03" rms="4.4318491220474243e-01" purity="4.0483433008193970e-01" nType="-99"/>
        <Node pos="r" depth="1" NCoef="0" IVar="5" Cut="1.8906113505363464e-01" cType="1" res="9.7286200616508722e-04" rms="4.3069726228713989e-01" purity="5.0759756565093994e-01" nType="0">
          <Node pos="l" depth="2" NCoef="0" IVar="-1" Cut="0.0000000000000000e+00" cType="1" res="1.7601588042452931e-03" rms="4.5379543304443359e-01" purity="5.1750481128692627e-01" nType="-99"/>
          <Node pos="r" depth="2" NCoef="0" IVar="-1" Cut="0.0000000000000000e+00" cType="1" res="5.0598879170138389e-05" rms="4.2776310443878174e-01" purity="5.0637876987457275e-01" nType="-99"/>
        </Node>
      </Node>
    </BinaryTree>
    <BinaryTree type="DecisionTree" boostWeight="1.0000000000000000e+00" itree="996">
      <Node pos="s" depth="0" NCoef="0" IVar="4" Cut="9.4692367315292358e-01" cType="1" res="9.7923399880528450e-04" rms="4.3107658624649048e-01" purity="5.0120908021926880e-01" nType="0">
        <Node pos="l" depth="1" NCoef="0" IVar="4" Cut="5.0652664899826050e-01" cType="1" res="2.4409554898738861e-03" rms="4.3372374773025513e-01" purity="4.5215189456939697e-01" nType="0">
          <Node pos="l" depth="2" NCoef="0" IVar="-1" Cut="0.0000000000000000e+00" cType="1" res="-8.4369495743885636e-04" rms="3.5577777028083801e-01" purity="1.6199007630348206e-01" nType="-99"/>
          <Node pos="r" depth="2" NCoef="0" IVar="-1" Cut="0.0000000000000000e+00" cType="1" res="9.2212122399359941e-04" rms="4.5512500405311584e-01" purity="5.4188537597656250e-01" nType="-99"/>
        </Node>
        <Node pos="r" depth="1" NCoef="0" IVar="4" Cut="9.7895306348800659e-01" cType="1" res="-5.8343294076621532e-03" rms="4.1844913363456726e-01" purity="7.2988080978393555e-01" nType="0">
          <Node pos="l" depth="2" NCoef="0" IVar="-1" Cut="0.0000000000000000e+00" cType="1" res="-3.7177240010350943e-03" rms="4.1722360253334045e-01" purity="7.2918981313705444e-01" nType="-99"/>
          <Node pos="r" depth="2" NCoef="0" IVar="-1" Cut="0.0000000000000000e+00" cType="1" res="3.3779647201299667e-03" rms="4.2106056213378906e-01" purity="7.3167657852172852e-01" nType="-99"/>
        </Node>
      </Node>
    </BinaryTree>
    <BinaryTree type="DecisionTree" boostWeight="1.0000000000000000e+00" itree="997">
      <Node pos="s" depth="0" NCoef="0" IVar="5" Cut="1.4342039823532104e+00" cType="1" res="-2.9322546906769276e-03" rms="4.3107199668884277e-01" purity="4.9712190032005310e-01" nType="0">
        <Node pos="l" depth="1" NCoef="0" IVar="3" Cut="2.3809523880481720e-01" cType="1" res="-4.9549588002264500e-03" rms="4.3677797913551331e-01" purity="5.0275647640228271e-01" nType="0">
          <Node pos="l" depth="2" NCoef="0" IVar="-1" Cut="0.0000000000000000e+00" cType="1" res="-1.9661174155771732e-03" rms="4.3478974699974060e-01" purity="4.9989593029022217e-01" nType="-99"/>
          <Node pos="r" depth="2" NCoef="0" IVar="-1" Cut="0.0000000000000000e+00" cType="1" res="1.5320278180297464e-04" rms="4.4099888205528259e-01" purity="5.0894707441329956e-01" nType="-99"/>
        </Node>
        <Node pos="r" depth="1" NCoef="0" IVar="4" Cut="7.8063356876373291e-01" cType="1" res="-3.3969845389947295e-05" rms="4.2274492979049683e-01" purity="4.8904824256896973e-01" nType="0">
          <Node pos="l" depth="2" NCoef="0" IVar="-1" Cut="0.0000000000000000e+00" cType="1" res="1.4211286325007677e-03" rms="4.1502484679222107e-01" purity="3.3920782804489136e-01" nType="-99"/>
          <Node pos="r" depth="2" NCoef="0" IVar="-1" Cut="0.0000000000000000e+00" cType="1" res="-1.3948589330539107e-03" rms="4.3067485094070435e-01" purity="6.4706158638000488e-01" nType="-99"/>
        </Node>
      </Node>
    </BinaryTree>
    <BinaryTree type="DecisionTree" boostWeight="1.0000000000000000e+00" itree="998">
      <Node pos="s" depth="0" NCoef="0" IVar="4" Cut="4.0171030163764954e-01" cType="1" res="-2.0070641767233610e-03" rms="4.3149265646934509e-01" purity="4.9811315536499023e-01" nType="0">
        <Node pos="l" depth="1" NCoef="0" IVar="10" Cut="2.1428571701049805e+01" cType="1" res="4.7885938547551632e-03" rms="3.0227562785148621e-01" purity="1.0696425288915634e-01" nType="0">
          <Node pos="l" depth="2" NCoef="0" IVar="-1" Cut="0.0000000000000000e+00" cType="1" res="6.0820938087999821e-03" rms="3.3223545551300049e-01" purity="1.3230687379837036e-01" nType="-99"/>
          <Node pos="r" depth="2" NCoef="0" IVar="-1" Cut="0.0000000000000000e+00" cType="1" res="-4.7233477234840393e-03" rms="2.5134047865867615e-01" purity="6.9653354585170746e-02" nType="-99"/>
        </Node>
        <Node pos="r" depth="1" NCoef="0" IVar="9" Cut="-7.1428573131561279e-01" cType="1" res="-2.7266440447419882e-03" rms="4.4296765327453613e-01" purity="5.3953117132186890e-01" nType="0">
          <Node pos="l" depth="2" NCoef="0" IVar="-1" Cut="0.0000000000000000e+00" cType="1" res="-4.5988475903868675e-03" rms="4.4978970289230347e-01" purity="4.1428628563880920e-01" nType="-99"/>
          <Node pos="r" depth="2" NCoef="0" IVar="-1" Cut="0.0000000000000000e+00" cType="1" res="-4.8578574205748737e-04" rms="4.4261974096298218e-01" purity="5.4557764530181885e-01" nType="-99"/>
        </Node>
      </Node>
    </BinaryTree>
    <BinaryTree type="DecisionTree" boostWeight="1.0000000000000000e+00" itree="999">
      <Node pos="s" depth="0" NCoef="0" IVar="6" Cut="-2.8571429252624512e+00" cType="1" res="-1.5362274134531617e-03" rms="4.3117672204971313e-01" purity="4.9709358811378479e-01" nType="0">
        <Node pos="l" depth="1" NCoef="0" IVar="10" Cut="1.1333333015441895e+01" cType="1" res="3.1271316111087799e-03" rms="4.2457205057144165e-01" purity="4.8243039846420288e-01" nType="0">
          <Node pos="l" depth="2" NCoef="0" IVar="-1" Cut="0.0000000000000000e+00" cType="1" res="-2.8682895936071873e-03" rms="4.4733455777168274e-01" purity="4.9804288148880005e-01" nType="-99"/>
          <Node pos="r" depth="2" NCoef="0" IVar="-1" Cut="0.0000000000000000e+00" cType="1" res="2.1317095961421728e-03" rms="4.1739308834075928e-01" purity="4.7774150967597961e-01" nType="-99"/>
        </Node>
        <Node pos="r" depth="1" NCoef="0" IVar="3" Cut="-3.3333334326744080e-01" cType="1" res="-2.7610885445028543e-03" rms="4.3288645148277283e-01" purity="5.0094497203826904e-01" nType="0">
          <Node pos="l" depth="2" NCoef="0" IVar="-1" Cut="0.0000000000000000e+00" cType="1" res="7.7862804755568504e-04" rms="4.4106319546699524e-01" purity="5.1542150974273682e-01" nType="-99"/>
          <Node pos="r" depth="2" NCoef="0" IVar="-1" Cut="0.0000000000000000e+00" cType="1" res="-1.1789700947701931e-03" rms="4.3050527572631836e-01" purity="4.9680528044700623e-01" nType="-99"/>
        </Node>
      </Node>
    </BinaryTree>
  </Weights>
</MethodSetup>
